の	-4.81706
、	-5.10027
▁	-5.15676
に	-5.22225
。	-5.3741
る	-5.43411
た	-5.45429
と	-5.48963
は	-5.59354
を	-5.67902
し	-5.68933
て	-5.73845
い	-5.77407
が	-5.8116
で	-5.91724
(	-5.93236
)	-5.93312
れ	-5.93664
な	-6.06005
1	-6.12897
年	-6.14769
っ	-6.37747
ら	-6.39178
あ	-6.40103
も	-6.45856
か	-6.48758
こ	-6.61477
り	-6.61917
さ	-6.67347
日	-6.78685
う	-6.79147
す	-6.80592
大	-6.84609
2	-6.8567
・	-6.97503
ま	-7.04578
0	-7.07382
よ	-7.08036
「	-7.09762
」	-7.09777
本	-7.12273
国	-7.17202
く	-7.1765
3	-7.2505
月	-7.25272
め	-7.25464
8	-7.26523
9	-7.27433
代	-7.28028
そ	-7.30214
家	-7.31726
5	-7.37152
一	-7.38592
時	-7.38927
後	-7.38997
き	-7.41361
4	-7.43403
6	-7.43579
天	-7.44437
7	-7.46523
中	-7.47543
人	-7.49231
ど	-7.49346
け	-7.51985
え	-7.54845
や	-7.55608
子	-7.55912
わ	-7.55981
お	-7.58857
山	-7.61519
行	-7.62155
皇	-7.63027
京	-7.66228
つ	-7.66754
上	-7.67353
名	-7.7382
地	-7.77065
ん	-7.78418
ー	-7.78748
長	-7.78988
神	-7.81557
寺	-7.83748
明	-7.88613
文	-7.90754
だ	-7.91641
出	-7.93034
氏	-7.93255
田	-7.94089
元	-7.95487
都	-7.96532
三	-7.97473
『	-7.9834
』	-7.98358
道	-7.99131
事	-7.99305
政	-7.99944
平	-8.00238
市	-8.01531
学	-8.01935
下	-8.02689
内	-8.03042
治	-8.04333
ン	-8.06382
-	-8.06569
方	-8.07063
生	-8.07326
じ	-8.07675
ち	-8.08627
正	-8.08948
み	-8.11326
立	-8.12508
的	-8.13485
和	-8.14716
東	-8.1495
川	-8.16383
者	-8.17768
位	-8.18946
原	-8.19274
部	-8.19719
せ	-8.21331
高	-8.21615
法	-8.21861
ば	-8.22004
用	-8.22056
前	-8.23571
主	-8.2374
同	-8.24069
物	-8.24908
定	-8.25359
通	-8.25768
軍	-8.26382
成	-8.27195
合	-8.27391
現	-8.2876
ス	-8.28857
記	-8.29239
義	-8.29711
間	-8.29803
府	-8.29814
所	-8.29875
多	-8.30112
戦	-8.30962
分	-8.31713
見	-8.3197
書	-8.32054
社	-8.32793
入	-8.34228
在	-8.34767
以	-8.35624
朝	-8.37616
院	-8.37761
町	-8.38291
宮	-8.38886
世	-8.39168
武	-8.39887
王	-8.40985
期	-8.41008
安	-8.42334
当	-8.42386
場	-8.42848
新	-8.43188
関	-8.43689
城	-8.43807
作	-8.44139
近	-8.44394
言	-8.44466
化	-8.45057
実	-8.46522
西	-8.47083
野	-8.47985
信	-8.48034
会	-8.49739
小	-8.50148
宗	-8.51078
戸	-8.52649
条	-8.52687
藤	-8.52843
へ	-8.53407
江	-8.53903
北	-8.54764
ル	-8.54797
御	-8.55565
門	-8.55585
教	-8.56106
対	-8.57425
発	-8.57975
流	-8.58105
自	-8.58989
官	-8.59264
経	-8.59271
ず	-8.59645
古	-8.59659
二	-8.62448
駅	-8.63206
公	-8.63307
重	-8.63443
来	-8.63818
源	-8.64689
ト	-8.65464
藩	-8.67033
任	-8.6728
目	-8.67287
臣	-8.67362
開	-8.67744
県	-8.68582
線	-8.68749
イ	-8.69725
伝	-8.69863
説	-8.69955
女	-8.70316
権	-8.70401
第	-8.71542
石	-8.71573
び	-8.71917
親	-8.73903
建	-8.74135
力	-8.75011
旧	-8.75766
使	-8.75945
制	-8.76632
将	-8.77044
暦	-8.77068
利	-8.78581
初	-8.78782
手	-8.79972
太	-8.80516
吉	-8.8236
徳	-8.82883
称	-8.83076
呼	-8.83673
リ	-8.84229
土	-8.84283
歌	-8.84567
良	-8.85846
業	-8.86433
木	-8.87005
幕	-8.87297
ろ	-8.8781
設	-8.87911
理	-8.8792
形	-8.87957
次	-8.88473
ア	-8.88584
ラ	-8.88973
保	-8.89057
外	-8.89113
島	-8.89607
五	-8.90245
持	-8.90405
南	-8.90528
要	-8.91019
村	-8.91133
不	-8.91437
式	-8.92452
屋	-8.92461
有	-8.9305
造	-8.9305
守	-8.9463
置	-8.94758
従	-8.94945
知	-8.95004
語	-8.95192
十	-8.95271
体	-8.95399
光	-8.95687
水	-8.96175
倉	-8.97866
死	-8.98294
海	-8.98621
動	-8.98836
ほ	-8.99216
頼	-8.99319
郎	-8.99659
げ	-8.9997
仏	-8.9997
度	-9.00406
永	-9.01538
車	-9.01717
男	-9.01917
受	-9.02532
意	-9.02596
四	-9.0297
最	-9.03002
金	-9.03398
区	-9.0343
集	-9.03677
士	-9.04228
全	-9.04835
:	-9.04857
師	-9.04933
室	-9.05097
紀	-9.05152
鉄	-9.0571
命	-9.06615
特	-9.06659
松	-9.06681
シ	-9.06759
族	-9.06837
領	-9.06848
号	-9.07103
津	-9.07785
兵	-9.07808
心	-9.0828
衛	-9.0828
表	-9.0828
加	-9.08449
父	-9.08539
清	-9.09196
相	-9.09824
能	-9.10065
身	-9.10191
.	-9.10329
画	-9.10628
取	-9.10732
性	-9.1079
伊	-9.10848
々	-9.10905
際	-9.10963
直	-9.11067
面	-9.11149
存	-9.11241
数	-9.11416
タ	-9.11474
派	-9.1187
秀	-9.12632
参	-9.12762
民	-9.12762
ク	-9.1295
別	-9.13116
河	-9.134
久	-9.13566
蔵	-9.13756
指	-9.15014
結	-9.15437
べ	-9.15861
勢	-9.16557
白	-9.16716
改	-9.17134
付	-9.17146
カ	-9.17281
等	-9.17689
史	-9.17924
八	-9.18273
む	-9.20336
進	-9.20565
統	-9.20731
職	-9.21345
井	-9.21654
系	-9.22326
料	-9.23224
品	-9.23973
継	-9.24052
観	-9.2478
ッ	-9.2538
楽	-9.25728
務	-9.25809
母	-9.25916
忠	-9.26011
様	-9.27624
無	-9.27652
園	-9.27885
足	-9.28352
広	-9.28366
阪	-9.28531
役	-9.28807
宝	-9.28932
盛	-9.29669
考	-9.29739
昭	-9.29836
味	-9.30397
左	-9.3058
館	-9.31386
ょ	-9.31827
ぶ	-9.32198
向	-9.32657
応	-9.32989
続	-9.32989
慶	-9.33278
福	-9.34076
真	-9.34252
令	-9.34295
路	-9.34295
台	-9.34574
基	-9.35501
堂	-9.36259
頭	-9.37217
風	-9.37488
右	-9.37897
仁	-9.37942
交	-9.38109
口	-9.38109
舞	-9.38109
承	-9.38291
側	-9.38337
像	-9.39223
馬	-9.39392
マ	-9.39469
変	-9.39546
少	-9.39562
始	-9.40724
議	-9.40786
他	-9.40927
弟	-9.40989
万	-9.43122
連	-9.43122
術	-9.43217
郡	-9.43345
護	-9.43489
運	-9.43939
常	-9.43987
由	-9.44472
六	-9.44601
活	-9.44715
ド	-9.45235
メ	-9.45251
気	-9.45464
支	-9.45709
歳	-9.45824
美	-9.46334
ひ	-9.46581
岡	-9.46879
ロ	-9.47161
校	-9.47411
鎌	-9.47428
養	-9.48298
勝	-9.48551
食	-9.48837
末	-9.49142
奈	-9.49278
乱	-9.49686
今	-9.50302
興	-9.50405
酒	-9.50766
バ	-9.50818
与	-9.50835
コ	-9.50921
解	-9.50938
司	-9.51198
乗	-9.51215
豊	-9.5125
賀	-9.51631
降	-9.51649
納	-9.52364
州	-9.52979
起	-9.53173
延	-9.53793
殿	-9.53828
尊	-9.54006
巻	-9.54059
例	-9.54345
住	-9.54434
佐	-9.54452
図	-9.54972
総	-9.55693
祭	-9.55766
両	-9.55874
葉	-9.56165
茶	-9.56183
組	-9.57079
配	-9.57391
ぎ	-9.57594
千	-9.5789
着	-9.58297
各	-9.58502
字	-9.58632
諸	-9.58726
残	-9.58931
キ	-9.59663
強	-9.59852
歴	-9.60097
ジ	-9.60723
約	-9.60723
種	-9.61048
引	-9.61373
状	-9.61392
レ	-9.61526
切	-9.61911
音	-9.61911
反	-9.62316
得	-9.62549
再	-9.62568
論	-9.62743
康	-9.62898
格	-9.63327
産	-9.63405
居	-9.63503
備	-9.63542
機	-9.63621
ね	-9.64329
先	-9.64585
転	-9.64665
色	-9.64744
ご	-9.64942
～	-9.64962
ム	-9.65121
工	-9.6576
止	-9.6578
ノ	-9.66121
兼	-9.66867
点	-9.66968
祖	-9.67171
去	-9.67395
花	-9.67395
営	-9.67762
思	-9.68027
落	-9.68069
フ	-9.68089
僧	-9.68294
テ	-9.68335
九	-9.68603
織	-9.68623
財	-9.68809
仕	-9.69659
橋	-9.70222
異	-9.70348
鳥	-9.70348
問	-9.70432
之	-9.70579
半	-9.70663
回	-9.70684
座	-9.70684
移	-9.70894
調	-9.71741
ぐ	-9.71975
娘	-9.72167
寛	-9.72167
比	-9.73954
共	-9.74259
達	-9.7439
修	-9.74674
列	-9.74762
波	-9.74827
円	-9.75465
華	-9.75952
及	-9.76218
坂	-9.76285
番	-9.76351
助	-9.76374
頃	-9.7653
争	-9.76753
如	-9.76932
述	-9.77066
オ	-9.77133
録	-9.77448
般	-9.77583
団	-9.77696
兄	-9.77786
阿	-9.7808
員	-9.78284
界	-9.78398
演	-9.78443
m	-9.78534
夫	-9.78625
陸	-9.78944
細	-9.79104
件	-9.7954
芸	-9.80024
米	-9.80951
話	-9.80975
域	-9.80998
廃	-9.81325
製	-9.81747
プ	-9.81982
景	-9.82006
帰	-9.82076
跡	-9.82194
谷	-9.82242
急	-9.8236
編	-9.82738
類	-9.83047
認	-9.83095
貞	-9.83143
築	-9.83501
尾	-9.83572
係	-9.83812
判	-9.8386
根	-9.8422
収	-9.84244
願	-9.84679
電	-9.84873
サ	-9.85042
春	-9.85042
ふ	-9.86166
果	-9.86166
百	-9.86215
崎	-9.86979
追	-9.86979
ウ	-9.87227
決	-9.87625
若	-9.87675
確	-9.87899
チ	-9.87924
可	-9.87974
七	-9.88099
器	-9.88099
討	-9.88325
宇	-9.884
隊	-9.88802
奉	-9.88929
孫	-9.89181
登	-9.89232
越	-9.89359
ニ	-9.89409
科	-9.89714
絵	-9.8974
焼	-9.89765
構	-9.89867
為	-9.90199
没	-9.90455
ナ	-9.90531
退	-9.90583
念	-9.90788
火	-9.91304
復	-9.91796
影	-9.9216
研	-9.92213
満	-9.92421
攻	-9.92578
渡	-9.92709
a	-9.93077
衆	-9.93103
泉	-9.93261
辺	-9.93763
張	-9.93976
売	-9.94375
資	-9.94508
羽	-9.94748
翌	-9.95177
施	-9.95851
好	-9.95932
周	-9.96176
遺	-9.96176
ゆ	-9.96693
帝	-9.96748
極	-9.96803
督	-9.96803
題	-9.97049
丸	-9.97488
示	-9.97984
管	-9.98122
究	-9.9826
弥	-9.98983
創	-9.99263
具	-9.99291
律	-9.99487
独	-9.99796
隆	-9.99881
首	-9.99937
郷	-10.0019
選	-10.0062
ビ	-10.0064
禄	-10.0087
老	-10.0207
失	-10.0216
規	-10.0239
功	-10.0259
属	-10.0265
弘	-10.0282
ぼ	-10.0323
殺	-10.0323
/	-10.0338
済	-10.0352
唐	-10.0381
照	-10.0408
典	-10.0411
商	-10.0414
房	-10.0452
薩	-10.0452
廷	-10.0476
終	-10.0502
著	-10.0526
挙	-10.0535
紙	-10.0538
貴	-10.0571
伏	-10.0592
寄	-10.0601
愛	-10.0604
づ	-10.0619
計	-10.0625
然	-10.0631
込	-10.0637
銀	-10.064
丹	-10.0664
博	-10.0673
草	-10.0676
ミ	-10.0688
階	-10.0712
宣	-10.0773
店	-10.0831
享	-10.0871
パ	-10.088
霊	-10.0902
増	-10.0926
離	-10.0976
詳	-10.0979
妻	-10.0982
曲	-10.0988
量	-10.1029
荘	-10.1079
布	-10.1082
空	-10.1088
儀	-10.1095
奥	-10.1117
撃	-10.112
船	-10.1126
技	-10.1132
彼	-10.1145
省	-10.1167
供	-10.1186
必	-10.1193
姓	-10.1212
綱	-10.1212
陽	-10.1231
竹	-10.1237
ツ	-10.1272
態	-10.1276
ぞ	-10.1279
容	-10.1301
エ	-10.1398
喜	-10.1434
送	-10.1444
ざ	-10.1496
展	-10.1496
林	-10.1522
志	-10.1565
過	-10.1578
浄	-10.1604
ヶ	-10.1651
卿	-10.1694
育	-10.1812
羅	-10.1825
仲	-10.1829
グ	-10.1832
筆	-10.1836
深	-10.1852
香	-10.1852
デ	-10.1859
含	-10.1859
刀	-10.1863
伴	-10.1866
推	-10.1866
服	-10.188
ゅ	-10.1883
叙	-10.191
局	-10.1938
摂	-10.1962
富	-10.1965
鮮	-10.1969
玉	-10.1993
許	-10.1993
病	-10.1996
ダ	-10.2027
ャ	-10.2037
聞	-10.2037
介	-10.2086
印	-10.2103
断	-10.2107
亡	-10.2177
就	-10.2198
放	-10.2208
違	-10.2251
客	-10.2258
雲	-10.2265
敗	-10.2304
装	-10.2321
限	-10.2339
評	-10.2368
墳	-10.2375
岩	-10.2386
普	-10.2407
寿	-10.2414
模	-10.2429
提	-10.2439
昇	-10.2447
黒	-10.2447
密	-10.249
段	-10.2533
価	-10.2559
質	-10.2559
単	-10.2566
映	-10.2584
池	-10.2606
至	-10.2632
接	-10.2636
早	-10.2658
象	-10.2658
型	-10.268
赤	-10.268
智	-10.2683
難	-10.2698
響	-10.2698
略	-10.2713
麻	-10.272
友	-10.2732
農	-10.2746
想	-10.2772
聖	-10.2885
節	-10.2907
斎	-10.2922
非	-10.2926
割	-10.2941
后	-10.2956
鶴	-10.2964
打	-10.2968
礼	-10.2991
害	-10.3002
留	-10.3002
ハ	-10.3006
情	-10.3025
程	-10.3025
ィ	-10.309
遠	-10.3098
禅	-10.314
完	-10.3148
角	-10.3155
濃	-10.3225
遣	-10.3237
陣	-10.3241
習	-10.3292
更	-10.3295
材	-10.3315
敷	-10.3327
ブ	-10.3331
ネ	-10.3335
セ	-10.3339
亀	-10.3351
釈	-10.3362
洋	-10.337
,	-10.3378
専	-10.341
沢	-10.343
視	-10.345
即	-10.3462
求	-10.3465
策	-10.3469
導	-10.3485
除	-10.3485
ケ	-10.3505
君	-10.3505
ホ	-10.3534
縁	-10.3566
ュ	-10.3586
秋	-10.359
呂	-10.3594
範	-10.3626
覚	-10.3626
優	-10.3679
墓	-10.3679
描	-10.3687
写	-10.3732
姫	-10.3761
夜	-10.3769
拠	-10.379
授	-10.3794
庭	-10.3819
禁	-10.3835
e	-10.3839
漢	-10.3847
蓮	-10.3885
滅	-10.391
飛	-10.3939
モ	-10.3947
境	-10.396
速	-10.3964
報	-10.3968
処	-10.3973
徴	-10.3973
章	-10.3977
維	-10.3989
読	-10.4015
茂	-10.4019
返	-10.4023
弁	-10.4057
宿	-10.4065
甲	-10.4091
夷	-10.4099
塔	-10.412
征	-10.4125
我	-10.4142
ギ	-10.4193
幸	-10.4193
辞	-10.4193
隠	-10.4249
i	-10.4258
祀	-10.4292
党	-10.4301
青	-10.431
補	-10.434
帯	-10.4353
絶	-10.4362
玄	-10.4388
襲	-10.4388
衣	-10.441
歩	-10.4471
弓	-10.4489
侍	-10.4493
横	-10.4498
感	-10.4502
庫	-10.4507
梅	-10.4507
憲	-10.4511
裏	-10.4516
素	-10.4524
旅	-10.4533
差	-10.4547
奏	-10.4587
陰	-10.4587
防	-10.4613
因	-10.464
破	-10.4645
検	-10.4672
輪	-10.4681
ズ	-10.469
孝	-10.4721
悪	-10.4749
率	-10.4758
監	-10.4758
浜	-10.4812
杉	-10.4817
消	-10.4835
囲	-10.4853
予	-10.4863
勅	-10.4863
ガ	-10.4876
注	-10.4913
担	-10.4945
ョ	-10.4959
幡	-10.4959
協	-10.5015
ワ	-10.502
並	-10.5024
ぜ	-10.5034
善	-10.5034
級	-10.5038
鎮	-10.5048
雑	-10.5052
賞	-10.5085
薬	-10.5208
請	-10.5208
菩	-10.5212
執	-10.5227
易	-10.5255
講	-10.5274
整	-10.5298
閣	-10.5317
雄	-10.5351
熊	-10.5366
摩	-10.5375
私	-10.5385
岐	-10.5404
鹿	-10.5409
浦	-10.5438
載	-10.5531
宅	-10.557
R	-10.558
街	-10.5639
J	-10.5659
姿	-10.5694
積	-10.5699
息	-10.5724
毛	-10.5729
C	-10.5734
里	-10.5749
→	-10.5754
嘉	-10.5764
嫡	-10.5779
案	-10.5845
背	-10.5855
ヤ	-10.588
央	-10.589
庁	-10.5905
瀬	-10.5905
札	-10.5962
貨	-10.5962
鏡	-10.5962
顕	-10.5962
徒	-10.5967
厳	-10.5972
望	-10.6018
申	-10.6039
彦	-10.6044
醍	-10.6064
醐	-10.607
俗	-10.6075
遊	-10.608
迎	-10.609
何	-10.6111
児	-10.6174
譲	-10.6179
栄	-10.6184
英	-10.6184
版	-10.6195
龍	-10.6216
余	-10.6316
温	-10.6321
則	-10.6337
ヒ	-10.6369
板	-10.6369
陵	-10.6406
豆	-10.6412
ゃ	-10.6417
告	-10.6455
葬	-10.6482
仰	-10.6519
稲	-10.653
精	-10.6552
舎	-10.6568
堀	-10.6574
ベ	-10.659
停	-10.6623
季	-10.6628
端	-10.6656
ェ	-10.6666
順	-10.6672
n	-10.6705
負	-10.6711
医	-10.6777
逃	-10.6782
婚	-10.6788
ぬ	-10.6855
圧	-10.6866
準	-10.6911
証	-10.6945
掛	-10.6973
革	-10.6985
r	-10.7019
採	-10.7019
折	-10.703
識	-10.7036
献	-10.7087
矢	-10.7127
剣	-10.7133
幼	-10.7139
銭	-10.7139
臨	-10.7162
片	-10.7173
給	-10.7185
o	-10.7237
A	-10.726
浅	-10.7342
雅	-10.7348
層	-10.7354
洛	-10.7384
爵	-10.7389
税	-10.7395
ソ	-10.7401
査	-10.7466
鬼	-10.7466
邸	-10.749
拝	-10.7508
躍	-10.7508
裁	-10.7514
c	-10.752
罪	-10.752
黄	-10.7526
塩	-10.7586
未	-10.7592
群	-10.7592
倭	-10.7616
散	-10.7622
激	-10.7634
待	-10.7659
森	-10.7659
飯	-10.7689
途	-10.7695
勧	-10.7701
畿	-10.7775
抗	-10.7799
崩	-10.7805
占	-10.7811
坊	-10.7811
豪	-10.7811
晴	-10.7842
陀	-10.7867
混	-10.7873
伎	-10.7917
柳	-10.7935
捕	-10.7954
俊	-10.8004
休	-10.801
刻	-10.8029
故	-10.8042
席	-10.8061
湯	-10.8111
扱	-10.8131
句	-10.8143
尼	-10.8169
敵	-10.8175
訪	-10.8175
ポ	-10.8201
輔	-10.8201
訳	-10.8246
塚	-10.8265
ゴ	-10.8304
押	-10.831
複	-10.831
謀	-10.8317
倒	-10.833
概	-10.8336
個	-10.8343
仮	-10.8356
港	-10.8362
験	-10.8375
免	-10.8427
紋	-10.8427
併	-10.8434
妙	-10.844
走	-10.8447
冷	-10.8486
紫	-10.8493
警	-10.8519
固	-10.8539
封	-10.8539
察	-10.8566
籍	-10.8579
催	-10.8592
勤	-10.8606
仙	-10.8639
低	-10.8639
便	-10.8666
飾	-10.872
替	-10.8747
撰	-10.876
談	-10.8808
刑	-10.8855
戻	-10.8855
振	-10.8855
油	-10.8855
泰	-10.8855
脱	-10.8883
譜	-10.889
還	-10.8897
庵	-10.8903
磨	-10.8952
抜	-10.9
ピ	-10.9021
露	-10.9028
k	-10.9049
菊	-10.9049
笠	-10.9098
逆	-10.9098
賢	-10.9105
依	-10.9112
突	-10.9154
t	-10.9182
銅	-10.9182
壁	-10.9217
植	-10.9253
射	-10.9281
峨	-10.9281
毎	-10.9281
I	-10.9296
肉	-10.931
援	-10.9346
旨	-10.9346
桜	-10.9382
桃	-10.9396
貫	-10.9425
旗	-10.944
贈	-10.9447
短	-10.9476
庶	-10.952
幹	-10.9541
詞	-10.9541
試	-10.9571
嵯	-10.9578
丁	-10.9586
減	-10.9615
束	-10.9622
s	-10.9644
ザ	-10.9667
寮	-10.9667
狭	-10.9719
劇	-10.9726
尚	-10.9756
軽	-10.9756
恵	-10.9764
換	-10.9779
岸	-10.9794
妹	-10.9854
柄	-10.9869
幅	-10.9876
戒	-10.9876
賜	-10.9914
伯	-10.9945
伐	-10.9952
幣	-10.9952
叡	-10.996
朱	-10.9983
盟	-10.9998
遷	-11.0014
滋	-11.006
項	-11.0083
桂	-11.0091
算	-11.0114
訴	-11.0176
魚	-11.0176
ボ	-11.0192
崇	-11.0207
蘇	-11.0215
巡	-11.0231
静	-11.0262
詩	-11.0278
嗣	-11.0294
ヨ	-11.031
費	-11.0397
須	-11.0413
S	-11.0421
砂	-11.0421
荒	-11.0421
否	-11.0437
招	-11.0453
奪	-11.0477
湖	-11.0493
候	-11.0566
況	-11.0598
唱	-11.0606
牛	-11.0623
似	-11.0631
被	-11.0639
声	-11.0655
湾	-11.0664
威	-11.068
績	-11.068
勘	-11.0705
暗	-11.0721
益	-11.0738
韓	-11.0754
快	-11.0762
h	-11.0787
額	-11.0862
冠	-11.0879
効	-11.0938
誕	-11.0938
血	-11.0954
淀	-11.098
祇	-11.098
敬	-11.0988
腹	-11.0988
尺	-11.1014
縄	-11.1022
_	-11.1039
環	-11.1073
輸	-11.1073
干	-11.1107
弾	-11.1133
枚	-11.1133
夏	-11.115
浪	-11.1211
庄	-11.1219
刊	-11.1228
T	-11.1254
?	-11.128
疑	-11.128
頂	-11.128
厚	-11.1298
雨	-11.1315
那	-11.1324
冬	-11.1368
澄	-11.1376
穂	-11.1376
昌	-11.1385
課	-11.1412
脚	-11.142
販	-11.1447
投	-11.1456
熱	-11.1474
往	-11.15
雪	-11.1527
纂	-11.1545
沿	-11.1554
純	-11.1554
恩	-11.1563
衰	-11.1572
壇	-11.159
倍	-11.1644
ペ	-11.1671
壊	-11.168
逸	-11.1707
=	-11.1725
宰	-11.1725
l	-11.1744
覧	-11.1744
隣	-11.178
抄	-11.1799
祝	-11.1799
浮	-11.1826
烏	-11.1835
揚	-11.1845
包	-11.1854
姉	-11.1854
墨	-11.1863
粉	-11.1872
競	-11.1891
貢	-11.1919
働	-11.1928
測	-11.1937
柱	-11.1965
握	-11.2031
盤	-11.204
標	-11.2049
拡	-11.2059
慣	-11.2125
繁	-11.2153
苦	-11.2153
鼓	-11.2153
u	-11.2172
吹	-11.2172
髪	-11.2192
勲	-11.223
災	-11.2268
俳	-11.2278
飲	-11.2278
既	-11.2297
麦	-11.2307
企	-11.2316
買	-11.2316
練	-11.2336
揮	-11.2374
締	-11.2384
畠	-11.2404
壬	-11.2443
染	-11.2443
胤	-11.2551
輝	-11.2551
簡	-11.2601
帳	-11.262
怪	-11.263
適	-11.263
葛	-11.264
傾	-11.265
副	-11.265
秘	-11.268
祈	-11.269
剛	-11.27
垣	-11.27
傷	-11.271
障	-11.2721
了	-11.2731
坐	-11.2741
鑑	-11.2741
狩	-11.2751
値	-11.2781
吾	-11.2781
樹	-11.2791
荷	-11.2832
妃	-11.2873
批	-11.2883
棟	-11.2883
闘	-11.2903
避	-11.2914
侶	-11.2955
斉	-11.2955
卒	-11.2996
籠	-11.2996
尽	-11.3058
N	-11.3079
砲	-11.3121
閉	-11.3121
K	-11.3131
薄	-11.3142
掌	-11.3163
狂	-11.3163
序	-11.3215
童	-11.3215
皮	-11.3258
遇	-11.3311
危	-11.3354
迦	-11.3354
騎	-11.3354
麗	-11.3365
才	-11.3408
詠	-11.3408
委	-11.3429
P	-11.344
脇	-11.3483
邦	-11.3527
儒	-11.3549
致	-11.356
宋	-11.3592
摘	-11.3603
播	-11.3603
洞	-11.3648
晩	-11.3659
欠	-11.367
渉	-11.3736
骨	-11.377
鴨	-11.377
揆	-11.3814
探	-11.3826
衡	-11.3837
較	-11.3837
航	-11.3882
祥	-11.3916
融	-11.3927
携	-11.3939
随	-11.3939
O	-11.3961
寸	-11.3984
抱	-11.3996
袖	-11.4007
筋	-11.403
橘	-11.4064
牧	-11.4064
緒	-11.4064
撮	-11.4076
菅	-11.4088
掘	-11.4099
答	-11.4099
忍	-11.4111
峰	-11.4122
弱	-11.4122
蘭	-11.4122
箇	-11.4169
夕	-11.4192
扇	-11.4204
詰	-11.4215
桐	-11.4227
侵	-11.425
虎	-11.425
斐	-11.4262
欧	-11.4274
紹	-11.4286
肥	-11.4286
救	-11.4297
蒸	-11.4309
筑	-11.4321
互	-11.438
斬	-11.4416
沖	-11.4428
顔	-11.4428
丈	-11.444
銘	-11.444
訓	-11.4464
忌	-11.4476
鋳	-11.4524
舟	-11.4536
亭	-11.4548
嵐	-11.456
託	-11.4596
掲	-11.4608
帖	-11.462
騒	-11.4633
珍	-11.4657
穴	-11.4657
刺	-11.4669
払	-11.4682
沼	-11.4694
箱	-11.4718
又	-11.4731
辰	-11.4743
ァ	-11.478
犬	-11.478
但	-11.4842
誌	-11.4842
踏	-11.4842
珠	-11.4854
駿	-11.4867
巨	-11.4879
%	-11.4929
M	-11.4942
乾	-11.4942
勇	-11.4942
株	-11.4942
汁	-11.4942
双	-11.4967
餅	-11.498
星	-11.4992
煮	-11.4992
琵	-11.4992
労	-11.5005
琶	-11.5005
糸	-11.5005
針	-11.5005
幽	-11.503
酵	-11.503
寝	-11.5043
紅	-11.5056
床	-11.5081
球	-11.5081
貿	-11.5119
婦	-11.5145
擁	-11.5171
租	-11.5183
B	-11.5196
到	-11.5222
鈴	-11.5222
淡	-11.5235
讃	-11.5235
唯	-11.5274
伸	-11.5287
乳	-11.53
芝	-11.5313
絹	-11.5326
g	-11.5339
魂	-11.5378
恐	-11.5405
盆	-11.5405
丘	-11.5431
排	-11.5457
眼	-11.5457
鷹	-11.5484
迫	-11.5524
踊	-11.5537
錦	-11.5537
甘	-11.5551
d	-11.5591
殊	-11.5591
枝	-11.5617
懐	-11.5644
碑	-11.5644
柴	-11.5712
超	-11.5739
遂	-11.5753
糖	-11.578
澤	-11.5794
底	-11.5821
怒	-11.5862
附	-11.5876
ゲ	-11.5904
埋	-11.5904
謙	-11.5904
醤	-11.5918
誤	-11.5932
醸	-11.5932
健	-11.5945
困	-11.5945
雀	-11.5959
滝	-11.5973
ヲ	-11.5987
伽	-11.5987
漬	-11.5987
梁	-11.6057
沙	-11.6057
赴	-11.6057
軒	-11.6057
匠	-11.6071
菜	-11.6099
p	-11.6113
削	-11.6128
筒	-11.6142
夢	-11.6184
灯	-11.6227
齢	-11.6227
奇	-11.6284
是	-11.6299
敦	-11.6313
蝦	-11.6342
偽	-11.6356
誉	-11.6356
審	-11.6385
慈	-11.6385
H	-11.6415
斯	-11.6415
竜	-11.6415
嫁	-11.6429
岳	-11.6429
拒	-11.6444
添	-11.6458
預	-11.6458
※	-11.6488
恋	-11.6488
酸	-11.6488
僚	-11.6532
堺	-11.6546
蒲	-11.6561
艦	-11.6576
惟	-11.6591
却	-11.6606
恒	-11.6606
卵	-11.6635
垂	-11.6635
涯	-11.6635
辛	-11.6665
鳴	-11.668
芳	-11.6695
叔	-11.671
衙	-11.671
篠	-11.6725
昔	-11.674
曾	-11.6785
滞	-11.6785
猿	-11.6785
菓	-11.68
彫	-11.6831
罰	-11.6831
衝	-11.6831
陶	-11.6846
駒	-11.6846
鐘	-11.6861
刃	-11.6876
ヴ	-11.6907
笛	-11.6907
轄	-11.6907
駆	-11.6907
E	-11.6922
旬	-11.6922
賛	-11.6922
慮	-11.6984
薨	-11.6999
責	-11.6999
壺	-11.7014
礎	-11.7061
袋	-11.7061
ヘ	-11.7076
鞍	-11.7076
撤	-11.7092
冊	-11.7108
塗	-11.7123
祐	-11.7123
署	-11.7123
峠	-11.7139
辻	-11.7155
獄	-11.7186
詔	-11.7186
ユ	-11.7202
午	-11.7202
繰	-11.7217
惣	-11.7233
尉	-11.7265
○	-11.7312
詣	-11.7312
國	-11.7328
捨	-11.7344
曼	-11.7344
瓦	-11.7344
秦	-11.7344
郭	-11.7376
荼	-11.7392
遅	-11.7457
召	-11.7489
諱	-11.7489
彩	-11.7538
閑	-11.7587
圏	-11.762
旦	-11.762
符	-11.762
銃	-11.762
触	-11.7636
妖	-11.7653
契	-11.7686
淳	-11.7735
借	-11.7752
悲	-11.7769
拾	-11.7785
架	-11.7835
趣	-11.7835
雷	-11.7835
紛	-11.7852
塾	-11.7869
箏	-11.7869
暴	-11.7886
浴	-11.7937
峯	-11.7954
悟	-11.7954
攘	-11.7971
洗	-11.7988
腐	-11.7988
磐	-11.8005
敏	-11.8022
堅	-11.809
翻	-11.8125
隈	-11.8125
絡	-11.8142
洲	-11.8159
網	-11.8159
桓	-11.8229
胡	-11.8229
梨	-11.8247
琴	-11.8247
炊	-11.8264
蕎	-11.8299
券	-11.8317
廻	-11.8334
漁	-11.8334
拓	-11.8352
漆	-11.8405
犯	-11.8441
楼	-11.8459
獲	-11.8476
陥	-11.8476
曜	-11.8494
乙	-11.8512
麺	-11.8512
努	-11.853
柔	-11.8548
己	-11.8621
也	-11.8675
緯	-11.8693
藍	-11.8712
篤	-11.873
栗	-11.8804
桑	-11.8804
D	-11.8822
嫌	-11.8822
謡	-11.8878
翁	-11.8897
詮	-11.8915
誓	-11.8915
於	-11.8953
盗	-11.899
漫	-11.9009
膳	-11.9009
駐	-11.9047
綾	-11.9066
其	-11.9104
寒	-11.9142
緑	-11.9161
裔	-11.918
邪	-11.918
■	-11.92
禰	-11.9219
謝	-11.9219
婿	-11.9238
鉱	-11.9238
葺	-11.9277
充	-11.9296
槻	-11.9296
渋	-11.9316
李	-11.9374
昼	-11.9394
甥	-11.9413
輩	-11.9413
准	-11.9433
戚	-11.9433
氷	-11.9453
鸞	-11.9453
毒	-11.9492
腰	-11.9492
哲	-11.9532
曽	-11.9572
鎖	-11.9572
鵜	-11.9592
楠	-11.9612
縮	-11.9612
”	-11.9652
閏	-11.9652
嘆	-11.9672
宴	-11.9692
丞	-11.9713
奴	-11.9733
誠	-11.9733
鍋	-11.9733
稚	-11.9753
均	-11.9773
曹	-11.9773
秩	-11.9773
阜	-11.9773
括	-11.9794
裂	-11.9835
抵	-11.9855
炭	-11.9876
毘	-11.9896
傍	-11.9938
耕	-11.9958
脈	-11.9958
笑	-11.9979
妓	-12
撲	-12
泊	-12
耳	-12
ォ	-12.0021
宕	-12.0042
袴	-12.0042
吸	-12.0105
媛	-12.0105
彰	-12.0126
軌	-12.0126
柏	-12.0147
窓	-12.0168
緩	-12.0168
瑞	-12.0189
損	-12.0211
賊	-12.0232
釜	-12.0253
飼	-12.0253
嶋	-12.0275
弦	-12.0275
畑	-12.0275
索	-12.0275
虫	-12.0275
y	-12.0296
鯨	-12.0318
抑	-12.0339
郵	-12.0361
微	-12.0382
帥	-12.0404
欲	-12.0404
―	-12.0426
熟	-12.0447
潮	-12.0469
硬	-12.0469
屏	-12.0491
険	-12.0491
棄	-12.0513
震	-12.0513
希	-12.0535
棒	-12.0557
卑	-12.0579
寧	-12.0623
畳	-12.0623
丼	-12.0645
扶	-12.0645
堵	-12.0668
暮	-12.0712
璃	-12.0712
云	-12.0757
灌	-12.078
顧	-12.078
魔	-12.0802
穀	-12.0825
尋	-12.0847
腕	-12.0847
届	-12.0893
槍	-12.0893
苑	-12.0893
噌	-12.0916
潟	-12.0939
鉢	-12.0939
狗	-12.0961
瑠	-12.0961
隅	-12.0961
麹	-12.0961
磯	-12.0984
距	-12.0984
劣	-12.1007
舗	-12.1007
徹	-12.1031
励	-12.1077
侯	-12.11
療	-12.11
縦	-12.11
ぱ	-12.1123
戊	-12.1123
ヌ	-12.1147
恭	-12.1147
閥	-12.1147
懸	-12.1264
縫	-12.1264
覆	-12.1264
吟	-12.1288
赦	-12.1288
茨	-12.1312
煎	-12.1335
寵	-12.1359
慎	-12.1359
鳳	-12.1359
L	-12.1383
呪	-12.1407
綿	-12.1407
團	-12.1455
幾	-12.1455
燈	-12.1455
隔	-12.1455
虚	-12.1479
貝	-12.1479
誇	-12.1503
屯	-12.1552
賃	-12.1601
〔	-12.1625
〕	-12.1625
吏	-12.1674
紐	-12.1674
軸	-12.1674
薫	-12.1724
"	-12.1773
睦	-12.1773
亮	-12.1798
培	-12.1798
栖	-12.1798
駄	-12.1798
徐	-12.1823
窮	-12.1848
透	-12.1873
栽	-12.1899
歯	-12.1924
遭	-12.1974
“	-12.2
萬	-12.2
俵	-12.2025
奨	-12.2051
履	-12.2076
募	-12.2154
枕	-12.218
乃	-12.2231
寂	-12.2231
棚	-12.2231
猶	-12.2231
汲	-12.2258
F	-12.2284
促	-12.2284
輿	-12.231
此	-12.2363
遍	-12.2363
勃	-12.2389
皆	-12.2415
酢	-12.2415
昧	-12.2442
繋	-12.2469
亜	-12.2495
愚	-12.2495
盾	-12.2495
訟	-12.2495
ぽ	-12.2549
宜	-12.2549
灰	-12.2549
稿	-12.2549
貸	-12.2549
刷	-12.2603
誰	-12.263
沈	-12.2657
浸	-12.2657
ゼ	-12.2712
喪	-12.2766
廟	-12.2766
條	-12.2766
煙	-12.2794
稽	-12.2794
允	-12.2821
霧	-12.2849
挟	-12.2877
囃	-12.2905
蓋	-12.2905
尹	-12.2933
蹴	-12.2961
呉	-12.2989
碗	-12.2989
b	-12.3017
庇	-12.3017
枢	-12.3102
頻	-12.3102
肩	-12.313
巫	-12.3159
炉	-12.3159
貧	-12.3187
婆	-12.3245
淵	-12.3245
G	-12.3274
獅	-12.3274
菱	-12.3274
鶏	-12.3274
麓	-12.3274
殖	-12.3302
溝	-12.3302
践	-12.3302
杜	-12.3361
潜	-12.3361
庸	-12.3419
猪	-12.3448
朽	-12.3478
匁	-12.3507
猛	-12.3507
縛	-12.3507
琉	-12.3537
埼	-12.3567
傘	-12.3626
櫓	-12.3626
該	-12.3626
乏	-12.3656
驚	-12.3656
廊	-12.3687
疎	-12.3687
燥	-12.3717
班	-12.3717
択	-12.3747
>	-12.3777
燃	-12.3777
碁	-12.3777
唄	-12.3808
径	-12.3808
倫	-12.3838
宸	-12.3869
戯	-12.39
蜂	-12.39
裕	-12.39
麿	-12.39
厨	-12.393
粋	-12.393
購	-12.393
披	-12.3961
拍	-12.3961
ぷ	-12.3992
誘	-12.3992
堤	-12.4023
弐	-12.4023
魏	-12.4023
梵	-12.4055
尻	-12.4086
箸	-12.4086
孔	-12.4149
伺	-12.4212
蒙	-12.4244
訂	-12.4276
嘗	-12.4308
悦	-12.434
泥	-12.434
看	-12.434
聚	-12.434
寇	-12.4372
慧	-12.4372
稙	-12.4372
壮	-12.4404
矩	-12.4437
隋	-12.4437
佛	-12.4469
恨	-12.4469
昆	-12.4469
烈	-12.4469
巧	-12.4502
忘	-12.4502
旋	-12.4502
矛	-12.4502
粧	-12.4502
剥	-12.4535
奔	-12.4535
屈	-12.4535
操	-12.4568
葵	-12.4568
渓	-12.4634
鳩	-12.4634
V	-12.4667
奮	-12.4667
糧	-12.4667
坪	-12.47
扉	-12.47
宛	-12.4733
瓶	-12.4733
〜	-12.4767
勾	-12.4767
梶	-12.4767
縣	-12.4767
誅	-12.4767
!	-12.4834
晋	-12.4834
涼	-12.4868
耐	-12.4868
襖	-12.4868
億	-12.4902
諏	-12.4902
諭	-12.4902
凡	-12.4936
捉	-12.4936
芹	-12.4936
貼	-12.4936
弔	-12.497
苗	-12.497
蛇	-12.497
塞	-12.5005
悩	-12.5005
挿	-12.5005
樺	-12.5005
溶	-12.5005
菌	-12.5005
肖	-12.5039
諡	-12.5039
需	-12.5039
噂	-12.5074
褌	-12.5074
滑	-12.5108
粟	-12.5108
篭	-12.5143
斗	-12.5178
苔	-12.5178
U	-12.5213
萩	-12.5248
餡	-12.5248
黙	-12.5248
姻	-12.5283
或	-12.5283
翼	-12.5283
措	-12.5319
棲	-12.5319
胴	-12.5319
迷	-12.5319
勒	-12.5354
升	-12.539
廉	-12.539
核	-12.5426
桶	-12.5426
獣	-12.5462
×	-12.5498
兆	-12.5498
孤	-12.5498
弼	-12.5534
祓	-12.5534
偏	-12.557
祚	-12.557
鼻	-12.557
倣	-12.5607
惑	-12.5643
檀	-12.5643
v	-12.568
髷	-12.5717
掃	-12.5754
甚	-12.5754
疏	-12.5754
邇	-12.5791
鍛	-12.5791
f	-12.5828
狙	-12.5828
蕉	-12.5828
枠	-12.5865
緊	-12.5865
繊	-12.5865
雇	-12.5865
賦	-12.5903
穏	-12.5941
謹	-12.5941
斜	-12.5978
炎	-12.6016
朗	-12.6054
檜	-12.6054
揃	-12.6093
擬	-12.6093
骸	-12.6093
蓄	-12.6131
釣	-12.6131
粒	-12.617
薦	-12.6208
呈	-12.6247
杵	-12.6247
巣	-12.6286
逝	-12.6286
巌	-12.6325
汰	-12.6325
祷	-12.6325
w	-12.6365
棺	-12.6365
聴	-12.6365
雁	-12.6365
啓	-12.6404
埴	-12.6404
鬘	-12.6404
謁	-12.6444
串	-12.6483
墾	-12.6483
怨	-12.6483
阻	-12.6483
+	-12.6523
厩	-12.6523
液	-12.6523
豚	-12.6523
郊	-12.6523
陳	-12.6523
帽	-12.6563
旭	-12.6563
械	-12.6563
痛	-12.6563
x	-12.6604
欽	-12.6604
杖	-12.6644
凶	-12.6685
患	-12.6685
稀	-12.6685
揺	-12.6725
貌	-12.6725
凝	-12.6766
栃	-12.6766
皿	-12.6766
穢	-12.6766
脂	-12.6766
柿	-12.6849
橿	-12.6849
歓	-12.6849
倶	-12.689
磁	-12.689
匂	-12.6932
壱	-12.6932
償	-12.6973
曳	-12.6973
牟	-12.6973
篆	-12.6973
耆	-12.6973
胸	-12.6973
饅	-12.6973
朋	-12.7015
累	-12.7015
褒	-12.7015
X	-12.7057
汚	-12.7057
熙	-12.7057
控	-12.71
槃	-12.71
逮	-12.71
蛮	-12.7142
症	-12.7228
哀	-12.7271
蕃	-12.7271
─	-12.7314
酎	-12.7314
鉾	-12.7314
猫	-12.7357
綴	-12.7444
殆	-12.7533
靖	-12.7533
飢	-12.7533
狐	-12.7577
脳	-12.7577
芭	-12.7577
週	-12.7577
塵	-12.7621
慕	-12.7621
胎	-12.7621
葦	-12.7621
喫	-12.7666
窯	-12.7666
俣	-12.7711
冶	-12.7711
叩	-12.7711
涅	-12.7711
仇	-12.7756
慰	-12.7756
湊	-12.7756
牌	-12.7756
猟	-12.7756
冒	-12.7802
叛	-12.7802
諧	-12.7802
<	-12.7847
枯	-12.7847
妾	-12.7893
濠	-12.7893
暁	-12.7939
彌	-12.7985
湿	-12.7985
儲	-12.8078
寅	-12.8078
柵	-12.8078
榎	-12.8078
藻	-12.8078
賤	-12.8078
ゥ	-12.8125
囚	-12.8125
泣	-12.8125
箔	-12.8125
頓	-12.8125
憂	-12.8172
潔	-12.8172
穫	-12.8172
翰	-12.8172
鞠	-12.8172
偶	-12.8219
巳	-12.8267
楊	-12.8267
芋	-12.8267
鴎	-12.8267
蔭	-12.8315
悔	-12.8363
杯	-12.8363
櫛	-12.8363
竣	-12.8363
饗	-12.8363
W	-12.8411
隷	-12.8411
傑	-12.8508
洪	-12.8508
綬	-12.8508
茅	-12.8508
克	-12.8557
枡	-12.8557
脅	-12.8557
鎧	-12.8557
芽	-12.8606
迹	-12.8606
鋒	-12.8606
錬	-12.8606
按	-12.8655
漏	-12.8655
粗	-12.8655
酷	-12.8655
閤	-12.8655
惜	-12.8705
漉	-12.8705
債	-12.8755
剃	-12.8755
暖	-12.8755
篇	-12.8755
耶	-12.8755
胆	-12.8755
膨	-12.8755
咲	-12.8805
芦	-12.8805
逐	-12.8805
逢	-12.8855
【	-12.8906
】	-12.8906
呑	-12.8906
拳	-12.8906
樫	-12.8906
爆	-12.8906
琳	-12.8906
粛	-12.8906
憑	-12.8957
缶	-12.8957
邑	-12.8957
雛	-12.8957
煕	-12.9008
粥	-12.9008
臼	-12.9008
諾	-12.9008
泡	-12.9059
裾	-12.9059
妥	-12.9111
拘	-12.9111
肝	-12.9111
圀	-12.9163
妨	-12.9163
錯	-12.9163
僅	-12.9215
刈	-12.9215
牽	-12.9215
卓	-12.9268
涙	-12.9268
盲	-12.9268
禎	-12.9268
慢	-12.9373
檗	-12.9373
臭	-12.9373
凍	-12.9427
匹	-12.948
卜	-12.948
畝	-12.948
鷲	-12.948
亨	-12.9534
嶽	-12.9534
棋	-12.9534
覇	-12.9534
騨	-12.9534
祟	-12.9589
鋭	-12.9589
闇	-12.9589
勉	-12.9643
把	-12.9643
撫	-12.9643
析	-12.9643
蒔	-12.9643
薙	-12.9643
巾	-12.9698
憤	-12.9698
抹	-12.9698
粘	-12.9698
酔	-12.9698
〈	-12.9753
曇	-12.9753
裳	-12.9753
蹟	-12.9753
隻	-12.9753
怖	-12.9808
挑	-12.9808
据	-12.9808
函	-12.9864
喰	-12.9864
毅	-12.992
註	-12.992
飴	-12.992
喧	-12.9976
塁	-12.9976
峡	-12.9976
涌	-13.0033
〉	-13.009
甫	-13.009
蚕	-13.009
蜜	-13.009
遡	-13.009
摺	-13.0147
殉	-13.0147
偈	-13.0205
嶺	-13.0205
泳	-13.0205
潤	-13.0205
潰	-13.0205
纏	-13.0205
茎	-13.0205
眠	-13.0263
笹	-13.0263
肌	-13.0263
虜	-13.0263
蝶	-13.0263
ぢ	-13.0321
厄	-13.0321
診	-13.0321
遁	-13.0321
捜	-13.038
而	-13.038
饉	-13.038
噺	-13.0439
某	-13.0439
牙	-13.0439
璽	-13.0439
燕	-13.0498
疫	-13.0498
ゾ	-13.0558
ヂ	-13.0558
乞	-13.0558
Y	-13.0678
夭	-13.0678
掾	-13.0678
樋	-13.0678
軟	-13.0678
鴻	-13.0678
朴	-13.0739
樽	-13.0739
璋	-13.0739
簿	-13.0739
鰹	-13.08
帆	-13.0862
恥	-13.0862
搬	-13.0924
癒	-13.0924
粕	-13.0924
讒	-13.0924
闍	-13.0924
眉	-13.0986
冥	-13.1049
殻	-13.1049
爾	-13.1049
牡	-13.1049
票	-13.1049
俘	-13.1112
漂	-13.1112
熾	-13.1112
餓	-13.1112
塀	-13.1175
懇	-13.1175
祠	-13.1175
且	-13.1239
叢	-13.1239
幻	-13.1239
絞	-13.1239
莫	-13.1239
遵	-13.1239
吐	-13.1304
晶	-13.1304
糾	-13.1304
膝	-13.1304
荻	-13.1304
蘆	-13.1304
鰻	-13.1304
傳	-13.1368
抽	-13.1368
斥	-13.1368
瓊	-13.1368
賓	-13.1368
圓	-13.1434
斑	-13.1434
砦	-13.1434
舒	-13.1434
遼	-13.1434
卯	-13.1499
哉	-13.1499
貯	-13.1499
霞	-13.1499
刹	-13.1565
曰	-13.1565
爪	-13.1565
袍	-13.1565
酉	-13.1565
窟	-13.1632
麟	-13.1632
焉	-13.1698
匿	-13.1766
舌	-13.1766
j	-13.1834
壽	-13.1834
學	-13.1834
循	-13.1834
雰	-13.1834
ヅ	-13.1902
襟	-13.1902
陪	-13.1902
隼	-13.1902
妊	-13.1971
窪	-13.1971
紗	-13.1971
馨	-13.1971
亥	-13.204
兜	-13.204
撥	-13.204
朔	-13.204
剤	-13.2109
庚	-13.2109
挽	-13.2109
裸	-13.2109
徽	-13.218
燗	-13.218
狼	-13.218
鏑	-13.218
;	-13.225
廓	-13.225
盧	-13.225
綸	-13.225
謂	-13.225
遥	-13.225
魁	-13.225
‐	-13.2321
娶	-13.2321
擢	-13.2321
暫	-13.2321
采	-13.2321
騰	-13.2321
丑	-13.2393
崖	-13.2393
幌	-13.2393
應	-13.2393
懲	-13.2393
鋼	-13.2393
憶	-13.2465
擾	-13.2465
牒	-13.2465
窺	-13.2465
罷	-13.2465
茹	-13.2465
嘩	-13.2538
壷	-13.2538
欄	-13.2538
股	-13.2538
蟄	-13.2538
溜	-13.2611
疲	-13.2611
秤	-13.2611
–	-13.2685
叫	-13.2685
弊	-13.2685
榊	-13.2685
隙	-13.2685
魅	-13.2685
鯉	-13.2685
吊	-13.276
惨	-13.276
狛	-13.276
鈔	-13.276
馳	-13.276
ぺ	-13.2834
凰	-13.2834
娯	-13.2834
瀧	-13.2834
牢	-13.2834
聘	-13.2834
誦	-13.2834
鍬	-13.2834
鞆	-13.2834
韻	-13.2834
桟	-13.291
禍	-13.291
羊	-13.291
竪	-13.2986
迭	-13.2986
髭	-13.2986
≒	-13.3063
ヵ	-13.3063
晒	-13.3063
椿	-13.3063
浩	-13.3063
漱	-13.3063
炒	-13.3063
煩	-13.3063
譚	-13.3063
楯	-13.314
箕	-13.314
賑	-13.314
畜	-13.3218
膠	-13.3218
鳶	-13.3218
巴	-13.3296
截	-13.3296
椎	-13.3296
稼	-13.3296
菟	-13.3296
謎	-13.3296
閻	-13.3296
廿	-13.3375
捧	-13.3375
瞬	-13.3375
臓	-13.3375
峙	-13.3455
藁	-13.3455
叉	-13.3535
宙	-13.3535
曖	-13.3535
竺	-13.3535
繍	-13.3535
芥	-13.3535
馴	-13.3535
峻	-13.3616
碧	-13.3616
臈	-13.3616
釘	-13.3616
喬	-13.3698
槌	-13.3698
焦	-13.3698
臂	-13.3698
賄	-13.3698
贋	-13.3698
遮	-13.3698
鷺	-13.3698
傀	-13.378
儡	-13.378
咎	-13.378
姪	-13.378
婢	-13.378
杓	-13.378
沸	-13.378
甕	-13.378
脩	-13.378
°	-13.3863
椀	-13.3863
渤	-13.3863
聡	-13.3863
喩	-13.3947
湛	-13.3947
濁	-13.3947
畏	-13.3947
痘	-13.3947
祉	-13.3947
簾	-13.3947
辱	-13.3947
霜	-13.3947
z	-13.4031
戴	-13.4031
畔	-13.4031
岑	-13.4116
廣	-13.4116
瓜	-13.4116
薪	-13.4116
鍵	-13.4116
妬	-13.4202
杏	-13.4202
皐	-13.4202
鞘	-13.4202
實	-13.4289
寳	-13.4289
暇	-13.4289
洒	-13.4289
眺	-13.4289
竈	-13.4289
漸	-13.4376
砕	-13.4376
硯	-13.4376
嗜	-13.4464
毀	-13.4464
煉	-13.4464
兎	-13.4553
憐	-13.4553
簪	-13.4553
闕	-13.4553
駕	-13.4553
鼠	-13.4553
ゝ	-13.4643
挫	-13.4643
晦	-13.4643
諫	-13.4643
痕	-13.4733
糠	-13.4733
絃	-13.4733
臥	-13.4733
藝	-13.4733
麩	-13.4733
〒	-13.4824
ぴ	-13.4824
匡	-13.4824
岬	-13.4824
焚	-13.4824
當	-13.4824
叶	-13.4917
唆	-13.4917
堪	-13.4917
惧	-13.4917
賭	-13.4917
亘	-13.501
拙	-13.501
堯	-13.5104
帛	-13.5104
悉	-13.5104
硫	-13.5104
紺	-13.5104
舅	-13.5104
蜘	-13.5104
諦	-13.5104
鴈	-13.5104
咫	-13.5198
椋	-13.5198
鐸	-13.5198
饌	-13.5198
凌	-13.5294
堰	-13.5294
壌	-13.5391
牲	-13.5391
犠	-13.5391
蛛	-13.5391
諮	-13.5391
劉	-13.5488
帷	-13.5488
廬	-13.5488
拭	-13.5488
灘	-13.5488
畷	-13.5488
疾	-13.5488
諌	-13.5488
謳	-13.5488
敢	-13.5587
湧	-13.5587
舶	-13.5587
裟	-13.5587
遽	-13.5587
鮎	-13.5587
幟	-13.5686
揉	-13.5686
傅	-13.5787
叱	-13.5787
斡	-13.5787
蓬	-13.5787
虐	-13.5787
袈	-13.5787
酛	-13.5787
閲	-13.5787
零	-13.5787
鯛	-13.5787
劫	-13.5888
彬	-13.5888
肯	-13.5888
肴	-13.5888
艶	-13.5888
衷	-13.5888
賠	-13.5888
什	-13.5991
伍	-13.5991
悼	-13.5991
淑	-13.5991
稜	-13.5991
頑	-13.5991
冑	-13.6094
嫉	-13.6094
桁	-13.6094
碩	-13.6094
苛	-13.6094
ā	-13.6199
拶	-13.6199
挨	-13.6199
眞	-13.6199
躯	-13.6199
鏃	-13.6199
佳	-13.6305
俸	-13.6305
卷	-13.6305
慌	-13.6305
擦	-13.6305
斧	-13.6305
溺	-13.6305
訶	-13.6305
噛	-13.6412
宏	-13.6412
樂	-13.6412
樟	-13.6412
濫	-13.6412
笙	-13.6412
籬	-13.6412
綻	-13.6412
袱	-13.6412
悠	-13.652
憎	-13.652
昨	-13.652
沐	-13.652
逓	-13.652
□	-13.6629
櫻	-13.6629
玩	-13.6629
癖	-13.6629
舜	-13.6629
艘	-13.6629
藉	-13.6629
坦	-13.674
與	-13.674
芯	-13.674
萱	-13.674
謗	-13.674
佃	-13.6852
偵	-13.6852
嵌	-13.6852
糊	-13.6852
蔑	-13.6852
藪	-13.6852
蚊	-13.6852
醜	-13.6852
鉦	-13.6852
侘	-13.6965
勿	-13.6965
嘱	-13.6965
羹	-13.6965
貰	-13.6965
偉	-13.7079
槐	-13.7079
罵	-13.7079
翫	-13.7079
跨	-13.7079
雉	-13.7079
ゐ	-13.7194
偲	-13.7194
厘	-13.7194
媒	-13.7194
椒	-13.7194
櫃	-13.7194
汽	-13.7194
滴	-13.7194
芙	-13.7194
蕪	-13.7194
頒	-13.7194
尖	-13.7311
暑	-13.7311
椅	-13.7311
翠	-13.7311
腸	-13.7311
蛍	-13.7311
醪	-13.7311
董	-13.743
蓑	-13.743
蜷	-13.743
迄	-13.743
釉	-13.743
怠	-13.7549
鄭	-13.7549
鉛	-13.7549
銕	-13.7549
雌	-13.7549
奢	-13.7671
杭	-13.7671
柚	-13.7671
毬	-13.7671
猩	-13.7671
珂	-13.7671
禊	-13.7671
紡	-13.7671
繕	-13.7671
胃	-13.7671
蓉	-13.7671
&	-13.7793
叟	-13.7793
孟	-13.7793
撒	-13.7793
梓	-13.7793
溢	-13.7793
綺	-13.7793
肺	-13.7793
賽	-13.7793
款	-13.7918
瓢	-13.7918
蝉	-13.7918
逼	-13.7918
侠	-13.8043
倹	-13.8043
剰	-13.8043
堕	-13.8043
螺	-13.8043
ゑ	-13.8171
凱	-13.8171
厭	-13.8171
只	-13.8171
奘	-13.8171
槽	-13.8171
漠	-13.8171
筈	-13.8171
緻	-13.8171
舘	-13.8171
濾	-13.83
爲	-13.83
筅	-13.83
贅	-13.83
辿	-13.83
醗	-13.83
卸	-13.8431
塑	-13.8431
寡	-13.8431
梗	-13.8431
棹	-13.8431
禮	-13.8431
總	-13.8431
遙	-13.8431
亦	-13.8563
墜	-13.8563
渟	-13.8563
盂	-13.8563
萌	-13.8563
躬	-13.8563
逍	-13.8563
飽	-13.8563
姦	-13.8697
拷	-13.8697
籤	-13.8697
跏	-13.8697
兌	-13.8833
汝	-13.8833
沓	-13.8833
譽	-13.8833
乎	-13.8971
噴	-13.8971
宵	-13.8971
掟	-13.8971
斤	-13.8971
砥	-13.8971
秒	-13.8971
覗	-13.8971
鈿	-13.8971
髄	-13.8971
鯖	-13.8971
鵄	-13.8971
弄	-13.9111
捻	-13.9111
晃	-13.9111
焙	-13.9111
竿	-13.9111
號	-13.9111
跋	-13.9111
靴	-13.9111
圭	-13.9253
崋	-13.9253
托	-13.9253
梟	-13.9253
瘡	-13.9253
篥	-13.9253
梯	-13.9397
濡	-13.9397
稗	-13.9397
簒	-13.9397
緋	-13.9397
腋	-13.9397
尿	-13.9543
揖	-13.9543
柘	-13.9543
欣	-13.9543
笥	-13.9543
篳	-13.9543
葱	-13.9543
坑	-13.9691
寶	-13.9691
揄	-13.9691
搾	-13.9691
茄	-13.9691
袿	-13.9691
魯	-13.9691
剖	-13.9841
尭	-13.9841
憧	-13.9841
掻	-13.9841
揶	-13.9841
朕	-13.9841
盃	-13.9841
砧	-13.9841
穣	-13.9841
蛤	-13.9841
騙	-13.9841
奄	-13.9994
彙	-13.9994
疋	-13.9994
袢	-13.9994
訛	-13.9994
醒	-13.9994
陛	-13.9994
Q	-14.0149
娼	-14.0149
宍	-14.0149
已	-14.0149
徂	-14.0149
慨	-14.0149
猷	-14.0149
祗	-14.0149
祢	-14.0149
笏	-14.0149
鍔	-14.0149
]	-14.0307
僊	-14.0307
奠	-14.0307
嬉	-14.0307
弧	-14.0307
徠	-14.0307
搗	-14.0307
楕	-14.0307
榜	-14.0307
碓	-14.0307
綏	-14.0307
經	-14.0307
罹	-14.0307
耽	-14.0307
茲	-14.0307
菖	-14.0307
豎	-14.0307
賎	-14.0307
顛	-14.0307
丙	-14.0467
侮	-14.0467
凉	-14.0467
堆	-14.0467
朧	-14.0467
渦	-14.0467
熈	-14.0467
玖	-14.0467
稔	-14.0467
蟹	-14.0467
詛	-14.0467
迂	-14.0467
凹	-14.0629
址	-14.0629
扁	-14.0629
扮	-14.0629
棗	-14.0629
槇	-14.0629
歎	-14.0629
歿	-14.0629
毫	-14.0629
燭	-14.0629
羲	-14.0629
蜻	-14.0629
褐	-14.0629
贄	-14.0629
鈷	-14.0629
鞭	-14.0629
[	-14.0794
⇒	-14.0794
喚	-14.0794
欺	-14.0794
汗	-14.0794
熨	-14.0794
蛉	-14.0794
蝋	-14.0794
衿	-14.0794
覺	-14.0794
趙	-14.0794
鶯	-14.0794
Z	-14.0963
喝	-14.0963
宥	-14.0963
柑	-14.0963
珎	-14.0963
疇	-14.0963
篋	-14.0963
綜	-14.0963
葭	-14.0963
衍	-14.0963
襄	-14.0963
讐	-14.0963
錫	-14.0963
咋	-14.1133
會	-14.1133
桔	-14.1133
漑	-14.1133
肪	-14.1133
蕨	-14.1133
蛸	-14.1133
袁	-14.1133
袂	-14.1133
韶	-14.1133
佩	-14.1307
嗚	-14.1307
恕	-14.1307
戌	-14.1307
禿	-14.1307
臺	-14.1307
藏	-14.1307
鈍	-14.1307
雖	-14.1307
靡	-14.1307
鵺	-14.1307
*	-14.1484
俀	-14.1484
填	-14.1484
并	-14.1484
廠	-14.1484
憩	-14.1484
机	-14.1484
殷	-14.1484
濱	-14.1484
禧	-14.1484
箭	-14.1484
篁	-14.1484
鐵	-14.1484
髻	-14.1484
鯰	-14.1484
←	-14.1665
佑	-14.1665
塊	-14.1665
姜	-14.1665
懺	-14.1665
湘	-14.1665
濯	-14.1665
璧	-14.1665
臚	-14.1665
葡	-14.1665
詐	-14.1665
跳	-14.1665
迅	-14.1665
鑁	-14.1665
鱗	-14.1665
凸	-14.1848
咸	-14.1848
嚆	-14.1848
翔	-14.1848
脆	-14.1848
苧	-14.1848
蒐	-14.1848
蔚	-14.1848
襦	-14.1848
誹	-14.1848
酬	-14.1848
頬	-14.1848
鮑	-14.1848
姥	-14.2035
巷	-14.2035
撞	-14.2035
楷	-14.2035
汎	-14.2035
睡	-14.2035
粮	-14.2035
羂	-14.2035
莱	-14.2035
衾	-14.2035
詫	-14.2035
頁	-14.2035
顗	-14.2035
饒	-14.2035
壹	-14.2225
屠	-14.2225
帚	-14.2225
廂	-14.2225
憚	-14.2225
穿	-14.2225
籾	-14.2225
胞	-14.2225
處	-14.2225
銚	-14.2225
《	-14.242
》	-14.242
紬	-14.242
羨	-14.242
膜	-14.242
邊	-14.242
僕	-14.2618
冨	-14.2618
喉	-14.2618
嘘	-14.2618
嬢	-14.2618
曙	-14.2618
癌	-14.2618
笄	-14.2618
耀	-14.2618
郁	-14.2618
鉤	-14.2618
雙	-14.2618
凄	-14.282
几	-14.282
奸	-14.282
妍	-14.282
娠	-14.282
惹	-14.282
戔	-14.282
爛	-14.282
琢	-14.282
眷	-14.282
瞭	-14.282
礫	-14.282
賣	-14.282
鐐	-14.282
鰭	-14.282
鼎	-14.282
暢	-14.3026
枳	-14.3026
桧	-14.3026
楓	-14.3026
羯	-14.3026
膾	-14.3026
蔀	-14.3026
蕩	-14.3026
阮	-14.3026
頌	-14.3026
劾	-14.3236
忙	-14.3236
煽	-14.3236
瑜	-14.3236
衞	-14.3236
逗	-14.3236
酌	-14.3236
鮨	-14.3236
鵬	-14.3236
妄	-14.3451
屓	-14.3451
楚	-14.3451
痩	-14.3451
痴	-14.3451
竟	-14.3451
膚	-14.3451
誡	-14.3451
賂	-14.3451
贔	-14.3451
軋	-14.3451
轟	-14.3451
轢	-14.3451
釧	-14.3451
鍾	-14.3451
陞	-14.3451
~	-14.3671
徭	-14.3671
晁	-14.3671
榛	-14.3671
燻	-14.3671
筥	-14.3671
耗	-14.3671
苅	-14.3671
蛙	-14.3671
蠣	-14.3671
這	-14.3671
錐	-14.3671
麾	-14.3671
套	-14.3896
寓	-14.3896
惚	-14.3896
捺	-14.3896
搭	-14.3896
熹	-14.3896
礁	-14.3896
祁	-14.3896
糟	-14.3896
緬	-14.3896
菴	-14.3896
裃	-14.3896
閔	-14.3896
闢	-14.3896
雍	-14.3896
餘	-14.3896
孚	-14.4126
尤	-14.4126
崗	-14.4126
拵	-14.4126
搦	-14.4126
旺	-14.4126
楢	-14.4126
氾	-14.4126
滓	-14.4126
炮	-14.4126
焔	-14.4126
疱	-14.4126
箪	-14.4126
絣	-14.4126
茸	-14.4126
蔓	-14.4126
訊	-14.4126
誄	-14.4126
諺	-14.4126
鬱	-14.4126
齋	-14.4126
咒	-14.4361
唇	-14.4361
塙	-14.4361
娑	-14.4361
惺	-14.4361
掠	-14.4361
旛	-14.4361
浙	-14.4361
瀕	-14.4361
炙	-14.4361
癸	-14.4361
蒼	-14.4361
訥	-14.4361
鑰	-14.4361
鬚	-14.4361
于	-14.4602
决	-14.4602
咄	-14.4602
嶼	-14.4602
彭	-14.4602
掴	-14.4602
梧	-14.4602
渇	-14.4602
狸	-14.4602
磔	-14.4602
簀	-14.4602
纓	-14.4602
肘	-14.4602
腫	-14.4602
蛋	-14.4602
諜	-14.4602
韮	-14.4602
做	-14.4849
崑	-14.4849
弛	-14.4849
杣	-14.4849
楮	-14.4849
殯	-14.4849
汐	-14.4849
狄	-14.4849
玲	-14.4849
瞑	-14.4849
虹	-14.4849
證	-14.4849
鑓	-14.4849
鵯	-14.4849
冲	-14.5102
剋	-14.5102
嘲	-14.5102
嵩	-14.5102
德	-14.5102
昂	-14.5102
渾	-14.5102
溪	-14.5102
硝	-14.5102
縞	-14.5102
諍	-14.5102
鎬	-14.5102
韋	-14.5102
侈	-14.5362
儺	-14.5362
愕	-14.5362
烹	-14.5362
糞	-14.5362
綽	-14.5362
襴	-14.5362
餌	-14.5362
俺	-14.5629
傭	-14.5629
匙	-14.5629
哨	-14.5629
媚	-14.5629
愁	-14.5629
擲	-14.5629
萄	-14.5629
蔦	-14.5629
鑽	-14.5629
頸	-14.5629
q	-14.5903
乖	-14.5903
冤	-14.5903
刳	-14.5903
卍	-14.5903
婁	-14.5903
惠	-14.5903
拉	-14.5903
框	-14.5903
煌	-14.5903
爺	-14.5903
篷	-14.5903
纒	-14.5903
蟇	-14.5903
蟻	-14.5903
譬	-14.5903
跪	-14.5903
辨	-14.5903
驕	-14.5903
鮭	-14.5903
—	-14.6184
弉	-14.6184
殴	-14.6184
灸	-14.6184
爽	-14.6184
皺	-14.6184
舂	-14.6184
芒	-14.6184
衽	-14.6184
貪	-14.6184
躰	-14.6184
來	-14.6474
坡	-14.6474
忽	-14.6474
戎	-14.6474
珪	-14.6474
窩	-14.6474
薗	-14.6474
蜀	-14.6474
訣	-14.6474
谿	-14.6474
鍮	-14.6474
鮫	-14.6474
@	-14.6773
俄	-14.6773
啄	-14.6773
嚢	-14.6773
埵	-14.6773
奎	-14.6773
庖	-14.6773
榮	-14.6773
淨	-14.6773
濤	-14.6773
煤	-14.6773
畢	-14.6773
盈	-14.6773
絢	-14.6773
脊	-14.6773
葩	-14.6773
誼	-14.6773
貶	-14.6773
遜	-14.6773
錠	-14.6773
鍼	-14.6773
鬢	-14.6773
鮪	-14.6773
麁	-14.6773
假	-14.7081
怡	-14.7081
挺	-14.7081
掬	-14.7081
杮	-14.7081
栂	-14.7081
殲	-14.7081
氣	-14.7081
漕	-14.7081
漿	-14.7081
犀	-14.7081
篝	-14.7081
糺	-14.7081
聯	-14.7081
肆	-14.7081
蛭	-14.7081
鋸	-14.7081
錆	-14.7081
關	-14.7081
鞋	-14.7081
鰯	-14.7081
鸚	-14.7081
黎	-14.7081
仔	-14.7398
垢	-14.7398
娍	-14.7398
怯	-14.7398
捌	-14.7398
捏	-14.7398
榴	-14.7398
泗	-14.7398
烙	-14.7398
痺	-14.7398
睨	-14.7398
禽	-14.7398
穆	-14.7398
肢	-14.7398
臆	-14.7398
醇	-14.7398
鋤	-14.7398
鮓	-14.7398
鼈	-14.7398
傲	-14.7726
圃	-14.7726
埠	-14.7726
幢	-14.7726
礒	-14.7726
站	-14.7726
紳	-14.7726
肇	-14.7726
膏	-14.7726
蒹	-14.7726
顎	-14.7726
駈	-14.7726
鵞	-14.7726
〇	-14.8065
呰	-14.8065
坤	-14.8065
屍	-14.8065
弗	-14.8065
悌	-14.8065
槨	-14.8065
游	-14.8065
燼	-14.8065
瑩	-14.8065
荏	-14.8065
薮	-14.8065
讀	-14.8065
輯	-14.8065
辟	-14.8065
餐	-14.8065
麝	-14.8065
姑	-14.8416
屑	-14.8416
懿	-14.8416
槙	-14.8416
歪	-14.8416
洩	-14.8416
淫	-14.8416
滸	-14.8416
濟	-14.8416
盞	-14.8416
砺	-14.8416
窃	-14.8416
筵	-14.8416
舁	-14.8416
虞	-14.8416
訌	-14.8416
諒	-14.8416
贖	-14.8416
蹄	-14.8416
躊	-14.8416
邁	-14.8416
鍍	-14.8416
鐚	-14.8416
髏	-14.8416
ぁ	-14.878
ぇ	-14.878
仍	-14.878
剪	-14.878
劔	-14.878
嚇	-14.878
婉	-14.878
將	-14.878
戈	-14.878
桝	-14.878
浚	-14.878
淆	-14.878
炬	-14.878
盥	-14.878
窒	-14.878
箋	-14.878
裡	-14.878
襷	-14.878
躇	-14.878
髑	-14.878
鰐	-14.878
黌	-14.878
ゞ	-14.9157
亟	-14.9157
凋	-14.9157
尓	-14.9157
尸	-14.9157
拗	-14.9157
樵	-14.9157
潅	-14.9157
瀟	-14.9157
煬	-14.9157
猥	-14.9157
瘍	-14.9157
竄	-14.9157
筐	-14.9157
籐	-14.9157
縹	-14.9157
聲	-14.9157
脛	-14.9157
艇	-14.9157
蔽	-14.9157
魄	-14.9157
●	-14.9549
仗	-14.9549
唾	-14.9549
戟	-14.9549
攪	-14.9549
晟	-14.9549
柾	-14.9549
栲	-14.9549
楳	-14.9549
櫟	-14.9549
淤	-14.9549
渕	-14.9549
渠	-14.9549
潭	-14.9549
珥	-14.9549
笈	-14.9549
絲	-14.9549
翳	-14.9549
胝	-14.9549
菘	-14.9549
諷	-14.9549
踞	-14.9549
飫	-14.9549
鮒	-14.9549
α	-14.9957
些	-14.9957
僭	-14.9957
冗	-14.9957
對	-14.9957
崔	-14.9957
弖	-14.9957
弽	-14.9957
彷	-14.9957
擂	-14.9957
杼	-14.9957
栓	-14.9957
渚	-14.9957
獨	-14.9957
矣	-14.9957
范	-14.9957
荃	-14.9957
迪	-14.9957
逞	-14.9957
釋	-14.9957
閇	-14.9957
閨	-14.9957
駁	-14.9957
佚	-15.0383
佶	-15.0383
宦	-15.0383
掖	-15.0383
撓	-15.0383
旱	-15.0383
曝	-15.0383
杲	-15.0383
橙	-15.0383
櫨	-15.0383
汀	-15.0383
沽	-15.0383
淇	-15.0383
瀉	-15.0383
絆	-15.0383
艮	-15.0383
蕭	-15.0383
裴	-15.0383
豫	-15.0383
趨	-15.0383
軾	-15.0383
鈕	-15.0383
鐙	-15.0383
鱈	-15.0383
鴫	-15.0383
鹵	-15.0383
齟	-15.0383
齬	-15.0383
俎	-15.0827
俟	-15.0827
咩	-15.0827
堡	-15.0827
壕	-15.0827
巽	-15.0827
恣	-15.0827
旻	-15.0827
昏	-15.0827
櫂	-15.0827
沌	-15.0827
淸	-15.0827
澪	-15.0827
痢	-15.0827
筏	-15.0827
聟	-15.0827
臀	-15.0827
茜	-15.0827
讖	-15.0827
讚	-15.0827
邨	-15.0827
闡	-15.0827
陋	-15.0827
△	-15.1293
偃	-15.1293
刎	-15.1293
勺	-15.1293
卦	-15.1293
咳	-15.1293
嬬	-15.1293
憾	-15.1293
斃	-15.1293
无	-15.1293
杢	-15.1293
柊	-15.1293
檮	-15.1293
權	-15.1293
泌	-15.1293
涛	-15.1293
腎	-15.1293
舊	-15.1293
茗	-15.1293
萎	-15.1293
蹲	-15.1293
辣	-15.1293
錮	-15.1293
鞄	-15.1293
麒	-15.1293
é	-15.1781
ī	-15.1781
μ	-15.1781
儚	-15.1781
兒	-15.1781
呵	-15.1781
喀	-15.1781
壙	-15.1781
恰	-15.1781
悶	-15.1781
拮	-15.1781
敲	-15.1781
楞	-15.1781
淘	-15.1781
渥	-15.1781
澱	-15.1781
燵	-15.1781
皓	-15.1781
碕	-15.1781
稷	-15.1781
蔡	-15.1781
袷	-15.1781
褄	-15.1781
蹊	-15.1781
輌	-15.1781
輦	-15.1781
鄙	-15.1781
鄰	-15.1781
酥	-15.1781
醂	-15.1781
鋲	-15.1781
闊	-15.1781
隘	-15.1781
靫	-15.1781
頤	-15.1781
鷦	-15.1781
鷯	-15.1781
⇔	-15.2294
☆	-15.2294
〘	-15.2294
〙	-15.2294
ぃ	-15.2294
倦	-15.2294
匣	-15.2294
呆	-15.2294
嗟	-15.2294
從	-15.2294
扈	-15.2294
捗	-15.2294
昉	-15.2294
棘	-15.2294
珊	-15.2294
痔	-15.2294
矯	-15.2294
禦	-15.2294
箒	-15.2294
粂	-15.2294
薊	-15.2294
薯	-15.2294
薺	-15.2294
蘊	-15.2294
襠	-15.2294
詢	-15.2294
謨	-15.2294
謬	-15.2294
鵠	-15.2294
齎	-15.2294
−	-15.2834
〆	-15.2834
ヰ	-15.2834
僑	-15.2834
冴	-15.2834
刪	-15.2834
吃	-15.2834
哭	-15.2834
孵	-15.2834
崙	-15.2834
巖	-15.2834
忿	-15.2834
憫	-15.2834
拐	-15.2834
暹	-15.2834
樓	-15.2834
檻	-15.2834
涵	-15.2834
淋	-15.2834
淹	-15.2834
滲	-15.2834
瀛	-15.2834
猾	-15.2834
珀	-15.2834
瑙	-15.2834
瑤	-15.2834
瑪	-15.2834
疆	-15.2834
笞	-15.2834
絁	-15.2834
蓼	-15.2834
蘂	-15.2834
襞	-15.2834
趾	-15.2834
閦	-15.2834
陌	-15.2834
雞	-15.2834
靱	-15.2834
韜	-15.2834
體	-15.2834
鶉	-15.2834
黍	-15.2834
估	-15.3406
卉	-15.3406
厠	-15.3406
喘	-15.3406
嚴	-15.3406
埒	-15.3406
埿	-15.3406
弭	-15.3406
愈	-15.3406
摸	-15.3406
晨	-15.3406
暉	-15.3406
檄	-15.3406
淮	-15.3406
碾	-15.3406
祺	-15.3406
禖	-15.3406
稈	-15.3406
稱	-15.3406
筌	-15.3406
紆	-15.3406
聰	-15.3406
胚	-15.3406
苫	-15.3406
莬	-15.3406
誣	-15.3406
躅	-15.3406
辯	-15.3406
鏨	-15.3406
鑿	-15.3406
雫	-15.3406
霰	-15.3406
鞨	-15.3406
髙	-15.3406
龕	-15.3406
{	-15.4012
|	-15.4012
}	-15.4012
á	-15.4012
ヱ	-15.4012
哺	-15.4012
嘯	-15.4012
夙	-15.4012
嫄	-15.4012
嬪	-15.4012
徧	-15.4012
忯	-15.4012
恬	-15.4012
惇	-15.4012
撚	-15.4012
攬	-15.4012
楫	-15.4012
氈	-15.4012
狽	-15.4012
瑚	-15.4012
矜	-15.4012
礙	-15.4012
筝	-15.4012
筮	-15.4012
箙	-15.4012
紘	-15.4012
繭	-15.4012
繼	-15.4012
臍	-15.4012
舐	-15.4012
藐	-15.4012
虔	-15.4012
詁	-15.4012
躑	-15.4012
轆	-15.4012
轤	-15.4012
鑼	-15.4012
頗	-15.4012
颯	-15.4012
飩	-15.4012
鬨	-15.4012
鵡	-15.4012
鸕	-15.4012
龗	-15.4012
吠	-15.4657
坏	-15.4657
奕	-15.4657
婬	-15.4657
嬌	-15.4657
孕	-15.4657
廨	-15.4657
愉	-15.4657
戮	-15.4657
抓	-15.4657
捐	-15.4657
杷	-15.4657
柯	-15.4657
梢	-15.4657
棍	-15.4657
椥	-15.4657
洽	-15.4657
瀞	-15.4657
燎	-15.4657
燧	-15.4657
畸	-15.4657
疵	-15.4657
瞳	-15.4657
礬	-15.4657
禹	-15.4657
秉	-15.4657
簗	-15.4657
籌	-15.4657
粽	-15.4657
腿	-15.4657
蝕	-15.4657
蟠	-15.4657
趺	-15.4657
遐	-15.4657
鈎	-15.4657
銖	-15.4657
鎚	-15.4657
隨	-15.4657
靭	-15.4657
髱	-15.4657
魃	-15.4657
鯱	-15.4657
鴦	-15.4657
鹽	-15.4657
÷	-15.5347
ヽ	-15.5347
冕	-15.5347
吽	-15.5347
咤	-15.5347
喋	-15.5347
囁	-15.5347
埃	-15.5347
妣	-15.5347
姬	-15.5347
廼	-15.5347
弩	-15.5347
彗	-15.5347
愷	-15.5347
掣	-15.5347
撹	-15.5347
斂	-15.5347
昵	-15.5347
晏	-15.5347
枇	-15.5347
溥	-15.5347
瀑	-15.5347
瀾	-15.5347
牓	-15.5347
猜	-15.5347
琥	-15.5347
瑣	-15.5347
甑	-15.5347
甞	-15.5347
痰	-15.5347
瞰	-15.5347
矧	-15.5347
碍	-15.5347
磬	-15.5347
穎	-15.5347
竝	-15.5347
筍	-15.5347
羇	-15.5347
腺	-15.5347
莵	-15.5347
藷	-15.5347
訃	-15.5347
豐	-15.5347
赫	-15.5347
酪	-15.5347
醴	-15.5347
鎔	-15.5347
鑢	-15.5347
霾	-15.5347
頽	-15.5347
餃	-15.5347
鱶	-15.5347
鴛	-15.5347
à	-15.6088
倅	-15.6088
凪	-15.6088
嗅	-15.6088
姨	-15.6088
岱	-15.6088
幇	-15.6088
徨	-15.6088
忻	-15.6088
捲	-15.6088
擡	-15.6088
斟	-15.6088
柩	-15.6088
泄	-15.6088
淺	-15.6088
獏	-15.6088
瑛	-15.6088
盡	-15.6088
睺	-15.6088
碇	-15.6088
窖	-15.6088
竃	-15.6088
縒	-15.6088
繹	-15.6088
罠	-15.6088
苡	-15.6088
荊	-15.6088
蒿	-15.6088
蘋	-15.6088
蝠	-15.6088
衢	-15.6088
褥	-15.6088
觀	-15.6088
謚	-15.6088
踪	-15.6088
逵	-15.6088
酋	-15.6088
して	-6.04074
てい	-6.15738
った	-6.17096
ている	-6.21874
ある	-6.22416
され	-6.28369
した	-6.31081
であ	-6.34433
である	-6.35425
する	-6.41679
いる	-6.53147
として	-6.53938
れる	-6.68023
れてい	-6.69096
れている	-6.70724
れた	-6.71241
って	-6.73755
から	-6.74549
とし	-6.76914
こと	-6.81497
れて	-6.81756
られ	-6.87104
(1	-6.92632
された	-7.00961
してい	-7.01242
には	-7.01817
ていた	-7.03856
という	-7.05899
いた	-7.06146
あった	-7.06977
など	-7.07957
その	-7.08203
されてい	-7.12704
ること	-7.13777
日本	-7.16591
されて	-7.18493
されている	-7.18926
では	-7.20006
によ	-7.2004
であった	-7.22629
される	-7.23847
とい	-7.23947
なっ	-7.29431
している	-7.30766
なった	-7.31009
とな	-7.31068
時代	-7.36552
もの	-7.37581
いう	-7.38497
あっ	-7.39592
この	-7.40817
ってい	-7.40925
ない	-7.44398
天皇	-7.45374
19	-7.45489
であっ	-7.47564
ため	-7.49415
▁こ	-7.49645
ると	-7.51582
京都	-7.52172
よう	-7.52827
るこ	-7.5341
たと	-7.55368
いて	-7.57172
とも	-7.57846
▁また	-7.58645
となっ	-7.6027
があ	-7.60664
▁1	-7.60741
られる	-7.61136
18	-7.61928
また	-7.61944
にな	-7.64394
によって	-7.6464
がある	-7.64892
▁この	-7.66541
▁その	-7.66993
ように	-7.6791
っている	-7.68485
われ	-7.69808
▁しかし	-7.70034
▁そ	-7.7004
より	-7.70886
)、	-7.73287
となった	-7.73639
られた	-7.76409
なる	-7.76433
られてい	-7.80005
していた	-7.81035
これ	-7.81408
かった	-7.83576
10	-7.83917
られて	-7.85479
になっ	-7.85518
られている	-7.86184
において	-7.87099
00	-7.88097
とされ	-7.88188
あり	-7.89255
により	-7.89458
11	-7.90212
よって	-7.91078
によっ	-7.93237
なかった	-7.93942
になった	-7.95783
なって	-7.95904
▁ま	-7.95907
たもの	-7.96311
とする	-7.97075
しかし	-7.9722
▁しか	-7.97331
たが	-7.97659
ことが	-7.97924
12	-7.99571
れていた	-8.0121
るように	-8.03333
ので	-8.0357
えられ	-8.03598
たこと	-8.04301
による	-8.0436
15	-8.05028
うに	-8.05101
るようにな	-8.0692
もあ	-8.07309
明治	-8.07523
▁19	-8.08187
すること	-8.08233
るが	-8.08233
ようにな	-8.08781
とは	-8.09442
まで	-8.09517
もある	-8.09601
なってい	-8.10869
にお	-8.11133
)。	-8.11878
(18	-8.11934
おいて	-8.14667
かっ	-8.14711
▁これ	-8.15225
におい	-8.15332
るよう	-8.15332
であり	-8.15773
のため	-8.15881
20	-8.16675
たという	-8.17299
ったと	-8.17449
しか	-8.17791
ては	-8.17864
について	-8.18046
などの	-8.18367
となる	-8.19292
にあ	-8.19436
ることが	-8.20996
われる	-8.21695
16	-8.23156
江戸	-8.23987
もので	-8.24463
ようになった	-8.2461
と呼ばれ	-8.25227
江戸時代	-8.25443
天皇の	-8.25655
かし	-8.25926
のよう	-8.2601
とされる	-8.26075
とさ	-8.2687
のであ	-8.26905
るようになった	-8.27526
ようになっ	-8.27532
なっている	-8.28212
なり	-8.28582
たとい	-8.28918
るようになっ	-8.29132
呼ばれ	-8.29516
の一	-8.30541
よっ	-8.31363
それ	-8.31394
のである	-8.31823
、「	-8.32181
っていた	-8.32497
▁し	-8.32613
とす	-8.33197
ものであ	-8.33282
、1	-8.33377
とが	-8.34481
たも	-8.34751
藤原	-8.34805
はな	-8.3513
その後	-8.35211
の後	-8.35848
するこ	-8.36456
うにな	-8.36555
との	-8.374
ではな	-8.375
を受け	-8.37516
現在	-8.37956
となって	-8.38325
たこ	-8.38403
ており	-8.38588
なく	-8.38909
たの	-8.40075
たため	-8.40098
なか	-8.41198
ついて	-8.4151
うになった	-8.41996
にも	-8.42182
200	-8.42345
につい	-8.42625
13	-8.42766
どの	-8.42801
17	-8.42942
えら	-8.43766
ことに	-8.4386
よる	-8.44216
れるようにな	-8.44394
るため	-8.44537
れること	-8.44895
になる	-8.44931
われてい	-8.45687
とともに	-8.45904
▁その後	-8.48226
ける	-8.48548
うになっ	-8.4897
京都市	-8.48977
となってい	-8.49689
おい	-8.50085
のた	-8.50249
われている	-8.50286
元年	-8.50375
ことを	-8.50387
るもの	-8.50539
年に	-8.50552
ために	-8.50558
時代に	-8.50729
呼ばれる	-8.50856
でも	-8.50881
幕府	-8.51429
時代の	-8.51819
行われ	-8.52069
ことから	-8.52287
と呼ばれる	-8.52294
ものである	-8.52487
れるように	-8.53232
と呼ば	-8.53681
江戸時	-8.54191
戸時代	-8.54211
代の	-8.5429
と呼	-8.54369
るよ	-8.54408
らの	-8.54527
える	-8.5524
ばれ	-8.55506
いては	-8.55719
(15	-8.55778
平安時代	-8.56065
14	-8.56146
と考えられ	-8.56233
皇の	-8.56441
われて	-8.5729
的な	-8.57425
ともに	-8.57452
受け	-8.57601
家の	-8.58269
▁「	-8.58556
旧暦	-8.58652
であると	-8.58666
おり	-8.58899
とした	-8.59278
につ	-8.59853
の中	-8.59936
したと	-8.59943
けて	-8.60006
における	-8.60187
すると	-8.61139
に対	-8.61576
れるようになった	-8.61674
となり	-8.61922
のよ	-8.61958
的に	-8.62014
については	-8.62057
にある	-8.62071
代に	-8.62156
後に	-8.62156
されていた	-8.62306
つい	-8.62384
考えられ	-8.62755
とに	-8.63041
てお	-8.63056
日本の	-8.63142
れるようになっ	-8.6335
まれ	-8.63631
となっている	-8.63703
あると	-8.63833
ったが	-8.64158
(11	-8.6418
)(	-8.645
神社	-8.64689
に対し	-8.6512
(16	-8.65142
都市	-8.65714
のこと	-8.66002
のように	-8.66305
多く	-8.67407
とと	-8.67932
えられている	-8.68038
させ	-8.69007
呼ば	-8.69281
のは	-8.69464
▁大	-8.69556
れるよう	-8.69679
になって	-8.69771
のも	-8.70016
ような	-8.70533
のような	-8.70788
氏の	-8.71207
ばれる	-8.71557
えられてい	-8.71933
るの	-8.71956
を受	-8.71956
はない	-8.72027
国の	-8.72775
があった	-8.73139
れるこ	-8.73162
いった	-8.73186
たた	-8.73615
文化	-8.73743
ととも	-8.73831
に対して	-8.74223
したもの	-8.74802
あるが	-8.75254
場合	-8.75449
親王	-8.76411
ではない	-8.76558
かれ	-8.76591
たもので	-8.76821
昭和	-8.77035
の大	-8.77266
えられて	-8.77581
と考えら	-8.7848
るという	-8.78514
のと	-8.78564
の子	-8.78765
めに	-8.79
めた	-8.79303
ことも	-8.80031
められ	-8.80133
とから	-8.8021
ことか	-8.80363
ょう	-8.80747
だった	-8.80773
(19	-8.80799
るも	-8.80936
将軍	-8.81039
本の	-8.81606
が多	-8.8171
とされている	-8.81883
としての	-8.82022
ての	-8.82212
るた	-8.8277
れを	-8.82909
のが	-8.83172
京都府	-8.83374
とされてい	-8.8377
後の	-8.83929
ついては	-8.83982
鎌倉	-8.8407
▁『	-8.84283
ることに	-8.84336
)(1	-8.84727
▁なお	-8.84807
安時代	-8.84834
でき	-8.84887
とを	-8.8528
と考え	-8.85289
▁京都	-8.85612
▁明治	-8.85639
と考えられている	-8.85801
ことで	-8.86315
ても	-8.8656
)1	-8.86887
めて	-8.87014
現在の	-8.87187
考え	-8.87288
日に	-8.87434
行わ	-8.8758
)-	-8.88095
んだ	-8.88132
えられる	-8.88353
での	-8.88353
おける	-8.88538
におけ	-8.88927
れに	-8.88927
たものであ	-8.89066
のこ	-8.89448
への	-8.89467
ったこと	-8.89691
を行	-8.90537
考えられている	-8.90669
えた	-8.90726
▁日本	-8.90783
るとい	-8.91323
と考えられてい	-8.91399
考えら	-8.91409
のみ	-8.91466
のもの	-8.91466
しては	-8.91609
人の	-8.91829
これを	-8.9201
さらに	-8.92327
ていない	-8.93311
用い	-8.93447
当時	-8.93817
などが	-8.93866
奈良	-8.94267
とされて	-8.94404
生まれ	-8.94512
ことにな	-8.94718
戸時	-8.94738
われた	-8.94896
けた	-8.95192
これは	-8.95192
たとされ	-8.95231
もに	-8.95508
める	-8.95707
があっ	-8.95846
あったと	-8.95986
などを	-8.96115
けられ	-8.96145
においては	-8.96295
対し	-8.96686
の時	-8.96726
(17	-8.96866
▁そのため	-8.96896
考えられてい	-8.96927
大臣	-8.97128
平安	-8.97209
))	-8.97411
対して	-8.97441
いっ	-8.97633
に入	-8.97917
ることを	-8.97917
れるよ	-8.97927
にし	-8.98141
たものである	-8.98508
これに	-8.98569
ものと	-8.98631
えて	-8.98795
ではなく	-8.98938
うな	-8.9935
徳川	-8.9935
▁京	-8.99494
らに	-8.99825
と考えられて	-9.00115
こともあ	-9.00136
ながら	-9.00365
ていな	-9.00427
ったという	-9.00531
んで	-9.00594
用いられ	-9.00928
多い	-9.01033
の戦い	-9.01432
の名	-9.01516
いな	-9.01664
▁18	-9.01685
源氏	-9.01769
が多い	-9.0197
れており	-9.02193
ったとい	-9.02277
大学	-9.02299
かけ	-9.02426
としては	-9.02703
▁日	-9.02874
鎌倉時代	-9.02959
したも	-9.03151
、『	-9.03216
うと	-9.03452
期の	-9.03452
しての	-9.03473
したが	-9.03796
くな	-9.03968
定され	-9.04217
▁天	-9.04488
されること	-9.04574
いない	-9.04803
子の	-9.04835
があり	-9.05163
ることも	-9.05469
ことは	-9.05491
存在	-9.05622
ったため	-9.05644
中国	-9.05666
▁-	-9.05688
たり	-9.05732
なお	-9.05996
などに	-9.0615
が行われ	-9.06305
になってい	-9.06327
、19	-9.06449
まった	-9.06748
はなく	-9.06781
▁明	-9.06925
▁200	-9.07014
186	-9.07382
言われ	-9.07449
と言	-9.07819
ているが	-9.07953
考えられて	-9.08167
▁これは	-9.08268
そのため	-9.08675
れば	-9.08697
ていたが	-9.08765
鉄道	-9.09379
しい	-9.09721
▁一	-9.10042
見られ	-9.10617
とか	-9.11334
ところ	-9.11416
30	-9.11427
東京	-9.11497
86	-9.1173
しな	-9.11753
あったが	-9.11847
月に	-9.11964
たとされる	-9.12127
ていった	-9.12456
用され	-9.12538
たので	-9.1275
年の	-9.13376
なが	-9.13447
れは	-9.13447
の戦	-9.13566
であるが	-9.13638
時の	-9.1378
とで	-9.13923
てしま	-9.14461
187	-9.14677
したこと	-9.14785
文化財	-9.15473
せた	-9.15534
するため	-9.15655
れら	-9.15655
といわれ	-9.15801
を持	-9.15874
と言われ	-9.15898
ったの	-9.1591
の地	-9.15922
(12	-9.15983
ったこ	-9.16093
▁な	-9.16117
期に	-9.16606
知られ	-9.16753
ただ	-9.16851
87	-9.16924
できる	-9.17047
めら	-9.17047
ていること	-9.17109
これら	-9.17602
いたと	-9.1764
あること	-9.17664
きた	-9.17739
▁ただし	-9.17863
れたもの	-9.18161
られていた	-9.18285
おいては	-9.1841
れたと	-9.1846
は大	-9.18509
まっ	-9.18859
▁そのた	-9.1896
ることにな	-9.19223
にかけて	-9.19311
学校	-9.19311
からの	-9.19475
言われている	-9.1974
いわ	-9.20069
▁2	-9.2012
ものが	-9.2012
関係	-9.20171
の間	-9.20323
だっ	-9.20425
▁(	-9.20935
いと	-9.21012
ことができ	-9.21063
ただし	-9.21307
であったと	-9.21448
ていたと	-9.21602
いわれ	-9.21963
じられ	-9.2208
いたが	-9.22196
▁江戸時代	-9.22287
とにな	-9.22585
在の	-9.22689
れてお	-9.22703
一般	-9.2282
物語	-9.23028
ころ	-9.23055
足利	-9.23055
99	-9.23264
としてい	-9.23526
..	-9.23578
いること	-9.23578
中心	-9.23578
都府	-9.23605
出し	-9.23631
とき	-9.23683
たとさ	-9.23723
際に	-9.24026
以降	-9.24052
もあった	-9.24211
90	-9.24237
▁現在	-9.24237
(186	-9.24316
さら	-9.24422
るなど	-9.24435
それぞれ	-9.24794
取り	-9.2482
中に	-9.24873
の日	-9.25033
000	-9.25113
大き	-9.2514
と考	-9.25193
当時の	-9.25233
いられ	-9.25313
にあった	-9.2538
見られる	-9.25487
かけて	-9.25514
199	-9.25554
」(	-9.25728
多くの	-9.25916
寺の	-9.26078
▁20	-9.26199
▁そして	-9.26564
されるこ	-9.26564
どが	-9.26672
たことから	-9.26726
戦い	-9.26726
おけ	-9.26997
ともあ	-9.27011
21	-9.27133
あるいは	-9.27215
地方	-9.27242
時に	-9.27242
もと	-9.2727
であったが	-9.27338
たと考えられ	-9.27624
▁これに	-9.27652
るために	-9.27652
せる	-9.27734
▁同	-9.27843
大阪	-9.27843
りの	-9.28035
▁ただ	-9.28407
たことが	-9.28476
ることができ	-9.28531
てきた	-9.2878
らは	-9.28863
であること	-9.29195
しま	-9.29251
いで	-9.29418
ることから	-9.29613
用いら	-9.29613
いるが	-9.29655
と同	-9.29948
入れ	-9.30004
立し	-9.30116
そして	-9.30411
...	-9.30495
のために	-9.3065
にあた	-9.30749
の家	-9.30791
50	-9.31159
▁江戸	-9.31301
89	-9.31414
ことが多	-9.31556
倉時代	-9.31599
鎌倉時	-9.31684
もあっ	-9.3177
たのは	-9.31813
に対する	-9.31898
考えられる	-9.32084
ることが多	-9.32227
使用	-9.32327
がら	-9.32672
することが	-9.32729
88	-9.33017
と考えられる	-9.33104
室町時代	-9.33162
研究	-9.33307
ことと	-9.33364
たる	-9.33393
または	-9.33625
を受けて	-9.33683
世紀	-9.33742
徳川家	-9.33756
生ま	-9.33829
▁現	-9.33887
きな	-9.33887
こう	-9.34004
ったた	-9.34018
しており	-9.34208
はこ	-9.34237
どを	-9.34412
まり	-9.34412
れな	-9.34412
こととな	-9.34559
同じ	-9.34823
が行わ	-9.34896
けら	-9.34941
25	-9.35029
しく	-9.35029
大名	-9.35029
言われてい	-9.35058
98	-9.35117
中で	-9.35117
ることとな	-9.35132
188	-9.35161
ることもあ	-9.35427
行われた	-9.35442
だが	-9.35531
になり	-9.3556
されるようにな	-9.35575
うこと	-9.35783
させた	-9.35783
皇子	-9.35827
はそ	-9.35976
こともある	-9.3602
と言われている	-9.36095
189	-9.36452
江戸時代に	-9.36467
そのた	-9.36542
にあっ	-9.36542
信長	-9.36602
60	-9.36662
はその	-9.36767
▁それ	-9.36946
したという	-9.37067
知ら	-9.37413
するように	-9.37443
の神	-9.37473
するよう	-9.37534
ることは	-9.37957
納言	-9.3823
えられた	-9.38261
したの	-9.38306
に関	-9.38383
になっている	-9.38535
くの	-9.38565
22	-9.38626
といった	-9.38626
れることが	-9.38657
94	-9.38749
ているこ	-9.3881
る場合	-9.39039
とこ	-9.39055
にかけ	-9.3927
24	-9.39423
としている	-9.39423
重要文化財	-9.39731
などで	-9.3987
(10	-9.40195
ていっ	-9.40428
いが	-9.40506
にして	-9.40615
間に	-9.40662
者の	-9.4088
するようにな	-9.41036
を受けた	-9.41036
23	-9.41287
ることと	-9.41412
したこ	-9.41601
どに	-9.41632
92	-9.4179
定さ	-9.41821
なっていた	-9.41837
こととなった	-9.42073
を中心	-9.42073
▁さらに	-9.42105
の娘	-9.422
あた	-9.4239
いてい	-9.42501
194	-9.42596
下の	-9.42644
かれてい	-9.42676
かれて	-9.42691
ができ	-9.42739
てしまった	-9.42946
192	-9.43026
と言わ	-9.43026
のう	-9.43185
ことがで	-9.43313
されるように	-9.43313
に任	-9.43313
とができ	-9.43377
のうち	-9.43457
を与え	-9.43457
したため	-9.43505
)」	-9.43538
せて	-9.43538
190	-9.4365
28	-9.43826
といわ	-9.43843
するた	-9.43939
国に	-9.43955
ていたこと	-9.43987
立した	-9.43987
特に	-9.4402
ものの	-9.44132
ていると	-9.44149
言わ	-9.44278
与え	-9.4431
秀吉	-9.4431
にあたる	-9.44407
したとい	-9.44536
武天皇	-9.44617
と思われる	-9.44796
してお	-9.44861
たち	-9.45088
」「	-9.45251
伝えられ	-9.45251
このよう	-9.45317
あるこ	-9.45349
の中で	-9.45594
かれた	-9.45742
室町	-9.45775
198	-9.45791
重要	-9.45873
いたこと	-9.45906
歴史	-9.45906
97	-9.46004
(13	-9.46087
たのである	-9.46103
衛門	-9.46103
91	-9.46136
ったもの	-9.46301
くなっ	-9.46432
を行っ	-9.46432
に任じられ	-9.46515
ることとなった	-9.46515
れたも	-9.46581
らな	-9.46598
の乱	-9.46664
ることがで	-9.4668
まれた	-9.4673
意味	-9.4673
ことが多い	-9.46763
しても	-9.46829
下に	-9.46829
子と	-9.46929
うし	-9.47062
の一つ	-9.47128
-1	-9.47261
まれる	-9.47278
および	-9.47528
ート	-9.47528
かな	-9.47561
95	-9.47828
だし	-9.47828
と共に	-9.48281
にか	-9.48298
と言われてい	-9.48534
だけ	-9.48635
事件	-9.48736
たことか	-9.48837
定されてい	-9.48854
付け	-9.48871
対する	-9.48939
なら	-9.49041
▁このため	-9.49193
80	-9.49278
をし	-9.49278
時代には	-9.49312
ことになる	-9.49448
の上	-9.49448
らず	-9.49448
といっ	-9.49499
記されている	-9.49652
行われる	-9.4972
守護	-9.49788
▁本	-9.49857
てし	-9.49891
ほとんど	-9.49925
の人	-9.49994
られるようにな	-9.50165
一部	-9.50233
るもので	-9.50268
きる	-9.50302
代目	-9.50336
▁後	-9.50473
であるこ	-9.50473
じて	-9.50508
日本書紀	-9.50542
かれている	-9.50645
れているが	-9.50731
名は	-9.50921
見ら	-9.50921
行っ	-9.50956
てき	-9.5099
定されている	-9.5099
いら	-9.51025
るな	-9.51128
に大	-9.51267
同年	-9.51267
これらの	-9.51302
とする説	-9.51302
与えられ	-9.51302
たと考えられている	-9.51354
うち	-9.51371
この時	-9.51458
いわれる	-9.51579
められた	-9.51579
ることか	-9.51649
はじめ	-9.51666
力を	-9.51684
政治	-9.51684
70	-9.51718
191	-9.5177
いるこ	-9.51823
ることが多い	-9.51823
朝廷	-9.51823
▁これら	-9.51858
りに	-9.51927
)・	-9.52102
伝え	-9.52137
がい	-9.52312
用さ	-9.52417
の場	-9.52452
子に	-9.52557
▁た	-9.52627
言われて	-9.52697
によれば	-9.52768
られるように	-9.52768
に出	-9.52803
96	-9.52979
いに	-9.53085
といわれる	-9.53085
上の	-9.53085
▁中	-9.5312
政府	-9.5312
の武	-9.5319
以下	-9.53261
れぞれ	-9.53403
それぞ	-9.53509
が行	-9.53651
▁平	-9.53686
存在し	-9.53775
したもので	-9.53793
するもの	-9.53828
幕府の	-9.54041
と思われ	-9.54113
ようになる	-9.54148
説もある	-9.54184
されており	-9.54238
ことができる	-9.54255
たのであ	-9.54255
バス	-9.54291
93	-9.54327
府の	-9.54362
足利義	-9.5447
26	-9.54577
ことになっ	-9.54595
る事	-9.54685
れるが	-9.54685
こととなっ	-9.54864
武士	-9.54972
受けて	-9.55062
年には	-9.55062
織田	-9.55116
地域	-9.55152
(14	-9.5517
用いられる	-9.55224
▁そし	-9.55278
いの	-9.55296
地に	-9.55296
ようと	-9.55332
ことであ	-9.55404
わっ	-9.55476
はなかった	-9.55494
あるい	-9.55549
いは	-9.55549
るいは	-9.55983
化財	-9.5602
までの	-9.56038
えてい	-9.56201
ることとなっ	-9.56311
27	-9.56456
天皇が	-9.56529
されるよう	-9.56584
任じられ	-9.56639
を用い	-9.57189
くなった	-9.57299
ともある	-9.57446
をも	-9.57594
江戸時代の	-9.57594
人物	-9.57668
記され	-9.57686
てしまっ	-9.57742
ものであった	-9.57742
ることもある	-9.57742
知られる	-9.5789
なくな	-9.57908
させる	-9.58019
ことになった	-9.58075
るようになる	-9.58075
近衛	-9.58186
人と	-9.58223
日本で	-9.58242
になると	-9.58558
の場合	-9.58577
なもの	-9.58688
れない	-9.58688
一方	-9.58707
戸時代に	-9.58782
一つ	-9.59006
なると	-9.59025
ととなった	-9.59175
されたもの	-9.59362
前に	-9.59419
されるようになっ	-9.59456
のではな	-9.59456
らない	-9.59757
日本に	-9.59757
朝鮮	-9.59795
85	-9.59871
藩主	-9.59946
』(	-9.60059
197	-9.60211
とが多	-9.60211
んでい	-9.60268
の長	-9.60287
100	-9.60325
195	-9.60325
川家	-9.60363
記されてい	-9.604
存在する	-9.60438
に対す	-9.60495
戦国時代	-9.6059
たと考え	-9.60819
源氏物語	-9.60819
とも呼ばれ	-9.60876
たものと	-9.60895
和歌	-9.60895
行った	-9.60952
されるようになった	-9.6101
によると	-9.61201
いると	-9.61239
受けた	-9.61239
しまった	-9.61277
定されて	-9.61277
はこの	-9.61296
じら	-9.61392
ることができる	-9.6145
以下の	-9.61469
死去	-9.61469
ないと	-9.61526
たと考えられてい	-9.61584
ための	-9.61584
町時代	-9.61642
のち	-9.61699
れらの	-9.61757
重要文化	-9.61815
することに	-9.61834
あって	-9.6193
ととな	-9.61988
出され	-9.62046
要文化財	-9.62046
にした	-9.62104
以後	-9.62123
代には	-9.6222
と言われて	-9.62413
仏教	-9.62432
行われてい	-9.6251
のとき	-9.62568
せられ	-9.62626
などと	-9.62626
、2	-9.62665
からは	-9.62918
を見	-9.62937
一般的	-9.63151
る場	-9.63171
どで	-9.63288
設置	-9.63366
わせ	-9.63405
ター	-9.63405
を行う	-9.63444
家康	-9.63484
かに	-9.63562
29	-9.63679
このため	-9.63836
方の	-9.63876
使われ	-9.63915
られるよう	-9.63974
れたが	-9.63974
たことに	-9.64151
と称	-9.64151
うこ	-9.64269
大納言	-9.64269
れていない	-9.64368
ことがあ	-9.64388
ことである	-9.64467
支配	-9.64506
ていたこ	-9.64546
後は	-9.64546
時代中期	-9.64546
を指	-9.64585
思われる	-9.64625
するよ	-9.64803
を持つ	-9.64863
▁文	-9.64903
位下	-9.64903
ということ	-9.65061
のであった	-9.65061
ともい	-9.65101
のを	-9.65141
めの	-9.65221
イン	-9.65221
▁このよう	-9.65261
引き	-9.6534
影響	-9.6538
行われて	-9.6542
もい	-9.6558
たは	-9.6566
れていな	-9.6566
ものを	-9.657
らし	-9.659
の時代	-9.6606
成立	-9.6606
時代後期	-9.6606
68	-9.66101
は日本	-9.66181
の際	-9.66221
しながら	-9.66382
家に	-9.66544
(187	-9.66624
メートル	-9.66624
しない	-9.66725
が出	-9.66948
に関する	-9.66948
193	-9.66968
るのは	-9.67029
られること	-9.6707
ることになった	-9.6711
は一	-9.67354
上に	-9.67354
するも	-9.67395
するが	-9.67456
されてお	-9.67517
北条	-9.67762
の国	-9.67802
▁しかしながら	-9.67823
ることになっ	-9.67884
58	-9.68007
▁江	-9.68007
こうし	-9.68007
を中	-9.68007
したものであ	-9.6813
化し	-9.6813
もあり	-9.68253
生まれる	-9.68335
以上	-9.685
に任じら	-9.68582
のの	-9.68706
が多く	-9.68809
40	-9.68829
けられた	-9.68829
196	-9.68871
られるようになっ	-9.68912
共に	-9.68953
とが多い	-9.68995
そし	-9.69077
初期	-9.69119
の意	-9.6916
されたと	-9.69326
ことがある	-9.6943
あったこと	-9.69534
を得	-9.69534
を行った	-9.69742
置され	-9.69742
間の	-9.69742
在する	-9.6993
られるようになった	-9.69992
道の	-9.70159
寺院	-9.70411
がな	-9.70495
▁さら	-9.70558
ことによ	-9.70579
たと考えられて	-9.70579
従五位	-9.70621
したた	-9.70747
くは	-9.70873
ったとされ	-9.70894
た後	-9.70958
ているの	-9.71
▁このた	-9.71084
の日本	-9.71126
京阪	-9.71126
出した	-9.7119
84	-9.71211
およ	-9.71211
めてい	-9.71253
言われる	-9.71253
れることも	-9.71317
本に	-9.7138
るものであ	-9.71423
ろう	-9.71423
うとし	-9.71507
者が	-9.7155
記されて	-9.71592
する説	-9.71635
とになる	-9.71677
このような	-9.71741
(7	-9.71762
▁元	-9.7189
ることで	-9.71932
ものであっ	-9.71954
、18	-9.72018
倉時	-9.7206
とがで	-9.72082
れたこと	-9.72103
大きな	-9.7221
使用され	-9.72359
いたこ	-9.72466
とができる	-9.72488
あたる	-9.7253
のあ	-9.7253
鎌倉幕府	-9.72702
るので	-9.72723
として生まれ	-9.72788
地の	-9.72831
つけ	-9.72874
合わせ	-9.72917
人が	-9.7296
を務め	-9.7324
でい	-9.73305
及び	-9.73305
頼朝	-9.73391
とされた	-9.73477
勢力	-9.73477
の中に	-9.73499
名を	-9.73607
称され	-9.73629
在し	-9.73737
生まれた	-9.73737
伝えら	-9.73759
織田信	-9.73824
豊臣	-9.73868
このよ	-9.73889
もな	-9.73998
を開	-9.73998
ったので	-9.74259
れなかった	-9.74324
わって	-9.74346
内に	-9.7439
するようになった	-9.74521
っており	-9.74521
ったも	-9.74608
長の	-9.74652
説もあ	-9.74674
行う	-9.74696
ほど	-9.74827
時期	-9.74915
ができる	-9.74959
大和	-9.75003
起こ	-9.75047
とになった	-9.75091
ール	-9.75091
立て	-9.75091
いられる	-9.75135
とになっ	-9.75135
の戦いで	-9.75223
するようになっ	-9.75245
33	-9.75311
のまま	-9.75333
利用	-9.75355
がいる	-9.75399
としても	-9.75399
うになる	-9.75575
ラン	-9.75575
可能	-9.75575
の他	-9.75708
は京都	-9.75797
の三	-9.75885
用し	-9.75885
ととなっ	-9.75929
成され	-9.75996
▁正	-9.76018
れると	-9.76062
日本書	-9.76262
わり	-9.76329
のでは	-9.76396
かつ	-9.76641
本で	-9.76641
として知られ	-9.76731
現在で	-9.76798
伊勢	-9.7682
ようになり	-9.76865
軍の	-9.76865
江戸幕府	-9.76909
設置され	-9.76909
の出	-9.77044
のに	-9.77133
日の	-9.77133
五位	-9.77223
という説	-9.77538
の間に	-9.77538
思われ	-9.77538
なったと	-9.77718
は日	-9.77718
▁だが	-9.77741
を中心に	-9.77899
するために	-9.77989
まま	-9.77989
いこと	-9.78012
てしまう	-9.7808
とんど	-9.7808
いもの	-9.78148
しょう	-9.78216
じょう	-9.78216
たとする	-9.78261
れが	-9.78307
大正	-9.78307
に移	-9.78398
はじ	-9.78398
されるよ	-9.78443
歌舞伎	-9.78557
ほとん	-9.78625
豊臣秀吉	-9.78625
宗の	-9.78716
に仕え	-9.78762
を指す	-9.7883
と共	-9.78853
氏は	-9.78899
に従	-9.79036
右衛門	-9.79104
従五位下	-9.79173
的には	-9.79173
本書紀	-9.7931
れたの	-9.79379
をはじめ	-9.7954
るようになり	-9.79586
列車	-9.79586
」、	-9.79632
いている	-9.79632
南北朝時代	-9.79701
ほか	-9.79816
与えら	-9.79862
制度	-9.79862
▁京都市	-9.79908
戸時代の	-9.79908
近江	-9.79954
したものである	-9.79977
来の	-9.8
豊臣秀	-9.8
けで	-9.80139
養子	-9.80139
の死	-9.80232
59	-9.80278
作られ	-9.80278
りを	-9.80371
大将	-9.80417
うとした	-9.80463
がで	-9.80463
戦争	-9.80463
のことで	-9.80556
▁199	-9.80649
奈良時代	-9.80742
世界	-9.80835
スト	-9.81255
こうした	-9.81302
められて	-9.81302
されたも	-9.81395
よれば	-9.81395
によれ	-9.81466
天正	-9.81583
▁藤原	-9.81677
のであっ	-9.81677
(8	-9.81723
とがある	-9.81771
ではないか	-9.81794
天皇に	-9.81818
慶長	-9.81818
71	-9.81912
寺に	-9.81912
れたもので	-9.82029
三条	-9.82147
料理	-9.82147
と思わ	-9.82171
▁東	-9.82194
しかしながら	-9.82242
作品	-9.82242
時代初期	-9.82242
83	-9.82289
しまっ	-9.82383
必要	-9.82431
の文	-9.82478
前の	-9.82478
部の	-9.82478
のことであ	-9.82502
王の	-9.82525
者と	-9.82573
も呼ばれ	-9.8262
▁当	-9.82667
他の	-9.82667
(118	-9.82715
以外	-9.82857
田信	-9.82857
できな	-9.82881
とであ	-9.82952
とも呼ば	-9.83095
左衛門	-9.83095
しようと	-9.8319
ちに	-9.83238
67	-9.83286
を与	-9.83286
の際に	-9.83381
もっ	-9.83381
天皇は	-9.83381
▁三	-9.83429
は不	-9.83429
の一部	-9.83453
われていた	-9.83453
82	-9.83477
なも	-9.83477
れることが多	-9.83525
を継	-9.83525
うした	-9.83596
とがあ	-9.83668
上げ	-9.83716
伏見	-9.83716
かつて	-9.8374
じめ	-9.8386
皇が	-9.83956
時代末期	-9.84052
織田信長	-9.84148
していった	-9.84172
07	-9.84244
てられ	-9.84244
ではないかと	-9.84244
本願寺	-9.84244
の本	-9.84293
も多	-9.84341
戦国	-9.84341
征夷大将軍	-9.84413
)2	-9.84534
それに	-9.84606
五位下	-9.84606
69	-9.84679
いか	-9.84679
国時代	-9.84679
それを	-9.84752
▁第	-9.84873
いく	-9.8497
いわれている	-9.8497
ーム	-9.8497
子を	-9.8497
に任じ	-9.85042
いうこと	-9.85115
武天	-9.85115
任じら	-9.85188
持つ	-9.8531
▁一方	-9.85334
入り	-9.85359
でもあ	-9.85407
られるよ	-9.85407
後期	-9.85456
たと言われ	-9.85505
というこ	-9.85602
のか	-9.85602
▁同年	-9.85627
の記	-9.85651
登場	-9.857
人に	-9.85749
じた	-9.85798
とである	-9.85798
だけで	-9.85847
となっていた	-9.85847
れることもあ	-9.85847
細川	-9.85847
家と	-9.85896
158	-9.8592
72	-9.85945
といわれている	-9.85969
子が	-9.85994
その他	-9.86067
律令	-9.86141
醍醐天皇	-9.8619
の作	-9.86239
するの	-9.86288
部分	-9.86337
)3	-9.86387
31	-9.86387
そう	-9.86485
るい	-9.86485
いても	-9.86806
げられ	-9.86806
ばれた	-9.86806
▁平安時代	-9.86979
118	-9.87029
中納言	-9.87029
ものは	-9.87103
81	-9.87177
よび	-9.87177
分の	-9.87177
のではない	-9.87227
わる	-9.87227
家臣	-9.87227
けてい	-9.87252
と呼ぶ	-9.87252
▁こうし	-9.87276
57	-9.87376
するなど	-9.87475
ってお	-9.87475
つの	-9.87475
75	-9.87525
年間	-9.87575
して生まれ	-9.876
だと	-9.87625
を取	-9.87675
人として	-9.87675
指定	-9.87675
中の	-9.87724
▁父	-9.87774
方に	-9.87824
することを	-9.87849
をして	-9.87849
用する	-9.87849
ット	-9.87874
たか	-9.87924
位に	-9.87924
らが	-9.88124
主に	-9.88224
の皇	-9.88274
61	-9.88325
リー	-9.88325
明治時代	-9.88576
を与えられ	-9.88727
時代中	-9.88752
あるとい	-9.88777
は京	-9.88929
称し	-9.8903
いるの	-9.89055
と伝えられ	-9.89105
存在す	-9.89131
しょ	-9.89232
たといわれ	-9.89232
対す	-9.89232
たと考	-9.89283
られるこ	-9.89283
仕え	-9.89333
においても	-9.89359
名の	-9.89384
よると	-9.89435
呼ばれた	-9.89485
氏物語	-9.89511
代表	-9.89536
を中心と	-9.89587
時代から	-9.89587
▁これらの	-9.89612
の関	-9.89638
不明	-9.89638
古墳	-9.89638
の事	-9.8974
子は	-9.8979
を使	-9.89841
あるという	-9.89867
などがあ	-9.89892
太子	-9.89892
奈良県	-9.89969
麻呂	-9.89994
とも呼ばれる	-9.90045
京都府京都市	-9.90045
にて	-9.90096
山の	-9.90096
を出	-9.90147
方で	-9.90199
認められ	-9.90199
っては	-9.90275
ていく	-9.90275
01	-9.90301
京区	-9.90301
重要文	-9.90352
出さ	-9.90403
者は	-9.90403
(9	-9.90455
▁この時	-9.90506
代から	-9.90506
異な	-9.90557
要文化	-9.90583
あったこ	-9.90608
徳川家康	-9.90608
社の	-9.90608
を経て	-9.9066
メー	-9.9066
記録	-9.90711
のま	-9.90763
内の	-9.90763
このた	-9.90891
と呼ばれた	-9.90891
であるとい	-9.9102
められてい	-9.9102
が発	-9.91123
のことである	-9.91123
以前	-9.91226
市の	-9.91278
が大	-9.91381
などがある	-9.91407
時代後	-9.91511
▁194	-9.91537
かったと	-9.91537
者として	-9.91537
醍醐	-9.91537
いずれ	-9.91666
るとされ	-9.91744
中心と	-9.91822
の内	-9.919
中心に	-9.919
仁親王	-9.91978
貴族	-9.92004
ないが	-9.92056
母は	-9.92056
▁近	-9.92213
場合は	-9.92213
いだ	-9.92265
代中期	-9.92291
を用	-9.92317
少な	-9.92317
知られてい	-9.92317
そのまま	-9.92369
の公	-9.92369
185	-9.92448
▁長	-9.92474
そこ	-9.92474
登場する	-9.92578
62	-9.92683
であるという	-9.92683
していたが	-9.92709
▁以	-9.92736
の天	-9.92841
実際	-9.92841
線の	-9.92841
しなが	-9.92919
ることがあ	-9.92972
63	-9.92998
ったとさ	-9.92998
室町幕府	-9.92998
映画	-9.92998
日本では	-9.93103
の代	-9.93156
の影響	-9.93156
政権	-9.93209
女性	-9.93314
廃止	-9.93314
いなかった	-9.93367
ぞれ	-9.93367
とも言われ	-9.93367
れぞ	-9.9342
公家	-9.9342
▁12	-9.93472
西日本	-9.93472
、200	-9.93525
らか	-9.93525
を持っ	-9.93552
の実	-9.93631
ートル	-9.93631
即位	-9.93631
説が	-9.93631
の高	-9.93684
▁198	-9.93737
のことを	-9.93737
自ら	-9.93737
後醍醐天皇	-9.93763
▁山	-9.9379
いこ	-9.9379
各地	-9.9379
たものの	-9.93843
称する	-9.93869
に行	-9.93896
務め	-9.93896
と言われる	-9.94029
(158	-9.94162
兵衛	-9.94162
代後期	-9.94188
ゅう	-9.94215
を経	-9.94215
阿弥	-9.94215
....	-9.94268
が行われた	-9.94295
利義	-9.94321
として知ら	-9.94428
一人	-9.94481
06	-9.94588
いわゆる	-9.94588
の前	-9.94588
地で	-9.94641
)(18	-9.94695
現在では	-9.94695
に至	-9.94748
してしま	-9.94802
して知られ	-9.94829
平安時代末期	-9.94909
継承	-9.94909
▁これによ	-9.94963
と同じ	-9.94989
なくなっ	-9.95016
説がある	-9.95016
んど	-9.9507
中央	-9.9507
用されてい	-9.95097
)4	-9.95124
160	-9.9515
一族	-9.95177
64	-9.95231
メート	-9.95312
ることになる	-9.95554
関する	-9.95554
大きく	-9.95635
ったと考えられ	-9.95689
事に	-9.95716
たら	-9.9577
たとされている	-9.95878
山城	-9.95878
行し	-9.95878
73	-9.95932
置かれ	-9.9596
際には	-9.9596
ることがある	-9.96041
として生まれる	-9.96068
ようとし	-9.96095
159	-9.96122
京都の	-9.96122
記述	-9.96149
が一	-9.96204
じられた	-9.96204
わった	-9.96204
場合もあ	-9.96204
の変	-9.96312
使わ	-9.96312
66	-9.96367
であったこと	-9.96367
記さ	-9.96367
アメリカ	-9.96421
同様	-9.96475
かり	-9.9653
ここ	-9.9653
朝の	-9.9653
するという	-9.96584
在で	-9.96584
ひと	-9.96639
翌年	-9.96639
▁これを	-9.96748
たと言われている	-9.96748
(『	-9.96803
全国	-9.96803
していたと	-9.96857
中期	-9.96857
これによ	-9.96966
府に	-9.96966
場合もある	-9.96994
とも言	-9.97021
始め	-9.97076
浄土	-9.97076
35	-9.97186
ないこと	-9.97186
平成	-9.97405
といわれてい	-9.97515
るのが	-9.97515
と思	-9.9757
ったとされる	-9.9768
はこれ	-9.97763
よりも	-9.97763
んじ	-9.9779
あったため	-9.97818
まれて	-9.97846
軍に	-9.97846
このとき	-9.97956
が存在	-9.98011
うになり	-9.98067
る説	-9.98122
▁父は	-9.98177
できない	-9.98399
とによ	-9.98427
るまで	-9.9851
内親王	-9.98593
れたこ	-9.98677
問題	-9.98677
参照	-9.98733
かしながら	-9.98788
社会	-9.98788
56	-9.98844
ともいう	-9.98844
白河	-9.989
76	-9.98956
されていない	-9.99011
るか	-9.99067
れていたが	-9.99067
人で	-9.99067
家は	-9.99067
、20	-9.99095
知られている	-9.99179
されていな	-9.99207
の下	-9.99235
れたという	-9.99347
ース	-9.99403
太郎	-9.99403
説も	-9.99403
▁さ	-9.99459
えている	-9.99515
ったことから	-9.99515
名で	-9.99515
に分	-9.99571
にする	-9.99599
結果	-9.99684
のほ	-9.9974
いわれてい	-9.99768
与えられた	-9.99768
末期	-9.99796
たい	-9.99852
就任	-9.99909
成さ	-9.99909
とも呼	-9.99937
残ってい	-9.99965
たことを	-10.0008
りと	-10.0008
を受ける	-10.0008
書かれ	-10.0011
77	-10.0013
▁母は	-10.0028
源氏の	-10.0028
いも	-10.0036
の御	-10.0036
るものである	-10.0036
位置	-10.0036
物の	-10.0036
子で	-10.0042
74	-10.0047
いたという	-10.0047
呼ばれてい	-10.0047
れたものであ	-10.0053
ホーム	-10.0053
。」	-10.0059
されているが	-10.007
れることが多い	-10.0073
れることもある	-10.0073
)12	-10.0079
使用さ	-10.0079
(188	-10.0098
すべ	-10.0098
たために	-10.0098
をもって	-10.0098
族の	-10.0098
▁しかしな	-10.0104
異なる	-10.0113
65	-10.0116
れによ	-10.0121
をつ	-10.0121
加え	-10.0121
べて	-10.0127
78	-10.0133
ンド	-10.0133
▁平安	-10.0138
関東	-10.0144
倉幕府	-10.0147
武田	-10.015
せら	-10.0161
どと	-10.0161
はないかと	-10.0161
事を	-10.0161
持ち	-10.0161
院の	-10.0161
を取り	-10.0164
後白河	-10.0164
合わ	-10.0179
はなか	-10.0181
戦いで	-10.0181
の方	-10.019
位を	-10.019
を持って	-10.0202
北朝時代	-10.0202
派の	-10.0207
てから	-10.0216
の政	-10.023
の第	-10.0236
用されて	-10.0236
般的	-10.0242
認め	-10.0242
はないか	-10.0248
しまう	-10.0251
のひとつ	-10.0259
あったとい	-10.0262
すこと	-10.0277
することにな	-10.0277
たと言	-10.0277
にかけての	-10.0277
の子孫	-10.0277
知られて	-10.0282
用いる	-10.0285
行って	-10.0285
者に	-10.0288
ちの	-10.0294
の生	-10.0294
まれてい	-10.0294
場合も	-10.0294
月には	-10.0294
指す	-10.03
これが	-10.0303
しなかった	-10.0306
て生まれ	-10.0317
行われている	-10.0329
通り	-10.0335
出身	-10.0341
▁特に	-10.0346
されたが	-10.0352
ものも	-10.0355
に仕	-10.0364
持って	-10.0364
入っ	-10.037
ているもの	-10.0379
(2	-10.0381
▁藤	-10.0381
を発	-10.0381
始ま	-10.0405
ようとした	-10.0408
人を	-10.0411
たよう	-10.0417
本書	-10.0417
いたとい	-10.0423
として生	-10.0423
の主	-10.0423
わら	-10.0423
残っている	-10.0423
は不明	-10.0426
すなわち	-10.0434
親王の	-10.0434
っても	-10.0443
32	-10.0446
に入る	-10.0452
公卿	-10.0452
出家	-10.0452
子孫	-10.0452
定め	-10.0458
大納	-10.0464
のある	-10.047
ようになって	-10.047
国で	-10.047
時代初	-10.0479
天武天皇	-10.0482
を通	-10.0488
江戸幕	-10.0488
たのが	-10.0496
ていたため	-10.0496
現在は	-10.0496
08	-10.0499
たと考えられる	-10.0499
をする	-10.0505
呼ばれて	-10.0505
79	-10.0511
きに	-10.0517
活動	-10.0523
たとす	-10.0541
に参	-10.0547
影響を	-10.055
設置さ	-10.055
有力	-10.0553
かったため	-10.0556
になったと	-10.0556
いう説	-10.0559
りで	-10.0559
にと	-10.0565
に入っ	-10.0568
戸幕府	-10.0568
れたとい	-10.0577
明天皇	-10.0577
なくなった	-10.0586
▁当時	-10.0595
の役	-10.0595
れていること	-10.0595
▁192	-10.0601
こで	-10.0601
ばれてい	-10.0601
とする説もある	-10.0604
しば	-10.0607
名乗	-10.0607
教育	-10.0607
という意	-10.0613
に生まれ	-10.0613
成し	-10.0613
のほか	-10.0622
許され	-10.0622
しよう	-10.0631
するな	-10.0631
までは	-10.0631
いたため	-10.0637
していっ	-10.0637
されることが	-10.0649
らと	-10.0649
任し	-10.0649
和歌集	-10.0667
んでいる	-10.0673
多かった	-10.0673
夷大将軍	-10.0673
間で	-10.0673
▁195	-10.0685
しくは	-10.0685
05	-10.0691
55	-10.0691
皇は	-10.0691
時代末	-10.0694
たと言わ	-10.0697
行ってい	-10.0697
ていなかった	-10.0703
の対	-10.0703
三位	-10.0703
阿弥陀	-10.0703
じょ	-10.0709
▁こう	-10.0712
一方で	-10.0712
二条	-10.0715
なかったと	-10.0721
化した	-10.0721
臣秀吉	-10.0721
初め	-10.0727
157	-10.073
をはじ	-10.073
たところ	-10.0733
系統	-10.0733
京都府京都	-10.0736
舞鶴	-10.0739
トル	-10.0745
に指定され	-10.0751
大寺	-10.0751
に就任	-10.0758
人であ	-10.0758
実際に	-10.0758
言う	-10.0758
)10	-10.0776
▁これにより	-10.0776
九州	-10.0776
も呼ばれる	-10.0782
を行って	-10.0782
は江戸	-10.0785
松平	-10.0788
平氏	-10.0794
藩の	-10.0812
するとい	-10.0819
ひとつ	-10.0822
の発	-10.0825
という意味	-10.0828
都府京都市	-10.0828
▁江戸時代に	-10.0831
ところが	-10.0831
に行われ	-10.0831
っていった	-10.0843
と呼ばれて	-10.0843
のな	-10.0843
36	-10.0849
奉行	-10.0855
定された	-10.0855
に由来する	-10.0858
ンター	-10.0858
西日本旅客鉄道	-10.0858
に基づ	-10.0868
対立	-10.0868
開始	-10.0874
当初	-10.0886
用される	-10.0892
長男	-10.0892
きの	-10.0905
っていない	-10.0905
事が	-10.0911
家が	-10.0917
思わ	-10.0917
がっ	-10.0923
たと言われてい	-10.0923
と呼ばれてい	-10.0923
▁上	-10.0929
はあ	-10.0929
とって	-10.0932
権を	-10.0936
と称され	-10.0942
のもと	-10.0942
平安時代中期	-10.0942
氏と	-10.0942
者を	-10.0942
四位	-10.0948
良時代	-10.0951
(159	-10.0954
は天	-10.0954
地を	-10.096
して生ま	-10.0967
伝えられる	-10.0967
平安時代末	-10.0967
国家	-10.0973
皇に	-10.0973
たとされてい	-10.0979
ないか	-10.0979
れてきた	-10.0979
もって	-10.0988
ション	-10.0988
置さ	-10.0991
家を	-10.0998
当主	-10.0998
をしてい	-10.1004
行され	-10.1007
在す	-10.101
歳で	-10.101
時代中期の	-10.1013
代初期	-10.1016
武家	-10.1016
.....	-10.1029
といわれて	-10.1029
京都市営地下鉄	-10.1032
に当た	-10.1035
代将軍	-10.1035
権大納言	-10.1041
これにより	-10.1044
初代	-10.1048
荘園	-10.1054
いずれも	-10.1066
書紀	-10.1066
とん	-10.1073
以外の	-10.1073
けられて	-10.1079
明治維新	-10.1079
していな	-10.1092
信仰	-10.1098
宇治	-10.1098
代末期	-10.1101
止され	-10.1101
2006	-10.1104
と伝えら	-10.1104
南北	-10.111
従五	-10.111
ほと	-10.1117
電気鉄道	-10.1117
南北朝	-10.112
治元年	-10.112
説があ	-10.112
げた	-10.1123
はい	-10.1123
皇太	-10.1123
して生まれる	-10.1129
も呼ば	-10.1129
安土桃山時代	-10.1129
時代前期	-10.1129
治時代	-10.1129
父は	-10.1129
をは	-10.1136
おいても	-10.1142
持っ	-10.1142
菩薩	-10.1142
同時	-10.1155
いえ	-10.1174
北朝	-10.1174
名が	-10.1174
を参照	-10.1177
えば	-10.118
なわ	-10.118
呼ぶ	-10.118
たっ	-10.1186
有名	-10.1186
東京都	-10.1186
第一	-10.1199
食べ	-10.1199
任じ	-10.1205
いうこ	-10.1215
指定され	-10.1218
由来	-10.1224
定し	-10.1237
)11	-10.1244
に昇	-10.1244
の養	-10.1244
平家	-10.125
観音	-10.125
従四位	-10.1253
べき	-10.1263
外の	-10.1263
太政	-10.1263
2007	-10.1269
でな	-10.1269
らも	-10.1269
の養子	-10.1272
田信長	-10.1272
るに	-10.1276
河内	-10.1276
する説もある	-10.1282
理由	-10.1282
にす	-10.1288
されるが	-10.1295
ってしま	-10.1295
まる	-10.1295
用された	-10.1295
であったため	-10.1301
年不詳	-10.1301
氏に	-10.1308
」、「	-10.1311
であったこ	-10.1314
安時代末期	-10.1314
文書	-10.1327
て知られ	-10.1333
称さ	-10.1333
▁だ	-10.134
▁神	-10.134
れたものである	-10.1343
子として	-10.1346
と伝え	-10.135
と称し	-10.135
大将軍	-10.135
の手	-10.1353
もし	-10.1353
高い	-10.1353
あることから	-10.1359
ショ	-10.1359
海道	-10.1359
こともあっ	-10.1362
どがある	-10.1372
を務	-10.1372
歌舞	-10.1372
▁11	-10.1379
作ら	-10.1379
いたもの	-10.1385
本願	-10.1385
部に	-10.1385
建築	-10.1392
あったという	-10.1398
えていた	-10.1411
ていることから	-10.1411
どう	-10.1411
心に	-10.1431
願寺	-10.1437
を中心とし	-10.1444
所に	-10.1444
本では	-10.1447
子であ	-10.1457
▁このとき	-10.146
の関係	-10.1466
▁このような	-10.1476
とする説もあ	-10.1476
にとって	-10.1476
継いだ	-10.1486
うとする	-10.1489
もしくは	-10.1489
JR	-10.1496
醐天皇	-10.1496
っていな	-10.1502
本来	-10.1502
美術	-10.1502
人とし	-10.1506
していない	-10.1509
の形	-10.1515
よく	-10.1515
を行ってい	-10.1525
とも言わ	-10.1529
184	-10.1535
▁10	-10.1535
▁小	-10.1535
も言われ	-10.1542
伝わ	-10.1542
代中	-10.1548
れるもの	-10.1555
日本旅客鉄道	-10.1555
の建	-10.1562
ばれて	-10.1565
(157	-10.1568
たことも	-10.1568
▁古	-10.1575
の女	-10.1575
不明である	-10.1575
迎え	-10.1575
都の	-10.1575
があるが	-10.1581
として知	-10.1581
に関して	-10.1581
▁西	-10.1588
することと	-10.1591
られており	-10.1591
用いられた	-10.1591
かれる	-10.1595
れるようになる	-10.1595
が生	-10.1601
戦後	-10.1601
残って	-10.1604
▁高	-10.1608
したとされ	-10.1608
▁これに対し	-10.1614
参加	-10.1621
りも	-10.1628
のではないか	-10.1634
んでいた	-10.1634
▁ところが	-10.1641
に就	-10.1641
に当	-10.1641
45	-10.1648
して知ら	-10.1648
御所	-10.1648
02	-10.1654
43	-10.1654
でもある	-10.1661
同時に	-10.1664
いわれて	-10.1674
年代	-10.1681
けている	-10.1688
氏が	-10.1688
父の	-10.1688
がって	-10.1694
することとな	-10.1694
て大	-10.1694
初期の	-10.1694
第二	-10.1694
▁13	-10.1704
も多い	-10.1704
▁特	-10.1714
ったのである	-10.1714
作られた	-10.1714
子である	-10.1714
の弟	-10.1721
天文	-10.1721
していると	-10.1724
ていたとい	-10.1724
(160	-10.1728
34	-10.1728
つて	-10.1728
者とし	-10.1734
03	-10.1741
ったことか	-10.1741
兄弟	-10.1741
出して	-10.1744
同じく	-10.1744
えること	-10.1755
ていたという	-10.1755
ではなかった	-10.1755
わってい	-10.1755
われるようにな	-10.1758
54	-10.1761
リス	-10.1761
受ける	-10.1765
によっては	-10.1775
をもっ	-10.1775
代後	-10.1781
183	-10.1785
皇后	-10.1788
右衛	-10.1795
従三位	-10.1795
時代か	-10.1795
42	-10.1802
内容	-10.1802
の武将	-10.1805
活躍	-10.1808
48	-10.1815
▁このように	-10.1815
▁後に	-10.1825
04	-10.1829
に見	-10.1829
たものが	-10.1836
死去し	-10.1836
このように	-10.1842
の最	-10.1842
の東	-10.1842
にその	-10.1846
不詳	-10.1849
称される	-10.1849
とあ	-10.1856
ると考えられ	-10.1856
八幡	-10.1856
切り	-10.1856
博物館	-10.1856
門の	-10.1856
▁こうした	-10.1859
時代後期の	-10.1859
でに	-10.1863
持ってい	-10.1863
と言う	-10.1866
どがあ	-10.1866
以上の	-10.1866
けられる	-10.1876
の流	-10.1876
ものではな	-10.1876
るようになって	-10.1876
る場合もあ	-10.1876
名である	-10.1876
最初	-10.1876
認めら	-10.1876
▁享年	-10.1886
53	-10.189
が見られ	-10.189
上杉	-10.189
使われる	-10.189
けられてい	-10.1893
を求め	-10.1897
場する	-10.1897
成立し	-10.1897
期には	-10.1897
いるもの	-10.1903
してし	-10.1907
幕府に	-10.1907
物であ	-10.1907
政の	-10.191
舞伎	-10.191
くし	-10.1917
にそ	-10.1917
は後	-10.1917
福知山	-10.1917
は中	-10.1924
のひと	-10.1927
るとさ	-10.1927
る説もある	-10.1927
描かれ	-10.1927
合もある	-10.1931
存在した	-10.1931
帝国	-10.1931
川家康	-10.1938
のための	-10.1945
るま	-10.1945
161	-10.1948
でいる	-10.1948
とある	-10.1948
名であ	-10.1948
は平	-10.1958
子内親王	-10.1958
用されている	-10.1958
可能性	-10.1969
は不明である	-10.1979
れることにな	-10.1979
の通	-10.1993
城の	-10.1993
に任ぜられ	-10.1996
▁15	-10.1999
▁187	-10.1999
あったた	-10.1999
たとも	-10.1999
に用い	-10.1999
京都府京	-10.1999
御家人	-10.1999
46	-10.2006
大坂	-10.2006
▁子	-10.2013
が多かった	-10.2013
いため	-10.202
こともあった	-10.202
伝えられている	-10.202
合戦	-10.202
臣秀	-10.202
自分	-10.202
てら	-10.2027
ならない	-10.2027
に指定されている	-10.2027
くこと	-10.2041
そのま	-10.2041
これに対し	-10.2048
しん	-10.2048
とその	-10.2051
焼き	-10.2055
関白	-10.2055
いず	-10.2062
した後	-10.2062
に叙	-10.2062
求め	-10.2062
は平安時代	-10.2065
は江戸時代	-10.2065
▁国	-10.2069
人は	-10.2069
言葉	-10.2069
律令制	-10.2072
在では	-10.2082
の正	-10.2089
主と	-10.2089
様々な	-10.2093
成された	-10.2096
時は	-10.2096
物で	-10.211
たとき	-10.2114
ことにより	-10.2117
た事	-10.2117
のではないかと	-10.2117
男として生まれ	-10.2117
▁その他	-10.2124
▁鎌倉	-10.2124
たと言われて	-10.2124
れに対し	-10.2124
登場す	-10.2124
▁そこ	-10.2135
ときに	-10.2135
室町幕	-10.2135
次第に	-10.2135
つか	-10.2145
学者	-10.2145
関ヶ原の戦い	-10.2145
たとされて	-10.2152
ないかと	-10.2152
ようである	-10.2152
れにより	-10.2152
名称	-10.2152
かって	-10.2156
日本人	-10.2156
られな	-10.2166
元の	-10.2166
東大寺	-10.2166
されたこと	-10.217
の小	-10.2173
次の	-10.2173
神道	-10.2173
町幕府	-10.2177
の説	-10.218
うになって	-10.2187
ったと考え	-10.2187
ものであり	-10.2187
よれ	-10.2187
乗り	-10.2187
しかしな	-10.2194
なったの	-10.2194
京都に	-10.2198
おお	-10.2208
されると	-10.2208
で行われ	-10.2208
156	-10.2219
あるため	-10.2222
されたの	-10.2222
めている	-10.2222
らなかった	-10.2222
入る	-10.2222
如来	-10.2222
を設	-10.2229
要な	-10.2229
るための	-10.2236
出された	-10.2236
自身	-10.2236
に用いられ	-10.224
):	-10.2251
初の	-10.2251
後も	-10.2251
現代	-10.2251
が設置され	-10.2258
まれている	-10.2258
左衛	-10.2265
成立した	-10.2265
500	-10.2272
たって	-10.2272
た時	-10.2272
古事記	-10.2272
向か	-10.2279
皇太子	-10.2282
いし	-10.2286
ンス	-10.2286
上皇	-10.2286
と伝	-10.2293
なければ	-10.2293
当た	-10.2293
ずれ	-10.23
神社の	-10.2304
ものとして	-10.2311
▁7	-10.2314
▁享	-10.2314
いわゆ	-10.2314
げる	-10.2314
することができ	-10.2314
の一人	-10.2314
まって	-10.2314
右大臣	-10.2314
(6	-10.2321
▁190	-10.2321
▁母	-10.2321
るところ	-10.2321
期から	-10.2325
の寺	-10.2329
合は	-10.2329
して生	-10.2336
と伝えられる	-10.2336
ならな	-10.2336
わゆる	-10.2336
神と	-10.2336
秀吉の	-10.2336
称した	-10.2336
の頃	-10.2343
近代	-10.2343
47	-10.235
京都市営	-10.235
が開	-10.2357
れているこ	-10.2364
国時	-10.2364
指定されている	-10.2364
死後	-10.2364
四位下	-10.2368
かの	-10.2371
のもので	-10.2378
ホー	-10.2378
立され	-10.2378
ったのであ	-10.2382
とする説も	-10.2382
へと	-10.2386
手に	-10.2386
ないこ	-10.2389
朝時代	-10.2389
(185	-10.2393
たことで	-10.2393
の時代に	-10.2393
日本にお	-10.2393
物である	-10.2393
のお	-10.24
をした	-10.24
ード	-10.24
少なく	-10.24
出す	-10.2407
心と	-10.2407
れまで	-10.2411
者であ	-10.2411
ようになってい	-10.2414
家督	-10.2414
物を	-10.2414
開業	-10.2414
平安時代中	-10.2418
▁189	-10.2421
いることから	-10.2421
号は	-10.2421
入って	-10.2432
後醍醐	-10.2432
38	-10.2436
が見	-10.2436
太政大臣	-10.2436
教の	-10.2436
いたの	-10.2443
合もあ	-10.2443
定の	-10.2443
51	-10.245
かけての	-10.245
ども	-10.245
る場合も	-10.245
に近	-10.2457
技術	-10.2457
源義	-10.2457
目的	-10.2457
(189	-10.2465
男として	-10.2465
する説もあ	-10.2472
初めて	-10.2475
かと	-10.2479
49	-10.2486
がそ	-10.2486
させて	-10.2486
していること	-10.2486
はそれ	-10.2486
る場合もある	-10.2486
をす	-10.2486
てられた	-10.2494
をか	-10.2494
三郎	-10.2494
地下	-10.2494
皇族	-10.2494
の多	-10.2501
▁京都府	-10.2508
きない	-10.2508
の意味	-10.2508
れなか	-10.2508
メリカ	-10.2508
伝えられてい	-10.2508
継い	-10.2508
41	-10.2515
いを	-10.2515
なども	-10.2519
日本国	-10.2519
うじ	-10.253
出来	-10.253
日には	-10.253
▁そこで	-10.2537
かか	-10.2537
を通じて	-10.2537
信長の	-10.2541
世の	-10.2544
生没年不詳	-10.2544
ているも	-10.2552
ものでは	-10.2552
る大	-10.2552
完成	-10.2552
周辺	-10.2559
挙げ	-10.2559
て生まれる	-10.2563
てか	-10.2566
定められ	-10.2566
の死後	-10.2573
用した	-10.2573
称す	-10.2573
都市営地下鉄	-10.2573
▁197	-10.2581
の軍	-10.2581
丹波	-10.2581
田氏	-10.2581
ていたの	-10.2595
の長男	-10.2595
られたと	-10.2595
江戸時代には	-10.2595
を持ってい	-10.2599
▁慶	-10.2603
かん	-10.2603
命じ	-10.2603
▁昭和	-10.2606
このと	-10.2606
通じ	-10.261
39	-10.2617
なされ	-10.2617
の祖	-10.2617
を作	-10.2617
代わ	-10.2617
れたため	-10.2625
を示	-10.2625
もいう	-10.2628
活躍し	-10.2628
れることに	-10.2636
44	-10.2639
を務めた	-10.2639
として知られる	-10.2643
交通	-10.2647
嵯峨	-10.2647
用す	-10.2647
行の	-10.2647
用して	-10.265
げら	-10.2661
に改	-10.2661
われるように	-10.2661
神宮	-10.2661
ていたた	-10.2669
城を	-10.2669
があったと	-10.2672
がない	-10.2672
そこで	-10.2672
きく	-10.2676
▁現在の	-10.2683
事業	-10.2683
平安時代後期	-10.2683
所の	-10.2683
設立	-10.2683
52	-10.2691
が行われる	-10.2691
が見られる	-10.2691
ったと考えられている	-10.2691
とっ	-10.2691
の地位	-10.2695
されたもので	-10.2706
たと思われる	-10.2706
ンタ	-10.2706
としていた	-10.2709
機関	-10.272
武将	-10.272
せられた	-10.2728
ったことが	-10.2728
ていたことが	-10.2728
みな	-10.2728
るものと	-10.2728
平安時代の	-10.2728
続け	-10.2735
いという	-10.2743
の支	-10.2743
義経	-10.2743
伝えられて	-10.2746
側に	-10.275
条天皇	-10.275
かったが	-10.2758
わせて	-10.2761
が用いられ	-10.2765
たこともあ	-10.2765
古代	-10.2765
安時代中期	-10.2765
度の	-10.2765
かったた	-10.2772
などから	-10.2772
の伝	-10.2772
れることとな	-10.2772
180	-10.2784
に至る	-10.2784
更に	-10.2795
残っ	-10.2795
置する	-10.2795
場所	-10.2802
天皇の皇	-10.2802
東大	-10.281
(161	-10.2817
このこと	-10.2817
なかったため	-10.2817
付けられ	-10.2817
れるようになり	-10.2825
参議	-10.2825
ぜられ	-10.2828
左大臣	-10.2828
37	-10.2832
の山	-10.2832
性が	-10.284
いていた	-10.2847
が存在し	-10.2847
に伴	-10.2847
由来する	-10.2847
やがて	-10.2851
をかけ	-10.2851
鳥羽	-10.2855
けではな	-10.2862
じる	-10.2862
死去した	-10.2862
れも	-10.2877
に任じられた	-10.2885
を加え	-10.2885
他に	-10.2885
場合が	-10.2885
建立	-10.2885
事実	-10.29
等の	-10.29
あまり	-10.2907
であろう	-10.2907
に伝	-10.2915
133	-10.2919
っていっ	-10.2922
発展	-10.2922
の影	-10.293
われるようになった	-10.293
北条氏	-10.293
が行われて	-10.2934
るとされる	-10.2934
▁寛	-10.2937
ック	-10.2937
の歴史	-10.2941
に生	-10.2945
軍を	-10.2945
▁家	-10.2953
いう意味	-10.2953
くなって	-10.2953
げられる	-10.2953
つである	-10.2953
に指定さ	-10.2953
ると考え	-10.2953
代か	-10.2953
土桃山時代	-10.2953
近江国	-10.2953
に指定されてい	-10.2956
に一	-10.296
したり	-10.2964
▁日本の	-10.2968
ったのは	-10.2968
時間	-10.2968
都府京都	-10.2968
高等学校	-10.2968
いたことが	-10.2972
▁新	-10.2975
学の	-10.2983
都に	-10.2983
▁奈良	-10.2987
の中心	-10.2987
一般に	-10.2987
かる	-10.2998
が生まれ	-10.2998
本線	-10.2998
)5	-10.3006
経済	-10.3006
軍は	-10.3006
▁天正	-10.301
ことな	-10.301
にわた	-10.301
▁196	-10.3013
経て	-10.3021
たことによ	-10.3029
べる	-10.3029
るとともに	-10.3029
任ぜられ	-10.3029
活躍した	-10.3029
運転	-10.3029
てその	-10.3032
出家し	-10.3032
滋賀県	-10.3032
要文	-10.3036
身の	-10.3036
さん	-10.3044
吉の	-10.3044
しようとし	-10.3048
することは	-10.3048
良県	-10.3052
府京都市	-10.3059
置か	-10.3059
者で	-10.3059
の年	-10.3067
以下のよう	-10.3067
国立博物館	-10.3067
率い	-10.3067
そのもの	-10.3075
不明であ	-10.3075
本人	-10.3075
300	-10.3078
子とし	-10.3078
のだ	-10.3082
コー	-10.3082
▁これに対	-10.3086
が存在する	-10.3086
かい	-10.309
であったとい	-10.309
と見	-10.309
一般的に	-10.309
任命され	-10.309
子とな	-10.309
家で	-10.3098
▁鎌倉時代	-10.3105
た際	-10.3105
であったた	-10.3105
に加	-10.3105
資料	-10.3105
が起	-10.3113
会社	-10.3121
家督を	-10.3124
天平	-10.3128
流れ	-10.3128
うである	-10.3136
かで	-10.3136
してしまった	-10.3136
められている	-10.3136
太政官	-10.3136
伝統	-10.3144
したのは	-10.3151
中心とし	-10.3151
て生ま	-10.3159
でいた	-10.3159
地位	-10.3159
しているが	-10.3163
の教	-10.3167
国を	-10.3167
▁戦	-10.3182
したとされる	-10.3182
たと思われ	-10.3182
の一つで	-10.3182
の行	-10.3182
ヶ原の戦い	-10.3182
▁翌	-10.319
みの	-10.319
現存	-10.319
われるようになっ	-10.3198
代中期の	-10.3198
安時代末	-10.3198
形式	-10.3198
生没年不	-10.3198
このこ	-10.3206
在した	-10.3206
天皇と	-10.3206
家として	-10.3214
歌集	-10.3221
していたこと	-10.3229
た大	-10.3237
を結	-10.3237
ているため	-10.3241
▁ところ	-10.3245
市に	-10.3245
くに	-10.3252
城に	-10.3252
建設	-10.3252
歳の	-10.3252
的で	-10.3252
通じて	-10.3252
それまで	-10.326
ものとし	-10.326
権中納言	-10.326
去した	-10.3264
の僧	-10.3268
福寺	-10.3268
を名乗	-10.3276
常に	-10.3276
という説もある	-10.328
第二次世界大戦	-10.328
くなる	-10.3288
すなわ	-10.3288
目の	-10.3292
▁このこと	-10.3299
なわち	-10.3299
ものに	-10.3299
行した	-10.3299
が存	-10.3307
これに対	-10.3307
次男	-10.3307
すべて	-10.3311
れてき	-10.3311
西園寺	-10.3311
つと	-10.3315
は明	-10.3315
源頼	-10.3315
▁北	-10.3323
その後も	-10.3323
たといわれる	-10.3323
た場合	-10.3323
中国の	-10.3323
去し	-10.3323
書か	-10.3331
たらし	-10.3335
意味で	-10.3335
▁188	-10.3339
廃止され	-10.3339
従四位下	-10.3339
の間で	-10.3347
とも言われている	-10.3354
も言	-10.3354
られてお	-10.3354
呼ばれるようにな	-10.3354
西日	-10.3354
によるもの	-10.3358
立する	-10.3358
りが	-10.3362
国大	-10.3362
)(16	-10.337
しばしば	-10.337
たと伝えられ	-10.337
の新	-10.337
派遣	-10.337
本旅客鉄道	-10.3378
120	-10.3382
ければ	-10.3382
とそ	-10.3386
にい	-10.3386
めていた	-10.3386
の記述	-10.3394
あるとされ	-10.3398
市営地下鉄	-10.3398
いられた	-10.3402
と見られ	-10.3402
センター	-10.3402
いう意	-10.3406
世に	-10.341
1868	-10.3418
に伴い	-10.3418
に生ま	-10.3418
の上に	-10.3418
は不明であ	-10.3418
もあるが	-10.3418
指定されてい	-10.3418
月の	-10.3418
が高	-10.3426
分か	-10.3426
運動	-10.3426
いたた	-10.343
れるも	-10.343
(200	-10.3434
▁191	-10.3434
最後	-10.3434
任じられた	-10.3438
それ以	-10.3442
たようである	-10.3442
りであ	-10.3442
監督	-10.3442
くと	-10.345
文学	-10.345
明である	-10.345
がその	-10.3454
大阪府	-10.3454
つであ	-10.3465
のであり	-10.3465
れるの	-10.3465
を用いる	-10.3465
発生	-10.3465
重要な	-10.3465
のひ	-10.3473
路線	-10.3481
通称	-10.3481
することで	-10.3497
官位	-10.3497
府は	-10.3497
方面	-10.3497
的であ	-10.3501
非常に	-10.3501
,000	-10.3513
ころが	-10.3513
することとなった	-10.3513
生し	-10.3513
と呼ばれるようにな	-10.3525
務めた	-10.3525
征夷大	-10.3525
2005	-10.3529
けること	-10.3529
とつ	-10.3529
タン	-10.3529
国宝	-10.3529
長に	-10.3529
時代前	-10.3538
たものを	-10.3546
士の	-10.3546
弟の	-10.3546
キリスト教	-10.3558
ったと考えられてい	-10.3562
たとこ	-10.3574
ともあっ	-10.3578
万石	-10.3578
のちに	-10.3586
の多く	-10.3586
をはじめとする	-10.3586
たな	-10.3594
る説もあ	-10.3594
在は	-10.3594
生活	-10.3594
007	-10.3598
との間	-10.3598
置されてい	-10.3598
なし	-10.3602
になっていた	-10.361
に当たる	-10.361
れに対	-10.361
定される	-10.361
』、	-10.3618
からである	-10.3618
まう	-10.3618
本尊	-10.3618
を通じ	-10.3622
に立	-10.3626
れてしま	-10.3626
日記	-10.3626
に行わ	-10.3634
を兼	-10.3634
▁193	-10.3642
ものもあ	-10.3642
006	-10.3647
の二	-10.3659
を継い	-10.3659
内大臣	-10.3659
方が	-10.3659
中世	-10.3667
▁16	-10.3671
▁このと	-10.3675
が一般的	-10.3675
が設	-10.3675
弟子	-10.3675
男として生まれる	-10.3675
することも	-10.3679
に由来	-10.3683
の法	-10.3683
成した	-10.3683
ようであ	-10.3691
うか	-10.3699
なければならな	-10.3699
を含	-10.3699
ルー	-10.3699
いとい	-10.3708
といえ	-10.3708
にま	-10.3708
もっとも	-10.3708
ョン	-10.3708
式の	-10.3708
規模	-10.3708
攻め	-10.3716
▁このこ	-10.3724
すこ	-10.3724
の結	-10.3724
武天皇の	-10.3724
上で	-10.3732
土地	-10.3732
つで	-10.374
れ以	-10.374
を率いて	-10.374
数の	-10.374
時代以	-10.3744
しようとした	-10.3757
ないため	-10.3757
められる	-10.3757
をと	-10.3757
を中心とした	-10.3757
生した	-10.3757
将軍足利義	-10.3761
が起こ	-10.3769
09	-10.3773
じられる	-10.3773
する説も	-10.3773
に入って	-10.3773
法を	-10.3773
いることが	-10.3781
が行われてい	-10.3781
されな	-10.3781
を目	-10.3781
に転	-10.3798
を参	-10.3798
ばれている	-10.3802
したとさ	-10.3806
でなく	-10.3806
と称さ	-10.3806
までに	-10.3806
家人	-10.3806
思想	-10.3806
没年不詳	-10.3806
評価	-10.3806
頃から	-10.3806
改め	-10.3814
に位置	-10.3819
の時期	-10.3819
場合に	-10.3819
▁日本で	-10.3823
ともあった	-10.3823
めと	-10.3823
次郎	-10.3823
することがで	-10.3831
とう	-10.3831
と同様	-10.3831
法華	-10.3839
設置された	-10.3843
関ヶ原の戦	-10.3843
令制	-10.3847
▁8	-10.3856
うになってい	-10.3856
けられている	-10.3856
に指定されて	-10.3856
る場合が	-10.3856
んの	-10.3856
年不	-10.3856
最も	-10.3856
ゆる	-10.3864
をはじめと	-10.3864
正室	-10.3864
ってし	-10.3868
たといわれている	-10.3872
ないもの	-10.3872
も呼	-10.3872
)8	-10.3881
描かれている	-10.3881
に関しては	-10.3885
がこ	-10.3889
りである	-10.3889
原の戦い	-10.3889
ていることが	-10.3906
できなかった	-10.3906
るとする	-10.3906
山に	-10.3906
▁安	-10.3914
を主	-10.3914
ュー	-10.3914
)7	-10.3922
▁法	-10.3922
一条	-10.3922
再び	-10.3922
薩摩	-10.3922
許さ	-10.3922
はほとんど	-10.3927
ずれも	-10.3931
代藩主	-10.3931
呼ばれている	-10.3931
(156	-10.3939
ライ	-10.3939
原氏	-10.3939
を起こ	-10.3943
代前期	-10.3943
生没年	-10.3943
う説	-10.3947
わけではな	-10.3947
時代初期の	-10.3947
する場合	-10.3956
の結果	-10.3956
るものが	-10.3956
体制	-10.3956
国立	-10.3956
治維新	-10.3956
などは	-10.3968
2000	-10.3973
れることとなった	-10.3973
に参加	-10.3981
位下に	-10.3981
気鉄道	-10.3981
食べる	-10.3981
かわ	-10.3989
出て	-10.3989
に昇叙	-10.3994
つく	-10.3998
コン	-10.3998
享年	-10.3998
通の	-10.3998
ことはな	-10.4006
ちょう	-10.4006
のものが	-10.4006
は藤原	-10.4006
よっては	-10.4006
化して	-10.4006
行われていた	-10.4006
てた	-10.4015
の歌	-10.4015
やま	-10.4015
人々	-10.4015
権大	-10.4015
職を	-10.4015
に入り	-10.4019
の家臣	-10.4019
を入れ	-10.4019
▁と	-10.4023
うの	-10.4023
に入ると	-10.4023
計画	-10.4023
ごと	-10.4031
という説もあ	-10.4031
に叙せられ	-10.4031
に際し	-10.4031
の道	-10.4031
を率い	-10.4031
は東	-10.404
らを	-10.404
合わせて	-10.404
在してい	-10.404
建て	-10.404
特徴	-10.404
基本	-10.4048
宮の	-10.4048
寛永	-10.4048
する事	-10.4057
の場合は	-10.4057
をつけ	-10.4057
代後期の	-10.4057
位の	-10.4057
勢力を	-10.4057
物と	-10.4057
の遺	-10.4065
に関し	-10.4069
指定さ	-10.4069
(190	-10.4074
の書	-10.4074
の権	-10.4074
桃山時代	-10.4074
神の	-10.4074
あたり	-10.4082
ことによって	-10.4082
これに対して	-10.4082
されることも	-10.4082
て知ら	-10.4082
り入れ	-10.4082
ント	-10.4082
▁これが	-10.4091
しよ	-10.4091
を引	-10.4091
大夫	-10.4091
と推定され	-10.4095
の京都	-10.4095
ようで	-10.4095
る者	-10.4099
調査	-10.4099
▁これに対して	-10.4108
れることがあ	-10.4108
流の	-10.4108
違い	-10.4108
たよ	-10.4116
の官	-10.4116
られたもの	-10.4116
大津	-10.4116
合も	-10.4125
用の	-10.4125
』『	-10.4133
入った	-10.4133
のものであ	-10.4137
の一つであ	-10.4137
の重	-10.4142
を継いだ	-10.4142
程度	-10.415
2008	-10.4159
われるよう	-10.4159
化され	-10.4159
ばれるようにな	-10.4167
を知	-10.4167
アメ	-10.4167
内で	-10.4167
天保	-10.4167
施設	-10.4167
領主	-10.4167
を命じ	-10.4172
徳天皇	-10.4172
比叡山	-10.4172
使用する	-10.4176
記の	-10.4176
かったこと	-10.418
だけでなく	-10.418
ものもある	-10.418
して知られる	-10.4185
道を	-10.4185
▁6	-10.4193
なること	-10.4193
みに	-10.4193
代初	-10.4193
川氏	-10.4193
うとす	-10.4197
藤原氏	-10.4197
りし	-10.4202
ヨーロッパ	-10.4202
後白	-10.4202
にとっ	-10.421
に任ぜら	-10.421
含まれ	-10.4223
来する	-10.4223
真言宗	-10.4223
されたこ	-10.4227
あるの	-10.4236
いたも	-10.4236
に指定	-10.4236
る人	-10.4236
それぞれの	-10.4245
て生	-10.4245
人である	-10.4245
現れ	-10.4245
行っている	-10.4245
▁源	-10.4253
に基	-10.4253
弥陀	-10.4253
することとなっ	-10.4258
▁永	-10.4262
に使	-10.4262
位は	-10.4262
初期に	-10.4262
江戸時代初期	-10.4262
しているこ	-10.4266
われること	-10.4266
で行	-10.4271
る神	-10.4271
二位	-10.4271
天台	-10.4271
相当	-10.4271
)6	-10.4279
イギリス	-10.4279
次第	-10.4279
治の	-10.4279
浄土真宗	-10.4279
▁室町時代	-10.4288
いなか	-10.4288
れに対して	-10.4288
美濃	-10.4297
分け	-10.4305
したものと	-10.431
期にかけて	-10.431
があると	-10.4314
が一般	-10.4314
とにより	-10.4314
属する	-10.4314
もしく	-10.4327
任した	-10.4327
(184	-10.4331
は無	-10.4331
ものがあ	-10.4331
れることと	-10.4331
中村	-10.4331
代末	-10.4331
に日本	-10.434
も言わ	-10.434
るとこ	-10.434
ったと考	-10.4349
会の	-10.4349
東山	-10.4349
たという説	-10.4353
なっており	-10.4353
々の	-10.4357
こに	-10.4357
響を	-10.4357
_(	-10.4366
して知	-10.4366
を与えられた	-10.4366
正月	-10.4366
に登場する	-10.4375
平安時代後	-10.4375
うもの	-10.4379
わた	-10.4384
あら	-10.4392
が残	-10.4392
てそ	-10.4392
江戸時代中期	-10.4392
真言	-10.4392
に位置する	-10.4397
使われてい	-10.4397
の所	-10.4401
行さ	-10.4401
ったと考えられて	-10.4419
レー	-10.4419
伝わる	-10.4419
戸時代には	-10.4419
に属	-10.4427
の次	-10.4427
を得て	-10.4432
が置かれ	-10.4436
に用いら	-10.4436
に際して	-10.4436
の北	-10.4436
というもの	-10.4441
平安時代末期の	-10.4441
くる	-10.4445
代以	-10.4445
せてい	-10.4458
のみで	-10.4458
関して	-10.4458
▁通	-10.4463
しゅ	-10.4463
の命	-10.4463
描かれてい	-10.4463
▁現在で	-10.4471
にあり	-10.4471
みられ	-10.4471
後国	-10.4471
立して	-10.4471
置されて	-10.4471
名前	-10.448
えるこ	-10.4485
するもので	-10.4485
からであ	-10.4489
カー	-10.4489
延暦	-10.4489
発行	-10.4489
内閣	-10.4498
残されている	-10.4498
であったという	-10.4502
あることを	-10.4507
安時代後期	-10.4507
指定されて	-10.4507
鎌倉時代の	-10.4507
-19	-10.4511
なければなら	-10.4524
のとして	-10.4524
代わり	-10.4524
さまざまな	-10.4529
であるため	-10.4529
ることはな	-10.4529
平安時代に	-10.4529
は江	-10.4533
わず	-10.4533
様々	-10.4533
氏を	-10.4533
けでは	-10.4538
以降は	-10.4538
合が	-10.4542
戸幕	-10.4542
状態	-10.4542
の開	-10.4551
スタ	-10.4551
入され	-10.4551
形で	-10.4551
持っていた	-10.4551
新選組	-10.4551
だったと	-10.456
置された	-10.456
115	-10.4564
されたものであ	-10.4564
とも言われてい	-10.4564
呼ばれるように	-10.4564
定した	-10.4564
、3	-10.4569
してしまっ	-10.4573
時代末期の	-10.4573
のに対し	-10.4578
はこれを	-10.4578
前期	-10.4578
旅客鉄道	-10.4578
史料	-10.4587
続い	-10.4587
軍事	-10.4587
道路	-10.4587
)(17	-10.4596
と呼ばれるように	-10.4596
なかったが	-10.4596
るようになってい	-10.4596
一時	-10.4596
国内	-10.4596
明天	-10.4596
(「	-10.4605
』、『	-10.4605
いるため	-10.4613
きょう	-10.4618
なかったた	-10.4618
を行い	-10.4618
室町時代に	-10.4618
当初は	-10.4618
所領	-10.4622
れることがある	-10.4627
すな	-10.4631
の京	-10.4631
の次男	-10.4631
セン	-10.4631
たとする説	-10.464
五郎	-10.464
(115	-10.4649
あま	-10.4649
に上	-10.4649
国人	-10.4649
安時代中	-10.4649
院に	-10.4649
▁3	-10.4658
も言われている	-10.4658
側の	-10.4658
でもあった	-10.4663
してきた	-10.4667
にわ	-10.4667
法の	-10.4667
道に	-10.4667
150	-10.4672
てくる	-10.4672
中には	-10.4672
いい	-10.4676
を支	-10.4676
伝承	-10.4676
▁主	-10.4685
が現	-10.4685
だい	-10.4685
るものの	-10.4685
主張	-10.4685
行された	-10.4685
ものと考えられ	-10.469
の人物	-10.4699
東海道	-10.4699
なければならない	-10.4703
フランス	-10.4703
北近畿タンゴ鉄道	-10.4703
現存する	-10.4703
立博物館	-10.4703
ともいわれ	-10.4708
▁子に	-10.4712
いう説もある	-10.4712
けての	-10.4712
の武士	-10.4712
ろうと	-10.4712
を表	-10.4712
大久保	-10.4712
対象	-10.4712
の経	-10.4721
反対	-10.4721
長は	-10.4721
いるも	-10.4726
かしな	-10.4726
フラン	-10.4726
起こし	-10.4726
▁木	-10.473
呼ばれるようになった	-10.473
存在してい	-10.473
表記	-10.473
(116	-10.4739
▁9	-10.4739
▁義	-10.4739
せること	-10.4739
たようで	-10.4739
ていなか	-10.4739
とり	-10.4739
ほぼ	-10.4739
最初の	-10.4739
設け	-10.4739
くこ	-10.4749
町に	-10.4749
高等	-10.4749
などによ	-10.4758
は自	-10.4758
多数	-10.4758
実際には	-10.4758
表現	-10.4758
に日	-10.4767
る一	-10.4767
を中心とする	-10.4767
を使用	-10.4767
様に	-10.4767
したので	-10.4776
まってい	-10.4776
次世界大戦	-10.4776
は現	-10.4785
やす	-10.4785
れることとなっ	-10.4785
小路	-10.4785
』)	-10.4794
その後の	-10.4794
ってしまった	-10.4794
なっていった	-10.4794
明らか	-10.4794
用いられてい	-10.4794
維新	-10.4794
陸軍	-10.4794
残されてい	-10.4799
くら	-10.4803
近年	-10.4803
▁慶長	-10.4808
を迎え	-10.4808
であって	-10.4812
江国	-10.4812
たのではないか	-10.4817
▁一般	-10.4821
たようであ	-10.4821
ってき	-10.4821
の一つである	-10.4821
もそ	-10.4821
れていたこと	-10.4821
わっている	-10.4821
を挙げ	-10.4821
二次世界大戦	-10.4821
(183	-10.483
に向	-10.483
に向か	-10.4835
使用し	-10.4835
時期に	-10.4835
殺され	-10.4835
社に	-10.484
臣の	-10.484
ったとする	-10.4844
という説も	-10.4844
ふじわらの	-10.4844
を意味する	-10.4844
(117	-10.4849
中期の	-10.4849
れの	-10.4858
いかと	-10.4863
もなく	-10.4863
後期の	-10.4863
自分の	-10.4863
したことに	-10.4867
りな	-10.4867
くから	-10.4876
参加し	-10.4876
設され	-10.4876
都府京	-10.4876
た場	-10.4885
▁中国	-10.489
していたこ	-10.489
ることによ	-10.489
うで	-10.4895
右大	-10.4895
基づ	-10.4895
政策	-10.4895
それら	-10.4904
であることを	-10.4904
であるとされ	-10.4904
に発	-10.4904
るような	-10.4904
を加	-10.4904
を集め	-10.4904
叡山	-10.4904
されることが多	-10.4913
として用いられ	-10.4913
任命	-10.4913
川の	-10.4913
止さ	-10.4913
できた	-10.4918
養子と	-10.4918
(191	-10.4922
なもので	-10.4922
を起こし	-10.4922
キリスト	-10.4922
武蔵	-10.4922
関ヶ原の	-10.4922
とも言われる	-10.4932
の公卿	-10.4932
通し	-10.4932
用いられて	-10.4936
アメリカ合衆国	-10.4945
立さ	-10.495
頃に	-10.495
あったと考えられ	-10.4959
こし	-10.4959
で知られ	-10.4959
なさ	-10.4959
安時代の	-10.4959
普通	-10.4959
飛鳥	-10.4959
っと	-10.4969
▁室町	-10.4973
ここで	-10.4973
さまざま	-10.4978
であることから	-10.4978
宗教	-10.4978
、10	-10.4987
せず	-10.4987
を行っている	-10.4987
代以降	-10.4987
国司	-10.4987
発し	-10.4987
わか	-10.4996
置かれた	-10.4996
良時	-10.4996
れていたと	-10.5006
以来	-10.5006
阿弥陀如来	-10.5006
うであ	-10.5015
の元	-10.5015
の特	-10.5015
北海道	-10.5015
設けられ	-10.5015
面に	-10.5015
にこ	-10.5024
治元	-10.5024
▁日本では	-10.5029
で行わ	-10.5029
少ない	-10.5029
行する	-10.5029
元禄	-10.5034
国守	-10.5034
見え	-10.5034
原の	-10.5043
地下鉄	-10.5043
存する	-10.5043
編纂	-10.5043
ってきた	-10.5052
一の	-10.5052
代将	-10.5052
室町時代の	-10.5052
建てられ	-10.5052
書かれてい	-10.5052
あるた	-10.5057
の研究	-10.5057
大日本	-10.5057
う意味	-10.5071
であるとする	-10.5071
の戦いに	-10.5071
ばし	-10.5071
を除	-10.5071
使用されてい	-10.5071
安土桃山	-10.5071
者である	-10.5071
頼朝の	-10.5071
に任命され	-10.5076
れているの	-10.5076
影響を与え	-10.5076
御家	-10.508
清盛	-10.508
の支配	-10.5085
を持ち	-10.5085
在して	-10.5085
は不明で	-10.509
が残っている	-10.5099
はじめとする	-10.5099
ようとする	-10.5099
保存	-10.5099
身分	-10.5099
じく	-10.5109
たといわれてい	-10.5109
平安時代中期の	-10.5109
を引き	-10.5113
本にお	-10.5113
は三	-10.5118
たと伝えら	-10.5123
うが	-10.5127
ないよう	-10.5127
の世	-10.5127
の通り	-10.5127
新幹線	-10.5127
と呼ばれるようになった	-10.5132
リカ	-10.5137
合に	-10.5137
強い	-10.5137
関西	-10.5137
なけれ	-10.5141
同様に	-10.5141
定する	-10.5141
没年不	-10.5141
▁ちなみに	-10.5146
こともあり	-10.5146
治時	-10.5146
日本における	-10.5156
江戸時代後期	-10.5156
下のよう	-10.5165
屋敷	-10.5165
しなか	-10.517
を受けてい	-10.517
日本酒	-10.517
▁最	-10.5175
と改	-10.5175
決定	-10.5175
して用いられ	-10.5184
京都市左京区	-10.5184
古く	-10.5184
の養子とな	-10.5193
られない	-10.5203
構成	-10.5203
外国	-10.5212
文字	-10.5212
ものがある	-10.5217
なったが	-10.5222
皇と	-10.5222
からも	-10.5227
この頃	-10.5227
都市営	-10.5227
盛の	-10.5231
督を	-10.5231
▁歴史	-10.5241
ければならな	-10.5241
したがって	-10.5241
という意味で	-10.5241
古くから	-10.5241
名に	-10.5241
大臣に	-10.5241
尾張	-10.5241
左大	-10.5241
打ち	-10.5251
呼ばれるようになっ	-10.5255
たのではないかと	-10.526
分を	-10.526
誕生	-10.526
ためである	-10.5265
なってしま	-10.5265
時代前期の	-10.5265
とめ	-10.527
の作品	-10.527
従四	-10.527
残され	-10.527
没年	-10.527
皇の皇	-10.527
らである	-10.5279
ヶ原の戦	-10.5279
に至っ	-10.5284
て用いられ	-10.5289
主の	-10.5289
。)	-10.5298
えな	-10.5298
ないの	-10.5298
めること	-10.5298
当する	-10.5298
挙げられ	-10.5298
男とし	-10.5298
と名	-10.5308
を名	-10.5308
呼び	-10.5308
幕末	-10.5308
皇女	-10.5308
▁こうして	-10.5313
あろう	-10.5313
不明で	-10.5313
政大臣	-10.5313
に京都	-10.5327
描か	-10.5327
られるが	-10.5337
をしている	-10.5337
大な	-10.5337
男として生	-10.5337
銀行	-10.5337
の乱で	-10.5341
れたた	-10.5341
てく	-10.5346
体の	-10.5346
地と	-10.5346
東海	-10.5346
討ち	-10.5346
......	-10.5356
117	-10.5356
▁ここ	-10.5356
として使	-10.5356
は平安	-10.5356
も多く	-10.5356
発生し	-10.5356
の成	-10.5366
(20	-10.537
年から	-10.537
と記されている	-10.5375
らい	-10.5375
を学	-10.5375
する場	-10.5385
ばれるようになった	-10.5385
天皇を	-10.5385
たと思わ	-10.5395
存在して	-10.5395
管理	-10.5395
116	-10.5399
た際に	-10.5399
は現在	-10.5399
分かれ	-10.5399
命され	-10.5399
たま	-10.5404
とする説が	-10.5409
たことは	-10.5414
ほう	-10.5414
定めら	-10.5414
日本において	-10.5414
書かれている	-10.5414
しの	-10.5424
らく	-10.5424
元号	-10.5424
古事	-10.5424
▁以後	-10.5428
の後も	-10.5428
地であ	-10.5428
左近衛	-10.5428
ずに	-10.5433
ているた	-10.5433
ないという	-10.5433
るとして	-10.5433
れま	-10.5433
博物	-10.5433
▁初	-10.5443
うよう	-10.5443
ったり	-10.5443
プロ	-10.5443
天武	-10.5443
慶応	-10.5443
明であ	-10.5443
に用	-10.5453
は同	-10.5453
は当	-10.5453
ると考えられてい	-10.5453
中心とした	-10.5458
)9	-10.5462
性を	-10.5462
状況	-10.5462
見る	-10.5462
166	-10.5472
されていたが	-10.5472
ためであ	-10.5472
ったと言われ	-10.5472
京阪電気鉄道	-10.5472
行を	-10.5472
みで	-10.5482
大日本帝国	-10.5482
新た	-10.5482
行な	-10.5482
けの	-10.5492
と称する	-10.5492
大日	-10.5492
推定され	-10.5492
自由	-10.5492
あったとされ	-10.5501
からで	-10.5501
たのではない	-10.5501
の寺院	-10.5501
もこ	-10.5501
るとし	-10.5501
本国	-10.5501
々な	-10.5511
が記されている	-10.5511
ではなか	-10.5511
主として	-10.5511
使われて	-10.5511
政官	-10.5511
方法	-10.5511
称された	-10.5511
立された	-10.5511
る説も	-10.5516
まと	-10.5521
行事	-10.5521
せん	-10.5531
の流れ	-10.5531
もっと	-10.5531
を示す	-10.5531
営地下鉄	-10.5531
将軍足利	-10.5531
町の	-10.5531
開発	-10.5541
などか	-10.5546
ることもあった	-10.5546
ると考えられて	-10.5546
アジア	-10.5546
載され	-10.5546
に入った	-10.555
めとする	-10.555
よるもの	-10.555
代わりに	-10.555
独立	-10.555
て知られる	-10.5555
ると考えられている	-10.556
を持っていた	-10.556
独自の	-10.556
興福寺	-10.556
説に	-10.556
通常	-10.556
もともと	-10.557
書かれて	-10.557
毛利	-10.557
家であ	-10.5575
あるとする	-10.558
されていること	-10.558
た人	-10.558
っていたが	-10.558
っていたと	-10.558
として用い	-10.558
と呼ばれるようになっ	-10.558
学部	-10.558
江戸時代初	-10.558
182	-10.559
どから	-10.559
ばれるように	-10.559
物館	-10.559
込まれ	-10.559
らせ	-10.56
儀式	-10.56
たのではな	-10.5605
は高	-10.561
市営地下	-10.561
戦国大名	-10.561
物として	-10.561
臣に	-10.561
▁武	-10.5619
くなり	-10.5619
幕府は	-10.5619
高等学	-10.5619
▁名	-10.5629
発見され	-10.5629
600	-10.5634
た日本	-10.5634
れられ	-10.5634
一つで	-10.5634
中でも	-10.5634
等学校	-10.5634
▁4	-10.5639
りは	-10.5639
したことから	-10.5649
との間に	-10.5649
に近い	-10.5649
大和国	-10.5649
自らの	-10.5649
きなかった	-10.5654
影響を受け	-10.5654
尊氏	-10.5659
つつ	-10.5669
叙せられ	-10.5669
変化	-10.5669
大内	-10.5669
権力	-10.5669
止された	-10.5669
直接	-10.5669
ってしまっ	-10.5679
についての	-10.5679
付けら	-10.5679
記し	-10.5679
と呼ばれている	-10.5684
と呼ばれるよう	-10.5684
広く	-10.5689
描かれて	-10.5689
陰陽	-10.5689
般的に	-10.5694
木造	-10.5699
電気	-10.5699
とによって	-10.5704
そのも	-10.5709
とも言われて	-10.5709
に成	-10.5709
大阪市	-10.5709
高野	-10.5709
加し	-10.5719
整備	-10.5719
155	-10.5724
たと伝	-10.5724
に帰	-10.5729
の分	-10.5729
▁したがって	-10.5739
が一般的であ	-10.5739
名と	-10.5739
建物	-10.5739
当たる	-10.5739
げて	-10.5749
を生	-10.5749
時代以降	-10.5749
民の	-10.5749
▁14	-10.5754
いう説もあ	-10.5754
が始ま	-10.5754
という言葉	-10.5754
仕えた	-10.5754
心とし	-10.5754
江戸時代中	-10.5754
鎌倉時代に	-10.5754
を起	-10.5759
位上	-10.5759
170	-10.5769
いえる	-10.5769
に入れ	-10.5769
のとし	-10.5769
リア	-10.5769
宗家	-10.5769
第に	-10.5769
は全	-10.5779
南朝	-10.5779
式に	-10.5779
とはな	-10.5784
ると考	-10.5784
従って	-10.5784
関ヶ原	-10.5784
鹿児島	-10.5784
うように	-10.5789
ことはなかった	-10.5789
の養子と	-10.5789
リスト教	-10.5789
現在でも	-10.5789
養子とな	-10.5789
168	-10.5799
181	-10.5799
は従	-10.5799
わけ	-10.5799
躍した	-10.5799
あることが	-10.5804
のではなく	-10.5804
けていた	-10.5809
されたものである	-10.5809
に仕えた	-10.5809
を与えた	-10.5809
を求	-10.5809
行き	-10.5809
ランス	-10.5814
与えた	-10.5814
の改	-10.5819
系の	-10.5819
じられて	-10.5829
とされていた	-10.5829
を用いて	-10.5829
を許され	-10.5829
国際	-10.5829
従三	-10.5829
朝鮮半島	-10.5829
残されて	-10.5829
白河天皇	-10.5829
的である	-10.5829
と推	-10.5839
メリ	-10.5839
にいた	-10.5845
府京都	-10.5845
美術館	-10.5845
動を	-10.585
う説もある	-10.5855
奈良時代の	-10.5855
に乗	-10.587
の外	-10.587
クション	-10.587
書き	-10.587
王朝	-10.587
知山	-10.587
観光	-10.587
わりに	-10.5875
が残ってい	-10.588
の信	-10.588
事記	-10.588
使用されて	-10.588
▁鎌	-10.589
することになった	-10.589
ったとされている	-10.589
ったと言	-10.589
任ぜら	-10.589
任命さ	-10.589
呼ばれるよう	-10.589
寺社	-10.589
明治天皇	-10.589
福知	-10.589
称して	-10.589
郎の	-10.589
されることもあ	-10.5895
うも	-10.59
述べ	-10.59
868	-10.5905
が必要	-10.5905
々に	-10.5911
たと伝え	-10.5911
は以下の	-10.5911
九条	-10.5911
攻撃	-10.5911
示す	-10.5911
祖と	-10.5911
の文化	-10.5921
を立て	-10.5921
名古屋	-10.5921
滋賀	-10.5921
種の	-10.5921
立ち	-10.5921
この時期	-10.5931
することになっ	-10.5931
にわたって	-10.5931
の原	-10.5931
れることになった	-10.5931
れることになっ	-10.5931
インターチェンジ	-10.5931
付近	-10.5931
場す	-10.5931
条約	-10.5931
いま	-10.5941
たし	-10.5941
てこ	-10.5941
るべ	-10.5941
を追	-10.5941
組織	-10.5941
自然	-10.5941
受けてい	-10.5951
用いた	-10.5951
用してい	-10.5951
こととなる	-10.5956
のことから	-10.5956
時代初期に	-10.5956
ージ	-10.5962
能性	-10.5962
あると考えられ	-10.5967
しばし	-10.5967
死した	-10.5967
▁実	-10.5972
▁生	-10.5972
することができる	-10.5972
との関係	-10.5972
に就任し	-10.5972
はじめと	-10.5972
れる場合	-10.5972
可能性が	-10.5972
陸奥	-10.5972
005	-10.5982
いよう	-10.5982
であることが	-10.5982
についても	-10.5982
の代表	-10.5982
の平	-10.5982
一般的であ	-10.5982
任する	-10.5982
入れて	-10.5982
安時代末期の	-10.5982
家とし	-10.5982
末期の	-10.5982
河天皇	-10.5982
独自	-10.5982
続いて	-10.5982
録されている	-10.5982
▁当時の	-10.5992
といえる	-10.5992
に属する	-10.5992
を一	-10.5992
本と	-10.5992
舞台	-10.5992
賀県	-10.5992
軍足利義	-10.5992
を歴任	-10.5997
リスト	-10.5997
▁伊	-10.6003
丹後	-10.6003
性の	-10.6003
改革	-10.6003
東西	-10.6003
街道	-10.6003
▁江戸時代の	-10.6013
されなかった	-10.6013
して用い	-10.6013
は明治	-10.6013
ばれるようになっ	-10.6013
みられる	-10.6013
入れる	-10.6013
将軍家	-10.6013
延暦寺	-10.6013
新政府	-10.6013
歌人	-10.6013
置されている	-10.6013
に京	-10.6023
まし	-10.6023
▁現在では	-10.6033
として活	-10.6033
と記	-10.6033
主義	-10.6033
呼称	-10.6033
ければならない	-10.6039
近畿タンゴ鉄道	-10.6039
書を	-10.6044
至る	-10.6044
ないとい	-10.6054
フラ	-10.6054
位置する	-10.6054
書かれた	-10.6054
ったもので	-10.6059
わらず	-10.6059
伝統的	-10.6059
大海人皇子	-10.6059
源頼朝	-10.6059
見える	-10.6059
は長	-10.6064
大社	-10.6064
ったといわれ	-10.6075
みこ	-10.6075
も言われてい	-10.6075
家康の	-10.6075
三十	-10.6085
天下	-10.6085
戸時代初期	-10.6085
集め	-10.6085
非常	-10.6085
らしい	-10.609
▁かつて	-10.6096
かったこ	-10.6096
のものと	-10.6096
わけでは	-10.6096
代初期の	-10.6096
確立	-10.6096
▁とこ	-10.6106
京の	-10.6106
化さ	-10.6106
官位は	-10.6106
称は	-10.6106
なったとい	-10.6111
の歴	-10.6116
まつ	-10.6116
新聞	-10.6116
関しては	-10.6116
の駅	-10.6127
に叙せら	-10.6137
はある	-10.6137
るとす	-10.6137
を建	-10.6137
中将	-10.6137
て行	-10.6148
日蓮	-10.6148
との関	-10.6153
を開始	-10.6153
に置かれ	-10.6158
は国	-10.6158
外に	-10.6158
寺を	-10.6158
込ん	-10.6158
ているとい	-10.6163
なったこと	-10.6163
使用される	-10.6163
162	-10.6168
がり	-10.6168
なかったこと	-10.6168
を出し	-10.6168
薩摩藩	-10.6168
諸国	-10.6168
スの	-10.6179
行われるようにな	-10.6179
運行	-10.6179
廃止さ	-10.6184
ちな	-10.6189
は本	-10.6189
町幕	-10.6189
1869	-10.62
の一種	-10.62
の天皇	-10.62
ものと考えら	-10.62
一つであ	-10.62
家である	-10.62
王が	-10.62
示し	-10.62
の部	-10.621
を入	-10.621
兵を	-10.621
法に	-10.621
近畿	-10.621
,00	-10.6216
▁2007	-10.6216
からな	-10.6216
なければな	-10.6216
を果た	-10.6216
戸時代中期	-10.6216
を命	-10.6221
命じられ	-10.6221
学生	-10.6221
臣と	-10.6221
のと考えられ	-10.6231
の古	-10.6231
の自	-10.6231
センタ	-10.6231
十二	-10.6231
地位を	-10.6231
軍と	-10.6231
(1868	-10.6242
▁地	-10.6242
が強	-10.6242
くなってい	-10.6242
していく	-10.6242
という名	-10.6242
にあたっ	-10.6242
に相当する	-10.6242
の地位を	-10.6242
わゆ	-10.6242
を担	-10.6242
上野	-10.6242
人物であ	-10.6242
代表的な	-10.6242
明治政府	-10.6242
記念	-10.6242
近い	-10.6242
つまり	-10.6247
に大き	-10.6247
ばしば	-10.6247
名な	-10.6252
家し	-10.6252
指し	-10.6252
▁二	-10.6263
▁南	-10.6263
、7	-10.6263
けでなく	-10.6263
けるこ	-10.6263
てる	-10.6263
なってお	-10.6263
の後の	-10.6263
の藤原	-10.6263
の要	-10.6263
ものが多	-10.6263
れているもの	-10.6263
朝時	-10.6263
経由	-10.6263
▁2006	-10.6268
いられてい	-10.6268
ているので	-10.6268
みを	-10.6273
濃国	-10.6273
進め	-10.6273
のみこ	-10.6279
一部の	-10.6279
たとして	-10.6284
ちなみに	-10.6284
に置	-10.6284
のもある	-10.6284
天智天皇	-10.6284
島津	-10.6284
期か	-10.6284
落ち	-10.6284
販売	-10.6284
、12	-10.6295
の名称	-10.6295
条氏	-10.6295
さい	-10.6305
た日	-10.6305
ることな	-10.6305
言え	-10.6305
を認め	-10.631
入ると	-10.631
けれ	-10.6316
残し	-10.6316
編成	-10.6316
いうもの	-10.6326
たに	-10.6326
られたも	-10.6326
学を	-10.6326
宮に	-10.6326
新政	-10.6326
部を	-10.6326
れず	-10.6337
之助	-10.6337
163	-10.6342
して大	-10.6342
のもあ	-10.6342
ければなら	-10.6348
というの	-10.6348
に昇叙し	-10.6348
の父	-10.6348
われるよ	-10.6348
在地	-10.6348
所を	-10.6348
119	-10.6358
たといわれて	-10.6358
は鎌倉	-10.6358
わけではない	-10.6358
京都市右京区	-10.6358
例えば	-10.6358
名乗る	-10.6358
これらは	-10.6369
その他の	-10.6369
の土	-10.6369
めである	-10.6369
吉田	-10.6369
の時に	-10.6374
インド	-10.6374
中心とする	-10.6374
化する	-10.6374
古今和歌集	-10.6374
死し	-10.638
」)	-10.639
だけでな	-10.639
て出	-10.639
なったという	-10.639
を始め	-10.639
を意味	-10.639
を果たし	-10.639
を残し	-10.639
力の	-10.639
始まる	-10.639
率いて	-10.639
皇位継承	-10.639
の西	-10.6401
官の	-10.6401
寺と	-10.6401
西郷	-10.6401
あったことから	-10.6406
関係を	-10.6406
▁和	-10.6412
▁昭	-10.6412
の中には	-10.6412
れるなど	-10.6412
ロー	-10.6412
008	-10.6422
の指	-10.6422
以降の	-10.6422
吉野	-10.6422
物が	-10.6422
生産	-10.6422
れていたこ	-10.6428
は藤	-10.6433
ーロッパ	-10.6433
制の	-10.6433
期にかけ	-10.6433
れてし	-10.6438
後には	-10.6438
するものであ	-10.6455
っていること	-10.6455
どは	-10.6455
ないた	-10.6455
の直	-10.6455
れたのは	-10.6455
われるこ	-10.6455
一つである	-10.6455
新しい	-10.6455
神として	-10.6455
立場	-10.6455
ちょ	-10.6465
なの	-10.6465
京都駅	-10.6471
時には	-10.6471
▁も	-10.6476
の近	-10.6476
れぞれの	-10.6476
ティ	-10.6476
五位下に	-10.6476
前国	-10.6476
正式	-10.6476
般に	-10.6476
▁明治時代	-10.6482
いたとされ	-10.6482
子として生まれ	-10.6482
して使	-10.6487
られることが	-10.6487
メリカ合衆国	-10.6487
伝わっ	-10.6487
石を	-10.6487
▁官	-10.6498
る日	-10.6498
制定	-10.6498
温泉	-10.6498
躍し	-10.6498
してき	-10.6503
兵庫県	-10.6503
km	-10.6508
蔵人	-10.6508
近世	-10.6508
えない	-10.6519
が主	-10.6519
っとも	-10.6519
の政治	-10.6519
は上	-10.6519
に登	-10.653
の有	-10.653
今日	-10.653
十三	-10.653
してしまう	-10.6536
すでに	-10.6536
になったの	-10.6536
を中心とす	-10.6536
天台宗	-10.6536
▁186	-10.6541
意味する	-10.6541
行い	-10.6541
▁重要文化財	-10.6552
が設置	-10.6552
らであ	-10.6552
その後は	-10.6563
というも	-10.6563
と称した	-10.6563
に指	-10.6563
を強	-10.6563
味で	-10.6563
地区	-10.6563
御門	-10.6563
改正	-10.6563
の学	-10.6574
こうして	-10.6584
ったと言われている	-10.6584
で大	-10.6584
にまで	-10.6584
に登場す	-10.6584
ふじわら	-10.6584
まい	-10.6584
人間	-10.6584
代前	-10.6584
やが	-10.6595
平安時代後期の	-10.6595
それが	-10.6601
たものと考えられ	-10.6606
に位置す	-10.6606
の中でも	-10.6606
ることはなかった	-10.6606
わし	-10.6606
取り入れ	-10.6606
安時代後	-10.6606
置し	-10.6606
が日本	-10.6617
が記されてい	-10.6617
されてきた	-10.6617
ったために	-10.6617
ともな	-10.6617
るべき	-10.6617
同志社	-10.6617
掛け	-10.6617
2004	-10.6628
▁現在は	-10.6628
いられて	-10.6628
さな	-10.6628
に従って	-10.6628
会に	-10.6628
が用い	-10.6634
に登場	-10.6634
のなか	-10.6634
任され	-10.6634
原の戦	-10.6634
第二次	-10.6634
うよ	-10.6639
みや	-10.6639
が挙げられ	-10.6645
という説が	-10.6645
挙げられる	-10.6645
▁西日本旅客鉄道	-10.665
うことが	-10.665
の存在	-10.665
ることもあっ	-10.665
上が	-10.665
安時代中期の	-10.665
つな	-10.6661
全て	-10.6661
皇位	-10.6661
を含む	-10.6666
加えて	-10.6666
▁その後も	-10.6672
のい	-10.6672
代わって	-10.6672
化の	-10.6672
形成	-10.6672
応仁の乱	-10.6672
返し	-10.6672
の子で	-10.6683
京極	-10.6683
人物で	-10.6683
国と	-10.6683
政を	-10.6683
行政	-10.6683
う意	-10.6694
は日本の	-10.6694
条天	-10.6694
が一般的で	-10.6699
した際	-10.6699
の一族	-10.6699
人であった	-10.6699
名乗っ	-10.6699
図書館	-10.6699
和国	-10.6705
た者	-10.6716
には大	-10.6716
のない	-10.6716
乗っ	-10.6716
立てられ	-10.6716
であるとし	-10.6727
明治時代に	-10.6727
江戸時代後	-10.6727
ないも	-10.6733
就任し	-10.6733
録され	-10.6733
であるた	-10.6738
に記	-10.6738
らで	-10.6738
倉時代の	-10.6738
がて	-10.6749
と記されてい	-10.6749
の南	-10.6749
事の	-10.6749
に生まれる	-10.6755
も言われる	-10.6755
▁建	-10.676
あったの	-10.676
せられる	-10.676
のみこと	-10.676
まざまな	-10.676
一種	-10.676
代末期の	-10.676
安時代に	-10.676
発生した	-10.676
見され	-10.6766
めで	-10.6771
伴い	-10.6771
出雲	-10.6771
置す	-10.6771
賀茂	-10.6771
そのような	-10.6782
ているという	-10.6782
であると考えられ	-10.6782
で知られる	-10.6782
に取り	-10.6782
は正	-10.6782
定められた	-10.6782
規定	-10.6782
を重	-10.6794
意見	-10.6794
▁木造	-10.6799
その一	-10.6799
わけで	-10.6799
代表的	-10.6799
多くは	-10.6799
、6	-10.6805
だという	-10.6805
代で	-10.6805
基本的に	-10.6805
場合には	-10.6805
書に	-10.6805
神である	-10.6805
であるとす	-10.681
なわれ	-10.6816
久保	-10.6816
山時代	-10.6816
来は	-10.6816
浄土真	-10.6816
▁江戸時代には	-10.6827
されることにな	-10.6827
ばならな	-10.6827
桃山	-10.6827
なるこ	-10.6833
用いて	-10.6833
ング	-10.6838
場合がある	-10.6838
流派	-10.6838
記載	-10.6838
(119	-10.6849
▁更に	-10.6849
うた	-10.6849
ぜら	-10.6849
つま	-10.6849
て用い	-10.6849
という言	-10.6849
もいわれ	-10.6849
上天皇	-10.6849
創建	-10.6849
含む	-10.6849
町時代に	-10.6849
石の	-10.6849
音楽	-10.6849
くか	-10.6861
場に	-10.6861
たと伝えられる	-10.6866
のみならず	-10.6866
将軍の	-10.6866
ったとす	-10.6872
でもあっ	-10.6872
と伝えられている	-10.6872
わち	-10.6872
化してい	-10.6872
電車	-10.6872
たことにより	-10.6883
に属し	-10.6883
海軍	-10.6883
に住	-10.6894
に分かれ	-10.6894
に基づく	-10.6894
に設	-10.6894
の交	-10.6894
ものとされ	-10.6894
一揆	-10.6894
世界大戦	-10.6894
僧侶	-10.6894
それは	-10.69
向かっ	-10.69
▁前	-10.6905
するようになる	-10.6905
に相	-10.6905
を大	-10.6905
入し	-10.6905
間が	-10.6905
する説が	-10.6917
せている	-10.6917
始めた	-10.6917
戦いに	-10.6917
所は	-10.6917
方を	-10.6917
最後の	-10.6917
次のよう	-10.6917
真宗	-10.6917
起こった	-10.6917
じめとする	-10.6922
本において	-10.6922
の源	-10.6928
くない	-10.6934
すれば	-10.6934
入れた	-10.6934
たがって	-10.6939
もあって	-10.6939
を有	-10.6939
公園	-10.6939
区間	-10.6939
▁奈	-10.6951
が挙げられる	-10.6951
呼ばれていた	-10.6951
結婚	-10.6951
行して	-10.6951
醍醐天皇の	-10.6951
▁延	-10.6962
ったと考えられる	-10.6962
を用いた	-10.6962
分が	-10.6962
と称す	-10.6968
の勢力	-10.6968
を示し	-10.6968
ヶ原の	-10.6968
国から	-10.6968
納言に	-10.6968
親王が	-10.6968
に多	-10.6973
着し	-10.6973
自動	-10.6973
あると考え	-10.6979
いう意味で	-10.6979
京都市左京	-10.6979
戸時代後期	-10.6979
本における	-10.6979
(192	-10.6985
いう説も	-10.6985
が大き	-10.6985
きを	-10.6985
一般的で	-10.6985
主とな	-10.6985
少なくな	-10.6985
指摘されている	-10.6985
(3	-10.6996
さま	-10.6996
に進	-10.6996
の嫡	-10.6996
中宮	-10.6996
十郎	-10.6996
彼ら	-10.6996
翌年に	-10.7002
▁室	-10.7007
が残って	-10.7007
されることが多い	-10.7007
入れられ	-10.7007
号を	-10.7007
最高	-10.7007
都市左京区	-10.7007
その中	-10.7019
とみ	-10.7019
の守護	-10.7019
の影響を受け	-10.7019
事実上	-10.7019
取っ	-10.7019
属し	-10.7019
越前	-10.7019
内大	-10.703
河原	-10.703
足利尊氏	-10.703
が出来	-10.7036
と呼ん	-10.7036
に任ぜ	-10.7036
ればならな	-10.7036
れる事	-10.7036
使用す	-10.7036
地方の	-10.7036
に代	-10.7041
に位	-10.7041
ろが	-10.7041
保元	-10.7041
別当	-10.7041
祖父	-10.7041
(182	-10.7053
179	-10.7053
かったという	-10.7053
かったの	-10.7053
そのよう	-10.7053
ておらず	-10.7053
のがあ	-10.7053
はないが	-10.7053
家から	-10.7053
聖徳太子	-10.7053
設された	-10.7053
語の	-10.7053
頭に	-10.7053
が一般的である	-10.7064
プロダクション	-10.7064
兼任	-10.7064
命を	-10.7064
場で	-10.7064
間を	-10.7064
といい	-10.707
みこと	-10.707
基本的	-10.707
▁関	-10.7076
じわらの	-10.7076
ってから	-10.7076
料として	-10.7076
が多か	-10.7087
されているこ	-10.7087
博士	-10.7087
国では	-10.7087
起源	-10.7087
するための	-10.7093
に至るまで	-10.7093
阪電気鉄道	-10.7093
かってい	-10.7099
に参加し	-10.7099
れるようになって	-10.7099
上洛	-10.7099
平家物語	-10.7099
弥陀如来	-10.7099
所と	-10.7099
ためで	-10.7104
ギリス	-10.7104
ロシア	-10.7104
祀られ	-10.7104
たと言われる	-10.7121
ったと言わ	-10.7121
の末	-10.7121
は神	-10.7121
ばならない	-10.7121
ものと考え	-10.7121
りながら	-10.7121
キリ	-10.7121
一般的である	-10.7121
録されてい	-10.7121
点で	-10.7133
長が	-10.7133
を兼任	-10.7139
きて	-10.7145
ったとされてい	-10.7145
に変	-10.7145
の不	-10.7145
延喜	-10.7145
させること	-10.715
と称される	-10.715
に任命	-10.7156
事で	-10.7156
兵庫	-10.7156
土真宗	-10.7156
始まり	-10.7156
と記され	-10.7168
批判	-10.7168
皇室	-10.7168
て日本	-10.7173
めであ	-10.7173
もとに	-10.7173
伝える	-10.7173
作った	-10.7173
かみ	-10.7179
なものであ	-10.7179
変わ	-10.7179
されることとな	-10.7185
(166	-10.7191
たのでは	-10.7191
と言っ	-10.7191
に任じられる	-10.7191
に任命さ	-10.7191
ようとす	-10.7191
るものも	-10.7191
れらは	-10.7191
同様の	-10.7191
摂津	-10.7191
果たし	-10.7191
江戸時代前期	-10.7191
祀られている	-10.7191
の反	-10.7202
は多	-10.7202
目を	-10.7202
石川	-10.7202
行に	-10.7202
165	-10.7208
っているが	-10.7208
のに対	-10.7208
の他の	-10.7208
ばれるよう	-10.7208
らなか	-10.7208
り上げ	-10.7208
れていった	-10.7208
朝廷に	-10.7208
がなされ	-10.7214
町時代の	-10.7214
県の	-10.7214
読み	-10.7214
▁御	-10.7225
あったと考え	-10.7225
の制	-10.7225
の記録	-10.7225
各地に	-10.7225
朝廷の	-10.7225
際して	-10.7225
▁明治維新	-10.7237
かったとい	-10.7237
府が	-10.7237
征夷	-10.7237
様の	-10.7237
ここに	-10.7243
▁い	-10.7249
下で	-10.7249
園寺	-10.7249
比較	-10.7249
171	-10.726
かなり	-10.726
が成立	-10.726
ことなど	-10.726
の様	-10.726
ものではない	-10.726
ーク	-10.726
時代にかけて	-10.726
視され	-10.726
飛鳥時代	-10.726
▁戦国時代	-10.7266
をしていた	-10.7266
ンターチェンジ	-10.7266
化を	-10.7272
天王	-10.7272
寺は	-10.7272
長崎	-10.7272
(120	-10.7284
ともあり	-10.7284
に合	-10.7284
んに	-10.7284
一般的な	-10.7284
二十	-10.7284
影響を与	-10.7284
結び	-10.7284
西園	-10.7284
長州	-10.7284
響を与え	-10.7284
あったとさ	-10.7295
されることに	-10.7295
であるとして	-10.7295
ともいわれる	-10.7295
に従っ	-10.7295
のものである	-10.7295
以前の	-10.7295
保護	-10.7295
文明	-10.7295
本能寺の変	-10.7295
(168	-10.7307
あるとし	-10.7307
と呼ばれていた	-10.7307
のがある	-10.7307
社で	-10.7307
立す	-10.7307
美濃国	-10.7313
駅から	-10.7313
クシ	-10.7319
う説もあ	-10.7331
つき	-10.7331
て一	-10.7331
とはなかった	-10.7331
に由	-10.7331
ることとなる	-10.7331
初は	-10.7331
成の	-10.7331
政治的	-10.7331
発展し	-10.7331
まだ	-10.7342
構造	-10.7342
うして	-10.7348
ことが多かった	-10.7348
れる場	-10.7348
込んだ	-10.7348
▁ちなみ	-10.7354
、5	-10.7354
あるとして	-10.7354
が生まれた	-10.7354
この時代	-10.7354
シー	-10.7354
上記	-10.7354
生年不詳	-10.7354
かた	-10.7366
まず	-10.7366
ルの	-10.7366
したがっ	-10.7378
を許	-10.7378
終わ	-10.7378
京都で	-10.7384
正二位	-10.7384
後世	-10.7389
行われるように	-10.7389
▁官位は	-10.7401
▁当初	-10.7401
だったが	-10.7401
で死去	-10.7401
を残	-10.7401
多か	-10.7401
嫡男	-10.7401
書の	-10.7401
有名な	-10.7401
派遣され	-10.7401
女の	-10.7413
改称	-10.7413
有名である	-10.7413
164	-10.7419
169	-10.7419
ならず	-10.7419
いるとい	-10.7425
に大きな	-10.7425
土佐	-10.7425
日本帝国	-10.7425
近衛大将	-10.7425
いるた	-10.7437
するに	-10.7437
り入	-10.7437
を見せ	-10.7437
分に	-10.7437
寺で	-10.7437
期にかけての	-10.7437
神であ	-10.7437
されたとい	-10.7443
したことか	-10.7443
祀られてい	-10.7443
(155	-10.7449
かつては	-10.7449
は京都市	-10.7449
を使用し	-10.7449
を辞	-10.7449
場合が多	-10.7449
左近	-10.7449
息子	-10.7449
権中	-10.7449
神戸	-10.7449
禁止	-10.7449
退し	-10.7449
その子	-10.7455
と名乗	-10.7455
を利用	-10.7455
客鉄道	-10.7455
づく	-10.7461
の合	-10.7461
をあ	-10.7461
代を	-10.7461
際の	-10.7461
▁このことから	-10.7472
が記されて	-10.7472
されることもある	-10.7472
たった	-10.7472
であると考え	-10.7472
という説がある	-10.7472
と見られる	-10.7472
に設置され	-10.7472
も言われて	-10.7472
を継承	-10.7472
代前期の	-10.7472
営業	-10.7472
享保	-10.7484
果た	-10.7484
組み	-10.7484
ものだ	-10.749
▁例えば	-10.7496
きょ	-10.7496
と記されて	-10.7502
人物である	-10.7502
場合が多い	-10.7502
設置されて	-10.7502
の守	-10.7508
は新	-10.7508
金剛	-10.7508
阪府	-10.7508
て知	-10.752
夷大	-10.752
▁松	-10.7532
したことが	-10.7532
の基	-10.7532
を集	-10.7532
言に	-10.7532
うことに	-10.7544
の影響を	-10.7544
ればならない	-10.7544
を得た	-10.7544
幹線	-10.7544
昇叙	-10.7544
ばな	-10.7556
永禄	-10.7556
目に	-10.7556
相続	-10.7556
いるという	-10.7562
されたため	-10.7562
ていたので	-10.7562
に応じ	-10.7562
ばれていた	-10.7562
いくつか	-10.7568
いるので	-10.7568
が知られ	-10.7568
に至った	-10.7568
元に	-10.7568
前後	-10.7568
場合があ	-10.7568
王は	-10.7568
▁石	-10.758
主とし	-10.758
乱の	-10.758
没した	-10.758
畿タンゴ鉄道	-10.758
表す	-10.758
設置されてい	-10.758
述の	-10.758
(133	-10.7592
うど	-10.7592
が死	-10.7592
しているの	-10.7592
と対	-10.7592
と結	-10.7592
の系	-10.7592
はま	-10.7592
大日本帝	-10.7592
始まった	-10.7592
年後	-10.7592
時代に入	-10.7592
的なもの	-10.7592
行われるようになった	-10.7592
せるこ	-10.7598
どによ	-10.7598
わずか	-10.7598
を指し	-10.7598
を許さ	-10.7598
成する	-10.7598
づけ	-10.7604
に残	-10.7604
は近	-10.7604
シア	-10.7604
・・	-10.7604
伝説	-10.7604
含ま	-10.7604
大路	-10.7604
所で	-10.7604
経営	-10.7604
されたという	-10.7616
ったよう	-10.7616
は別	-10.7616
は山	-10.7616
るのに	-10.7616
以下のように	-10.7616
勢を	-10.7616
大規模	-10.7616
家督を継	-10.7616
明で	-10.7616
背景	-10.7616
ていたもの	-10.7622
任じられる	-10.7622
すぐ	-10.7628
すと	-10.7628
長と	-10.7628
を伝え	-10.7634
あるとす	-10.764
ことも多	-10.764
変更	-10.764
従っ	-10.764
て京都	-10.7653
四条	-10.7653
山県	-10.7653
念仏	-10.7653
有する	-10.7653
比較的	-10.7653
特別	-10.7653
関わ	-10.7653
▁内	-10.7665
ったと言われてい	-10.7665
ラー	-10.7665
心とした	-10.7665
採用	-10.7665
記載され	-10.7665
たと思	-10.7671
の後は	-10.7671
▁彼	-10.7677
経の	-10.7677
進し	-10.7677
間は	-10.7677
することになる	-10.7683
なかったこ	-10.7683
にもかかわらず	-10.7683
豊臣秀吉の	-10.7683
ごとに	-10.7689
に用いられる	-10.7689
の初	-10.7689
るほ	-10.7689
わな	-10.7689
後継	-10.7689
本は	-10.7689
男と	-10.7689
登場し	-10.7689
種類	-10.7689
いよ	-10.7701
の四	-10.7701
はか	-10.7701
期間	-10.7701
軍が	-10.7701
が建	-10.7713
にわたっ	-10.7713
に見られ	-10.7713
まな	-10.7713
ることも多	-10.7713
宮内	-10.7713
帰国	-10.7713
藤原北家	-10.7713
えられていた	-10.7726
が有	-10.7726
だとい	-10.7726
であったと考えられ	-10.7726
に戻	-10.7726
る事が	-10.7726
ロッ	-10.7726
力が	-10.7726
官人	-10.7726
形の	-10.7726
新たに	-10.7726
藩士	-10.7726
行われるようになっ	-10.7726
載されている	-10.7726
て行われ	-10.7738
として用	-10.7738
わたって	-10.7738
専門	-10.7738
桓武天皇	-10.7738
～1	-10.7738
、15	-10.7744
で知ら	-10.7744
の他に	-10.7744
キリス	-10.7744
吾妻鏡	-10.7744
り出	-10.775
ンの	-10.775
弟に	-10.775
ったものであ	-10.7762
なるが	-10.7762
を図	-10.7762
地である	-10.7762
境内	-10.7762
康の	-10.7762
得て	-10.7762
発した	-10.7762
鎌倉時代初期	-10.7762
が行われている	-10.7768
cm	-10.7775
けではない	-10.7775
さか	-10.7775
として活躍	-10.7775
る地	-10.7775
れることは	-10.7775
安土	-10.7775
テレビ	-10.7781
▁か	-10.7787
の使	-10.7787
ジア	-10.7787
三好	-10.7787
代藩	-10.7787
再建	-10.7787
含め	-10.7787
比叡	-10.7787
▁17	-10.7799
▁翌年	-10.7799
たとも言われ	-10.7799
に取	-10.7799
ものであると	-10.7799
り上	-10.7799
呼ばれること	-10.7799
手の	-10.7799
曼荼羅	-10.7799
発見	-10.7799
近鉄	-10.7799
▁京都市営	-10.7805
も存在する	-10.7805
代にかけて	-10.7805
廃止された	-10.7805
鎌倉幕府の	-10.7805
が使	-10.7811
するのは	-10.7811
は小	-10.7811
将軍徳川	-10.7811
戸時代初	-10.7811
担当	-10.7811
教え	-10.7811
178	-10.7818
たちの	-10.7818
ちなみ	-10.7818
と推定	-10.7818
まざま	-10.7818
もその	-10.7818
亡くな	-10.7818
右近衛	-10.7818
記述が	-10.7818
頃か	-10.7824
(171	-10.7836
▁歴	-10.7836
いたので	-10.7836
がった	-10.7836
さまざ	-10.7836
たから	-10.7836
ついての	-10.7836
に見られる	-10.7836
のものを	-10.7836
られたが	-10.7836
安置	-10.7836
熊野	-10.7836
▁5	-10.7848
に建	-10.7848
に際	-10.7848
を立	-10.7848
乱で	-10.7848
導入	-10.7848
▁概要	-10.7855
くして	-10.7855
(163	-10.7861
(170	-10.7861
▁従	-10.7861
と推定されている	-10.7861
のことか	-10.7861
一門	-10.7861
半島	-10.7861
山本	-10.7861
明らかに	-10.7861
詳細	-10.7861
ないように	-10.7867
は鎌倉時代	-10.7867
従五位下に	-10.7867
載されてい	-10.7867
▁清	-10.7873
あったことが	-10.7873
が進	-10.7873
したのである	-10.7873
たれ	-10.7873
ったか	-10.7873
に師事	-10.7873
よし	-10.7873
年は	-10.7873
江戸に	-10.7873
▁旧	-10.7886
ながらも	-10.7886
宮中	-10.7886
特急	-10.7886
確認	-10.7886
響を受け	-10.7886
ついた	-10.7892
ともと	-10.7892
も存在	-10.7892
る日本	-10.7892
後継者	-10.7892
きは	-10.7898
たものと考えら	-10.7898
っていると	-10.7898
れていると	-10.7898
化に	-10.7898
行っていた	-10.7898
言い	-10.7898
いたとされる	-10.791
が記され	-10.791
ではあ	-10.791
に反	-10.791
のみであ	-10.791
を置	-10.791
倉時代に	-10.791
旗本	-10.791
線と	-10.791
際し	-10.791
がわ	-10.7923
を率	-10.7923
手を	-10.7923
生没	-10.7923
ったことを	-10.7929
ないよ	-10.7929
の立	-10.7935
の職	-10.7935
イス	-10.7935
行なわれ	-10.7935
から江戸時代	-10.7948
られなかった	-10.7948
るとと	-10.7948
を使っ	-10.7948
上記の	-10.7948
光秀	-10.7948
土桃山	-10.7948
属す	-10.7948
紀に	-10.7948
いう言葉	-10.796
いとされ	-10.796
が認められ	-10.796
たらしい	-10.796
に渡	-10.796
検非違使	-10.796
没し	-10.796
男の	-10.796
高野山	-10.7967
▁幕	-10.7973
見せ	-10.7973
、199	-10.7985
と伝えられてい	-10.7985
に基づい	-10.7985
の理	-10.7985
められていた	-10.7985
れていなかった	-10.7985
作者	-10.7985
嵯峨天皇	-10.7985
憲法	-10.7985
戸時代中	-10.7985
暗殺	-10.7985
有名であ	-10.7985
朝に	-10.7985
離れ	-10.7985
れたとされ	-10.7992
おか	-10.7998
しき	-10.7998
作成	-10.7998
同志	-10.7998
▁通称	-10.8004
信長に	-10.8004
当時は	-10.8004
あっても	-10.801
けに	-10.801
と同時に	-10.801
制を	-10.801
生の	-10.801
造り	-10.801
、11	-10.8023
が死去	-10.8023
くり	-10.8023
とされるが	-10.8023
のと考えら	-10.8023
の位	-10.8023
の対立	-10.8023
れているも	-10.8023
れによって	-10.8023
を命じられ	-10.8023
ーン	-10.8023
会議	-10.8023
従一位	-10.8023
業を	-10.8023
気鉄	-10.8023
神とし	-10.8023
茶道	-10.8023
▁それに	-10.8036
が入	-10.8036
の流れを	-10.8036
分類	-10.8036
区に	-10.8036
天皇から	-10.8036
如元	-10.8036
ってか	-10.8042
に相当	-10.8042
もとも	-10.8042
主張し	-10.8042
積極的	-10.8042
かく	-10.8048
が日	-10.8048
の側	-10.8048
市営	-10.8048
挙兵	-10.8048
新田	-10.8048
がなかった	-10.8055
らとともに	-10.8055
アルコール	-10.8055
(4	-10.8061
▁今	-10.8061
してその	-10.8061
することもあ	-10.8061
つなが	-10.8061
にしてい	-10.8061
に使われ	-10.8061
を利用し	-10.8061
伊勢神宮	-10.8061
文化財に指定され	-10.8061
観世	-10.8061
釈迦	-10.8061
▁お	-10.8073
に天	-10.8073
指摘	-10.8073
語で	-10.8073
がこの	-10.808
たとし	-10.808
つけた	-10.808
に伝わ	-10.808
将軍に	-10.808
秀吉に	-10.808
▁五	-10.8086
あるもの	-10.8086
ととなる	-10.8086
利用され	-10.8086
琵琶	-10.8086
相当する	-10.8086
良時代の	-10.8086
が用いられる	-10.8099
このことから	-10.8099
もう	-10.8099
れてしまった	-10.8099
を失	-10.8099
京都市東山区	-10.8099
内部	-10.8099
利用し	-10.8099
古くか	-10.8099
製作	-10.8099
製造	-10.8099
の石	-10.8111
の諸	-10.8111
の身	-10.8111
代初期に	-10.8111
起こした	-10.8111
伝わってい	-10.8118
て使	-10.8124
関し	-10.8124
(162	-10.8137
あるとされる	-10.8137
めるこ	-10.8137
入された	-10.8137
安時代後期の	-10.8137
強く	-10.8137
料と	-10.8137
滅亡	-10.8137
積極的に	-10.8137
起こっ	-10.8137
領を	-10.8137
じられてい	-10.815
っているこ	-10.815
に対しては	-10.815
権の	-10.815
▁徳川	-10.8156
いので	-10.8156
は以下	-10.8156
国大名	-10.8156
どん	-10.8162
ーズ	-10.8162
用いられている	-10.8162
、4	-10.8175
が成	-10.8175
という説があ	-10.8175
三男	-10.8175
区別	-10.8175
徳天	-10.8175
神社に	-10.8175
近く	-10.8175
があること	-10.8181
都市右京区	-10.8181
2003	-10.8188
▁幼	-10.8188
ついても	-10.8188
に下	-10.8188
の門	-10.8188
を持った	-10.8188
作り	-10.8188
山市	-10.8188
蘇我	-10.8188
込み	-10.8188
道長	-10.8188
130	-10.8194
事と	-10.8201
庭園	-10.8201
来す	-10.8201
芸術	-10.8201
貿易	-10.8201
と呼ばれること	-10.8207
いたことから	-10.8213
かれていた	-10.8213
ったとされて	-10.8213
とすること	-10.8213
に同	-10.8213
に生まれた	-10.8213
の弟子	-10.8213
らす	-10.8213
ることが多かった	-10.8213
図書	-10.8213
新し	-10.8213
武士の	-10.8213
般的であ	-10.8213
鳥羽天皇	-10.8213
▁信	-10.8226
線を	-10.8226
すべき	-10.8233
まとめ	-10.8233
▁やがて	-10.8239
の宮	-10.8239
を名乗る	-10.8239
伝統的な	-10.8239
島県	-10.8239
が設けられ	-10.8246
154	-10.8252
を決	-10.8252
んのう	-10.8252
タイ	-10.8252
代当主	-10.8252
使われている	-10.8252
指摘されてい	-10.8252
法皇	-10.8252
百済	-10.8252
門院	-10.8252
じゅ	-10.8265
て京	-10.8265
なったこ	-10.8265
にさ	-10.8265
を意	-10.8265
を記	-10.8265
殺さ	-10.8265
管領	-10.8265
言宗	-10.8265
122	-10.8271
たちは	-10.8271
たとの	-10.8271
山城国	-10.8271
摂津国	-10.8271
の兵	-10.8278
を目的とし	-10.8278
国道	-10.8278
者も	-10.8278
▁朝	-10.8291
などでは	-10.8291
の下に	-10.8291
の地域	-10.8291
の藤	-10.8291
りする	-10.8291
るとき	-10.8291
わない	-10.8291
海人皇子	-10.8291
物とし	-10.8291
自動車	-10.8291
たものであった	-10.8297
の功	-10.8304
京に	-10.8304
入さ	-10.8304
本堂	-10.8304
ことが出来	-10.831
の対象	-10.831
リカ合衆国	-10.831
年間に	-10.831
日本旅	-10.831
関係に	-10.831
(169	-10.8317
あくまで	-10.8317
ったとも	-10.8317
の住	-10.8317
伊藤	-10.8317
出してい	-10.8317
区の	-10.8317
所在	-10.8317
春日	-10.8317
皇を	-10.8317
祖とする	-10.8317
▁文化	-10.833
▁東京	-10.833
きで	-10.833
して活	-10.833
となっており	-10.833
られているが	-10.833
・・・	-10.833
幕府が	-10.833
推定さ	-10.833
財政	-10.833
▁重要文化	-10.8343
がってい	-10.8343
ったことに	-10.8343
修行	-10.8343
方は	-10.8343
法で	-10.8343
の内容	-10.8349
代に入	-10.8349
▁他	-10.8356
、8	-10.8369
ていたと考えられ	-10.8369
の動	-10.8369
の和	-10.8369
の部分	-10.8369
ほどの	-10.8369
もこの	-10.8369
もない	-10.8369
も知られ	-10.8369
三河	-10.8369
しも	-10.8382
事務	-10.8382
869	-10.8388
に属す	-10.8388
の公家	-10.8388
以外に	-10.8388
営地下	-10.8388
小笠原	-10.8388
推定されている	-10.8388
ければな	-10.8395
の仏	-10.8395
みら	-10.8395
追い	-10.8395
177	-10.8408
がる	-10.8408
したのであ	-10.8408
でありながら	-10.8408
の出身	-10.8408
の妻	-10.8408
上京	-10.8408
含まれてい	-10.8408
後半	-10.8408
法華経	-10.8408
軍足利	-10.8408
(5	-10.8421
▁金	-10.8421
を求める	-10.8421
田辺	-10.8421
西洋	-10.8421
道と	-10.8421
叙せら	-10.8427
対立し	-10.8427
皇太后	-10.8427
ずか	-10.8434
とする説がある	-10.8434
の総	-10.8434
ることによって	-10.8434
使用されている	-10.8434
至っ	-10.8434
ことが多く	-10.844
となったと	-10.844
ばれること	-10.844
(180	-10.8447
1000	-10.8447
おこ	-10.8447
されてき	-10.8447
していたため	-10.8447
ばなら	-10.8447
るほど	-10.8447
れで	-10.8447
ップ	-10.8447
八幡宮	-10.8447
出されて	-10.8447
協会	-10.8447
描いた	-10.8447
率いる	-10.8447
田の	-10.8447
て日	-10.846
ます	-10.846
れと	-10.846
成功	-10.846
神を	-10.846
議員	-10.846
クショ	-10.8467
は異	-10.8473
を有する	-10.8473
を確	-10.8473
インター	-10.8473
ラス	-10.8473
別の	-10.8473
在していた	-10.8473
役割	-10.8473
無い	-10.8473
見て	-10.8473
』(1	-10.8486
を迎	-10.8486
ヶ原	-10.8486
児島	-10.8486
単位	-10.8486
式部	-10.8486
後醍醐天皇の	-10.8486
従二位	-10.8486
発見さ	-10.8486
車の	-10.8486
う意味で	-10.85
中心とす	-10.85
必要があ	-10.85
指揮	-10.85
新選	-10.85
殺された	-10.85
に基づいて	-10.8506
の成立	-10.8506
在でも	-10.8506
建てられた	-10.8506
作っ	-10.8513
言っ	-10.8513
)(15	-10.8526
いくつ	-10.8526
いたと考えられ	-10.8526
が出され	-10.8526
が始	-10.8526
されることとなった	-10.8526
されることと	-10.8526
しようとする	-10.8526
によるもので	-10.8526
に師事し	-10.8526
に引き	-10.8526
るものであった	-10.8526
を付け	-10.8526
を目指	-10.8526
ーション	-10.8526
古今和歌	-10.8526
大規模な	-10.8526
存在しな	-10.8526
帝国大学	-10.8526
平安時代末期から鎌倉時代	-10.8526
影響を与えた	-10.8526
摘されている	-10.8526
で死	-10.8539
となったが	-10.8539
を描	-10.8539
井上	-10.8539
山田	-10.8539
明ら	-10.8539
開催	-10.8539
対象と	-10.8546
したのが	-10.8553
の運	-10.8553
ればなら	-10.8553
代々	-10.8553
仮名	-10.8553
伝わって	-10.8553
台湾	-10.8553
山口	-10.8553
心とする	-10.8553
必ずしも	-10.8553
あったと考えられている	-10.8559
と伝えられて	-10.8566
スト教	-10.8566
ロダクション	-10.8566
治天	-10.8566
降は	-10.8566
ていたことから	-10.8572
ものと思われる	-10.8572
江戸幕府の	-10.8572
の多くは	-10.8579
れたので	-10.8579
可能であ	-10.8579
壬申の乱	-10.8579
拡大	-10.8579
あたっ	-10.8586
の系統	-10.8586
てて	-10.8592
を攻	-10.8592
制に	-10.8592
国民	-10.8592
子供	-10.8592
昇進	-10.8592
004	-10.8606
▁その後は	-10.8606
おらず	-10.8606
が発生	-10.8606
でない	-10.8606
は武	-10.8606
を挙	-10.8606
ドラマ	-10.8606
今和歌集	-10.8606
代と	-10.8606
普及	-10.8606
選組	-10.8606
任官	-10.8619
再興	-10.8619
唱え	-10.8619
東京国立博物館	-10.8619
ことの	-10.8626
して用	-10.8626
を定め	-10.8626
以前に	-10.8626
小学校	-10.8626
(194	-10.8632
いように	-10.8632
たび	-10.8632
と同様に	-10.8632
と大	-10.8632
をさ	-10.8632
北海	-10.8632
うどん	-10.8646
かない	-10.8646
に死	-10.8646
の名前	-10.8646
の皇子	-10.8646
る説が	-10.8646
和天皇	-10.8646
野山	-10.8646
その結果	-10.8659
であるか	-10.8659
の研	-10.8659
イメージ	-10.8659
▁かつ	-10.8666
この地	-10.8666
れるな	-10.8666
世紀に	-10.8666
位継承	-10.8666
次いで	-10.8666
▁あ	-10.8673
くま	-10.8673
と称された	-10.8673
に応	-10.8673
れてしまっ	-10.8673
向け	-10.8673
官職	-10.8673
江戸時代前	-10.8673
(165	-10.8686
いたとさ	-10.8686
せい	-10.8686
た可能性	-10.8686
っていたこと	-10.8686
に代わ	-10.8686
の子として生まれ	-10.8686
を目的と	-10.8686
京福電気鉄道	-10.8686
本を	-10.8686
来る	-10.8686
表され	-10.8686
録されて	-10.8686
合い	-10.8699
立像	-10.8699
871	-10.8706
鮮半島	-10.8706
▁幼名は	-10.8713
したと考えられ	-10.8713
ったものである	-10.8713
の一つと	-10.8713
まさ	-10.8713
アジ	-10.8713
信濃	-10.8713
快速	-10.8713
田家	-10.8713
甲斐	-10.8713
してそ	-10.8726
に江戸	-10.8726
の五	-10.8726
ジャ	-10.8726
出身の	-10.8726
大久	-10.8726
子内	-10.8726
徒歩	-10.8726
摂関	-10.8726
朝は	-10.8726
に代わって	-10.874
の孫	-10.874
ものが多い	-10.874
クラ	-10.874
人であっ	-10.874
優れ	-10.874
国へ	-10.874
天皇の皇子	-10.874
山科	-10.874
形文化財	-10.874
急行	-10.874
株式会社	-10.874
治時代に	-10.874
清水	-10.874
じてい	-10.8747
たちが	-10.8747
始まっ	-10.8747
治天皇	-10.8747
鉄道の	-10.8747
アル	-10.8753
全体	-10.8753
業の	-10.8753
ったと言われて	-10.876
が残っ	-10.8767
の重要	-10.8767
は古	-10.8767
り返	-10.8767
呼ん	-10.8767
命により	-10.8767
実施	-10.8767
続し	-10.8767
院政	-10.8767
ヤマト王権	-10.8774
に東	-10.8781
パー	-10.8781
所が	-10.8781
解釈	-10.8781
▁官位	-10.8787
あるか	-10.8787
を設置	-10.8787
後期に	-10.8787
▁この頃	-10.8794
▁徳	-10.8794
いう説が	-10.8794
を築	-10.8794
オランダ	-10.8794
例として	-10.8794
受け入れ	-10.8794
名乗った	-10.8794
屋の	-10.8794
播磨	-10.8794
されてしま	-10.8808
と推測され	-10.8808
なったため	-10.8808
なってしまった	-10.8808
になったとい	-10.8808
に限	-10.8808
ることが出来	-10.8808
れたものと	-10.8808
を設け	-10.8808
ターチェンジ	-10.8808
仏教の	-10.8808
以下のような	-10.8808
和歌山	-10.8808
定して	-10.8808
時代末期から	-10.8808
義の	-10.8808
考える	-10.8808
規模な	-10.8808
述べている	-10.8808
と同じく	-10.8821
やか	-10.8821
品の	-10.8821
後を	-10.8821
じめと	-10.8828
地域に	-10.8828
料とし	-10.8828
時代を	-10.8828
かも	-10.8835
ステ	-10.8835
ャン	-10.8835
発表	-10.8835
設さ	-10.8835
うことにな	-10.8842
けではなく	-10.8842
の子として	-10.8842
▁一方で	-10.8849
▁京都市営地下鉄	-10.8849
いる場合	-10.8849
これによって	-10.8849
とは別	-10.8849
に置か	-10.8849
の当	-10.8849
みであ	-10.8849
ることが多く	-10.8849
一位	-10.8849
家の家	-10.8849
年か	-10.8849
物に	-10.8849
能性が	-10.8849
はほ	-10.8862
体を	-10.8862
旅客	-10.8862
有し	-10.8862
薬師	-10.8862
が現れ	-10.8869
に加え	-10.8869
に死去	-10.8869
の大名	-10.8869
は天皇	-10.8869
一説に	-10.8869
代わっ	-10.8869
各地の	-10.8869
平安京	-10.8869
いことから	-10.8876
が必	-10.8876
なかったの	-10.8876
なったのは	-10.8876
伊達	-10.8876
度に	-10.8876
河内源氏	-10.8876
行す	-10.8876
153	-10.889
▁のち	-10.889
▁天皇	-10.889
うえ	-10.889
とが多かった	-10.889
ープ	-10.889
乗る	-10.889
位置す	-10.889
政大	-10.889
有名で	-10.889
本能寺	-10.889
残さ	-10.889
求める	-10.889
行われるよう	-10.889
が記	-10.8903
するのが	-10.8903
のものは	-10.8903
ディ	-10.8903
城主	-10.8903
崩御	-10.8903
指摘され	-10.8903
本山	-10.8903
祭神	-10.8903
しゅう	-10.891
ないし	-10.891
を祀る	-10.891
一族の	-10.891
通して	-10.891
なみ	-10.8917
サン	-10.8917
地は	-10.8917
本的	-10.8917
法が	-10.8917
王を	-10.8917
達し	-10.8917
部で	-10.8917
いう説がある	-10.8931
こった	-10.8931
ということで	-10.8931
に伝え	-10.8931
わせる	-10.8931
使っ	-10.8931
動き	-10.8931
府京	-10.8931
▁これらは	-10.8945
あったと考	-10.8945
ありながら	-10.8945
かは	-10.8945
太平	-10.8945
明治維新後	-10.8945
般的である	-10.8945
ようになったと	-10.8952
を余儀なくされ	-10.8952
ヤマト	-10.8952
派遣し	-10.8952
記した	-10.8952
詳細は	-10.8952
合がある	-10.8959
定す	-10.8959
戸時代後	-10.8959
自の	-10.8959
込ま	-10.8959
おう	-10.8972
こな	-10.8972
この事	-10.8972
たものと考え	-10.8972
に叙せ	-10.8972
の別	-10.8972
るから	-10.8972
を受けている	-10.8972
期の公	-10.8972
道具	-10.8972
領の	-10.8972
ている場合	-10.8979
記している	-10.8979
が中	-10.8986
ごろ	-10.8986
をい	-10.8986
位に昇叙	-10.8986
前は	-10.8986
安政	-10.8986
載されて	-10.8986
に分け	-10.8993
んだと	-10.8993
続けた	-10.8993
は北	-10.9
存す	-10.9
統治	-10.9
(197	-10.9014
▁日本に	-10.9014
かかわらず	-10.9014
が成立し	-10.9014
たものであり	-10.9014
つける	-10.9014
ていたとされ	-10.9014
にあって	-10.9014
に行われる	-10.9014
の理由	-10.9014
はほと	-10.9014
もたら	-10.9014
を祖とする	-10.9014
上げられ	-10.9014
二人	-10.9014
取り入	-10.9014
形態	-10.9014
戸時代前期	-10.9014
施行	-10.9014
時代にかけ	-10.9014
認され	-10.9014
▁出	-10.9028
も同	-10.9028
務を	-10.9028
撮影	-10.9028
文政	-10.9028
あれば	-10.9035
ばかり	-10.9035
味する	-10.9035
新たな	-10.9035
(178	-10.9042
うという	-10.9042
ちら	-10.9042
れなくな	-10.9042
を伝	-10.9042
会津	-10.9042
地として	-10.9042
市にある	-10.9042
推定	-10.9042
▁すなわち	-10.9049
が残されている	-10.9049
ってしまう	-10.9049
もいわれる	-10.9049
るとされている	-10.9049
けでな	-10.9056
そこに	-10.9056
なみに	-10.9056
のちの	-10.9056
みが	-10.9056
る場合がある	-10.9056
代にな	-10.9056
密教	-10.9056
継承し	-10.9056
豪族	-10.9056
されることとなっ	-10.907
に流	-10.907
のみなら	-10.907
採用され	-10.907
本能寺の	-10.907
いうの	-10.9077
がいた	-10.9077
と同時	-10.9077
のが多	-10.9077
ではないが	-10.9084
どか	-10.9084
なけ	-10.9084
に引	-10.9084
年で	-10.9084
書い	-10.9084
用している	-10.9084
いうも	-10.9098
と推定されてい	-10.9098
の同	-10.9098
の存	-10.9098
みならず	-10.9098
られたという	-10.9098
を歴任し	-10.9098
下鉄	-10.9098
京都市伏見区	-10.9098
出家して	-10.9098
化が	-10.9098
命によ	-10.9098
島の	-10.9098
摂政	-10.9098
昇叙し	-10.9098
明治政	-10.9098
本酒	-10.9098
構成され	-10.9098
治政府	-10.9098
職に	-10.9098
表的な	-10.9098
記載されてい	-10.9098
評価され	-10.9098
)』	-10.9112
かせ	-10.9112
の表	-10.9112
様式	-10.9112
いう名	-10.9119
きてい	-10.9119
ているのは	-10.9119
の大き	-10.9119
の女性	-10.9119
代において	-10.9119
任命された	-10.9119
位に昇	-10.9119
政府の	-10.9119
生年不	-10.9119
(181	-10.9126
あると考	-10.9126
のとされ	-10.9126
子として生まれる	-10.9126
目的とし	-10.9126
自体	-10.9126
▁吉	-10.914
のみや	-10.914
の有力	-10.914
は大き	-10.914
らえ	-10.914
京都市営バス	-10.914
代将軍足利義	-10.914
使う	-10.914
役割を	-10.914
本的に	-10.914
現在も	-10.914
遺跡	-10.914
▁2005	-10.9154
うようにな	-10.9154
じん	-10.9154
ったものの	-10.9154
とは異な	-10.9154
る場合が多	-10.9154
れまでの	-10.9154
を務める	-10.9154
を果たした	-10.9154
亡くなった	-10.9154
付けられた	-10.9154
停車	-10.9154
吉良	-10.9154
大蔵	-10.9154
官と	-10.9154
市左京区	-10.9154
従五位上	-10.9154
▁幼名	-10.9161
を目的	-10.9161
文化財に指定されている	-10.9161
智天皇	-10.9161
正三位	-10.9161
リン	-10.9168
冷泉	-10.9168
工事	-10.9168
▁つまり	-10.9182
▁第二次世界大戦	-10.9182
されない	-10.9182
古今	-10.9182
治承	-10.9182
烏丸	-10.9182
盛は	-10.9182
醐天皇の	-10.9182
養子に	-10.9182
の戦いでは	-10.9189
る場合があ	-10.9189
下のように	-10.9189
ったと思われる	-10.9196
宣下	-10.9196
記載されている	-10.9196
途中	-10.9196
-18	-10.9203
167	-10.9203
いての	-10.9203
う説も	-10.9203
正四位	-10.9203
続いた	-10.9203
長州藩	-10.9203
(193	-10.921
の母	-10.921
はし	-10.921
んと	-10.921
事は	-10.921
光の	-10.921
出される	-10.921
宇多天皇	-10.921
指導	-10.921
都市左京	-10.921
121	-10.9224
かではない	-10.9224
ことも多い	-10.9224
たものであっ	-10.9224
であると考	-10.9224
とする説があ	-10.9224
なされてい	-10.9224
もかかわらず	-10.9224
ようなもの	-10.9224
る際	-10.9224
を代表する	-10.9224
ロッパ	-10.9224
前方後円墳	-10.9224
,0	-10.9239
が最	-10.9239
と称して	-10.9239
に向かっ	-10.9239
は出	-10.9239
亡くなっ	-10.9239
含まれて	-10.9239
記事	-10.9239
身を	-10.9239
ーロッ	-10.9246
前から	-10.9246
が与えられ	-10.926
呼ばれるこ	-10.926
後白河天皇	-10.926
(199	-10.9267
あげ	-10.9267
くまで	-10.9267
する説がある	-10.9267
ったと思われ	-10.9267
っていく	-10.9267
なってしまっ	-10.9267
の姿	-10.9267
の調	-10.9267
は幕府	-10.9267
を始	-10.9267
トン	-10.9267
ヨーロ	-10.9267
前期の	-10.9267
完全	-10.9267
師範学校	-10.9267
明の	-10.9267
期の公卿	-10.9267
関連	-10.9267
駅と	-10.9267
に現	-10.9281
を上	-10.9281
を保	-10.9281
従来	-10.9281
▁京阪	-10.9288
がこれ	-10.9288
にこの	-10.9288
わらの	-10.9288
三位に	-10.9288
摂関家	-10.9288
本来の	-10.9288
あると考えられて	-10.9296
きている	-10.9296
に広	-10.9296
る必要があ	-10.9296
必ず	-10.9296
175	-10.931
あろ	-10.931
が確	-10.931
じわら	-10.931
やすい	-10.931
わせた	-10.931
人とな	-10.931
各地で	-10.931
生年	-10.931
統一	-10.931
麻呂の	-10.931
1872	-10.9324
ものと考	-10.9324
れていっ	-10.9324
ギリ	-10.9324
世紀後半	-10.9324
命さ	-10.9324
左京	-10.9324
当す	-10.9324
既に	-10.9324
明智光秀	-10.9324
残る	-10.9324
盛ん	-10.9324
祀られて	-10.9324
至るまで	-10.9324
173	-10.9331
174	-10.9331
▁その結果	-10.9331
のであると	-10.9331
る必要	-10.9331
残して	-10.9331
鎌倉時代初	-10.9331
に中	-10.9339
に開	-10.9339
の数	-10.9339
木津	-10.9339
135	-10.9353
、187	-10.9353
から出	-10.9353
ことができた	-10.9353
しろ	-10.9353
ぞれの	-10.9353
たわけではな	-10.9353
た一	-10.9353
と呼ばれるこ	-10.9353
に編	-10.9353
のと考え	-10.9353
の者	-10.9353
はあるが	-10.9353
られたの	-10.9353
われるが	-10.9353
を描いた	-10.9353
を賜	-10.9353
主な	-10.9353
確認され	-10.9353
神話	-10.9353
の強	-10.9367
の目	-10.9367
を歴	-10.9367
合併	-10.9367
敗れ	-10.9367
等学	-10.9367
説を	-10.9367
たとえ	-10.9375
大名の	-10.9375
左京区	-10.9375
武田氏	-10.9375
▁重	-10.9382
原道	-10.9382
右近	-10.9382
戸に	-10.9382
生じ	-10.9382
町にある	-10.9382
立してい	-10.9382
越後	-10.9382
あると考えられてい	-10.9396
いられている	-10.9396
えると	-10.9396
に新	-10.9396
に書	-10.9396
の再	-10.9396
は地	-10.9396
り返し	-10.9396
ることも多い	-10.9396
を祀	-10.9396
伝わっている	-10.9396
化財に指定され	-10.9396
安時代末期から鎌倉時代	-10.9396
意味す	-10.9396
阪市	-10.9396
タンゴ鉄道	-10.9403
受けている	-10.9403
織田信長の	-10.9403
うとして	-10.9411
たりする	-10.9411
であったことから	-10.9411
の朝	-10.9411
の水	-10.9411
位と	-10.9411
推測され	-10.9411
124	-10.9418
の乱の	-10.9418
りなが	-10.9418
りょう	-10.9418
催され	-10.9418
理由に	-10.9418
の先	-10.9425
もた	-10.9425
会を	-10.9425
小説	-10.9425
末に	-10.9425
能楽	-10.9425
隠居	-10.9425
(164	-10.944
ICOCA	-10.944
▁四	-10.944
、13	-10.944
あったと考えられてい	-10.944
あると考えられている	-10.944
おこな	-10.944
から江戸	-10.944
させられ	-10.944
のもとに	-10.944
の子である	-10.944
の長男として	-10.944
をめぐ	-10.944
ヤマ	-10.944
丹波国	-10.944
京都市上京区	-10.944
参照のこと	-10.944
古屋	-10.944
文化財に指定	-10.944
言える	-10.944
っか	-10.9454
例え	-10.9454
生き	-10.9454
訪れ	-10.9454
して出	-10.9461
の嫡男	-10.9461
事から	-10.9461
仲麻呂	-10.9461
後鳥羽	-10.9461
▁す	-10.9469
の安	-10.9469
を与える	-10.9469
現し	-10.9469
造営	-10.9469
都で	-10.9469
きが	-10.9483
だろう	-10.9483
に任ぜられる	-10.9483
もなっ	-10.9483
るとされてい	-10.9483
ると言	-10.9483
仁の乱	-10.9483
平安時代初期	-10.9483
部省	-10.9483
ドラ	-10.9498
大日本帝国憲法	-10.9498
から大	-10.9505
に分か	-10.9505
に存在	-10.9505
に転任	-10.9505
は異な	-10.9505
合には	-10.9505
宗の僧	-10.9505
必要が	-10.9505
神社で	-10.9505
ではあるが	-10.9512
とく	-10.9512
に就任した	-10.9512
に成立した	-10.9512
の木	-10.9512
も用いられ	-10.9512
を占	-10.9512
を起こした	-10.9512
んし	-10.9512
代は	-10.9512
使用された	-10.9512
対応	-10.9512
指摘されて	-10.9512
次のように	-10.9512
興福	-10.9512
重要文化財に指定され	-10.9512
176	-10.9527
が定	-10.9527
した際に	-10.9527
たがっ	-10.9527
なされて	-10.9527
ーの	-10.9527
交渉	-10.9527
実の	-10.9527
応永	-10.9527
時代から江戸時代	-10.9527
本来は	-10.9527
武蔵国	-10.9527
歴任	-10.9527
清和源氏	-10.9527
義仲	-10.9527
能寺の変	-10.9527
近衛中将	-10.9527
▁ア	-10.9541
も大	-10.9541
左右	-10.9541
教授	-10.9541
文久	-10.9541
されるもの	-10.9549
たのに	-10.9549
であっても	-10.9549
に行われた	-10.9549
の子と	-10.9549
地方に	-10.9549
子として生	-10.9549
年まで	-10.9549
がつ	-10.9556
を下	-10.9556
品として	-10.9556
得た	-10.9556
時代にな	-10.9556
部は	-10.9556
ということに	-10.9571
と言え	-10.9571
の名を	-10.9571
ものと思われ	-10.9571
を行っていた	-10.9571
中国で	-10.9571
品を	-10.9571
称で	-10.9571
立てら	-10.9571
統的	-10.9571
載さ	-10.9571
連合	-10.9571
)(186	-10.9586
いん	-10.9586
を継承し	-10.9586
京都市営地下鉄東西線	-10.9586
倉時代初期	-10.9586
合が多い	-10.9586
天平宝字	-10.9586
就任した	-10.9586
広島	-10.9586
行動	-10.9586
がなく	-10.9593
が少な	-10.9593
もいわ	-10.9593
を含め	-10.9593
取った	-10.9593
向かう	-10.9593
あったとされる	-10.96
なかったという	-10.96
んな	-10.96
出版	-10.96
場を	-10.96
かける	-10.9615
ておら	-10.9615
は朝	-10.9615
る神社	-10.9615
世界大	-10.9615
完全に	-10.9615
平安時代前期	-10.9615
撮影所	-10.9615
明天皇の	-10.9615
琵琶湖	-10.9615
神で	-10.9615
臣として	-10.9615
藤原道	-10.9615
その一方で	-10.9622
られたとい	-10.9622
五位下に叙	-10.9622
残している	-10.9622
を認	-10.963
下を	-10.963
式を	-10.963
維持	-10.963
114	-10.9637
ざまな	-10.9637
を進め	-10.9637
壬申の	-10.9637
良親王	-10.9637
▁当初は	-10.9644
されたた	-10.9644
ではある	-10.9644
の儀	-10.9644
マン	-10.9644
千葉	-10.9644
命に	-10.9644
岡山	-10.9644
形成され	-10.9644
流と	-10.9644
社である	-10.9644
したことで	-10.9659
った後	-10.9659
つけて	-10.9659
となったの	-10.9659
の入	-10.9659
ら江戸時代	-10.9659
家老	-10.9659
殺害	-10.9659
陸奥国	-10.9659
高く	-10.9659
が使われ	-10.9674
して活躍	-10.9674
に後	-10.9674
に比	-10.9674
に設置さ	-10.9674
小野	-10.9674
死に	-10.9674
祭り	-10.9674
スター	-10.9682
完成し	-10.9682
政府は	-10.9682
江戸城	-10.9682
皇子の	-10.9682
いつ	-10.9689
六角	-10.9689
大仏	-10.9689
大神	-10.9689
書で	-10.9689
のが一般的	-10.9696
いう言	-10.9704
こから	-10.9704
であったと考え	-10.9704
なかったとい	-10.9704
のもとで	-10.9704
の鉄道	-10.9704
らかに	-10.9704
を得る	-10.9704
存してい	-10.9704
果たした	-10.9704
目的と	-10.9704
着した	-10.9704
醤油	-10.9704
例が	-10.9719
文章	-10.9719
の由来	-10.9726
1867	-10.9734
▁いずれ	-10.9734
あるので	-10.9734
が必要であ	-10.9734
が発生し	-10.9734
ないので	-10.9734
の両	-10.9734
の勢	-10.9734
の首	-10.9734
地蔵	-10.9734
子となっ	-10.9734
庶民	-10.9734
建立され	-10.9734
族で	-10.9734
蝦夷	-10.9734
過ぎ	-10.9734
いち	-10.9749
として活躍し	-10.9749
に迎え	-10.9749
は当時	-10.9749
るだけ	-10.9749
る場合が多い	-10.9749
世紀後	-10.9749
乱に	-10.9749
地域の	-10.9749
基づく	-10.9749
少将	-10.9749
日本紀	-10.9749
最古の	-10.9749
福岡	-10.9749
追放	-10.9749
逃れ	-10.9749
(114	-10.9764
1990	-10.9764
▁したが	-10.9764
て天	-10.9764
は以	-10.9764
三代	-10.9764
位下に叙	-10.9764
侍従	-10.9764
名として	-10.9764
存し	-10.9764
官位は従	-10.9764
度を	-10.9764
性格	-10.9764
どであ	-10.9771
に設置	-10.9771
次のよ	-10.9771
界大戦	-10.9771
盛んに	-10.9771
能であ	-10.9771
要であ	-10.9771
関係が	-10.9771
2)	-10.9779
▁皇	-10.9779
が用	-10.9779
供養	-10.9779
動車	-10.9779
小さ	-10.9779
、188	-10.9794
ができた	-10.9794
が登場	-10.9794
こした	-10.9794
ぜられる	-10.9794
と推定される	-10.9794
に応じて	-10.9794
の物	-10.9794
の際には	-10.9794
るものであっ	-10.9794
学んだ	-10.9794
末期から	-10.9794
鹿児	-10.9794
とお	-10.9809
になったという	-10.9809
れたと考えられ	-10.9809
を守	-10.9809
を称	-10.9809
二次	-10.9809
功績	-10.9809
政は	-10.9809
文化財に指定されてい	-10.9809
関ヶ原の戦いで	-10.9809
実際の	-10.9816
確立し	-10.9816
親王を	-10.9816
▁ここで	-10.9824
が描かれ	-10.9824
た上	-10.9824
域に	-10.9824
有してい	-10.9824
殺し	-10.9824
行為	-10.9824
関ヶ	-10.9824
146	-10.9839
▁戦後	-10.9839
が残されてい	-10.9839
することが多	-10.9839
する者	-10.9839
とも考えられ	-10.9839
の伝統	-10.9839
は幕	-10.9839
ろに	-10.9839
を結ぶ	-10.9839
名古	-10.9839
大師	-10.9839
推定されてい	-10.9839
王と	-10.9839
のみである	-10.9846
京都市東山	-10.9846
1863	-10.9854
2002	-10.9854
したとき	-10.9854
に本	-10.9854
を開始し	-10.9854
十一	-10.9854
暦寺	-10.9854
落と	-10.9854
を唱え	-10.9861
与える	-10.9861
乗った	-10.9861
入れら	-10.9861
持った	-10.9861
般的で	-10.9861
親王は	-10.9861
▁概	-10.9869
うい	-10.9869
を書	-10.9869
シャ	-10.9869
不動	-10.9869
任す	-10.9869
力に	-10.9869
村の	-10.9869
駅で	-10.9869
▁正室は	-10.9884
このことか	-10.9884
たものと思われる	-10.9884
ちは	-10.9884
であると考えられている	-10.9884
は源	-10.9884
は義	-10.9884
は西	-10.9884
べている	-10.9884
もち	-10.9884
るものは	-10.9884
今川	-10.9884
画の	-10.9884
術館	-10.9884
記載されて	-10.9884
足利義満	-10.9884
を付	-10.9899
ーマ	-10.9899
任ぜ	-10.9899
戸の	-10.9899
方と	-10.9899
等に	-10.9899
線に	-10.9899
風の	-10.9899
▁慶応	-10.9907
が高い	-10.9907
そのよ	-10.9907
た人物	-10.9907
を担当	-10.9907
を描い	-10.9907
代まで	-10.9907
信長は	-10.9907
具体的	-10.9907
利尊氏	-10.9907
家物語	-10.9907
建され	-10.9907
政府に	-10.9907
聖徳太	-10.9907
至った	-10.9907
をお	-10.9914
第三	-10.9914
臣秀吉の	-10.9914
設置されている	-10.9914
いう説があ	-10.9922
なくなって	-10.9922
のひとつで	-10.9922
出されてい	-10.9922
都市東山区	-10.9922
▁宝	-10.993
であると考えられて	-10.993
に再	-10.993
に自	-10.993
の地に	-10.993
も知ら	-10.993
られたもので	-10.993
徳太子	-10.993
播磨国	-10.993
文を	-10.993
1889	-10.9945
がお	-10.9945
が後	-10.9945
きっかけ	-10.9945
の領	-10.9945
りす	-10.9945
を目指し	-10.9945
代にかけ	-10.9945
兄の	-10.9945
最大	-10.9945
歌を	-10.9945
要である	-10.9945
った事	-10.9952
佐々木	-10.9952
右京区	-10.9952
ものと考えられている	-10.996
人気	-10.996
可能である	-10.996
姓を	-10.996
存在しない	-10.996
毎年	-10.996
(122	-10.9975
▁戦国	-10.9975
ことになって	-10.9975
たのか	-10.9975
となど	-10.9975
に作	-10.9975
の三男	-10.9975
の墓	-10.9975
るなどの	-10.9975
る際に	-10.9975
をとっ	-10.9975
任さ	-10.9975
古墳時代	-10.9975
命令	-10.9975
大納言に	-10.9975
岩倉	-10.9975
平城	-10.9975
皇から	-10.9975
表し	-10.9975
近年では	-10.9975
陀如来	-10.9975
の宗	-10.9991
本文	-10.9991
相手	-10.9991
となってお	-10.9998
と対立	-10.9998
られていな	-10.9998
土御門	-10.9998
衛大将	-10.9998
こっ	-11.0006
よい	-11.0006
る必要が	-11.0006
争い	-11.0006
地名	-11.0006
守護大名	-11.0006
寛文	-11.0006
最終的に	-11.0006
聖武天皇	-11.0006
長を	-11.0006
うため	-11.0021
ことができな	-11.0021
の風	-11.0021
は実	-11.0021
は少な	-11.0021
ニュー	-11.0021
制が	-11.0021
存在していた	-11.0021
撃を	-11.0021
的と	-11.0021
1600	-11.0037
されるの	-11.0037
であると考えられてい	-11.0037
れてしまう	-11.0037
倉幕府の	-11.0037
右京	-11.0037
岡県	-11.0037
政に	-11.0037
早く	-11.0037
認められて	-11.0037
101	-11.0044
う言葉	-11.0044
ていて	-11.0044
に始ま	-11.0044
の人々	-11.0044
万葉集	-11.0044
奈良市	-11.0044
さを	-11.0052
を打	-11.0052
来た	-11.0052
軍家	-11.0052
かかわ	-11.0068
に列	-11.0068
に合わせ	-11.0068
は中国	-11.0068
らによ	-11.0068
を残して	-11.0068
主であ	-11.0068
向かって	-11.0068
従五位下に叙	-11.0068
氏の一	-11.0068
維新後	-11.0068
で行われる	-11.0075
になっていった	-11.0075
はそれぞれ	-11.0075
ようになったの	-11.0075
ることができた	-11.0075
摘されてい	-11.0075
のり	-11.0083
国は	-11.0083
描い	-11.0083
酒の	-11.0083
院と	-11.0083
▁近年	-11.0091
の名が	-11.0091
わたっ	-11.0091
合が多	-11.0091
成功し	-11.0091
指して	-11.0091
般的な	-11.0091
(167	-11.0098
ができな	-11.0098
その一方	-11.0098
とするこ	-11.0098
に長	-11.0098
も見られ	-11.0098
団体	-11.0098
開催され	-11.0098
148	-11.0114
▁2008	-11.0114
▁かつては	-11.0114
▁全	-11.0114
で行われた	-11.0114
とも多	-11.0114
に付	-11.0114
のと思われる	-11.0114
を果	-11.0114
化財に指定されている	-11.0114
地とし	-11.0114
定に	-11.0114
研究所	-11.0114
義満	-11.0114
者であった	-11.0114
(154	-11.0129
、190	-11.0129
うことで	-11.0129
がか	-11.0129
たとえば	-11.0129
であったとされ	-11.0129
はす	-11.0129
るようになったと	-11.0129
るようになったの	-11.0129
を送	-11.0129
四位下に	-11.0129
山崎	-11.0129
立っ	-11.0129
車が	-11.0129
▁大阪	-11.0137
あったと考えられて	-11.0137
かけた	-11.0137
を除く	-11.0137
響を与	-11.0137
鳥時代	-11.0137
すい	-11.0145
令に	-11.0145
彼の	-11.0145
池田	-11.0145
したものの	-11.0153
にあたって	-11.0153
られたこと	-11.0153
任ぜられる	-11.0153
」・「	-11.0161
いもので	-11.0161
が認めら	-11.0161
として使われ	-11.0161
と推定されて	-11.0161
に復	-11.0161
に成功	-11.0161
ねて	-11.0161
のときに	-11.0161
は奈良	-11.0161
を表す	-11.0161
ソー	-11.0161
上げた	-11.0161
京国立博物館	-11.0161
前述の	-11.0161
化す	-11.0161
字を	-11.0161
家康は	-11.0161
州藩	-11.0161
日本帝	-11.0161
本紀	-11.0161
派遣さ	-11.0161
用されていた	-11.0161
異なり	-11.0161
記される	-11.0161
は鎌	-11.0176
会が	-11.0176
位し	-11.0176
戦死	-11.0176
激し	-11.0176
長さ	-11.0176
ほかに	-11.0184
ドイツ	-11.0184
今出川	-11.0184
江戸時代後期の	-11.0184
近衛大	-11.0184
遣され	-11.0184
(174	-11.0192
(1869	-11.0192
1997	-11.0192
、189	-11.0192
しようとす	-11.0192
ちが	-11.0192
る説がある	-11.0192
れたとさ	-11.0192
れるのは	-11.0192
別名	-11.0192
討伐	-11.0192
車両	-11.0192
▁幕府	-11.0207
がそれ	-11.0207
がた	-11.0207
くつか	-11.0207
ずし	-11.0207
は元	-11.0207
家康に	-11.0207
所有	-11.0207
族であ	-11.0207
河内国	-11.0207
流行	-11.0207
紀伊	-11.0207
ている場	-11.0223
ところで	-11.0223
に通	-11.0223
るなどし	-11.0223
写本	-11.0223
天皇の第	-11.0223
摩藩	-11.0223
日本の飛鳥時代の人物で	-11.0223
行してい	-11.0223
追討	-11.0223
の流れを汲	-11.0231
の皇族	-11.0231
ぶこと	-11.0231
乗って	-11.0231
出している	-11.0231
数多く	-11.0231
書いた	-11.0231
示され	-11.0231
示している	-11.0231
て活	-11.0239
で一	-11.0239
と見られている	-11.0239
係を	-11.0239
傾向	-11.0239
同一	-11.0239
▁福	-11.0254
々と	-11.0254
させてい	-11.0254
すれ	-11.0254
の戦いの	-11.0254
はあまり	-11.0254
はないと	-11.0254
る可能性	-11.0254
一条天皇	-11.0254
分かれて	-11.0254
単に	-11.0254
合があ	-11.0254
四天王	-11.0254
市内	-11.0254
市川	-11.0254
常陸	-11.0254
拠点	-11.0254
郎が	-11.0254
かったので	-11.027
が無	-11.027
ことがわか	-11.027
の技	-11.027
の鉄	-11.027
は次	-11.027
よるもので	-11.027
加わ	-11.027
加賀	-11.027
商人	-11.027
実は	-11.027
揚げ	-11.027
概要	-11.027
110	-11.0278
』・『	-11.0278
ったよ	-11.0278
て活躍	-11.0278
伊勢国	-11.0278
背景に	-11.0278
▁時	-11.0286
』(19	-11.0286
が伝	-11.0286
けな	-11.0286
とよ	-11.0286
は信	-11.0286
トンネル	-11.0286
ルコール	-11.0286
使者	-11.0286
出土	-11.0286
味を	-11.0286
阪急	-11.0286
うになったと	-11.0302
が知ら	-11.0302
つては	-11.0302
の相	-11.0302
の神社	-11.0302
を巡	-11.0302
を続け	-11.0302
上皇の	-11.0302
務める	-11.0302
大友	-11.0302
心を	-11.0302
施され	-11.0302
本帝国	-11.0302
流れを	-11.0302
が定められ	-11.031
する説があ	-11.031
それまでの	-11.031
っているの	-11.031
室町幕府の	-11.031
響を与えた	-11.031
に成功し	-11.0318
の子であ	-11.0318
ようになっている	-11.0318
原因	-11.0318
室は	-11.0318
家系	-11.0318
市右京区	-11.0318
書館	-11.0318
本が	-11.0318
由に	-11.0318
畠山	-11.0318
皇の皇子	-11.0318
道が	-11.0318
▁例え	-11.0325
が京都	-11.0325
出来る	-11.0325
日から	-11.0325
畿内	-11.0333
臨時	-11.0333
いくつかの	-11.0349
ことなく	-11.0349
するものである	-11.0349
っていたこ	-11.0349
と見られてい	-11.0349
によるものであ	-11.0349
に記され	-11.0349
のようなもの	-11.0349
の流れを汲む	-11.0349
の祭	-11.0349
ばれるこ	-11.0349
も考えられ	-11.0349
るとされて	-11.0349
代末期から	-11.0349
伊勢神	-11.0349
使用した	-11.0349
安土桃山時代の	-11.0349
対しては	-11.0349
数え	-11.0349
時代末期から鎌倉時代	-11.0349
生涯	-11.0349
降の	-11.0349
面の	-11.0349
を聞	-11.0365
展し	-11.0365
来し	-11.0365
身で	-11.0365
重な	-11.0365
003	-11.0373
で作られ	-11.0381
に代わっ	-11.0381
の全	-11.0381
ものとな	-11.0381
を授	-11.0381
を進	-11.0381
化された	-11.0381
大伴	-11.0381
成されて	-11.0381
最終	-11.0381
気を	-11.0381
藩に	-11.0381
記してい	-11.0381
記述があ	-11.0381
う説がある	-11.0389
が存在した	-11.0389
ることなく	-11.0389
ダクション	-11.0389
位下に昇叙	-11.0389
記述がある	-11.0389
▁以下	-11.0397
が生じ	-11.0397
するとともに	-11.0397
などし	-11.0397
に設置された	-11.0397
は最	-11.0397
られることも	-11.0397
余儀なくされ	-11.0397
内閣総理大臣	-11.0397
加した	-11.0397
勧修寺	-11.0397
多数の	-11.0397
嵯峨天	-11.0397
建立し	-11.0397
見さ	-11.0397
ということにな	-11.0405
(177	-11.0413
、192	-11.0413
」。	-11.0413
て自	-11.0413
の創	-11.0413
の日本の	-11.0413
前で	-11.0413
従三位に	-11.0413
応じ	-11.0413
無かった	-11.0413
)-1	-11.0421
▁大正	-11.0421
ものと考えられてい	-11.0421
代にお	-11.0421
山天皇	-11.0421
開いた	-11.0421
いたと考えられている	-11.0429
がれ	-11.0429
に与	-11.0429
京都市営地下鉄烏丸線	-11.0429
吉に	-11.0429
地頭	-11.0429
開設	-11.0429
くつ	-11.0445
してから	-11.0445
て活躍し	-11.0445
て行わ	-11.0445
であるの	-11.0445
ない場合	-11.0445
なかで	-11.0445
を余儀なくさ	-11.0445
事件の	-11.0445
十六	-11.0445
日野	-11.0445
東北	-11.0445
水戸	-11.0445
的なも	-11.0445
続日本紀	-11.0445
▁これによって	-11.0461
てん	-11.0461
て用	-11.0461
はや	-11.0461
もん	-11.0461
られることが多	-11.0461
実に	-11.0461
廷の	-11.0461
日で	-11.0461
移転	-11.0461
ころに	-11.0469
を有し	-11.0469
エピソード	-11.0469
代になると	-11.0469
成されてい	-11.0469
置かれてい	-11.0469
が作られ	-11.0477
ことが出	-11.0477
すで	-11.0477
に当たっ	-11.0477
もつ	-11.0477
京大	-11.0477
力で	-11.0477
山藩	-11.0477
戊辰戦争	-11.0477
提出	-11.0477
述べてい	-11.0477
▁八	-11.0493
から鎌倉時代	-11.0493
が設置されて	-11.0493
くも	-11.0493
しに	-11.0493
たためである	-11.0493
との交	-11.0493
に代表される	-11.0493
を参照のこと	-11.0493
ンダ	-11.0493
中学校	-11.0493
可能で	-11.0493
大宰	-11.0493
岡市	-11.0493
廷に	-11.0493
志社	-11.0493
督を継	-11.0493
行なわ	-11.0493
院で	-11.0493
(179	-11.0509
▁その一方	-11.0509
▁太	-11.0509
といって	-11.0509
とが出来	-11.0509
にとっては	-11.0509
に成立し	-11.0509
に着	-11.0509
を冠称する	-11.0509
を理由に	-11.0509
バー	-11.0509
学問	-11.0509
定してい	-11.0509
捕らえられ	-11.0509
福電気鉄道	-11.0509
許された	-11.0509
逆に	-11.0509
であるとされる	-11.0517
定めた	-11.0517
所在地	-11.0517
退した	-11.0517
色の	-11.0525
都駅	-11.0525
野国	-11.0525
(121	-11.0542
▁通称は	-11.0542
かどうか	-11.0542
に作られ	-11.0542
に使わ	-11.0542
の事件	-11.0542
を討	-11.0542
カ合衆国	-11.0542
位置づけ	-11.0542
取って	-11.0542
台宗	-11.0542
含まれる	-11.0542
戦に	-11.0542
晩年	-11.0542
物は	-11.0542
確認されてい	-11.0542
記して	-11.0542
農民	-11.0542
ったものと	-11.055
で用いられ	-11.055
みなもとの	-11.055
時代末期か	-11.055
組み合わせ	-11.055
豊臣秀吉に	-11.055
たく	-11.0558
クリ	-11.0558
亡く	-11.0558
庫県	-11.0558
登録	-11.0558
続き	-11.0558
を兼ね	-11.0566
カレー	-11.0566
地域で	-11.0566
文化財に指定されて	-11.0566
藤原北	-11.0566
要文化財に指定され	-11.0566
▁下	-11.0574
を名乗っ	-11.0574
与し	-11.0574
江戸時代中期の	-11.0574
河国	-11.0574
画を	-11.0574
置かれて	-11.0574
郎は	-11.0574
▁しかしこ	-11.059
したことによ	-11.059
たことがあ	-11.059
るものではな	-11.059
れたことが	-11.059
ろから	-11.059
を見る	-11.059
サー	-11.059
三重	-11.059
与えられる	-11.059
出る	-11.059
原北家	-11.059
後白河法皇	-11.059
時代後期に	-11.059
本拠	-11.059
独特の	-11.059
▁一般的	-11.0606
とする見	-11.0606
利氏	-11.0606
制定され	-11.0606
南部	-11.0606
寿司	-11.0606
残してい	-11.0606
男子	-11.0606
白河法皇	-11.0606
能である	-11.0606
▁天平	-11.0615
ある大	-11.0615
むこと	-11.0615
出する	-11.0615
仏の	-11.0623
大宮	-11.0623
大江	-11.0623
小学	-11.0623
度は	-11.0623
著し	-11.0623
複数	-11.0623
ったようである	-11.0631
ったようで	-11.0631
と呼ぶこと	-11.0631
にもかかわ	-11.0631
ーチェンジ	-11.0631
下のような	-11.0631
代に入ると	-11.0631
▁その一方で	-11.0639
▁実際	-11.0639
いるのは	-11.0639
えたと	-11.0639
けたもの	-11.0639
されるようになり	-11.0639
とが多く	-11.0639
として知られてい	-11.0639
どでは	-11.0639
もとの	-11.0639
る中	-11.0639
キャ	-11.0639
ヶ原の戦いで	-11.0639
優れた	-11.0639
入ってい	-11.0639
女子	-11.0639
建された	-11.0639
文化の	-11.0639
焼失	-11.0639
西園寺公	-11.0639
都市営地下鉄東西線	-11.0639
ざま	-11.0655
に家	-11.0655
の設	-11.0655
令を	-11.0655
殿の	-11.0655
男性	-11.0655
製の	-11.0655
▁第二	-11.0664
、14	-11.0664
いとさ	-11.0664
と結婚	-11.0664
に任官	-11.0664
り出し	-11.0664
ればな	-11.0664
多いが	-11.0664
1870	-11.0672
▁更	-11.0672
かではな	-11.0672
ことはでき	-11.0672
すように	-11.0672
たとも言	-11.0672
と言って	-11.0672
のほとんど	-11.0672
は少	-11.0672
るものもあ	-11.0672
を利	-11.0672
刊行	-11.0672
楽の	-11.0672
系図	-11.0672
運転され	-11.0672
125	-11.0688
が作	-11.0688
が必要である	-11.0688
たものと思われ	-11.0688
ったといわれる	-11.0688
に使用	-11.0688
に国	-11.0688
に多く	-11.0688
の一環として	-11.0688
ーショ	-11.0688
五位上	-11.0688
出されている	-11.0688
役者	-11.0688
思い	-11.0688
成す	-11.0688
所領を	-11.0688
時代に入ると	-11.0688
理を	-11.0688
用いられること	-11.0688
軍徳川	-11.0688
に仕える	-11.0705
は家	-11.0705
作る	-11.0705
古の	-11.0705
完成した	-11.0705
寛政	-11.0705
極的	-11.0705
発展した	-11.0705
重要文化財に指定	-11.0705
録さ	-11.0705
(1867	-11.0713
い場合	-11.0713
きなか	-11.0713
たためであ	-11.0713
の子として生まれる	-11.0713
るのに対し	-11.0713
亡した	-11.0713
従来の	-11.0713
推定される	-11.0713
暦元年	-11.0713
が上	-11.0721
は主	-11.0721
ケー	-11.0721
ダイ	-11.0721
元和	-11.0721
古い	-11.0721
建武	-11.0721
派と	-11.0721
400	-11.0738
▁例	-11.0738
あるも	-11.0738
いる場	-11.0738
がらも	-11.0738
この事件	-11.0738
すことが	-11.0738
の所領	-11.0738
インタ	-11.0738
上天	-11.0738
公開	-11.0738
在しな	-11.0738
基づいて	-11.0738
定かではない	-11.0738
市にあ	-11.0738
正五位	-11.0738
浄土宗	-11.0738
いうことで	-11.0754
ていたと考えられている	-11.0754
に高	-11.0754
位に昇叙し	-11.0754
式で	-11.0754
忠の	-11.0754
部が	-11.0754
113	-11.0762
123	-11.0762
師事し	-11.0762
幼名は	-11.0762
統的な	-11.0762
選ばれ	-11.0762
されるも	-11.0771
たものも	-11.0771
に書かれ	-11.0771
みである	-11.0771
京都大学	-11.0771
位下に昇	-11.0771
元は	-11.0771
宇多	-11.0771
山時	-11.0771
師範	-11.0771
終わった	-11.0771
翌年には	-11.0771
開い	-11.0771
▁主に	-11.0787
があったこと	-11.0787
で出	-11.0787
のす	-11.0787
の前に	-11.0787
れたとされる	-11.0787
ロシ	-11.0787
亡し	-11.0787
内裏	-11.0787
初期にかけて	-11.0787
天皇か	-11.0787
府から	-11.0787
応元年	-11.0787
日本語	-11.0787
が残されて	-11.0796
ていたとさ	-11.0796
まっている	-11.0796
将軍徳川家	-11.0796
必要がある	-11.0796
1864	-11.0804
かという	-11.0804
が描かれている	-11.0804
が続	-11.0804
ことになってい	-11.0804
するまで	-11.0804
であったことが	-11.0804
としたが	-11.0804
とみられ	-11.0804
命された	-11.0804
情報	-11.0804
戸幕府の	-11.0804
文化財に	-11.0804
津市	-11.0804
要が	-11.0804
野の	-11.0804
中では	-11.0812
事であ	-11.0812
成して	-11.0812
てあ	-11.082
国か	-11.082
張し	-11.082
文献	-11.082
結成	-11.082
続く	-11.082
行が	-11.082
話が	-11.082
(173	-11.0837
(195	-11.0837
134	-11.0837
▁現代	-11.0837
▁鎌倉幕府	-11.0837
が使用され	-11.0837
せたもの	-11.0837
ったとする説	-11.0837
ていたと考え	-11.0837
てこれ	-11.0837
などと呼ばれ	-11.0837
にあたり	-11.0837
に師	-11.0837
に見え	-11.0837
の活	-11.0837
の観	-11.0837
まざ	-11.0837
も行	-11.0837
をそ	-11.0837
を占め	-11.0837
作られる	-11.0837
信玄	-11.0837
家か	-11.0837
形を	-11.0837
徳川家康の	-11.0837
戦で	-11.0837
極的に	-11.0837
母の	-11.0837
波国	-11.0837
秀吉は	-11.0837
継が	-11.0837
薨去	-11.0837
表的	-11.0837
電鉄	-11.0837
非違使	-11.0837
▁駅	-11.0854
で作	-11.0854
るだ	-11.0854
伊賀	-11.0854
太夫	-11.0854
巻き	-11.0854
師の	-11.0854
新羅	-11.0854
139	-11.0862
800	-11.0862
ていたとされる	-11.0862
人皇子	-11.0862
代から江戸時代	-11.0862
化財に指定されてい	-11.0862
基づい	-11.0862
大きい	-11.0862
存して	-11.0862
宇都宮	-11.0862
峨天皇	-11.0862
江戸時代前期の	-11.0862
活動を	-11.0862
独立し	-11.0862
かさ	-11.0871
しこ	-11.0871
つに	-11.0871
と呼んで	-11.0871
和泉	-11.0871
土真	-11.0871
域の	-11.0871
族と	-11.0871
村上	-11.0871
華経	-11.0871
衰退	-11.0871
したところ	-11.0879
たと見られ	-11.0879
として使用	-11.0879
を開始した	-11.0879
役割を果た	-11.0879
▁豊	-11.0887
あわせ	-11.0887
が広	-11.0887
に所	-11.0887
に改め	-11.0887
の当主	-11.0887
ばか	-11.0887
りか	-11.0887
りして	-11.0887
る一方	-11.0887
を提	-11.0887
を訪	-11.0887
中から	-11.0887
永元年	-11.0887
1970	-11.0904
が増	-11.0904
が明	-11.0904
した場合	-11.0904
しめ	-11.0904
のが多い	-11.0904
の異	-11.0904
の花	-11.0904
の金	-11.0904
ものと考えられる	-11.0904
トラ	-11.0904
宮津	-11.0904
戸時代前	-11.0904
持統天皇	-11.0904
歌舞伎の	-11.0904
正四位下	-11.0904
無く	-11.0904
直後	-11.0904
示してい	-11.0904
道は	-11.0904
を建立	-11.0912
を見て	-11.0912
利用さ	-11.0912
即位し	-11.0912
されたのは	-11.0921
していたの	-11.0921
のが一般的であ	-11.0921
チャ	-11.0921
代将軍足利	-11.0921
外交	-11.0921
平安時代初	-11.0921
業者	-11.0921
比べ	-11.0921
菓子	-11.0921
都市伏見区	-11.0921
重ね	-11.0921
飛鳥時代の	-11.0921
1980	-11.0938
▁旧仮名遣いでの読みは	-11.0938
からなる	-11.0938
することによ	-11.0938
たとも言われている	-11.0938
と言える	-11.0938
めるため	-11.0938
ヤマト王	-11.0938
一定	-11.0938
世紀末	-11.0938
勢神宮	-11.0938
参加した	-11.0938
否定	-11.0938
吾妻	-11.0938
安土桃山時代から江戸時代	-11.0938
役割を果たし	-11.0938
必要であ	-11.0938
文禄	-11.0938
方では	-11.0938
日本帝国憲法	-11.0938
時代になると	-11.0938
最大の	-11.0938
月から	-11.0938
熊本	-11.0938
社であ	-11.0938
自身の	-11.0938
財に指定され	-11.0938
造られ	-11.0938
あれ	-11.0954
かが	-11.0954
テレ	-11.0954
メン	-11.0954
信の	-11.0954
像を	-11.0954
元服	-11.0954
墓所	-11.0954
祇園	-11.0954
繰り	-11.0954
頭の	-11.0954
▁一般的に	-11.0963
、16	-11.0963
ついに	-11.0963
を使用する	-11.0963
を失っ	-11.0963
を開い	-11.0963
一般的には	-11.0963
有して	-11.0963
的であった	-11.0963
都市営バス	-11.0963
いき	-11.0971
されてし	-11.0971
しを	-11.0971
の子とし	-11.0971
りや	-11.0971
体が	-11.0971
制作	-11.0971
学に	-11.0971
室の	-11.0971
府軍	-11.0971
東国	-11.0971
神武天皇	-11.0971
長者	-11.0971
とされているが	-11.098
152	-11.0988
3)	-11.0988
▁宮	-11.0988
たこともあっ	-11.0988
て上	-11.0988
の言	-11.0988
られていない	-11.0988
るということ	-11.0988
れたり	-11.0988
を主張	-11.0988
北近畿	-11.0988
学研究	-11.0988
条家	-11.0988
次い	-11.0988
示した	-11.0988
要があ	-11.0988
▁もっとも	-11.1005
、197	-11.1005
が実	-11.1005
しばらく	-11.1005
て作	-11.1005
という事	-11.1005
と推測さ	-11.1005
なものと	-11.1005
になること	-11.1005
の代わりに	-11.1005
の著	-11.1005
は内	-11.1005
も少なくな	-11.1005
も行われ	-11.1005
マト王権	-11.1005
先に	-11.1005
同盟	-11.1005
村上天皇	-11.1005
条天皇の	-11.1005
行うこと	-11.1005
長男として	-11.1005
館に	-11.1005
駅に	-11.1005
▁天文	-11.1014
いって	-11.1014
たりし	-11.1014
た後に	-11.1014
のと考えられている	-11.1014
六波羅	-11.1014
関係の	-11.1014
うけ	-11.1022
個人	-11.1022
力と	-11.1022
実上	-11.1022
祀ら	-11.1022
貞観	-11.1022
132	-11.1039
172	-11.1039
うとい	-11.1039
が多いが	-11.1039
くなっている	-11.1039
ことはできな	-11.1039
されるようになる	-11.1039
しくな	-11.1039
という記	-11.1039
として知られて	-11.1039
の世界	-11.1039
りつ	-11.1039
を使う	-11.1039
プラットホーム	-11.1039
京阪電	-11.1039
作と	-11.1039
大きな影響を	-11.1039
応仁	-11.1039
狂言	-11.1039
理の	-11.1039
確認されている	-11.1039
社が	-11.1039
繰り返	-11.1039
駅となる	-11.1039
(1863	-11.1048
ことになり	-11.1048
キリシタン	-11.1048
原の戦いで	-11.1048
有していた	-11.1048
発見された	-11.1048
を実	-11.1056
ータ	-11.1056
伊予	-11.1056
場し	-11.1056
山駅	-11.1056
工業	-11.1056
治的	-11.1056
法と	-11.1056
立の	-11.1056
ずしも	-11.1065
ったら	-11.1065
ときは	-11.1065
べてい	-11.1065
大海人	-11.1065
尾張国	-11.1065
明智光	-11.1065
込んで	-11.1065
(153	-11.1073
▁左	-11.1073
、191	-11.1073
いことか	-11.1073
区にある	-11.1073
撰和歌集	-11.1073
議会	-11.1073
が置	-11.109
が自	-11.109
たわけでは	-11.109
ったことも	-11.109
づいて	-11.109
であったと考	-11.109
も存	-11.109
れるようになってい	-11.109
ランダ	-11.109
伏見宮	-11.109
師事	-11.109
戦し	-11.109
所蔵	-11.109
文の	-11.109
日本の飛鳥時代の人物	-11.109
本格的	-11.109
知行	-11.109
立てた	-11.109
終わっ	-11.109
線が	-11.109
羽天皇	-11.109
集団	-11.109
期から鎌倉時代	-11.1099
▁その一	-11.1107
されることになっ	-11.1107
のとおり	-11.1107
のなかで	-11.1107
ものと考えられて	-11.1107
ようやく	-11.1107
るのであ	-11.1107
ヨー	-11.1107
姿を	-11.1107
面で	-11.1107
する際	-11.1116
れた後	-11.1116
一つと	-11.1116
武田信	-11.1116
に三	-11.1125
幼名	-11.1125
戦の	-11.1125
いものであ	-11.1133
して活躍し	-11.1133
できるよう	-11.1133
れるもので	-11.1133
奈良時代に	-11.1133
平安時代前	-11.1133
見られてい	-11.1133
▁明治維新後	-11.1142
▁重要	-11.1142
かわらず	-11.1142
が起こる	-11.1142
しゃ	-11.1142
たこともあり	-11.1142
つも	-11.1142
というもので	-11.1142
とおり	-11.1142
として扱われ	-11.1142
な影響を与え	-11.1142
の各	-11.1142
の立場	-11.1142
はも	-11.1142
られていたが	-11.1142
イギ	-11.1142
入した	-11.1142
氏の家	-11.1142
祖とす	-11.1142
等を	-11.1142
継がれ	-11.1142
が京	-11.1159
としても知られ	-11.1159
の例	-11.1159
の旧	-11.1159
は文	-11.1159
彼女	-11.1159
朝が	-11.1159
あくま	-11.1168
されることになった	-11.1168
すため	-11.1168
れなく	-11.1168
をいう	-11.1168
メージ	-11.1168
財に指定されている	-11.1168
▁水	-11.1176
▁西日本	-11.1176
して使われ	-11.1176
とができた	-11.1176
として大	-11.1176
の一方で	-11.1176
の中では	-11.1176
れたことに	-11.1176
件に	-11.1176
例と	-11.1176
出た	-11.1176
唯一	-11.1176
在している	-11.1176
大谷	-11.1176
本の飛鳥時代の人物で	-11.1176
様子	-11.1176
正二	-11.1176
治維新後	-11.1176
▁つ	-11.1193
▁元禄	-11.1193
がし	-11.1193
つとめ	-11.1193
を有す	-11.1193
を本	-11.1193
京都大	-11.1193
他にも	-11.1193
分は	-11.1193
分離	-11.1193
家して	-11.1193
山古墳	-11.1193
IC	-11.1211
が必要で	-11.1211
しんのう	-11.1211
で生	-11.1211
とも多い	-11.1211
のだった	-11.1211
の管	-11.1211
を祖とす	-11.1211
リッ	-11.1211
ーシ	-11.1211
前方後円	-11.1211
天台宗の	-11.1211
天智	-11.1211
官として	-11.1211
従四位上	-11.1211
押し	-11.1211
死去する	-11.1211
長い	-11.1211
▁奈良時代	-11.1219
が置かれた	-11.1219
される場合	-11.1219
して行	-11.1219
であったの	-11.1219
とするもの	-11.1219
とも称され	-11.1219
に合わ	-11.1219
のみを	-11.1219
の一方	-11.1219
の乱に	-11.1219
の長男とし	-11.1219
るのではな	-11.1219
れなくなっ	-11.1219
京都市上京	-11.1219
大きな影響	-11.1219
推定されて	-11.1219
舞鶴市	-11.1219
▁承	-11.1228
と並	-11.1228
の社	-11.1228
レビ	-11.1228
価値	-11.1228
度が	-11.1228
明智	-11.1228
条件	-11.1228
極め	-11.1228
流し	-11.1228
百姓	-11.1228
着用	-11.1228
祀る	-11.1228
門に	-11.1228
(175	-11.1245
900	-11.1245
▁一般に	-11.1245
▁宗	-11.1245
▁本来	-11.1245
した時	-11.1245
すよう	-11.1245
たと伝えられている	-11.1245
たわけで	-11.1245
てしまい	-11.1245
で知	-11.1245
の子の	-11.1245
はその後	-11.1245
れていることから	-11.1245
を構	-11.1245
スサノオ	-11.1245
上京区	-11.1245
伝来	-11.1245
別に	-11.1245
展開	-11.1245
推古天皇	-11.1245
整備され	-11.1245
止め	-11.1245
流通	-11.1245
神は	-11.1245
落とし	-11.1245
視さ	-11.1245
領地	-11.1245
などを歴任	-11.1263
に追	-11.1263
も見	-11.1263
化財に指定	-11.1263
扱い	-11.1263
紹介	-11.1263
西の	-11.1263
都市上京区	-11.1263
▁寛永	-11.1271
つつあ	-11.1271
の方が	-11.1271
の日記	-11.1271
国大学	-11.1271
清盛の	-11.1271
測され	-11.1271
かつての	-11.128
が知られている	-11.128
これまで	-11.128
さえ	-11.128
そうした	-11.128
に記されている	-11.128
の代わり	-11.128
の勅	-11.128
の意味で	-11.128
を加えて	-11.128
代表する	-11.128
動に	-11.128
年のち改元して	-11.128
正五位下	-11.128
統の	-11.128
表される	-11.128
裁判	-11.128
高さ	-11.128
149	-11.1298
う説が	-11.1298
くが	-11.1298
じゃ	-11.1298
じゅう	-11.1298
その結	-11.1298
の即位	-11.1298
の貴族	-11.1298
はさ	-11.1298
を残している	-11.1298
コース	-11.1298
使い	-11.1298
大戦	-11.1298
屋根	-11.1298
復活	-11.1298
心とす	-11.1298
時代は	-11.1298
町にあ	-11.1298
見られるよう	-11.1298
設定	-11.1298
許可	-11.1298
認められてい	-11.1298
起き	-11.1298
たのに対し	-11.1306
にしている	-11.1306
ものだった	-11.1306
ものとなっ	-11.1306
れていなか	-11.1306
れるという	-11.1306
命じられた	-11.1306
天皇の即位	-11.1306
安時代初期	-11.1306
1873	-11.1315
うもので	-11.1315
それらの	-11.1315
たという説もある	-11.1315
和歌山県	-11.1315
大きな影響を与え	-11.1315
天神	-11.1315
藤原道長	-11.1315
きであ	-11.1324
てきて	-11.1324
に与え	-11.1324
仕える	-11.1324
大名と	-11.1324
帝国大	-11.1324
浄瑠璃	-11.1324
結びつ	-11.1324
▁兄	-11.1333
た中	-11.1333
の茶	-11.1333
は戦	-11.1333
ふじ	-11.1333
る時	-11.1333
体と	-11.1333
吉は	-11.1333
堂の	-11.1333
復興	-11.1333
するようになり	-11.1341
(150	-11.135
1928	-11.135
▁官位は従	-11.135
▁足利	-11.135
、9	-11.135
いうことに	-11.135
うちに	-11.135
うとしたが	-11.135
されるなど	-11.135
したと考え	-11.135
た武	-11.135
と見られて	-11.135
な影響を	-11.135
に任命された	-11.135
に見える	-11.135
の命により	-11.135
の子として生	-11.135
の後に	-11.135
の時期に	-11.135
めたと	-11.135
も見られる	-11.135
ようなも	-11.135
るものもある	-11.135
る形	-11.135
亀山	-11.135
付けた	-11.135
付ける	-11.135
呼ぶこと	-11.135
官に	-11.135
捕らえ	-11.135
歴任し	-11.135
河内源氏の	-11.135
田原	-11.135
複数の	-11.135
見られている	-11.135
言って	-11.135
▁人	-11.1368
菅原	-11.1368
が出さ	-11.1376
が可能	-11.1376
した事	-11.1376
のみな	-11.1376
の問題	-11.1376
の起源	-11.1376
上げる	-11.1376
古今和	-11.1376
売され	-11.1376
大臣と	-11.1376
引き継	-11.1376
形文化	-11.1376
江戸の	-11.1376
(198	-11.1385
うなもの	-11.1385
で使	-11.1385
と呼んだ	-11.1385
の兄	-11.1385
の規	-11.1385
はっきり	-11.1385
を学んだ	-11.1385
体に	-11.1385
差し	-11.1385
戦いでは	-11.1385
機能	-11.1385
王寺	-11.1385
蕎麦	-11.1385
とになって	-11.1394
のと思われ	-11.1394
少なくない	-11.1394
147	-11.1403
872	-11.1403
いたと考えられてい	-11.1403
うようになっ	-11.1403
えに	-11.1403
が描かれてい	-11.1403
が通	-11.1403
していたとい	-11.1403
しと	-11.1403
ったといわれている	-11.1403
できるように	-11.1403
にも関わらず	-11.1403
のひとつであ	-11.1403
の保	-11.1403
の屋	-11.1403
の町	-11.1403
の長男として生まれ	-11.1403
われているが	-11.1403
を称し	-11.1403
ラマ	-11.1403
ランド	-11.1403
京都市営地下鉄烏丸	-11.1403
今和歌	-11.1403
代末期から鎌倉時代	-11.1403
信濃国	-11.1403
力し	-11.1403
取る	-11.1403
受け継	-11.1403
呼んだ	-11.1403
地方で	-11.1403
売されている	-11.1403
天守	-11.1403
学ん	-11.1403
戦いの	-11.1403
極めて	-11.1403
江戸時代初期の	-11.1403
老中	-11.1403
都を	-11.1403
1950	-11.142
が与えら	-11.142
と対立し	-11.142
の命によ	-11.142
ンゴ	-11.142
三条天皇	-11.142
主要	-11.142
在しない	-11.142
編入	-11.142
高倉	-11.142
990	-11.1429
▁正室	-11.1429
を作る	-11.1429
オラン	-11.1429
名乗り	-11.1429
寺院の	-11.1429
言った	-11.1429
述べて	-11.1429
▁日本にお	-11.1438
仁の	-11.1438
体的	-11.1438
報告	-11.1438
安時代前期	-11.1438
宗派	-11.1438
歴代	-11.1438
派に	-11.1438
確認されて	-11.1438
2001	-11.1456
が下	-11.1456
それで	-11.1456
であったと考えられている	-11.1456
であれば	-11.1456
ところに	-11.1456
に伝わる	-11.1456
の息子	-11.1456
の明	-11.1456
はできな	-11.1456
を理由	-11.1456
イメー	-11.1456
万葉	-11.1456
使用して	-11.1456
全く	-11.1456
方後円墳	-11.1456
日本神話	-11.1456
末期に	-11.1456
申の乱	-11.1456
科学	-11.1456
通称は	-11.1456
高速	-11.1456
めぐ	-11.1474
ンジ	-11.1474
四郎	-11.1474
国衙	-11.1474
撃し	-11.1474
方向	-11.1474
▁しかしそ	-11.1483
いたと考え	-11.1483
とは異	-11.1483
に伝えられ	-11.1483
らされ	-11.1483
ると言われ	-11.1483
るのである	-11.1483
るものでは	-11.1483
カード	-11.1483
ダイヤ	-11.1483
事にな	-11.1483
国憲法	-11.1483
女性の	-11.1483
将軍と	-11.1483
必要である	-11.1483
指定された	-11.1483
都市営地下鉄烏丸線	-11.1483
1582	-11.1491
▁その結	-11.1491
きり	-11.1491
にの	-11.1491
に至って	-11.1491
を挙げた	-11.1491
族である	-11.1491
最古	-11.1491
置い	-11.1491
要求	-11.1491
見ること	-11.1491
おら	-11.1509
は関	-11.1509
れる場合もあ	-11.1509
北条時	-11.1509
含まれている	-11.1509
命じた	-11.1509
平清盛	-11.1509
必要と	-11.1509
期の武	-11.1509
造され	-11.1509
)(11	-11.1527
▁山号は	-11.1527
▁応	-11.1527
うになっている	-11.1527
があったが	-11.1527
が設置されてい	-11.1527
していたことが	-11.1527
していなかった	-11.1527
たともい	-11.1527
づけられ	-11.1527
に置かれた	-11.1527
もあったが	-11.1527
らえられ	-11.1527
らさ	-11.1527
を使って	-11.1527
を建立し	-11.1527
将と	-11.1527
格を	-11.1527
特定	-11.1527
用すること	-11.1527
社と	-11.1527
称してい	-11.1527
第二次世界大戦後	-11.1527
128	-11.1536
これ以	-11.1536
して一	-11.1536
た可能	-11.1536
は一般	-11.1536
例とし	-11.1536
和源氏	-11.1536
大学の	-11.1536
示して	-11.1536
開始し	-11.1536
頼朝は	-11.1536
▁別	-11.1545
▁頼	-11.1545
の周	-11.1545
作の	-11.1545
卒業	-11.1545
島に	-11.1545
役を	-11.1545
楽器	-11.1545
永正	-11.1545
重要文化財に指定されている	-11.1545
、196	-11.1563
うになったの	-11.1563
が残され	-11.1563
きである	-11.1563
されているの	-11.1563
して使用	-11.1563
である大	-11.1563
とも称	-11.1563
になったのは	-11.1563
に加わ	-11.1563
に存在し	-11.1563
に立て	-11.1563
は多く	-11.1563
をつとめ	-11.1563
を持た	-11.1563
を知っ	-11.1563
一つの	-11.1563
一定の	-11.1563
倉時代初	-11.1563
十八	-11.1563
大きさ	-11.1563
大名に	-11.1563
式会社	-11.1563
授けられ	-11.1563
河内源	-11.1563
空海	-11.1563
立って	-11.1563
説で	-11.1563
議に	-11.1563
院を	-11.1563
▁絹本著色	-11.1572
が登場する	-11.1572
ことによる	-11.1572
したものが	-11.1572
だったとい	-11.1572
が天	-11.1581
くさ	-11.1581
に重	-11.1581
の真	-11.1581
功を	-11.1581
品と	-11.1581
教に	-11.1581
条通	-11.1581
紀の	-11.1581
進ん	-11.1581
002	-11.159
うようになった	-11.159
け入れ	-11.159
と推測	-11.159
を設立	-11.159
明治以	-11.159
記録が	-11.159
阪電気	-11.159
(172	-11.1599
たときに	-11.1599
た地	-11.1599
のが一般	-11.1599
のと考えられてい	-11.1599
のア	-11.1599
も一	-11.1599
やく	-11.1599
られると	-11.1599
主となっ	-11.1599
協力	-11.1599
得る	-11.1599
有す	-11.1599
発行され	-11.1599
貨幣	-11.1599
開始され	-11.1599
1.	-11.1617
▁の	-11.1617
したと考えられている	-11.1617
じられている	-11.1617
そば	-11.1617
ていたと考えられてい	-11.1617
ていることを	-11.1617
であったとさ	-11.1617
とも考えら	-11.1617
も含	-11.1617
を中心として	-11.1617
主人	-11.1617
事し	-11.1617
住し	-11.1617
属して	-11.1617
承され	-11.1617
(101	-11.1635
(113	-11.1635
そも	-11.1635
づい	-11.1635
て食べる	-11.1635
というよ	-11.1635
などして	-11.1635
ひとつで	-11.1635
ようにし	-11.1635
る場合は	-11.1635
る説があ	-11.1635
をま	-11.1635
ンゴ鉄道	-11.1635
佐々	-11.1635
備え	-11.1635
子となり	-11.1635
就任する	-11.1635
所として	-11.1635
歌の	-11.1635
田信長の	-11.1635
結ぶ	-11.1635
が挙げ	-11.1644
との説	-11.1644
にされ	-11.1644
以後は	-11.1644
最終的	-11.1644
現存し	-11.1644
用いられるようにな	-11.1644
されることがあ	-11.1653
し出	-11.1653
り込	-11.1653
を着	-11.1653
大規	-11.1653
山名	-11.1653
神が	-11.1653
配下	-11.1653
が発見され	-11.1662
認されてい	-11.1662
COCA	-11.1671
、198	-11.1671
ことを指	-11.1671
そうし	-11.1671
たした	-11.1671
ったようであ	-11.1671
ていたようである	-11.1671
で死去し	-11.1671
どし	-11.1671
などによって	-11.1671
ものではなく	-11.1671
を要	-11.1671
中学	-11.1671
北部	-11.1671
士と	-11.1671
川県	-11.1671
平安時代末期から	-11.1671
意味であ	-11.1671
成される	-11.1671
流され	-11.1671
照のこと	-11.1671
現れた	-11.1671
田氏の	-11.1671
的とし	-11.1671
確立した	-11.1671
称である	-11.1671
程度の	-11.1671
積極	-11.1671
自治	-11.1671
行は	-11.1671
金を	-11.1671
館の	-11.1671
人も	-11.1689
没後	-11.1689
述が	-11.1689
たちに	-11.1698
どうか	-11.1698
をもつ	-11.1698
を作っ	-11.1698
事件で	-11.1698
守護職	-11.1698
日蓮宗	-11.1698
間には	-11.1698
(124	-11.1707
▁歌	-11.1707
かなかった	-11.1707
この場合	-11.1707
たものは	-11.1707
つとして	-11.1707
住宅	-11.1707
分で	-11.1707
取り上げ	-11.1707
叙し	-11.1707
存している	-11.1707
無形文化財	-11.1707
状の	-11.1707
義朝	-11.1707
設けられた	-11.1707
較的	-11.1707
していたという	-11.1716
たものであると	-11.1716
126	-11.1725
かとい	-11.1725
き上げ	-11.1725
げられている	-11.1725
ことであった	-11.1725
しみ	-11.1725
っかけ	-11.1725
なされている	-11.1725
のころ	-11.1725
ることはでき	-11.1725
るとの	-11.1725
る必要がある	-11.1725
グラ	-11.1725
千代	-11.1725
四位下に昇叙	-11.1725
大石	-11.1725
寺の変	-11.1725
戸時代後期の	-11.1725
最後に	-11.1725
能で	-11.1725
藤原頼	-11.1725
道で	-11.1725
面を	-11.1725
う説があ	-11.1744
が指摘されている	-11.1744
しなければならな	-11.1744
そもそも	-11.1744
なくとも	-11.1744
に含まれ	-11.1744
のが一般的である	-11.1744
の見	-11.1744
の解	-11.1744
は存在し	-11.1744
を創	-11.1744
を指して	-11.1744
世襲	-11.1744
京都市営地下鉄東	-11.1744
分けられ	-11.1744
化財に指定されて	-11.1744
太后	-11.1744
平定	-11.1744
摘されて	-11.1744
斯波	-11.1744
法人	-11.1744
うものであ	-11.1753
したために	-11.1753
ていたよう	-11.1753
て活躍した	-11.1753
ほとんどが	-11.1753
もこれ	-11.1753
もとで	-11.1753
らした	-11.1753
るとも	-11.1753
人物と	-11.1753
内源氏	-11.1753
四位上	-11.1753
子となった	-11.1753
愛知県	-11.1753
河原町	-11.1753
秀吉が	-11.1753
称であ	-11.1753
諸説あ	-11.1753
▁多	-11.1762
けん	-11.1762
を定	-11.1762
シテ	-11.1762
主で	-11.1762
光明	-11.1762
替え	-11.1762
治に	-11.1762
職の	-11.1762
荼羅	-11.1762
記す	-11.1762
1890	-11.178
1898	-11.178
▁平安時代に	-11.178
が知られてい	-11.178
その名	-11.178
に叙され	-11.178
に始まる	-11.178
に従い	-11.178
に昇進	-11.178
に譲	-11.178
みなら	-11.178
よるものであ	-11.178
らわ	-11.178
りした	-11.178
るのを	-11.178
れなくなった	-11.178
シュ	-11.178
スが	-11.178
久の	-11.178
京都国立博物館	-11.178
動し	-11.178
国鉄	-11.178
妻鏡	-11.178
守護代	-11.178
平安時代末期から鎌倉時代初期	-11.178
摘され	-11.178
東山区	-11.178
水を	-11.178
開され	-11.178
▁政	-11.1799
しなければ	-11.1799
ではないと	-11.1799
にあたった	-11.1799
に就任する	-11.1799
に平	-11.1799
の由	-11.1799
まれていた	-11.1799
われており	-11.1799
一説	-11.1799
与えられて	-11.1799
主となった	-11.1799
交流	-11.1799
六波羅探題	-11.1799
奥州	-11.1799
浅野	-11.1799
深い	-11.1799
認められる	-11.1799
001	-11.1808
863	-11.1808
げてい	-11.1808
りゅう	-11.1808
伏見区	-11.1808
使った	-11.1808
使って	-11.1808
土桃山時代から江戸時代	-11.1808
正式に	-11.1808
▁白	-11.1817
と書	-11.1817
と考える	-11.1817
に位置し	-11.1817
を自	-11.1817
下り	-11.1817
中国では	-11.1817
乱を	-11.1817
和田	-11.1817
市営地下鉄東西線	-11.1817
意を	-11.1817
支持	-11.1817
民間	-11.1817
見られた	-11.1817
▁他に	-11.1835
が使用	-11.1835
が分	-11.1835
が異な	-11.1835
と表	-11.1835
なかったので	-11.1835
の第一	-11.1835
の連	-11.1835
を形成	-11.1835
を行な	-11.1835
京都線	-11.1835
創設	-11.1835
合の	-11.1835
名とし	-11.1835
子孫は	-11.1835
平の	-11.1835
条に	-11.1835
正室は	-11.1835
焼失し	-11.1835
臣とな	-11.1835
象と	-11.1835
迎えた	-11.1835
部分が	-11.1835
(1600	-11.1845
▁たとえば	-11.1845
あったもの	-11.1845
が起こった	-11.1845
げられてい	-11.1845
したとする	-11.1845
という意味であ	-11.1845
とができな	-11.1845
として仕え	-11.1845
として使わ	-11.1845
に使用され	-11.1845
に編入され	-11.1845
れる場合も	-11.1845
サンスクリット	-11.1845
重要無形文化財	-11.1845
(176	-11.1854
こそ	-11.1854
たためで	-11.1854
とはいえ	-11.1854
と一	-11.1854
と言った	-11.1854
をめ	-11.1854
を相	-11.1854
を集めて	-11.1854
ーロ	-11.1854
殺害され	-11.1854
目指	-11.1854
策を	-11.1854
継者	-11.1854
者であっ	-11.1854
▁つま	-11.1863
ころで	-11.1863
上げら	-11.1863
日まで	-11.1863
氏長者	-11.1863
▁久	-11.1872
きと	-11.1872
こか	-11.1872
の修	-11.1872
の機	-11.1872
場の	-11.1872
広ま	-11.1872
桓武	-11.1872
若狭	-11.1872
駅の	-11.1872
▁墓所	-11.1891
あったので	-11.1891
いうことにな	-11.1891
いられること	-11.1891
かりの	-11.1891
が起こっ	-11.1891
それ以外	-11.1891
て使用	-11.1891
で生まれ	-11.1891
とめた	-11.1891
は皇	-11.1891
ようになっていった	-11.1891
るものとして	-11.1891
る事に	-11.1891
を残してい	-11.1891
サービス	-11.1891
京都市東	-11.1891
仁天皇	-11.1891
代将軍徳川	-11.1891
伊豆	-11.1891
力は	-11.1891
土桃山時代の	-11.1891
坐像	-11.1891
大河ドラマ	-11.1891
大津市	-11.1891
安置され	-11.1891
宮家	-11.1891
広まっ	-11.1891
建造	-11.1891
従四位下に	-11.1891
旧仮名遣いでの読みは	-11.1891
歳で死去	-11.1891
編入され	-11.1891
騒動	-11.1891
が行われていた	-11.1909
たという説もあ	-11.1909
たものと考えられている	-11.1909
の義	-11.1909
ると考えられる	-11.1909
上人	-11.1909
向に	-11.1909
大の	-11.1909
界の	-11.1909
笠原	-11.1909
継ぎ	-11.1909
量の	-11.1909
▁織田	-11.1919
して京	-11.1919
て江戸	-11.1919
て食べ	-11.1919
の形式	-11.1919
はでき	-11.1919
古くは	-11.1919
能寺の	-11.1919
される場	-11.1928
に葬られ	-11.1928
の美	-11.1928
を失った	-11.1928
主張した	-11.1928
事実上の	-11.1928
仁親王の	-11.1928
向かった	-11.1928
安倍	-11.1928
期の武将	-11.1928
東京大学	-11.1928
落語	-11.1928
術の	-11.1928
説明	-11.1928
辞任	-11.1928
運営	-11.1928
に分かれて	-11.1937
を行うこと	-11.1937
持っている	-11.1937
派遣された	-11.1937
が存在してい	-11.1946
けを	-11.1946
してこ	-11.1946
たからである	-11.1946
ためと	-11.1946
とになってい	-11.1946
なん	-11.1946
の会	-11.1946
を相続	-11.1946
を訪れ	-11.1946
コール	-11.1946
ルコ	-11.1946
三味線	-11.1946
件の	-11.1946
位した	-11.1946
去する	-11.1946
呼んで	-11.1946
大坂城	-11.1946
嵐山	-11.1946
推測	-11.1946
方針	-11.1946
本能	-11.1946
業に	-11.1946
法隆寺	-11.1946
評価さ	-11.1946
起こる	-11.1946
達した	-11.1946
頃には	-11.1946
けい	-11.1965
ったのではないか	-11.1965
と伝わる	-11.1965
に不	-11.1965
の利	-11.1965
の太	-11.1965
を開いた	-11.1965
事も	-11.1965
側近	-11.1965
合わせた	-11.1965
成功した	-11.1965
承し	-11.1965
王に	-11.1965
絵画	-11.1965
韓国	-11.1965
144	-11.1974
867	-11.1974
いたようである	-11.1974
かでは	-11.1974
して知られてい	-11.1974
しなければなら	-11.1974
というものであ	-11.1974
となく	-11.1974
れることになる	-11.1974
を授け	-11.1974
を築い	-11.1974
価され	-11.1974
継いで	-11.1974
見られるように	-11.1974
いることを	-11.1984
なったので	-11.1984
に作られた	-11.1984
の史	-11.1984
を取り入れ	-11.1984
代当	-11.1984
伝えられた	-11.1984
城国	-11.1984
売されてい	-11.1984
寄せ	-11.1984
府と	-11.1984
後鳥羽天皇	-11.1984
房の	-11.1984
流れを汲む	-11.1984
現在の京都	-11.1984
長岡	-11.1984
駿河	-11.1984
▁南北朝時代	-11.2002
から見	-11.2002
かわら	-11.2002
されていった	-11.2002
て用いられる	-11.2002
なくなり	-11.2002
なこと	-11.2002
に関わ	-11.2002
の対象と	-11.2002
は存在	-11.2002
も少なく	-11.2002
ら江戸	-11.2002
を形成し	-11.2002
グループ	-11.2002
五十	-11.2002
元治元年	-11.2002
兄弟に	-11.2002
取られ	-11.2002
市左京	-11.2002
政権の	-11.2002
智光秀	-11.2002
状に	-11.2002
認されている	-11.2002
迎える	-11.2002
重要文化財に指定されてい	-11.2002
▁十	-11.2021
三浦	-11.2021
割を	-11.2021
復帰	-11.2021
田中	-11.2021
発達	-11.2021
稲荷	-11.2021
151	-11.2031
が成立した	-11.2031
った時	-11.2031
に使われる	-11.2031
に藤原	-11.2031
の儀式	-11.2031
の祖と	-11.2031
むしろ	-11.2031
りとし	-11.2031
中心として	-11.2031
中期に	-11.2031
四位下に昇	-11.2031
寺院で	-11.2031
少なくとも	-11.2031
残した	-11.2031
発する	-11.2031
(196	-11.204
▁官位は従五位下	-11.204
いたよう	-11.204
が特	-11.204
たとも言われてい	-11.204
ともなっ	-11.204
のひとつである	-11.204
の起	-11.204
や大	-11.204
ることはできな	-11.204
ると言われている	-11.204
れていたことが	-11.204
マト	-11.204
ルト	-11.204
上し	-11.204
従一	-11.204
日露戦争	-11.204
木の	-11.204
津国	-11.204
臣を	-11.204
要文化財に指定	-11.204
財に指定されてい	-11.204
開始した	-11.204
阿弥陀仏	-11.204
131	-11.2059
700	-11.2059
いることが多	-11.2059
どちら	-11.2059
までも	-11.2059
も少な	-11.2059
れることはな	-11.2059
ろか	-11.2059
を代	-11.2059
上方	-11.2059
営地	-11.2059
学科	-11.2059
安定	-11.2059
師と	-11.2059
放され	-11.2059
日本神話に登場する	-11.2059
演じ	-11.2059
確認さ	-11.2059
継ぐ	-11.2059
臨済宗	-11.2059
記に	-11.2059
1987	-11.2078
▁公	-11.2078
あたって	-11.2078
が出来る	-11.2078
となること	-11.2078
のつ	-11.2078
のようなも	-11.2078
るなどして	-11.2078
をめぐって	-11.2078
を出した	-11.2078
を採	-11.2078
を説	-11.2078
んじょう	-11.2078
事情	-11.2078
京都所司代	-11.2078
京阪バス	-11.2078
域で	-11.2078
定かではな	-11.2078
専門学校	-11.2078
幕府から	-11.2078
都市東山	-11.2078
に編入	-11.2087
の特徴	-11.2087
の言葉	-11.2087
を支配	-11.2087
を避け	-11.2087
多天皇	-11.2087
年後の	-11.2087
が付	-11.2097
で最	-11.2097
の項	-11.2097
びた	-11.2097
好み	-11.2097
妖怪	-11.2097
権威	-11.2097
して用いられる	-11.2106
は平安時代末期	-11.2106
れていることが	-11.2106
)(12	-11.2115
127	-11.2115
889	-11.2115
PiTaPa	-11.2115
していることから	-11.2115
する必要	-11.2115
する見	-11.2115
だけの	-11.2115
ったらし	-11.2115
として扱	-11.2115
などと呼	-11.2115
ならなかった	-11.2115
に指定された	-11.2115
に明	-11.2115
のかみ	-11.2115
のが一般的で	-11.2115
の違い	-11.2115
の食	-11.2115
れることも多	-11.2115
処分	-11.2115
地が	-11.2115
害し	-11.2115
川の戦い	-11.2115
市東山区	-11.2115
師範学	-11.2115
戸時代中期の	-11.2115
書である	-11.2115
期は	-11.2115
立を	-11.2115
設置し	-11.2115
配置	-11.2115
はならない	-11.2125
るといわれ	-11.2125
代表される	-11.2125
がよ	-11.2134
どこ	-11.2134
の将	-11.2134
は二	-11.2134
を招	-11.2134
両者	-11.2134
位階	-11.2134
前方	-11.2134
富士	-11.2134
界に	-11.2134
立つ	-11.2134
長官	-11.2134
した大	-11.2144
と改称	-11.2144
に比べ	-11.2144
をその	-11.2144
を学ん	-11.2144
延喜式	-11.2144
本の飛鳥時代の人物	-11.2144
生する	-11.2144
範学校	-11.2144
▁墓	-11.2153
が異なる	-11.2153
が継	-11.2153
く知られ	-11.2153
げられて	-11.2153
をとって	-11.2153
クス	-11.2153
朝倉	-11.2153
決め	-11.2153
清和	-11.2153
組み合わ	-11.2153
良い	-11.2153
▁中世	-11.2172
いることも	-11.2172
えを	-11.2172
がほとんど	-11.2172
が建てられ	-11.2172
されているもの	-11.2172
してか	-11.2172
たのだ	-11.2172
として使用され	-11.2172
の区	-11.2172
の高い	-11.2172
は従五位下	-11.2172
らなる	-11.2172
らによって	-11.2172
られたものであ	-11.2172
をな	-11.2172
タンゴ	-11.2172
フィ	-11.2172
下野	-11.2172
争に	-11.2172
位に叙せられ	-11.2172
余儀なくさ	-11.2172
前田	-11.2172
右近衛大将	-11.2172
少し	-11.2172
年以	-11.2172
年度	-11.2172
当たっ	-11.2172
後世の	-11.2172
推測さ	-11.2172
時代に入る	-11.2172
義を	-11.2172
頼の	-11.2172
1884	-11.2192
▁嘉	-11.2192
して京都	-11.2192
の頃から	-11.2192
は伊	-11.2192
みなもと	-11.2192
られたこ	-11.2192
ッパ	-11.2192
係に	-11.2192
占め	-11.2192
能を	-11.2192
見られて	-11.2192
たりす	-11.2201
な影響	-11.2201
のと考	-11.2201
べられ	-11.2201
を取っ	-11.2201
を攻め	-11.2201
事件に	-11.2201
位は従	-11.2201
歳の時	-11.2201
歴史的	-11.2201
現した	-11.2201
目指し	-11.2201
紀後半	-11.2201
臣とし	-11.2201
る国	-11.2211
ファ	-11.2211
品で	-11.2211
日条	-11.2211
法は	-11.2211
混乱	-11.2211
行と	-11.2211
諸説	-11.2211
であったと考えられてい	-11.222
なったもの	-11.222
に代表され	-11.222
ら鎌倉時代	-11.222
れたと考え	-11.222
を利用して	-11.222
儀なくされ	-11.222
勅撰和歌集	-11.222
家督を継い	-11.222
意味である	-11.222
閣総理大臣	-11.222
▁この間	-11.223
う言	-11.223
がわか	-11.223
が死去し	-11.223
したと言われ	-11.223
した場	-11.223
だったという	-11.223
と号	-11.223
に仕えて	-11.223
に改称	-11.223
のあった	-11.223
の飛鳥時代の人物で	-11.223
ぶり	-11.223
べく	-11.223
デザイン	-11.223
ルート	-11.223
以降に	-11.223
体は	-11.223
利用して	-11.223
即位した	-11.223
周囲	-11.223
学院	-11.223
明王	-11.223
時代から江戸	-11.223
氏の一族	-11.223
続けて	-11.223
者とな	-11.223
表する	-11.223
設立され	-11.223
都市の	-11.223
することもある	-11.2239
のと考えられる	-11.2239
あわ	-11.2249
の編	-11.2249
大宝	-11.2249
書院	-11.2249
知県	-11.2249
福島	-11.2249
107	-11.2259
から江	-11.2259
の功績	-11.2259
の建物	-11.2259
上洛し	-11.2259
信長が	-11.2259
常陸国	-11.2259
時点で	-11.2259
現れる	-11.2259
▁土	-11.2268
いたと考えられて	-11.2268
かう	-11.2268
が描かれて	-11.2268
が本	-11.2268
が開始され	-11.2268
ったから	-11.2268
てられてい	-11.2268
とも言う	-11.2268
に参加した	-11.2268
の知	-11.2268
はお	-11.2268
はこれに	-11.2268
は現在の	-11.2268
ら大	-11.2268
をかけて	-11.2268
を譲	-11.2268
人口	-11.2268
兼ね	-11.2268
小笠	-11.2268
山を	-11.2268
平安時代末期から鎌倉時代初	-11.2268
広まった	-11.2268
建立された	-11.2268
徳川家康に	-11.2268
明治元年	-11.2268
時代まで	-11.2268
末期から鎌倉時代	-11.2268
秀の	-11.2268
総理大臣	-11.2268
関係にあ	-11.2268
▁豊臣	-11.2287
うことになる	-11.2287
きか	-11.2287
けたと	-11.2287
げん	-11.2287
ことなどから	-11.2287
になってしま	-11.2287
に江	-11.2287
われることが	-11.2287
・「	-11.2287
備され	-11.2287
器の	-11.2287
変化し	-11.2287
守に	-11.2287
山寺	-11.2287
数は	-11.2287
正三	-11.2287
海外	-11.2287
衛中将	-11.2287
貴族院	-11.2287
降伏	-11.2287
3000	-11.2307
▁この事	-11.2307
て使われ	-11.2307
として生まれた	-11.2307
に祀られ	-11.2307
のほかに	-11.2307
の中から	-11.2307
の製	-11.2307
は従五位	-11.2307
ラッ	-11.2307
一説には	-11.2307
元々	-11.2307
品に	-11.2307
定を	-11.2307
承久の乱	-11.2307
暗殺され	-11.2307
期を	-11.2307
流れを汲	-11.2307
点と	-11.2307
設定され	-11.2307
販売され	-11.2307
鎌倉時代初期の	-11.2307
(1582	-11.2316
▁天保	-11.2316
▁天武天皇	-11.2316
▁永禄	-11.2316
あったと考えられる	-11.2316
かなか	-11.2316
この間	-11.2316
たものと考えられる	-11.2316
ていたと考えられて	-11.2316
というのは	-11.2316
に成功した	-11.2316
三河国	-11.2316
作られてい	-11.2316
宣下を受け	-11.2316
来した	-11.2316
認められた	-11.2316
もか	-11.2326
人形	-11.2326
会で	-11.2326
勝利	-11.2326
原則	-11.2326
気に	-11.2326
術を	-11.2326
郡の	-11.2326
(100	-11.2345
1907	-11.2345
1910	-11.2345
▁秀	-11.2345
▁開	-11.2345
が不	-11.2345
して生まれた	-11.2345
つけられ	-11.2345
なので	-11.2345
に敗れ	-11.2345
に用いられた	-11.2345
の時代の	-11.2345
の足	-11.2345
もいる	-11.2345
を再	-11.2345
を手	-11.2345
を示している	-11.2345
を継ぐ	-11.2345
乗り入れ	-11.2345
使われた	-11.2345
使われていた	-11.2345
存在している	-11.2345
平氏の	-11.2345
形状	-11.2345
心の	-11.2345
放送	-11.2345
明し	-11.2345
流を	-11.2345
漬け	-11.2345
申し	-11.2345
異母	-11.2345
続日本	-11.2345
自害	-11.2345
要文化財に指定されている	-11.2345
警察	-11.2345
進められ	-11.2345
長男として生まれ	-11.2345
▁2004	-11.2365
▁道	-11.2365
いとされる	-11.2365
て国	-11.2365
は南	-11.2365
べきである	-11.2365
れたと考えられている	-11.2365
を抱	-11.2365
メートルの	-11.2365
叔父	-11.2365
味が	-11.2365
壬申	-11.2365
左近衛中将	-11.2365
族に	-11.2365
時代の人物	-11.2365
本旅	-11.2365
社は	-11.2365
立てられた	-11.2365
送り	-11.2365
鞍馬	-11.2365
129	-11.2374
けであ	-11.2374
品とし	-11.2374
学校の	-11.2374
特定の	-11.2374
近衛中	-11.2374
(146	-11.2384
(152	-11.2384
1945	-11.2384
たん	-11.2384
て後	-11.2384
どである	-11.2384
れるため	-11.2384
ンク	-11.2384
城の戦い	-11.2384
増え	-11.2384
市中	-11.2384
授け	-11.2384
明治以降	-11.2384
▁室町時代に	-11.2404
▁自	-11.2404
▁足	-11.2404
う事	-11.2404
が少	-11.2404
すぐに	-11.2404
せたと	-11.2404
として知られている	-11.2404
にはそ	-11.2404
に乗り	-11.2404
に追い	-11.2404
を基	-11.2404
を理	-11.2404
ブル	-11.2404
代征夷大将軍	-11.2404
北近畿タンゴ鉄道宮	-11.2404
原氏の	-11.2404
学研	-11.2404
実質的	-11.2404
戦を	-11.2404
戦争に	-11.2404
戸時代前期の	-11.2404
近畿日本鉄道	-11.2404
重要文化財に	-11.2404
▁もともと	-11.2413
てきている	-11.2413
に葬られた	-11.2413
の一環とし	-11.2413
は室町時代	-11.2413
るものとし	-11.2413
時代中期に	-11.2413
、195	-11.2423
が流	-11.2423
ことがわ	-11.2423
このうち	-11.2423
される事	-11.2423
ったといわれてい	-11.2423
として用いられる	-11.2423
となるが	-11.2423
なくなる	-11.2423
システム	-11.2423
プロダク	-11.2423
代になる	-11.2423
場と	-11.2423
姓は	-11.2423
建立した	-11.2423
時代初期にかけて	-11.2423
深く	-11.2423
用語	-11.2423
述がある	-11.2423
くとも	-11.2433
に過ぎ	-11.2433
を図っ	-11.2433
大いに	-11.2433
大坂の	-11.2433
年では	-11.2433
建立さ	-11.2433
重要文化財に指定されて	-11.2433
されていたこと	-11.2443
として活躍した	-11.2443
のと考えられて	-11.2443
叙せ	-11.2443
日付	-11.2443
治政	-11.2443
祭祀	-11.2443
逸話	-11.2443
限ら	-11.2443
除く	-11.2443
集に	-11.2443
あい	-11.2462
うとしてい	-11.2462
ことを示	-11.2462
すが	-11.2462
する一	-11.2462
たびたび	-11.2462
どのよう	-11.2462
にかか	-11.2462
にわたり	-11.2462
に記されてい	-11.2462
の時代には	-11.2462
は京都府	-11.2462
られるもの	-11.2462
るわけではな	-11.2462
わなかった	-11.2462
をそのまま	-11.2462
を繰り	-11.2462
プラ	-11.2462
レン	-11.2462
使用してい	-11.2462
原則として	-11.2462
天王寺	-11.2462
始した	-11.2462
定着し	-11.2462
将門	-11.2462
幕府軍	-11.2462
平宝字	-11.2462
府によ	-11.2462
時代になる	-11.2462
時代の武	-11.2462
本家	-11.2462
華族	-11.2462
見た	-11.2462
進した	-11.2462
鎌倉時代後期	-11.2462
う名	-11.2482
とえ	-11.2482
の貴	-11.2482
付き	-11.2482
侵攻	-11.2482
切っ	-11.2482
国が	-11.2482
坂本	-11.2482
大山	-11.2482
幡宮	-11.2482
言を	-11.2482
109	-11.2492
997	-11.2492
▁JR	-11.2492
がなか	-11.2492
きっか	-11.2492
すもの	-11.2492
の動き	-11.2492
は徳川	-11.2492
べきで	-11.2492
形成さ	-11.2492
現代の	-11.2492
身であ	-11.2492
が定めら	-11.2502
が設置されている	-11.2502
げられた	-11.2502
とがわか	-11.2502
に過ぎな	-11.2502
は非常に	-11.2502
めたもの	-11.2502
も知	-11.2502
るのでは	-11.2502
る意	-11.2502
れるとい	-11.2502
を使った	-11.2502
を務めて	-11.2502
を築いた	-11.2502
ンを	-11.2502
代末期か	-11.2502
太鼓	-11.2502
市営地下鉄烏丸線	-11.2502
東寺	-11.2502
記のよう	-11.2502
説あ	-11.2502
▁このうち	-11.2511
が存在して	-11.2511
ことに由来する	-11.2511
ったと伝えられ	-11.2511
られてきた	-11.2511
ることができな	-11.2511
ダイヤ改正	-11.2511
一環として	-11.2511
初期にかけ	-11.2511
定められて	-11.2511
江戸時代初期に	-11.2511
販売されている	-11.2511
112	-11.2521
864	-11.2521
970	-11.2521
▁しかしその	-11.2521
うやく	-11.2521
が使わ	-11.2521
ことが出来る	-11.2521
することがあ	-11.2521
たという説も	-11.2521
つあ	-11.2521
なっているが	-11.2521
ならば	-11.2521
に成立	-11.2521
の後継	-11.2521
の治	-11.2521
へ向か	-11.2521
公方	-11.2521
国守護	-11.2521
増加	-11.2521
安時代末期から鎌倉時代初期	-11.2521
山は	-11.2521
従二	-11.2521
日本軍	-11.2521
正親町	-11.2521
駅とな	-11.2521
1180	-11.2541
▁のちに	-11.2541
が継いだ	-11.2541
く見られ	-11.2541
じている	-11.2541
だけでは	-11.2541
てられて	-11.2541
の演	-11.2541
はならな	-11.2541
は大きく	-11.2541
も考えら	-11.2541
を図った	-11.2541
ト教	-11.2541
代に入る	-11.2541
和天	-11.2541
支え	-11.2541
演奏	-11.2541
町幕府の	-11.2541
箇所	-11.2541
絹本著色	-11.2541
菩提	-11.2541
説と	-11.2541
近藤	-11.2541
142	-11.2551
▁した	-11.2551
いでは	-11.2551
が認め	-11.2551
この年	-11.2551
を代表	-11.2551
ルコー	-11.2551
力であ	-11.2551
現する	-11.2551
貴族の	-11.2551
(1180	-11.2561
が確認され	-11.2561
に小	-11.2561
は下	-11.2561
を解	-11.2561
五条	-11.2561
在も	-11.2561
宝暦	-11.2561
桃山時代から江戸時代	-11.2561
機に	-11.2561
聖徳	-11.2561
▁六	-11.2581
▁官位は従五位	-11.2581
が描か	-11.2581
が登	-11.2581
くつかの	-11.2581
ことがわかる	-11.2581
して知られて	-11.2581
せられて	-11.2581
その際	-11.2581
たことがわか	-11.2581
たとする説もある	-11.2581
て以	-11.2581
て発	-11.2581
ときの	-11.2581
とするも	-11.2581
との説もある	-11.2581
と推測される	-11.2581
に命じ	-11.2581
に配	-11.2581
は異なる	-11.2581
られることが多い	-11.2581
られるようになる	-11.2581
を奪	-11.2581
を祖と	-11.2581
ラットホーム	-11.2581
以来の	-11.2581
位に叙	-11.2581
全に	-11.2581
全国の	-11.2581
大きな影響を与	-11.2581
大覚寺	-11.2581
子となる	-11.2581
市営バス	-11.2581
徐々に	-11.2581
景に	-11.2581
末期か	-11.2581
石を与えられ	-11.2581
置される	-11.2581
表記され	-11.2581
見ることができ	-11.2581
謀反	-11.2581
都市営地下鉄烏丸	-11.2581
類の	-11.2581
れか	-11.2601
を廃	-11.2601
信頼	-11.2601
要で	-11.2601
見の	-11.2601
親の	-11.2601
転じ	-11.2601
黒田	-11.2601
(1864	-11.261
かっている	-11.261
けることが	-11.261
て生まれた	-11.261
とみられる	-11.261
にしたもの	-11.261
に分けられ	-11.261
めると	-11.261
るというこ	-11.261
事とな	-11.261
列車が	-11.261
唯一の	-11.261
応じて	-11.261
桃山時代の	-11.261
1862	-11.262
が挙	-11.262
しかしこ	-11.262
しつ	-11.262
として出	-11.262
ませ	-11.262
まったと	-11.262
も出	-11.262
下に昇叙	-11.262
分類され	-11.262
務めてい	-11.262
孫である	-11.262
戦闘	-11.262
手で	-11.262
政が	-11.262
根拠	-11.262
求められ	-11.262
法名	-11.262
法律	-11.262
)、「	-11.264
870	-11.264
▁同じ	-11.264
だけではなく	-11.264
っていたため	-11.264
ていたようで	-11.264
てはならない	-11.264
と表記	-11.264
に及	-11.264
を重ね	-11.264
チェ	-11.264
下に叙	-11.264
事件が	-11.264
京区に	-11.264
内には	-11.264
加して	-11.264
和元年	-11.264
天の	-11.264
宮内庁	-11.264
座の	-11.264
意識	-11.264
手が	-11.264
残った	-11.264
物語の	-11.264
称号	-11.264
細川氏	-11.264
臣であ	-11.264
越前国	-11.264
長く	-11.264
きな影響を与え	-11.265
史跡に指定され	-11.265
連合国軍最高司令官総司令部	-11.265
▁弘	-11.266
▁貞	-11.266
が大きく	-11.266
こととなり	-11.266
されることがある	-11.266
したことを	-11.266
たものと考えられてい	-11.266
とっては	-11.266
どと呼ばれ	-11.266
み合わせ	-11.266
るとする説	-11.266
る天	-11.266
をもたら	-11.266
下し	-11.266
中納言に	-11.266
作られて	-11.266
動の	-11.266
大量	-11.266
安土桃山時代から江戸	-11.266
時代の人物である	-11.266
江戸時代以	-11.266
禁止され	-11.266
総称	-11.266
認さ	-11.266
静岡	-11.266
ぎょう	-11.267
って大	-11.267
の間の	-11.267
三十三	-11.267
収され	-11.267
皇の第	-11.267
近年で	-11.267
い場	-11.268
きも	-11.268
寿永	-11.268
市で	-11.268
表さ	-11.268
逃げ	-11.268
▁が	-11.27
▁それは	-11.27
▁経	-11.27
かかる	-11.27
が始まり	-11.27
が許され	-11.27
したといわれ	-11.27
しても知られ	-11.27
た天	-11.27
ったと思	-11.27
という形	-11.27
ない場	-11.27
に尽力し	-11.27
は諸	-11.27
もかかわ	-11.27
るのが一般的	-11.27
れているため	-11.27
を主張し	-11.27
を出す	-11.27
を設置し	-11.27
ピソード	-11.27
マキノ	-11.27
不動明王	-11.27
仕えて	-11.27
例であ	-11.27
全国に	-11.27
加えられ	-11.27
同母	-11.27
地元	-11.27
外で	-11.27
戸城	-11.27
捕らえら	-11.27
改札	-11.27
氏など	-11.27
著名	-11.27
要がある	-11.27
開かれ	-11.27
するものと	-11.271
たからであ	-11.271
に分類され	-11.271
を示してい	-11.271
推測される	-11.271
蒸気機関車	-11.271
いることが多い	-11.2721
きい	-11.2721
ていたようであ	-11.2721
られることもあ	-11.2721
を襲	-11.2721
出羽	-11.2721
官位は従五位下	-11.2721
数多	-11.2721
文庫	-11.2721
絵巻	-11.2721
136	-11.2731
た時代	-11.2731
にこれ	-11.2731
みょう	-11.2731
を支え	-11.2731
出来な	-11.2731
▁や	-11.2741
それ以前	-11.2741
てこれを	-11.2741
にもかか	-11.2741
に留	-11.2741
の統	-11.2741
はず	-11.2741
もなって	-11.2741
伊藤博文	-11.2741
冠称する	-11.2741
大臣藤原	-11.2741
導入され	-11.2741
承久	-11.2741
用いられるように	-11.2741
知る	-11.2741
社を	-11.2741
立に	-11.2741
総合	-11.2741
繰り返し	-11.2741
隆寺	-11.2741
▁室町幕府	-11.2761
いうもので	-11.2761
が有力	-11.2761
が死去すると	-11.2761
が知られて	-11.2761
きさ	-11.2761
この場	-11.2761
すようにな	-11.2761
する意	-11.2761
たと推	-11.2761
た藤原	-11.2761
ったのではないかと	-11.2761
ていくこと	-11.2761
でん	-11.2761
に任じられて	-11.2761
に叙せられる	-11.2761
の位置	-11.2761
の技術	-11.2761
の次男として	-11.2761
は清	-11.2761
ることであ	-11.2761
ることにより	-11.2761
れらを	-11.2761
を打ち	-11.2761
ニュ	-11.2761
二代	-11.2761
代にか	-11.2761
利義満	-11.2761
前述	-11.2761
割を果たし	-11.2761
吉が	-11.2761
地下鉄東西線	-11.2761
城下	-11.2761
外国人	-11.2761
女御	-11.2761
守護大	-11.2761
政治の	-11.2761
料に	-11.2761
本帝国憲法	-11.2761
石山	-11.2761
綱の	-11.2761
野に	-11.2761
あるから	-11.2781
なもとの	-11.2781
に用いる	-11.2781
べきであ	-11.2781
れたのが	-11.2781
を迎える	-11.2781
不可	-11.2781
代後期に	-11.2781
任を	-11.2781
国造	-11.2781
実質	-11.2781
山陰本線	-11.2781
康は	-11.2781
性は	-11.2781
描かれた	-11.2781
撃を受け	-11.2781
校の	-11.2781
津川	-11.2781
臣秀吉に	-11.2781
145	-11.2791
▁京都市営バス	-11.2791
▁山号	-11.2791
いであ	-11.2791
するか	-11.2791
であるとする説	-11.2791
なものであった	-11.2791
やかな	-11.2791
中華人民共和国	-11.2791
国立国会図書館	-11.2791
家臣の	-11.2791
小田原	-11.2791
持明院	-11.2791
書であ	-11.2791
本著色	-11.2791
鎌倉に	-11.2791
▁ち	-11.2801
かね	-11.2801
の舞	-11.2801
を考	-11.2801
ャー	-11.2801
合し	-11.2801
坂の	-11.2801
存続	-11.2801
族が	-11.2801
歌山	-11.2801
線で	-11.2801
▁この時代	-11.2811
きな影響を	-11.2811
ったところ	-11.2811
ていないが	-11.2811
とはできな	-11.2811
を務めてい	-11.2811
十一面観音	-11.2811
同志社大学	-11.2811
織田信長に	-11.2811
980	-11.2822
▁上記	-11.2822
あるとされている	-11.2822
いられるようにな	-11.2822
から鎌倉	-11.2822
けられていた	-11.2822
ころから	-11.2822
じんじゃ	-11.2822
たことがある	-11.2822
ってくる	-11.2822
てある	-11.2822
のち改元して	-11.2822
の一つとして	-11.2822
の一種で	-11.2822
の伝承	-11.2822
の頃に	-11.2822
る事を	-11.2822
チェンジ	-11.2822
切腹	-11.2822
力である	-11.2822
区別する	-11.2822
失われ	-11.2822
定められてい	-11.2822
廃藩置県	-11.2822
時代の人	-11.2822
本格	-11.2822
江戸時代末期	-11.2822
流で	-11.2822
理解	-11.2822
続した	-11.2822
能寺	-11.2822
蔵人頭	-11.2822
詳し	-11.2822
転され	-11.2822
でし	-11.2842
の都	-11.2842
は特	-11.2842
ら出	-11.2842
オー	-11.2842
原町	-11.2842
園の	-11.2842
広が	-11.2842
府を	-11.2842
所属	-11.2842
模な	-11.2842
正平	-11.2842
氏族	-11.2842
転任	-11.2842
遣し	-11.2842
酒を	-11.2842
▁もと	-11.2852
たない	-11.2852
につけ	-11.2852
に大きな影響を与え	-11.2852
り付け	-11.2852
るようになっている	-11.2852
を記し	-11.2852
出身で	-11.2852
墳時代	-11.2852
大宰府	-11.2852
贈られ	-11.2852
1900	-11.2862
▁墓所は	-11.2862
▁江戸幕府	-11.2862
かど	-11.2862
が形成され	-11.2862
が指摘され	-11.2862
が死去する	-11.2862
させている	-11.2862
さに	-11.2862
して扱われ	-11.2862
ていることが多	-11.2862
て使用され	-11.2862
て現	-11.2862
であったと考えられて	-11.2862
として扱わ	-11.2862
とはでき	-11.2862
の復	-11.2862
の条	-11.2862
の酒	-11.2862
の長男として生まれる	-11.2862
ることが出来る	-11.2862
を作った	-11.2862
を安置する	-11.2862
中山	-11.2862
二次世界大戦後	-11.2862
件で	-11.2862
任じられて	-11.2862
失し	-11.2862
死去すると	-11.2862
現存してい	-11.2862
田市	-11.2862
蔵の	-11.2862
行されてい	-11.2862
要文化財に指定されてい	-11.2873
」・	-11.2883
あったとする	-11.2883
が正	-11.2883
たのを	-11.2883
ったという説	-11.2883
に連	-11.2883
の人物である	-11.2883
の教え	-11.2883
も用い	-11.2883
る人物	-11.2883
んじょ	-11.2883
ンネル	-11.2883
一切	-11.2883
一部を	-11.2883
女と	-11.2883
康に	-11.2883
延長	-11.2883
建造物	-11.2883
終的に	-11.2883
臣で	-11.2883
衆の	-11.2883
護大名	-11.2883
販売されてい	-11.2883
1999	-11.2903
▁仏	-11.2903
があるの	-11.2903
が知	-11.2903
た家	-11.2903
という意味である	-11.2903
の海	-11.2903
るのに対	-11.2903
を切	-11.2903
利休	-11.2903
神奈川県	-11.2903
見ることができる	-11.2903
認されて	-11.2903
造の	-11.2903
部と	-11.2903
103	-11.2914
な影響を与	-11.2914
の荘園	-11.2914
叙され	-11.2914
政治家	-11.2914
仏像	-11.2924
執権	-11.2924
安京	-11.2924
恐れ	-11.2924
持た	-11.2924
譲位	-11.2924
が指摘されてい	-11.2934
に大きな影響を	-11.2934
れることも多い	-11.2934
れる場合もある	-11.2934
平安時代末期か	-11.2934
108	-11.2944
▁それを	-11.2944
が設置された	-11.2944
くことに	-11.2944
そこから	-11.2944
たということ	-11.2944
とするが	-11.2944
に優れ	-11.2944
に叙せられた	-11.2944
に存	-11.2944
に派遣	-11.2944
の次男として生まれ	-11.2944
の為	-11.2944
を持っている	-11.2944
ホテル	-11.2944
一般には	-11.2944
並んで	-11.2944
仮名遣いでの読みは	-11.2944
再建され	-11.2944
存在であ	-11.2944
必要で	-11.2944
感じ	-11.2944
戸時代初期の	-11.2944
東西線	-11.2944
津藩	-11.2944
系電車	-11.2944
義昭	-11.2944
至って	-11.2944
藤原忠	-11.2944
追放され	-11.2944
なってから	-11.2965
ねた	-11.2965
の構	-11.2965
の親	-11.2965
もり	-11.2965
りょ	-11.2965
一度	-11.2965
官を	-11.2965
正し	-11.2965
民俗文化財	-11.2965
細は	-11.2965
藤原仲麻呂	-11.2965
長野	-11.2965
102	-11.2975
しまい	-11.2975
とえば	-11.2975
にもな	-11.2975
のとな	-11.2975
の身分	-11.2975
務めて	-11.2975
1876	-11.2986
1877	-11.2986
▁もっと	-11.2986
くて	-11.2986
と呼ばれることも	-11.2986
に属して	-11.2986
の一部を	-11.2986
の境	-11.2986
を伝える	-11.2986
を繰り返	-11.2986
アン	-11.2986
具体	-11.2986
史跡	-11.2986
天平勝宝	-11.2986
女王	-11.2986
建設され	-11.2986
役割を果	-11.2986
日本の飛鳥時代の	-11.2986
東京国立	-11.2986
段階	-11.2986
浅井	-11.2986
継承した	-11.2986
鋳造	-11.2986
106	-11.3006
が決	-11.3006
が盛ん	-11.3006
ことがあった	-11.3006
されていたと	-11.3006
しつつ	-11.3006
しているため	-11.3006
ずる	-11.3006
たとも言われて	-11.3006
たと伝えられて	-11.3006
たものではな	-11.3006
で用い	-11.3006
に尽力	-11.3006
ると言われてい	-11.3006
制度の	-11.3006
前方後	-11.3006
失った	-11.3006
失敗	-11.3006
始める	-11.3006
安時代末期から	-11.3006
展した	-11.3006
岐阜	-11.3006
時代後期から	-11.3006
点から	-11.3006
産業	-11.3006
酒造	-11.3006
したものを	-11.3017
であるから	-11.3017
で死去した	-11.3017
として有名	-11.3017
にすること	-11.3017
ひとつであ	-11.3017
も知られる	-11.3017
た文	-11.3027
て作られ	-11.3027
とするの	-11.3027
に死去し	-11.3027
られるも	-11.3027
トリ	-11.3027
・『	-11.3027
伝わった	-11.3027
公開され	-11.3027
天明	-11.3027
弘仁	-11.3027
弥生時代	-11.3027
後期から	-11.3027
田村	-11.3027
的であっ	-11.3027
軍徳川家	-11.3027
111	-11.3037
かどう	-11.3037
の合戦	-11.3037
はあま	-11.3037
は室町	-11.3037
れ以外	-11.3037
ケース	-11.3037
面から	-11.3037
▁※	-11.3048
は公	-11.3048
味す	-11.3048
山内	-11.3048
政務	-11.3048
教を	-11.3048
金堂	-11.3048
140	-11.3069
1881	-11.3069
5000	-11.3069
950	-11.3069
うになっていった	-11.3069
が即位	-11.3069
が定め	-11.3069
が見え	-11.3069
きっ	-11.3069
きるように	-11.3069
したとこ	-11.3069
して使用され	-11.3069
ったとして	-11.3069
で作ら	-11.3069
と呼んでい	-11.3069
につなが	-11.3069
になったこと	-11.3069
に書かれた	-11.3069
もまた	-11.3069
る例	-11.3069
を知る	-11.3069
を確立	-11.3069
ルに	-11.3069
京都府立	-11.3069
呂の	-11.3069
味であ	-11.3069
多くな	-11.3069
安時代末期から鎌倉時代初	-11.3069
実施され	-11.3069
川家康の	-11.3069
川氏の	-11.3069
年頃	-11.3069
所とし	-11.3069
津線	-11.3069
申の	-11.3069
編成され	-11.3069
考えて	-11.3069
見された	-11.3069
許される	-11.3069
込まれた	-11.3069
ったのではない	-11.3079
財に指定されて	-11.3079
都市営地下鉄東	-11.3079
▁真	-11.3089
ちを	-11.3089
に安	-11.3089
の根	-11.3089
ンチ	-11.3089
基礎	-11.3089
官僚	-11.3089
征伐	-11.3089
献上	-11.3089
王権	-11.3089
経典	-11.3089
郎と	-11.3089
重臣	-11.3089
▁本尊	-11.31
が作ら	-11.31
とはい	-11.31
に出て	-11.31
に移っ	-11.31
の使用	-11.31
の政変	-11.31
京都を	-11.31
令によ	-11.31
区にあ	-11.31
神奈川	-11.31
述があ	-11.31
▁第二次	-11.311
、193	-11.311
から明治	-11.311
ざる	-11.311
しが	-11.311
として認	-11.311
と書かれ	-11.311
の長男と	-11.311
の音	-11.311
ることの	-11.311
カラ	-11.311
テル	-11.311
作を	-11.311
内国	-11.311
割を果た	-11.311
古来	-11.311
市伏見区	-11.311
成してい	-11.311
薬師如来	-11.311
覚寺	-11.311
▁この時期	-11.3121
た可能性が	-11.3121
はできない	-11.3121
るに至った	-11.3121
太平洋戦争	-11.3121
後水尾天皇	-11.3121
見ることが	-11.3121
しなければならない	-11.3131
する場合もあ	-11.3131
する必要があ	-11.3131
た神	-11.3131
とも呼ばれた	-11.3131
は主に	-11.3131
まつり	-11.3131
らとと	-11.3131
れたと考えられてい	-11.3131
アルコ	-11.3131
カレ	-11.3131
スを	-11.3131
トンネ	-11.3131
以後の	-11.3131
司の	-11.3131
団の	-11.3131
山と	-11.3131
避け	-11.3131
▁代	-11.3152
うま	-11.3152
えるよう	-11.3152
ぜられた	-11.3152
になるこ	-11.3152
に敗	-11.3152
に逃	-11.3152
を使用す	-11.3152
を加えた	-11.3152
を求めた	-11.3152
を知った	-11.3152
アー	-11.3152
三成	-11.3152
事である	-11.3152
京都市上	-11.3152
営地下鉄東西線	-11.3152
孫に	-11.3152
安時代初	-11.3152
実現	-11.3152
寄進	-11.3152
将として	-11.3152
平安時代末期の武	-11.3152
形に	-11.3152
攘夷	-11.3152
昭和天皇	-11.3152
界大	-11.3152
般的には	-11.3152
鳥時代の	-11.3152
と改め	-11.3163
と述べ	-11.3163
に作ら	-11.3163
に出家	-11.3163
の生活	-11.3163
付けて	-11.3163
以前は	-11.3163
作され	-11.3163
周辺の	-11.3163
国にお	-11.3163
最初に	-11.3163
(1862	-11.3173
▁その後の	-11.3173
いたようで	-11.3173
などにより	-11.3173
に存在した	-11.3173
に正	-11.3173
れたとする	-11.3173
スク	-11.3173
付けられて	-11.3173
型の	-11.3173
天武天皇の	-11.3173
学び	-11.3173
孫の	-11.3173
明治時代の	-11.3173
正四	-11.3173
留学	-11.3173
門を	-11.3173
143	-11.3194
▁たとえ	-11.3194
▁明治時代に	-11.3194
いたようであ	-11.3194
きるよう	-11.3194
きん	-11.3194
けない	-11.3194
せるため	-11.3194
ているところ	-11.3194
とになり	-11.3194
と伝わ	-11.3194
と戦	-11.3194
に大きな影響	-11.3194
に描かれ	-11.3194
に限ら	-11.3194
の名は	-11.3194
の様子	-11.3194
の正室	-11.3194
れていたため	-11.3194
ラーメン	-11.3194
上は	-11.3194
事か	-11.3194
処刑され	-11.3194
前か	-11.3194
力を持	-11.3194
参加して	-11.3194
古典	-11.3194
可能性が高い	-11.3194
名乗って	-11.3194
名称は	-11.3194
孝明天皇	-11.3194
州の	-11.3194
度で	-11.3194
態に	-11.3194
料理の	-11.3194
普及し	-11.3194
築いた	-11.3194
縁起	-11.3194
自身が	-11.3194
藤原定	-11.3194
部分を	-11.3194
長男とし	-11.3194
an	-11.3215
じわ	-11.3215
の参	-11.3215
めな	-11.3215
作業	-11.3215
効果	-11.3215
医学	-11.3215
徳太	-11.3215
捨て	-11.3215
絶し	-11.3215
葉集	-11.3215
から南北朝時代	-11.3226
が設け	-11.3226
ことであっ	-11.3226
その場	-11.3226
っきり	-11.3226
った場	-11.3226
ではないかとい	-11.3226
も関わらず	-11.3226
ようとして	-11.3226
を学び	-11.3226
を越え	-11.3226
平安時代前期の	-11.3226
江戸で	-11.3226
浄土真宗の	-11.3226
(148	-11.3237
1996	-11.3237
、194	-11.3237
あたった	-11.3237
あったか	-11.3237
したと考えられて	-11.3237
したと言	-11.3237
して使わ	-11.3237
によるものである	-11.3237
ものではなかった	-11.3237
ものと思	-11.3237
る必	-11.3237
を改	-11.3237
を示して	-11.3237
反乱	-11.3237
同じよう	-11.3237
本神話に登場する	-11.3237
為に	-11.3237
独立した	-11.3237
現在の京	-11.3237
納め	-11.3237
要素	-11.3237
するま	-11.3258
とが出	-11.3258
なものである	-11.3258
に任ぜられた	-11.3258
の側近	-11.3258
の駅と	-11.3258
ることとなり	-11.3258
る方	-11.3258
を受けていた	-11.3258
んじゃ	-11.3258
一人で	-11.3258
元元年	-11.3258
公卿に	-11.3258
士が	-11.3258
愛宕	-11.3258
戦後の	-11.3258
挙げた	-11.3258
文治	-11.3258
次世	-11.3258
民に	-11.3258
発掘	-11.3258
皇帝	-11.3258
西線	-11.3258
起きた	-11.3258
関係にあった	-11.3258
集めて	-11.3258
1960	-11.3279
が始まった	-11.3279
ことはない	-11.3279
されるな	-11.3279
する場合も	-11.3279
せていた	-11.3279
った場合	-11.3279
に持	-11.3279
のところ	-11.3279
の松	-11.3279
の説もある	-11.3279
の面	-11.3279
り上げられ	-11.3279
るという説	-11.3279
を安	-11.3279
を示した	-11.3279
リシタン	-11.3279
ーチ	-11.3279
中心とな	-11.3279
制定された	-11.3279
北陸	-11.3279
可能性があ	-11.3279
日本各地	-11.3279
足利義昭	-11.3279
難し	-11.3279
鹿児島県	-11.3279
141	-11.329
▁文久	-11.329
しいと	-11.329
ちゅう	-11.329
にそれ	-11.329
のだと	-11.329
の制度	-11.329
を学ぶ	-11.329
を離れ	-11.329
内容は	-11.329
彼らは	-11.329
戊辰戦	-11.329
発達し	-11.329
関係は	-11.329
▁イ	-11.33
あるとされてい	-11.33
が国	-11.33
したと伝えられ	-11.33
することがある	-11.33
たとする説もあ	-11.33
なったのである	-11.33
にく	-11.33
に神	-11.33
のし	-11.33
の巻	-11.33
呼ばれることも	-11.33
失っ	-11.33
定で	-11.33
支援	-11.33
東宮	-11.33
構え	-11.33
神話に登場する	-11.33
能の	-11.33
関家	-11.33
1895	-11.3322
▁一説に	-11.3322
▁彼ら	-11.3322
おく	-11.3322
その中で	-11.3322
たわけ	-11.3322
っき	-11.3322
つかの	-11.3322
ていることが多い	-11.3322
で日本	-11.3322
とも考え	-11.3322
に行われてい	-11.3322
のうちに	-11.3322
の改革	-11.3322
の飛鳥時代の人物	-11.3322
の駅とな	-11.3322
ひとつである	-11.3322
を命じた	-11.3322
主流	-11.3322
予定	-11.3322
交差	-11.3322
京都市内	-11.3322
入する	-11.3322
全ての	-11.3322
功により	-11.3322
合衆国	-11.3322
嘉永	-11.3322
大臣の	-11.3322
小倉	-11.3322
支配を	-11.3322
時代末期から鎌倉時代初期	-11.3322
独特	-11.3322
相撲	-11.3322
義に	-11.3322
補任	-11.3322
通に	-11.3322
都国立博物館	-11.3322
飛鳥時代の人物で	-11.3322
えるように	-11.3332
がそれぞれ	-11.3332
ことに成功	-11.3332
する必要が	-11.3332
とであった	-11.3332
に師事して	-11.3332
の人物であ	-11.3332
を授けられ	-11.3332
天皇の時代	-11.3332
用いられるようになった	-11.3332
せよ	-11.3343
下向	-11.3343
日は	-11.3343
概念	-11.3343
茶の	-11.3343
重視	-11.3343
▁伊勢	-11.3354
の前身	-11.3354
の家督	-11.3354
われな	-11.3354
始され	-11.3354
扱われ	-11.3354
殺した	-11.3354
辰戦争	-11.3354
静岡県	-11.3354
)(13	-11.3365
1949	-11.3365
1989	-11.3365
▁保	-11.3365
▁各	-11.3365
あわせて	-11.3365
から始ま	-11.3365
しかしそ	-11.3365
しかった	-11.3365
する際に	-11.3365
として名	-11.3365
の呼	-11.3365
の城	-11.3365
るだけで	-11.3365
を合わせ	-11.3365
・1	-11.3365
例である	-11.3365
公卿に列	-11.3365
城で	-11.3365
委員	-11.3365
安時代前	-11.3365
年ま	-11.3365
法である	-11.3365
源と	-11.3365
良時代に	-11.3365
辺の	-11.3365
関わらず	-11.3365
されてしまった	-11.3375
▁同時	-11.3386
いうものであ	-11.3386
いう意味であ	-11.3386
がっている	-11.3386
が有力である	-11.3386
が有名	-11.3386
が起き	-11.3386
くす	-11.3386
されたものと	-11.3386
しなければな	-11.3386
する神	-11.3386
ってく	-11.3386
て知られてい	-11.3386
なるの	-11.3386
にはこ	-11.3386
に合わせて	-11.3386
に建てられ	-11.3386
に書か	-11.3386
の土地	-11.3386
の権威	-11.3386
の話	-11.3386
の軍勢	-11.3386
の進	-11.3386
は江戸時代の	-11.3386
ばら	-11.3386
も多かった	-11.3386
れたものの	-11.3386
ンスクリット	-11.3386
勤め	-11.3386
可能性がある	-11.3386
嵯峨野	-11.3386
改めて	-11.3386
次世界大戦後	-11.3386
法であ	-11.3386
点が	-11.3386
立てる	-11.3386
要文化財に指定されて	-11.3386
要無形文化財	-11.3386
足利氏	-11.3386
(123	-11.3408
1993	-11.3408
1998	-11.3408
▁結	-11.3408
が立	-11.3408
きな影響	-11.3408
けるため	-11.3408
ったのが	-11.3408
などを歴	-11.3408
の代表的	-11.3408
の種	-11.3408
の記述が	-11.3408
はすべて	-11.3408
るものを	-11.3408
われてお	-11.3408
を継いで	-11.3408
トの	-11.3408
ネル	-11.3408
催さ	-11.3408
刊行され	-11.3408
品が	-11.3408
国の守護	-11.3408
大きな影	-11.3408
天照大神	-11.3408
建久	-11.3408
生を	-11.3408
系譜	-11.3408
西大	-11.3408
視し	-11.3408
けると	-11.3418
そうと	-11.3418
と号し	-11.3418
と言い	-11.3418
の命に	-11.3418
の将軍	-11.3418
の総称	-11.3418
国家の	-11.3418
官とし	-11.3418
移され	-11.3418
置づけ	-11.3418
だろ	-11.3429
刀を	-11.3429
始し	-11.3429
対抗	-11.3429
小田	-11.3429
弟で	-11.3429
権限	-11.3429
殿に	-11.3429
神に	-11.3429
福井	-11.3429
▁豊臣秀吉	-11.344
く見られる	-11.344
などによっ	-11.344
のであるが	-11.344
れたのであ	-11.344
化したもの	-11.344
孫にあたる	-11.344
(112	-11.3451
1911	-11.3451
▁大和	-11.3451
▁通常	-11.3451
あらわ	-11.3451
あるとする説	-11.3451
けたも	-11.3451
これま	-11.3451
これも	-11.3451
する人	-11.3451
ったといわれて	-11.3451
ったとき	-11.3451
てられている	-11.3451
とも称される	-11.3451
に始	-11.3451
の一人と	-11.3451
はなら	-11.3451
も称され	-11.3451
やその	-11.3451
ることになり	-11.3451
るようになると	-11.3451
を食	-11.3451
世紀の	-11.3451
丹後国	-11.3451
乗車	-11.3451
作された	-11.3451
制定さ	-11.3451
合国軍最高司令官総司令部	-11.3451
四天	-11.3451
太平洋	-11.3451
寺が	-11.3451
弟である	-11.3451
後円	-11.3451
折り	-11.3451
方もある	-11.3451
日本の飛鳥時代	-11.3451
時代にお	-11.3451
朝臣	-11.3451
現存して	-11.3451
説には	-11.3451
都市上京	-11.3451
えん	-11.3472
でそ	-11.3472
もま	-11.3472
りま	-11.3472
を破	-11.3472
代が	-11.3472
令の	-11.3472
厳し	-11.3472
女が	-11.3472
子女	-11.3472
でその	-11.3483
のみが	-11.3483
の命令	-11.3483
の建築	-11.3483
を超え	-11.3483
三重県	-11.3483
河法皇	-11.3483
衛門の	-11.3483
(110	-11.3494
▁九	-11.3494
▁藤原北家	-11.3494
いとして	-11.3494
うことも	-11.3494
たのに対	-11.3494
だけではな	-11.3494
てきてい	-11.3494
としたもの	-11.3494
として仕	-11.3494
どによって	-11.3494
どを歴任	-11.3494
なものが	-11.3494
に対しても	-11.3494
に記されて	-11.3494
に迎	-11.3494
は前	-11.3494
ものだっ	-11.3494
れることもあった	-11.3494
を高	-11.3494
京都市北区	-11.3494
住職	-11.3494
可能性が高	-11.3494
味である	-11.3494
市上京区	-11.3494
後鳥	-11.3494
新後	-11.3494
書道	-11.3494
波羅	-11.3494
白河天皇の	-11.3494
秋田	-11.3494
財に指定	-11.3494
軍勢	-11.3494
が相	-11.3516
が行われるようにな	-11.3516
けが	-11.3516
ことに成功し	-11.3516
たとしている	-11.3516
たものと考えられて	-11.3516
と呼ばれることもあ	-11.3516
の絵	-11.3516
は平安時代末	-11.3516
を聞い	-11.3516
下車	-11.3516
会津藩	-11.3516
公家の	-11.3516
園寺公	-11.3516
大徳寺	-11.3516
官位は従五位	-11.3516
平安時代末期の武将	-11.3516
徳川慶	-11.3516
成に	-11.3516
技法	-11.3516
日か	-11.3516
氏の祖	-11.3516
衰退し	-11.3516
難波	-11.3516
たわけではない	-11.3527
とも考えられる	-11.3527
られていること	-11.3527
日本においては	-11.3527
考えられていた	-11.3527
.5	-11.3538
1875	-11.3538
々は	-11.3538
あと	-11.3538
たからで	-11.3538
なくない	-11.3538
のとなっ	-11.3538
出家した	-11.3538
天皇の時	-11.3538
心として	-11.3538
止し	-11.3538
河天皇の	-11.3538
滅ぼ	-11.3538
王子	-11.3538
皇の即位	-11.3538
芸能	-11.3538
菅原道真	-11.3538
蔵国	-11.3538
院議	-11.3538
884	-11.3549
960	-11.3549
に尽力した	-11.3549
のことを指	-11.3549
の活動	-11.3549
も同様	-11.3549
を建て	-11.3549
別する	-11.3549
年後に	-11.3549
律令制にお	-11.3549
必要な	-11.3549
戦死し	-11.3549
時代前期に	-11.3549
特徴である	-11.3549
近衛府	-11.3549
養子となり	-11.3549
▁次	-11.356
て食	-11.356
口の	-11.356
国主	-11.356
基盤	-11.356
帰っ	-11.356
衛大	-11.356
説の	-11.356
日あたりの乗車人員は約	-11.3571
873	-11.3581
987	-11.3581
▁享保	-11.3581
▁所在地	-11.3581
▁秀吉	-11.3581
されているも	-11.3581
して知られている	-11.3581
しんの	-11.3581
その地	-11.3581
たという説が	-11.3581
ったのではな	-11.3581
ていることも	-11.3581
と合	-11.3581
の地方	-11.3581
の思	-11.3581
の資	-11.3581
の重要文化財	-11.3581
は生	-11.3581
ものとされる	-11.3581
も考えられる	-11.3581
ようになったのは	-11.3581
れたのである	-11.3581
を迎えた	-11.3581
一番	-11.3581
交差点	-11.3581
保元の乱	-11.3581
内源氏の	-11.3581
取り上げられ	-11.3581
命を受け	-11.3581
慶喜	-11.3581
日本は	-11.3581
日本国内	-11.3581
時代において	-11.3581
期まで	-11.3581
気が	-11.3581
求めた	-11.3581
滋賀県大津市	-11.3581
父と	-11.3581
示さ	-11.3581
究所	-11.3581
統合	-11.3581
荘園領主	-11.3581
詳しく	-11.3581
身に	-11.3581
近畿タンゴ鉄道宮	-11.3581
醍醐寺	-11.3581
いたもので	-11.3603
ことはできない	-11.3603
したことにより	-11.3603
する場合もある	-11.3603
にあったと	-11.3603
ねる	-11.3603
の普	-11.3603
の無	-11.3603
は奈良時代	-11.3603
ほとんどの	-11.3603
るわけではない	-11.3603
を唱	-11.3603
係が	-11.3603
像の	-11.3603
受けていた	-11.3603
国において	-11.3603
定している	-11.3603
知っ	-11.3603
秀忠	-11.3603
立していた	-11.3603
護の	-11.3603
との対	-11.3614
に移り	-11.3614
品であ	-11.3614
山時代から江戸時代	-11.3614
担当し	-11.3614
限られ	-11.3614
1929	-11.3625
▁またこ	-11.3625
▁織田信	-11.3625
げている	-11.3625
したと伝	-11.3625
に追い込	-11.3625
のことは	-11.3625
の多くが	-11.3625
を入れる	-11.3625
を制	-11.3625
を多	-11.3625
務省	-11.3625
士を	-11.3625
売されて	-11.3625
学ぶ	-11.3625
安置する	-11.3625
定着	-11.3625
律令制に	-11.3625
徳川秀忠	-11.3625
持し	-11.3625
日清戦争	-11.3625
有栖川宮	-11.3625
無形文化	-11.3625
用に	-11.3625
編纂され	-11.3625
興の	-11.3625
良親	-11.3625
越え	-11.3625
--	-11.3648
890	-11.3648
▁治承	-11.3648
して活躍した	-11.3648
であれ	-11.3648
とみら	-11.3648
と述べている	-11.3648
に分類される	-11.3648
の呼称	-11.3648
の養子となり	-11.3648
は以下のよう	-11.3648
は約	-11.3648
ほん	-11.3648
ようになると	-11.3648
を図る	-11.3648
イヤ	-11.3648
下に昇	-11.3648
人たち	-11.3648
位で	-11.3648
位下に昇叙し	-11.3648
制度を	-11.3648
国の国	-11.3648
宮と	-11.3648
将に	-11.3648
小さな	-11.3648
本人の	-11.3648
皇子は	-11.3648
示されている	-11.3648
送っ	-11.3648
連れ	-11.3648
都大学	-11.3648
に向かって	-11.3659
を使用した	-11.3659
有力である	-11.3659
▁宇	-11.367
たわ	-11.367
に基づき	-11.367
は多くの	-11.367
へ移	-11.367
らば	-11.367
らん	-11.367
るのが一般的であ	-11.367
れたと考えられて	-11.367
常の	-11.367
影所	-11.367
琶湖	-11.367
用を	-11.367
継承され	-11.367
藤原氏の	-11.367
説が有力	-11.367
諸説ある	-11.367
▁京都府京都市	-11.3681
することが多い	-11.3681
せたも	-11.3681
のが一	-11.3681
のとお	-11.3681
を食べ	-11.3681
付近に	-11.3681
任して	-11.3681
化財に	-11.3681
政権を	-11.3681
時代初期にかけ	-11.3681
うや	-11.3692
に起	-11.3692
の問	-11.3692
の語	-11.3692
乱が	-11.3692
代ま	-11.3692
千家	-11.3692
回復	-11.3692
基準	-11.3692
御用	-11.3692
行く	-11.3692
(151	-11.3714
1882	-11.3714
▁古く	-11.3714
▁源氏	-11.3714
▁豊臣秀	-11.3714
うだ	-11.3714
が増え	-11.3714
されていっ	-11.3714
されてしまっ	-11.3714
それによ	-11.3714
ただけ	-11.3714
とされること	-11.3714
と名乗っ	-11.3714
などとい	-11.3714
に戻っ	-11.3714
に移され	-11.3714
も行わ	-11.3714
るに至っ	-11.3714
る可能性が	-11.3714
れるようになったと	-11.3714
わかる	-11.3714
を入れて	-11.3714
を目的とした	-11.3714
コーヒー	-11.3714
タクシー	-11.3714
下野国	-11.3714
任ぜられた	-11.3714
作られている	-11.3714
分類される	-11.3714
呼んでい	-11.3714
土桃山時代から江戸	-11.3714
奥国	-11.3714
安置されてい	-11.3714
害され	-11.3714
徳川慶喜	-11.3714
普通列車	-11.3714
法親王	-11.3714
流行し	-11.3714
父である	-11.3714
用いられるようになっ	-11.3714
用いること	-11.3714
用するこ	-11.3714
発行された	-11.3714
目的として	-11.3714
移り	-11.3714
経緯	-11.3714
編成された	-11.3714
葬られ	-11.3714
行されて	-11.3714
▁仁	-11.3736
が重	-11.3736
の民	-11.3736
は安	-11.3736
当て	-11.3736
海の	-11.3736
置き	-11.3736
要と	-11.3736
親し	-11.3736
うのは	-11.3747
くよう	-11.3747
ころか	-11.3747
めるた	-11.3747
るに至	-11.3747
イザナ	-11.3747
中国に	-11.3747
伴って	-11.3747
流であ	-11.3747
通列車	-11.3747
院議員	-11.3747
々木	-11.3758
えの	-11.3758
おき	-11.3758
かず	-11.3758
ができなかった	-11.3758
されていなかった	-11.3758
て東	-11.3758
ということになる	-11.3758
として有	-11.3758
とによる	-11.3758
に祀られている	-11.3758
の大きさ	-11.3758
の長男として生	-11.3758
代初期にかけて	-11.3758
以前から	-11.3758
加してい	-11.3758
呼ばれることもあ	-11.3758
変え	-11.3758
大宝律令	-11.3758
市営地下鉄烏丸	-11.3758
用いられていた	-11.3758
町通	-11.3758
結ん	-11.3758
葬られた	-11.3758
近衛少将	-11.3758
▁このほか	-11.377
たという記	-11.377
たものと思	-11.377
との説もあ	-11.377
を名乗った	-11.377
地であった	-11.377
子であった	-11.377
桓武天皇の	-11.377
編纂された	-11.377
928	-11.3781
』・	-11.3781
うにし	-11.3781
が与え	-11.3781
たとする説も	-11.3781
た国	-11.3781
できず	-11.3781
に祀られてい	-11.3781
ものであるが	-11.3781
を命じられた	-11.3781
スに	-11.3781
付けられてい	-11.3781
代官	-11.3781
位置づけられ	-11.3781
修寺	-11.3781
像は	-11.3781
務大臣	-11.3781
大臣を	-11.3781
山陰	-11.3781
毛利氏	-11.3781
激しく	-11.3781
然と	-11.3781
目され	-11.3781
紀後	-11.3781
統天皇	-11.3781
舞伎の	-11.3781
象徴	-11.3781
ている事	-11.3803
という伝	-11.3803
ともされ	-11.3803
に内	-11.3803
に移った	-11.3803
の人物で	-11.3803
の性	-11.3803
の状	-11.3803
りとして	-11.3803
を統	-11.3803
イツ	-11.3803
ドイ	-11.3803
件が	-11.3803
例も	-11.3803
功を挙げ	-11.3803
取ら	-11.3803
口に	-11.3803
売り	-11.3803
字は	-11.3803
戻っ	-11.3803
施さ	-11.3803
装束	-11.3803
配し	-11.3803
あったとされている	-11.3814
いう事	-11.3814
いとし	-11.3814
が開業	-11.3814
ことが記されている	-11.3814
しばら	-11.3814
であるとされている	-11.3814
に分類	-11.3814
に通じ	-11.3814
を派遣	-11.3814
マト王	-11.3814
下記の	-11.3814
兄弟の	-11.3814
出土し	-11.3814
力した	-11.3814
家康が	-11.3814
戦った	-11.3814
撰和歌	-11.3814
研究者	-11.3814
神武天	-11.3814
親王と	-11.3814
長男として生まれる	-11.3814
ったらしい	-11.3826
という名称	-11.3826
まち	-11.3826
まっていた	-11.3826
みつ	-11.3826
を繰り返し	-11.3826
到着	-11.3826
因と	-11.3826
工芸	-11.3826
性に	-11.3826
斎藤	-11.3826
営地下鉄烏丸線	-11.3837
国の重要文化財	-11.3837
1946	-11.3848
1995	-11.3848
いじ	-11.3848
いるよう	-11.3848
くい	-11.3848
けと	-11.3848
されていたこ	-11.3848
しているもの	-11.3848
して日	-11.3848
だけであ	-11.3848
った大	-11.3848
っていたとい	-11.3848
ではこ	-11.3848
ではないかという	-11.3848
としたと	-11.3848
として発	-11.3848
に名	-11.3848
に変更	-11.3848
に終わ	-11.3848
のうちの	-11.3848
の娘で	-11.3848
の手に	-11.3848
は直	-11.3848
べた	-11.3848
も少なくない	-11.3848
らせた	-11.3848
るとしている	-11.3848
れたことから	-11.3848
倉時代初期の	-11.3848
公卿に列する	-11.3848
力者	-11.3848
功によ	-11.3848
加わっ	-11.3848
壁画	-11.3848
失した	-11.3848
山号は	-11.3848
年代に	-11.3848
建さ	-11.3848
愛知	-11.3848
所であ	-11.3848
本尊は	-11.3848
武家の	-11.3848
氏との	-11.3848
浪士	-11.3848
状を	-11.3848
神天皇	-11.3848
福知山市	-11.3848
移った	-11.3848
総督	-11.3848
置して	-11.3848
話に	-11.3848
語として	-11.3848
門は	-11.3848
麻呂は	-11.3848
を殺	-11.3871
テー	-11.3871
例で	-11.3871
平治	-11.3871
民俗	-11.3871
衛府	-11.3871
開山	-11.3871
▁信長	-11.3882
▁名は	-11.3882
いう記	-11.3882
から南	-11.3882
が中心	-11.3882
が完成	-11.3882
が特徴	-11.3882
それ以外の	-11.3882
たことにな	-11.3882
とは異なる	-11.3882
と呼び	-11.3882
にちな	-11.3882
ばらく	-11.3882
ようにして	-11.3882
ト王権	-11.3882
今川氏	-11.3882
参議に	-11.3882
東京大	-11.3882
権大納言に	-11.3882
示されてい	-11.3882
視する	-11.3882
鎌倉時代後	-11.3882
)...	-11.3893
して日本	-11.3893
それでも	-11.3893
たように	-11.3893
てられる	-11.3893
に就任す	-11.3893
の伊	-11.3893
の心	-11.3893
を与えて	-11.3893
ンに	-11.3893
・・・・	-11.3893
主となる	-11.3893
家物	-11.3893
式な	-11.3893
焼失した	-11.3893
理に	-11.3893
生母	-11.3893
由で	-11.3893
自動車道	-11.3893
表示	-11.3893
親王宣下	-11.3893
車は	-11.3893
877	-11.3916
▁寺	-11.3916
あるとされて	-11.3916
が指摘されて	-11.3916
ことや	-11.3916
する大	-11.3916
たこの	-11.3916
たと見	-11.3916
としての地位	-11.3916
なったのであ	-11.3916
になってから	-11.3916
に皇	-11.3916
の仏教	-11.3916
の役割	-11.3916
の息	-11.3916
の戦いにおいて	-11.3916
ようや	-11.3916
るようになったのは	-11.3916
を結ん	-11.3916
を続	-11.3916
下げ	-11.3916
事態	-11.3916
人皇	-11.3916
代の人物である	-11.3916
保元年	-11.3916
光寺	-11.3916
力な	-11.3916
北家	-11.3916
十五	-11.3916
国宝に指定され	-11.3916
多くが	-11.3916
孫であ	-11.3916
平城京	-11.3916
年を	-11.3916
当たり	-11.3916
来な	-11.3916
現存している	-11.3916
生地	-11.3916
皇か	-11.3916
移っ	-11.3916
1185	-11.3939
iTaPa	-11.3939
▁観	-11.3939
いことが	-11.3939
ざるを得な	-11.3939
したとす	-11.3939
すぎ	-11.3939
ていたよ	-11.3939
であろうと	-11.3939
と並んで	-11.3939
と考えられていた	-11.3939
に大きな影響を与	-11.3939
に編入さ	-11.3939
のス	-11.3939
の御家人	-11.3939
の男	-11.3939
はいずれも	-11.3939
は政	-11.3939
られたものである	-11.3939
を担当し	-11.3939
ンが	-11.3939
利尊	-11.3939
叙せられる	-11.3939
女を	-11.3939
時代末期から鎌倉時代初	-11.3939
置く	-11.3939
要請	-11.3939
認識	-11.3939
食べられ	-11.3939
898	-11.395
ありな	-11.395
さない	-11.395
して天	-11.395
の管理	-11.395
を辞任	-11.395
参照の	-11.395
古天皇	-11.395
帰国し	-11.395
甲斐国	-11.395
あく	-11.3961
かす	-11.3961
た平	-11.3961
に先	-11.3961
むし	-11.3961
像が	-11.3961
共同	-11.3961
平清	-11.3961
海人	-11.3961
範囲	-11.3961
進出	-11.3961
郷の	-11.3961
院は	-11.3961
▁133	-11.3984
▁すな	-11.3984
▁上記の	-11.3984
▁伏見	-11.3984
いないが	-11.3984
が含まれ	-11.3984
が強い	-11.3984
この後	-11.3984
その時	-11.3984
たことによる	-11.3984
ついてい	-11.3984
とは言	-11.3984
とんどが	-11.3984
と主張	-11.3984
にも関わ	-11.3984
に向かう	-11.3984
の列車	-11.3984
は徳	-11.3984
は東京	-11.3984
ぶこ	-11.3984
ゆかりの	-11.3984
をた	-11.3984
をめぐっ	-11.3984
をもた	-11.3984
を派遣し	-11.3984
を目的として	-11.3984
三位に昇	-11.3984
世紀初	-11.3984
乗ってい	-11.3984
位は従五位下	-11.3984
困難	-11.3984
場所に	-11.3984
存在で	-11.3984
定されていた	-11.3984
害した	-11.3984
尽力し	-11.3984
張した	-11.3984
日本人の	-11.3984
本名	-11.3984
本願寺の	-11.3984
東の	-11.3984
歳のとき	-11.3984
発掘調査	-11.3984
磨国	-11.3984
置されていた	-11.3984
親鸞	-11.3984
話に登場する	-11.3984
陽成天皇	-11.3984
▁関ヶ原の戦い	-11.3996
いられるように	-11.3996
が知られる	-11.3996
そのために	-11.3996
以下の通り	-11.3996
名乗ってい	-11.3996
[...]
