▁	-4.16309
e	-4.78357
a	-4.99716
o	-5.11176
t	-5.15117
i	-5.15386
n	-5.25178
s	-5.42104
r	-5.43597
h	-5.57868
d	-5.86691
u	-6.07436
l	-6.10192
c	-6.21873
m	-6.29684
f	-6.42627
p	-6.64427
g	-6.64852
y	-6.733
w	-6.76428
,	-6.94551
k	-6.95307
b	-7.00345
.	-7.38755
v	-7.4836
A	-7.73114
T	-7.73189
S	-7.75815
(	-7.82248
)	-7.82431
K	-7.89285
I	-7.93041
-	-8.06794
H	-8.19091
M	-8.20194
'	-8.27064
j	-8.32587
O	-8.33404
1	-8.42073
N	-8.5767
C	-8.64262
J	-8.68243
"	-8.79891
E	-8.84376
R	-8.8785
z	-8.90545
P	-8.91454
Y	-9.01652
G	-9.02231
U	-9.07266
0	-9.09526
D	-9.11532
B	-9.17395
x	-9.24646
W	-9.27241
F	-9.29632
2	-9.36385
8	-9.43154
9	-9.43425
5	-9.68414
6	-9.69187
7	-9.71674
3	-9.7338
4	-9.90107
:	-9.97997
L	-9.99776
q	-10.0956
;	-10.5595
Z	-10.8408
V	-11.4571
/	-11.6827
[	-11.7127
]	-11.7157
Q	-12.7524
X	-13.0118
?	-13.167
>	-13.2801
=	-13.4747
–	-13.4954
%	-13.5625
`	-13.7429
大	-13.916
*	-14.0143
の	-14.236
!	-14.2582
・	-14.3938
子	-14.4082
国	-14.414
&	-14.4257
山	-14.4801
神	-14.502
、	-14.5779
王	-14.5882
一	-14.6021
人	-14.6562
天	-14.6749
日	-14.6749
之	-14.7698
三	-14.7908
道	-14.8747
院	-14.884
法	-14.9365
本	-14.9463
御	-14.9663
し	-14.9765
田	-14.9816
命	-15.0728
り	-15.1857
に	-15.1984
上	-15.1984
é	-15.2048
義	-15.2242
\	-15.2307
中	-15.2307
十	-15.2373
月	-15.2373
宗	-15.2507
寺	-15.2507
文	-15.271
二	-15.2779
公	-15.2779
皇	-15.3059
記	-15.3059
い	-15.313
五	-15.3201
+	-15.3493
門	-15.3568
女	-15.3718
野	-15.3794
長	-15.3871
家	-15.3948
正	-15.3948
郎	-15.3948
太	-15.4026
明	-15.4424
≒	-15.4506
を	-15.4506
城	-15.4506
生	-15.4506
多	-15.4588
無	-15.4671
阿	-15.4671
平	-15.4755
部	-15.4755
安	-15.4839
小	-15.4839
き	-15.501
元	-15.501
木	-15.501
八	-15.5097
下	-15.5272
川	-15.5272
光	-15.5361
金	-15.5451
信	-15.5541
和	-15.5818
事	-15.5912
候	-15.5912
経	-15.5912
■	-15.6006
る	-15.6006
ノ	-15.6006
高	-15.6006
武	-15.6102
原	-15.6199
不	-15.6296
殿	-15.6296
造	-15.6296
<	-15.6395
真	-15.6395
ā	-15.6494
。	-15.6494
内	-15.6595
名	-15.6595
尊	-15.6595
な	-15.6696
吉	-15.6696
常	-15.6696
都	-15.6696
と	-15.6799
仏	-15.6799
宮	-15.6799
良	-15.6799
久	-15.7113
行	-15.7113
師	-15.7438
年	-15.7438
有	-15.7438
氏	-15.7438
清	-15.7438
倭	-15.7548
方	-15.7548
石	-15.7548
か	-15.766
ら	-15.766
ん	-15.766
徳	-15.766
通	-15.766
比	-15.7773
士	-15.7887
姫	-15.7887
て	-15.8003
世	-15.8003
居	-15.812
津	-15.812
海	-15.812
馬	-15.8238
く	-15.8358
如	-15.8358
藤	-15.8358
東	-15.8479
相	-15.8479
社	-15.8479
ニ	-15.8602
以	-15.8602
伊	-15.8602
佐	-15.8602
南	-15.8602
定	-15.8602
手	-15.8602
楽	-15.8602
は	-15.8726
シ	-15.8726
主	-15.8726
書	-15.8726
村	-15.8726
豊	-15.8726
す	-15.8852
ま	-15.8852
心	-15.9108
志	-15.9108
重	-15.9108
う	-15.9239
代	-15.9239
言	-15.9239
も	-15.9371
井	-15.9371
百	-15.9371
政	-15.9505
蔵	-15.9505
次	-15.9642
水	-15.9642
万	-15.9779
六	-15.9779
四	-15.9779
臣	-15.9779
た	-15.9919
朝	-15.9919
松	-15.9919
古	-16.0061
変	-16.0061
成	-16.0061
波	-16.0061
華	-16.0061
申	-16.0205
西	-16.0205
九	-16.0351
前	-16.0351
所	-16.0351
物	-16.0351
美	-16.0351
さ	-16.0499
▁the	-5.38333
▁th	-5.49519
▁t	-5.5319
the	-5.55461
th	-5.66236
he	-5.68916
▁a	-5.82399
in	-5.83662
an	-6.02325
er	-6.05039
▁of	-6.15056
▁o	-6.16395
▁and	-6.31379
re	-6.32537
on	-6.37308
ed	-6.41061
▁an	-6.4489
▁w	-6.45756
▁i	-6.46031
and	-6.46065
hi	-6.48049
at	-6.50749
or	-6.51344
▁s	-6.52276
as	-6.52408
en	-6.53071
of	-6.53121
▁in	-6.55957
nd	-6.57773
te	-6.60741
to	-6.65102
is	-6.67743
ar	-6.74822
ri	-6.75652
es	-6.76625
▁to	-6.7692
▁was	-6.80644
it	-6.81008
ing	-6.82181
st	-6.85163
▁b	-6.85201
▁c	-6.85321
al	-6.88186
ti	-6.88234
ng	-6.93245
tion	-6.94058
▁f	-6.95739
▁wa	-6.9674
ro	-6.97007
▁p	-6.99987
se	-7.00139
nt	-7.01131
ion	-7.01575
▁h	-7.021
ra	-7.06744
le	-7.07525
wa	-7.0812
was	-7.08466
sh	-7.08695
io	-7.11476
me	-7.11676
▁(	-7.13468
de	-7.15828
ne	-7.17544
ch	-7.1857
ha	-7.19785
▁T	-7.22068
tio	-7.22443
ho	-7.2351
ma	-7.24418
ent	-7.24822
ce	-7.25837
▁S	-7.26817
ai	-7.27923
ta	-7.28196
ve	-7.28736
ation	-7.28739
am	-7.29296
ter	-7.30763
ea	-7.31551
▁d	-7.32314
ou	-7.32564
ur	-7.33608
▁r	-7.36413
no	-7.36432
▁re	-7.36804
shi	-7.36819
▁co	-7.36898
pe	-7.3815
om	-7.38152
ic	-7.38727
su	-7.41536
▁m	-7.41727
▁be	-7.4347
per	-7.43999
co	-7.44162
un	-7.45451
▁K	-7.46798
▁that	-7.47756
ere	-7.47852
atio	-7.50682
be	-7.50794
her	-7.51615
ted	-7.51799
ec	-7.52498
▁wh	-7.52598
▁fo	-7.53015
▁n	-7.53823
ate	-7.54615
▁as	-7.5515
▁for	-7.55271
▁is	-7.55535
for	-7.55807
na	-7.56303
us	-7.57768
ca	-7.58682
ot	-7.59592
mi	-7.59825
his	-7.60056
ati	-7.60735
▁tha	-7.60858
la	-7.61015
ak	-7.6192
ther	-7.62241
▁no	-7.62329
▁e	-7.63029
▁with	-7.63958
nc	-7.64104
ll	-7.65466
si	-7.67891
il	-7.69676
that	-7.69836
em	-7.69854
ts	-7.70004
ns	-7.70267
os	-7.70675
fo	-7.70901
▁H	-7.70906
ad	-7.71591
li	-7.71929
▁I	-7.72679
▁he	-7.7296
di	-7.73847
▁l	-7.74119
nce	-7.74305
mp	-7.74305
▁The	-7.75179
ct	-7.76568
mo	-7.76929
▁M	-7.78775
ly	-7.79442
▁on	-7.80556
so	-7.81098
yo	-7.81445
ka	-7.82782
▁from	-7.8352
▁Th	-7.83561
sa	-7.83717
ac	-7.84117
ie	-7.84319
▁pr	-7.84502
with	-7.85589
▁wit	-7.85909
eri	-7.86016
pr	-7.86118
im	-7.87208
ver	-7.87221
chi	-7.87427
ku	-7.88153
we	-7.88504
all	-7.88516
tr	-7.88652
ge	-7.88844
tha	-7.88913
▁ha	-7.89157
▁st	-7.89499
wh	-7.89815
▁which	-7.89887
rs	-7.89981
▁hi	-7.90581
ni	-7.91353
hat	-7.91746
ir	-7.91748
pa	-7.9189
▁wi	-7.92066
et	-7.92259
ut	-7.9267
rin	-7.93085
▁Sh	-7.93254
rt	-7.94036
ain	-7.94217
peri	-7.94231
The	-7.9445
ok	-7.94558
ine	-7.94973
mper	-7.95326
el	-7.95708
inc	-7.9674
▁se	-7.96952
▁ma	-7.97138
▁were	-7.98296
▁his	-7.98506
Japan	-7.99178
▁Japan	-7.99308
▁A	-7.99357
ga	-7.99453
ol	-7.99459
▁fro	-8.00076
▁con	-8.00362
▁ca	-8.00795
tsu	-8.01113
▁ar	-8.01185
lo	-8.01703
ei	-8.01891
ment	-8.02153
po	-8.02185
▁g	-8.022
ame	-8.02449
id	-8.03299
da	-8.03361
ow	-8.03535
▁by	-8.03564
ig	-8.03812
ect	-8.04245
▁period	-8.04495
▁de	-8.04596
from	-8.0467
ers	-8.04969
▁1	-8.05434
ki	-8.05986
which	-8.0618
con	-8.06783
od	-8.06809
▁Emperor	-8.06943
ith	-8.08015
res	-8.0885
oshi	-8.08976
▁we	-8.09232
est	-8.09736
▁C	-8.09892
ss	-8.10122
pl	-8.10183
ist	-8.10819
ia	-8.10882
ince	-8.10914
rom	-8.10953
▁pe	-8.11399
hin	-8.11691
ag	-8.12061
ap	-8.12197
▁whi	-8.1284
ry	-8.12998
wit	-8.13441
▁per	-8.1351
men	-8.14098
ich	-8.1476
mperor	-8.14871
ori	-8.14964
Th	-8.15386
▁Province	-8.16319
tu	-8.16381
Emperor	-8.16714
▁family	-8.16793
wi	-8.16945
wer	-8.17339
▁Japa	-8.17538
ple	-8.17635
period	-8.17915
▁su	-8.18603
▁fr	-8.19098
osh	-8.19115
▁so	-8.192
ov	-8.19264
sta	-8.19507
were	-8.19653
▁perio	-8.19897
Japanese	-8.19917
▁fa	-8.19933
▁famil	-8.20099
▁Empero	-8.20288
▁wer	-8.20606
mpe	-8.21137
apan	-8.21419
Japa	-8.2149
ons	-8.21657
mperial	-8.21836
rea	-8.21974
vi	-8.22104
hich	-8.22149
are	-8.224
ial	-8.22667
▁it	-8.23531
▁Ka	-8.23532
▁di	-8.23991
▁Prefecture	-8.24091
▁Pr	-8.24344
Sh	-8.24699
▁Imperial	-8.24744
eriod	-8.24757
do	-8.2504
ish	-8.25107
▁are	-8.25364
mple	-8.25374
ami	-8.25412
bu	-8.25475
ee	-8.25935
▁N	-8.26075
ove	-8.26204
oun	-8.26297
fro	-8.2633
ke	-8.26728
ated	-8.26756
▁Prefectur	-8.26756
ide	-8.26794
tur	-8.26815
ji	-8.26955
▁sh	-8.27008
rovince	-8.27221
rd	-8.27262
▁P	-8.27359
▁Provinc	-8.27725
Province	-8.28037
red	-8.28659
emple	-8.28981
here	-8.29091
▁who	-8.29094
▁po	-8.29383
ive	-8.29439
▁or	-8.29896
int	-8.29929
other	-8.30246
go	-8.30472
eve	-8.30618
family	-8.30654
Imperial	-8.30912
cal	-8.31006
ci	-8.31158
use	-8.31418
Empero	-8.32121
▁pro	-8.32292
ty	-8.32572
iv	-8.33003
rovinc	-8.33032
mpero	-8.33093
peror	-8.33097
pan	-8.33109
Japanes	-8.33261
apanese	-8.33261
▁In	-8.33273
Prefecture	-8.33489
fi	-8.33625
der	-8.33838
fe	-8.33849
▁J	-8.33997
perio	-8.34381
ear	-8.35022
▁Emper	-8.35679
▁at	-8.35924
▁O	-8.36066
▁Shi	-8.36166
oto	-8.36413
ese	-8.36421
▁Imperia	-8.36511
famil	-8.36613
▁Temple	-8.36705
refecture	-8.37038
Prefectur	-8.371
mperia	-8.37243
perial	-8.37251
▁Prefectu	-8.37286
▁peri	-8.37527
sho	-8.37769
▁fami	-8.37888
whi	-8.38095
▁Japanese	-8.38124
ama	-8.38304
ste	-8.38617
over	-8.38748
aku	-8.39268
ay	-8.39383
refectur	-8.39424
▁beca	-8.39491
ure	-8.39506
▁Jap	-8.39603
aka	-8.39656
erio	-8.39781
▁u	-8.39791
ding	-8.39829
by	-8.40324
Provinc	-8.40376
▁Provin	-8.41068
oo	-8.41137
amily	-8.41494
pro	-8.42054
ovince	-8.42632
▁E	-8.4274
▁sta	-8.43156
▁called	-8.43243
▁Kyoto	-8.43299
▁bu	-8.4346
erial	-8.43833
▁al	-8.43923
▁bec	-8.43924
tation	-8.4402
▁government	-8.44091
Imperia	-8.44255
uc	-8.44523
hic	-8.4457
iti	-8.44592
rio	-8.44659
ture	-8.4489
um	-8.44973
tat	-8.4512
mpl	-8.45201
ld	-8.45226
fa	-8.45639
ik	-8.45914
ef	-8.45929
ug	-8.46003
sed	-8.46174
ting	-8.4677
com	-8.46822
cl	-8.4689
riod	-8.47062
▁sa	-8.47433
▁Ta	-8.4744
emp	-8.47631
ern	-8.47716
empl	-8.47824
apa	-8.47928
tra	-8.48088
ul	-8.48339
▁became	-8.4861
gh	-8.48611
Japane	-8.48667
apanes	-8.48667
▁mo	-8.48672
panese	-8.48676
efecture	-8.48816
Prefectu	-8.48872
▁com	-8.49208
othe	-8.4922
nes	-8.49278
ess	-8.49379
▁Imperi	-8.49837
rn	-8.49886
▁Japanes	-8.4989
Jap	-8.50032
Emper	-8.5033
oku	-8.50398
one	-8.50414
ition	-8.50519
rovin	-8.50606
op	-8.5062
led	-8.50784
government	-8.51049
ovinc	-8.5126
ev	-8.51358
ba	-8.51586
▁thi	-8.51717
Temple	-8.5176
nte	-8.51786
amil	-8.52017
gi	-8.52053
▁Templ	-8.52106
▁fam	-8.52194
▁Y	-8.52477
ord	-8.52711
refectu	-8.52766
efectur	-8.52778
Kyoto	-8.53025
called	-8.53199
rial	-8.53301
ring	-8.53529
▁governmen	-8.53597
▁Empe	-8.53895
tor	-8.53934
ab	-8.5417
mil	-8.54179
ies	-8.54297
overnment	-8.54494
Shi	-8.54526
lan	-8.54731
Ka	-8.54768
pero	-8.54829
fr	-8.54926
eror	-8.55355
mperi	-8.55438
peria	-8.55471
mon	-8.55502
▁Provi	-8.55602
▁pa	-8.55627
ina	-8.55689
Provin	-8.55781
ran	-8.56111
who	-8.56267
ura	-8.56332
rovi	-8.56431
oth	-8.56561
▁cl	-8.56896
ity	-8.56939
pre	-8.56962
und	-8.57037
▁Ja	-8.57093
bo	-8.5727
▁cla	-8.57675
tin	-8.58192
fami	-8.58489
▁tr	-8.58589
▁clan	-8.58613
▁calle	-8.58632
▁this	-8.58806
ction	-8.58974
▁He	-8.59258
▁govern	-8.59281
rat	-8.59377
Imperi	-8.59644
era	-8.59787
▁Kyot	-8.59945
lle	-8.60167
vince	-8.6048
▁Hi	-8.60714
▁name	-8.60812
din	-8.60837
▁ch	-8.61121
thi	-8.61134
beca	-8.61245
governmen	-8.61562
str	-8.61646
Pr	-8.61687
man	-8.61736
▁Yoshi	-8.6189
fecture	-8.62157
tatio	-8.62217
▁Prefec	-8.6238
▁fi	-8.6258
fter	-8.62686
vin	-8.62796
▁Emp	-8.6285
ast	-8.63099
▁Japane	-8.6323
art	-8.63274
▁k	-8.63518
became	-8.63732
mily	-8.63797
▁te	-8.63805
▁after	-8.63927
▁becam	-8.64019
ore	-8.64093
▁governme	-8.64125
▁also	-8.64175
eria	-8.64616
ko	-8.64699
▁call	-8.64724
cti	-8.64814
▁Imper	-8.65225
ria	-8.65442
ally	-8.65507
▁To	-8.65717
lled	-8.65834
owe	-8.66131
ane	-8.66145
overnmen	-8.6625
vernment	-8.66265
anese	-8.66403
cture	-8.66412
nese	-8.66806
apane	-8.6689
panes	-8.66895
ned	-8.66912
nde	-8.66974
▁me	-8.67222
ght	-8.6725
ud	-8.67251
out	-8.67497
alled	-8.67909
▁there	-8.68046
▁lo	-8.6806
▁F	-8.68112
refect	-8.6813
efectu	-8.68181
fectur	-8.68181
▁B	-8.6844
call	-8.68663
▁Kyo	-8.68708
ecture	-8.68833
uk	-8.68921
▁Sa	-8.69064
ya	-8.6923
age	-8.69352
▁Temp	-8.69437
▁la	-8.6949
rit	-8.69567
▁li	-8.6973
name	-8.69801
rm	-8.69876
Provi	-8.69901
Templ	-8.69977
▁go	-8.70173
▁'	-8.70187
him	-8.70387
govern	-8.70485
▁R	-8.70514
▁ba	-8.7065
ovin	-8.70798
eat	-8.71158
ref	-8.71231
als	-8.71283
yoto	-8.7131
In	-8.71337
calle	-8.71407
overn	-8.71426
tt	-8.716
▁D	-8.71826
bec	-8.72044
▁cal	-8.7211
gu	-8.72127
ded	-8.72232
nal	-8.72238
aga	-8.72262
itio	-8.72271
Empe	-8.72628
vinc	-8.7298
tions	-8.7301
its	-8.73074
ins	-8.73158
▁Te	-8.73181
governme	-8.73332
ara	-8.73354
ru	-8.73372
▁si	-8.73437
ions	-8.73451
end	-8.73565
▁ex	-8.73565
▁na	-8.73658
Kyot	-8.73674
▁Prov	-8.73779
▁not	-8.74025
og	-8.74172
refe	-8.74437
▁Ma	-8.74512
▁G	-8.74543
▁gover	-8.74642
ever	-8.74718
ant	-8.75019
tati	-8.75145
fte	-8.75243
ten	-8.75413
▁Mi	-8.75596
iod	-8.75672
ls	-8.75684
rov	-8.75845
▁sho	-8.76013
▁Ho	-8.7613
after	-8.76158
▁establish	-8.76352
ound	-8.76356
ach	-8.76473
owever	-8.76528
▁had	-8.76557
een	-8.76589
Yoshi	-8.7669
han	-8.76743
ectur	-8.76823
came	-8.77342
atsu	-8.77516
Prefec	-8.77603
our	-8.77606
▁Prefe	-8.77771
ero	-8.77811
Imper	-8.77845
▁whe	-8.77872
),	-8.7791
ctur	-8.77926
son	-8.77948
igh	-8.77992
ome	-8.78041
▁suc	-8.78055
▁other	-8.78357
Ta	-8.78547
bl	-8.78551
▁Yo	-8.78739
nk	-8.78788
ime	-8.78925
not	-8.79057
fam	-8.79164
▁Ko	-8.79335
cla	-8.79407
▁Station	-8.79416
ernment	-8.79441
▁but	-8.79454
ort	-8.79458
lat	-8.79461
overnme	-8.79596
vernmen	-8.79596
main	-8.79597
ror	-8.79623
ugh	-8.79626
ough	-8.79682
this	-8.7969
oc	-8.79696
▁Yosh	-8.79714
form	-8.79737
sto	-8.79832
also	-8.79872
mber	-8.7994
▁Pro	-8.79948
ous	-8.80099
ovi	-8.80099
side	-8.80118
Ja	-8.80192
nam	-8.8021
clan	-8.80509
there	-8.80596
▁int	-8.80667
ional	-8.8067
alle	-8.81095
ctio	-8.81103
rou	-8.81171
eca	-8.81293
ecame	-8.81383
hen	-8.81409
ary	-8.81419
ft	-8.81434
hrine	-8.81544
▁nam	-8.81606
rie	-8.81849
becam	-8.81959
pres	-8.82164
but	-8.82261
ces	-8.82385
ration	-8.82398
ily	-8.82401
awa	-8.82479
hu	-8.82921
▁"	-8.83128
establish	-8.83334
anc	-8.83373
tional	-8.8338
▁wo	-8.834
▁Impe	-8.8344
wo	-8.83507
cho	-8.83591
).	-8.83712
den	-8.83984
own	-8.83997
ari	-8.84153
nin	-8.84425
▁time	-8.84788
▁en	-8.84801
ue	-8.84838
▁stat	-8.84844
▁res	-8.84896
▁tra	-8.85235
▁Na	-8.85363
efect	-8.85609
▁ther	-8.85912
time	-8.85948
anes	-8.85952
tho	-8.86168
ice	-8.86185
fectu	-8.86289
hr	-8.86329
refec	-8.86329
ite	-8.86331
efe	-8.86338
▁als	-8.86485
▁cou	-8.86625
ster	-8.86643
ber	-8.86677
governm	-8.86677
ard	-8.86749
▁Ky	-8.86817
ashi	-8.86825
▁establis	-8.86868
▁year	-8.8727
▁City	-8.87288
sc	-8.87305
▁un	-8.87387
tem	-8.8772
Emp	-8.87764
du	-8.87856
pane	-8.8787
Kyo	-8.88167
ass	-8.88323
▁Em	-8.88395
pri	-8.88582
▁cons	-8.88596
gover	-8.88608
act	-8.887
uch	-8.88745
tle	-8.88749
ita	-8.88756
lly	-8.88804
▁However	-8.88935
ered	-8.89507
pos	-8.89522
ong	-8.89638
sen	-8.89725
▁dis	-8.8989
ob	-8.9016
ead	-8.90221
▁during	-8.90312
rr	-8.90649
▁established	-8.90764
ater	-8.90774
hou	-8.90938
▁le	-8.91151
Temp	-8.91309
▁Tem	-8.91323
tl	-8.91482
▁Prince	-8.91595
uri	-8.91625
ight	-8.91799
▁pla	-8.91842
ember	-8.91902
stablish	-8.92062
Prov	-8.92163
achi	-8.92292
pp	-8.92357
Station	-8.92567
▁Statio	-8.9276
tic	-8.92818
▁gove	-8.92838
onal	-8.9313
fect	-8.93173
▁da	-8.93177
gr	-8.93236
▁Ch	-8.93275
vern	-8.93401
▁Buddhis	-8.93449
tai	-8.93486
▁Se	-8.93537
sti	-8.93617
ex	-8.9367
▁offic	-8.93697
if	-8.93848
ade	-8.93982
ep	-8.94121
eg	-8.94312
ica	-8.94352
aw	-8.9439
ona	-8.94436
lit	-8.94617
stor	-8.94625
▁Buddh	-8.94664
sion	-8.94758
rnment	-8.9476
wever	-8.9476
▁ho	-8.9476
nti	-8.94782
ernmen	-8.94834
He	-8.94856
overnm	-8.95004
vernme	-8.95004
establis	-8.95092
fu	-8.95149
yot	-8.95178
ved	-8.95233
uring	-8.95346
ua	-8.95661
established	-8.95712
au	-8.95758
▁Pref	-8.95791
▁use	-8.958
Hi	-8.95805
Prefe	-8.9581
▁Shin	-8.95835
▁such	-8.95878
iona	-8.96213
ctu	-8.96257
jo	-8.96303
ral	-8.96459
ave	-8.96523
stat	-8.96583
tiona	-8.96595
rati	-8.96608
av	-8.96691
▁been	-8.96714
rec	-8.9685
▁ti	-8.97144
cou	-8.97166
ash	-8.97261
eas	-8.97382
par	-8.97712
afte	-8.97741
ff	-8.97796
▁bo	-8.9781
▁pre	-8.97867
mai	-8.98001
▁because	-8.98106
ectu	-8.98197
orm	-8.98336
To	-8.98416
lso	-8.98432
Yosh	-8.98457
▁their	-8.98539
rine	-8.98544
▁establi	-8.98636
ratio	-8.98669
eco	-8.98688
ats	-8.98792
inte	-8.98953
▁Co	-8.99126
▁establishe	-8.99154
▁used	-8.99336
nat	-8.99354
▁It	-8.99702
pla	-8.9976
cial	-8.99802
▁v	-8.99841
▁Yos	-8.99885
ffic	-8.99973
cha	-9.00031
Sa	-9.00035
▁us	-9.00066
Impe	-9.00144
▁Imp	-9.00201
▁people	-9.00241
nment	-9.00253
▁cha	-9.00466
des	-9.00667
Buddhis	-9.00834
However	-9.00907
ose	-9.00921
tain	-9.0114
nder	-9.01145
▁do	-9.01188
suc	-9.012
cam	-9.01377
whe	-9.01483
ance	-9.01502
ning	-9.01533
▁mi	-9.01535
▁between	-9.01696
ven	-9.01787
▁Sho	-9.01881
cu	-9.01886
Mi	-9.01899
year	-9.02145
▁have	-9.02199
▁includ	-9.02242
itsu	-9.02246
she	-9.02255
rince	-9.02299
▁wor	-9.02362
ied	-9.02625
hrin	-9.02628
Ma	-9.02641
stablished	-9.02697
tar	-9.02821
fic	-9.02949
cia	-9.03029
ang	-9.03093
ries	-9.03102
ake	-9.03125
tim	-9.03133
sp	-9.03148
cons	-9.03161
att	-9.03197
had	-9.03289
rai	-9.03313
used	-9.0337
ourt	-9.0353
Prince	-9.03595
▁pos	-9.03627
ecam	-9.03675
▁gr	-9.037
cr	-9.03745
ner	-9.03788
sit	-9.03804
min	-9.03808
va	-9.03944
uni	-9.04274
ush	-9.04334
dition	-9.04412
▁Stat	-9.04495
▁when	-9.04706
Pro	-9.04712
▁ac	-9.04741
during	-9.04932
establishe	-9.04943
ished	-9.05018
ank	-9.05296
stablis	-9.05396
tablish	-9.05415
offic	-9.05633
▁pri	-9.05651
▁one	-9.05672
▁sec	-9.05738
▁tim	-9.05886
oi	-9.05999
▁man	-9.06112
▁app	-9.06167
▁Princ	-9.06189
▁comp	-9.06251
Ko	-9.06457
wor	-9.0647
shin	-9.06493
tte	-9.06595
▁off	-9.06741
▁Buddhi	-9.06793
ations	-9.06819
sid	-9.06936
mbe	-9.07119
Shin	-9.07197
Buddh	-9.07248
ren	-9.07307
▁yea	-9.07342
ht	-9.0735
▁Stati	-9.07353
ima	-9.07411
position	-9.07453
▁inc	-9.07464
▁hav	-9.07526
ace	-9.076
efec	-9.0785
les	-9.07957
Statio	-9.07973
ini	-9.08058
oug	-9.08062
ans	-9.08091
nter	-9.08288
ill	-9.08289
establi	-9.08436
ection	-9.08463
▁W	-9.08564
▁first	-9.08573
▁position	-9.08937
mat	-9.09069
ecause	-9.09107
ui	-9.09107
▁Cit	-9.09119
Te	-9.09246
City	-9.09363
▁cont	-9.09615
Ho	-9.09642
cause	-9.097
late	-9.0975
ichi	-9.09785
▁pl	-9.09807
old	-9.09906
oin	-9.10026
enc	-9.10134
▁Bu	-9.10142
▁Pre	-9.10334
because	-9.10398
lt	-9.10466
oma	-9.105
such	-9.10564
tan	-9.10616
▁temple	-9.1075
ssi	-9.10871
gove	-9.10876
part	-9.10991
lished	-9.11023
lace	-9.11055
ont	-9.11314
▁FUJIWARA	-9.11558
rinc	-9.11635
▁offi	-9.11878
▁No	-9.11912
people	-9.11938
▁establ	-9.11958
▁y	-9.12236
aki	-9.12337
comp	-9.12558
sin	-9.12566
▁Budd	-9.12801
stablishe	-9.12941
rnmen	-9.1297
▁part	-9.13007
ernme	-9.13059
ric	-9.13082
app	-9.13091
includ	-9.13198
dis	-9.13215
vernm	-9.13229
tablished	-9.13233
into	-9.13325
between	-9.13492
war	-9.13526
ical	-9.13538
Yo	-9.13541
embe	-9.13621
ble	-9.13651
chool	-9.13688
ishi	-9.13734
abl	-9.1382
asa	-9.13891
blished	-9.13897
gen	-9.13905
under	-9.13933
lin	-9.14075
▁official	-9.14115
cat	-9.14186
lu	-9.14225
ence	-9.14258
nto	-9.14325
nge	-9.14419
▁Ki	-9.14536
ey	-9.14584
fer	-9.14797
▁they	-9.14822
▁betwee	-9.15028
urin	-9.15044
ds	-9.15095
▁gov	-9.15122
urt	-9.15334
ishe	-9.15387
▁ra	-9.15393
▁under	-9.15484
lish	-9.15496
▁ad	-9.15643
▁peopl	-9.15647
▁des	-9.15702
hir	-9.15893
uddhis	-9.16112
▁bee	-9.16139
Buddhi	-9.1624
▁par	-9.16316
unde	-9.16328
oll	-9.16436
their	-9.16496
blish	-9.16626
ount	-9.16737
▁thei	-9.16748
iz	-9.16759
present	-9.16814
hed	-9.1684
mb	-9.17013
▁thr	-9.17044
owev	-9.17062
Na	-9.17133
ase	-9.17171
▁inclu	-9.17222
▁follow	-9.17287
ushi	-9.17364
nci	-9.17365
▁af	-9.17379
unt	-9.17384
▁serv	-9.17432
Se	-9.17527
port	-9.17648
▁Howev	-9.17685
ree	-9.17699
ecti	-9.17722
Pref	-9.17796
▁school	-9.17903
serv	-9.18007
Ky	-9.18028
official	-9.18038
ye	-9.18053
ory	-9.18317
nts	-9.18382
ser	-9.18513
Ch	-9.18982
been	-9.19029
mu	-9.19101
▁Im	-9.19123
low	-9.19165
▁hea	-9.19217
▁St	-9.19236
aft	-9.19278
Tem	-9.19622
temple	-9.19698
kin	-9.1984
pi	-9.19957
▁19	-9.19987
wn	-9.20077
ire	-9.20082
▁Kan	-9.20264
▁origin	-9.20317
up	-9.20366
hogun	-9.20436
Sho	-9.2052
osition	-9.20583
▁Sta	-9.20607
FUJIWARA	-9.20677
▁positio	-9.20703
though	-9.20706
▁comm	-9.20754
Princ	-9.20778
positio	-9.20795
stabli	-9.20802
shed	-9.20811
tablis	-9.20811
ablish	-9.20821
▁system	-9.2094
hea	-9.21185
mot	-9.21223
▁into	-9.21345
fec	-9.21782
▁br	-9.22004
have	-9.22082
nmen	-9.22108
ath	-9.22125
Imp	-9.22174
tiv	-9.22188
por	-9.22509
hik	-9.22616
ditio	-9.22627
med	-9.22674
▁Shrine	-9.22722
ene	-9.22811
rth	-9.22855
ost	-9.23021
ement	-9.2305
▁ser	-9.23323
sio	-9.23325
nst	-9.23388
iste	-9.23677
establ	-9.23811
▁duri	-9.23951
first	-9.23968
▁Prin	-9.24001
nted	-9.24124
▁rec	-9.2417
round	-9.24322
lac	-9.24405
ata	-9.24444
eople	-9.24512
ffi	-9.24603
hri	-9.24603
lis	-9.24603
tablishe	-9.24719
hig	-9.24807
ntr	-9.24912
Em	-9.24958
Yos	-9.24966
ablished	-9.25011
Stati	-9.25309
dai	-9.25346
sec	-9.25356
▁appointed	-9.25401
ational	-9.2542
▁made	-9.25426
▁head	-9.2546
dd	-9.25481
▁including	-9.25568
▁ye	-9.25592
thou	-9.25692
▁officia	-9.25692
nclud	-9.25903
br	-9.26034
▁His	-9.26048
▁templ	-9.26054
▁some	-9.26088
ito	-9.2609
when	-9.26128
har	-9.2619
offi	-9.26195
cor	-9.26221
Stat	-9.26236
▁reg	-9.26256
cont	-9.26323
ectio	-9.26366
off	-9.26463
▁temp	-9.26509
▁ta	-9.2659
shu	-9.2663
gin	-9.26717
▁firs	-9.26796
heir	-9.26817
▁becau	-9.26854
ught	-9.26857
▁son	-9.26925
▁fir	-9.26959
▁Chi	-9.27067
reat	-9.27115
blishe	-9.27261
ower	-9.27285
etween	-9.27312
lishe	-9.27373
af	-9.27759
omo	-9.27978
shrine	-9.2805
fficial	-9.28144
cc	-9.28215
▁du	-9.28498
comm	-9.2851
inist	-9.28512
resent	-9.28534
sur	-9.28622
yea	-9.28736
nsh	-9.28788
including	-9.28834
betwee	-9.28886
▁Buddhist	-9.28943
omp	-9.28969
presen	-9.28969
tri	-9.29156
uddh	-9.29167
cen	-9.29229
ib	-9.29236
▁daughter	-9.29271
pt	-9.29309
Budd	-9.29465
ines	-9.29618
▁ne	-9.29756
caus	-9.29974
hist	-9.30037
peopl	-9.30161
thr	-9.30165
nation	-9.30181
▁ea	-9.30259
temp	-9.30282
ccording	-9.30507
rc	-9.3057
ause	-9.30668
hav	-9.30744
iy	-9.30764
inclu	-9.30873
appointed	-9.30972
▁appoint	-9.30986
officia	-9.31081
stabl	-9.31085
school	-9.31332
▁fou	-9.31361
▁positi	-9.31403
tabl	-9.31417
emb	-9.31433
▁ap	-9.31439
Co	-9.31446
ell	-9.31465
▁Tak	-9.31474
▁ab	-9.31497
▁Mo	-9.31566
nn	-9.31691
ents	-9.31801
cte	-9.31897
gra	-9.31918
sition	-9.32068
▁Go	-9.32127
follow	-9.32207
irst	-9.32215
▁consider	-9.32331
ici	-9.32352
tive	-9.32393
nta	-9.32406
▁sc	-9.32406
Buddhist	-9.32451
ny	-9.32515
▁follo	-9.3268
▁Ha	-9.32777
▁origina	-9.32795
▁unde	-9.32849
astle	-9.32948
nj	-9.32954
ress	-9.33018
even	-9.33069
ip	-9.33177
▁schoo	-9.33285
bli	-9.33318
origin	-9.3334
ada	-9.33448
▁said	-9.33453
▁genera	-9.33522
positi	-9.33698
sak	-9.33714
▁esta	-9.33861
▁peop	-9.3387
yama	-9.33967
UJIWARA	-9.34005
▁Bud	-9.34324
ddhis	-9.34335
uddhi	-9.34335
▁Ci	-9.34375
hough	-9.34389
▁abo	-9.34426
eral	-9.34433
Howev	-9.34536
ili	-9.34561
choo	-9.34594
aid	-9.34649
fore	-9.34675
▁incl	-9.34728
sent	-9.34748
▁Pri	-9.34887
ernm	-9.34924
cord	-9.34998
ather	-9.35021
system	-9.35023
ined	-9.35152
nm	-9.35207
point	-9.35242
rnme	-9.35248
▁place	-9.35288
press	-9.35371
asu	-9.35393
iden	-9.35454
▁appointe	-9.35454
▁origi	-9.35709
rese	-9.35883
▁Howe	-9.35908
head	-9.35928
llow	-9.35943
hool	-9.35958
ron	-9.35976
ositio	-9.35987
erv	-9.36043
lar	-9.36093
ika	-9.3616
▁priest	-9.36167
▁late	-9.36177
they	-9.36218
ains	-9.36404
nor	-9.36411
mor	-9.36417
ret	-9.36428
▁FUJIWA	-9.36611
▁form	-9.36708
erat	-9.36762
templ	-9.36773
rde	-9.3691
ope	-9.36916
▁loca	-9.36961
▁There	-9.37006
▁through	-9.37009
yoshi	-9.37036
amo	-9.37073
hei	-9.37084
▁Kamakura	-9.37113
pu	-9.37159
eo	-9.37178
nis	-9.37208
hoo	-9.37411
Shrine	-9.37479
▁scho	-9.37515
Cit	-9.37553
ino	-9.37705
▁ce	-9.37779
It	-9.37845
▁order	-9.37887
una	-9.37921
prese	-9.37987
Pre	-9.38
ablishe	-9.38072
▁Shrin	-9.38125
▁U	-9.38144
ck	-9.38182
daughter	-9.38353
zu	-9.38456
thei	-9.38604
esta	-9.38795
blis	-9.38802
▁considered	-9.38808
▁Wa	-9.38827
ono	-9.38982
▁sam	-9.39016
▁offici	-9.39018
ablis	-9.39024
any	-9.39028
tabli	-9.39034
appoint	-9.39126
▁im	-9.39131
ppointed	-9.39147
shim	-9.39239
ncluding	-9.39269
omi	-9.39476
irs	-9.3954
gov	-9.39609
known	-9.39667
▁written	-9.39669
place	-9.39725
Kan	-9.39823
ub	-9.39927
hil	-9.39973
ond	-9.40014
▁ri	-9.40049
bi	-9.40151
▁following	-9.40198
ationa	-9.40229
▁Castle	-9.40298
▁character	-9.40488
ficial	-9.40496
▁Ya	-9.40555
ced	-9.40584
cted	-9.40597
iya	-9.4063
ens	-9.40689
une	-9.40788
▁L	-9.40858
sai	-9.40975
▁18	-9.41074
omain	-9.41082
qu	-9.41092
▁imp	-9.41151
rigin	-9.41199
enera	-9.41229
genera	-9.41374
hogu	-9.41401
▁Fu	-9.41544
die	-9.41574
made	-9.41668
hos	-9.41685
efore	-9.41689
tory	-9.41825
shogun	-9.41845
estab	-9.41896
day	-9.4201
nag	-9.42057
ogun	-9.42109
cording	-9.42243
loca	-9.42251
ana	-9.42253
ente	-9.42259
kan	-9.42265
appointe	-9.42274
nu	-9.42464
ister	-9.42468
ppo	-9.42585
roduc	-9.42597
▁2	-9.42603
Prin	-9.42671
emen	-9.42702
omm	-9.42704
inis	-9.42734
ters	-9.42996
Bu	-9.4304
nme	-9.43098
consider	-9.43132
fficia	-9.43247
▁Kam	-9.43275
eme	-9.43283
▁After	-9.43319
ult	-9.43337
clud	-9.43347
diti	-9.43427
origina	-9.43593
resen	-9.43603
cess	-9.43643
▁Tok	-9.4374
▁sp	-9.4374
emo	-9.43788
▁consi	-9.43944
shrin	-9.43984
becau	-9.44025
king	-9.44109
posit	-9.44125
some	-9.44246
▁Ju	-9.44282
▁Su	-9.44282
ign	-9.44391
▁lat	-9.44424
ollow	-9.44448
bee	-9.44549
struct	-9.44561
yosh	-9.44561
ook	-9.44634
pointed	-9.44664
tro	-9.44737
Ki	-9.44881
gun	-9.44968
Chi	-9.45011
uar	-9.45023
rre	-9.45059
▁shogun	-9.45104
Kamakura	-9.45145
sam	-9.452
▁dur	-9.4521
suk	-9.4523
No	-9.45238
written	-9.45432
duri	-9.45471
etwee	-9.45524
tween	-9.45544
nclu	-9.45601
uddhist	-9.45632
ould	-9.45634
rem	-9.45788
wev	-9.45831
duc	-9.45966
▁ot	-9.45972
rig	-9.46089
cation	-9.46126
istor	-9.46251
firs	-9.46274
reg	-9.46298
▁Da	-9.46373
cate	-9.46406
▁ro	-9.46416
▁gener	-9.46434
offici	-9.46447
order	-9.46591
know	-9.46603
eration	-9.46609
roun	-9.46612
▁father	-9.46711
dent	-9.46727
ople	-9.46727
▁posit	-9.46731
esent	-9.46756
hey	-9.46787
▁person	-9.46812
eopl	-9.46818
aus	-9.46824
nist	-9.46934
▁mad	-9.46934
forme	-9.47077
hing	-9.47108
▁sto	-9.47174
cond	-9.47199
father	-9.47278
abo	-9.47384
fir	-9.47397
hit	-9.4744
imi	-9.47472
reas	-9.47499
cent	-9.47507
▁has	-9.47524
▁perform	-9.47532
▁military	-9.47553
considered	-9.47628
▁histor	-9.4764
▁about	-9.47653
▁Taka	-9.4767
rough	-9.47847
▁includi	-9.47866
za	-9.47899
ystem	-9.47931
ano	-9.47947
JIWARA	-9.48016
▁ret	-9.48016
▁som	-9.48125
▁rel	-9.48159
ani	-9.4818
▁tem	-9.48259
▁So	-9.48274
▁Edo	-9.48276
▁considere	-9.48318
natio	-9.48402
Sta	-9.48406
tab	-9.48432
dit	-9.48488
19	-9.48524
mak	-9.48539
eir	-9.48551
rate	-9.48655
▁betw	-9.48665
efor	-9.48916
▁succe	-9.49051
now	-9.49096
cluding	-9.49111
lect	-9.49204
through	-9.49274
priest	-9.49305
FUJIWA	-9.49369
▁brother	-9.49399
ecau	-9.49433
▁chi	-9.49467
arr	-9.49471
aughter	-9.49496
schoo	-9.49533
▁where	-9.49573
▁shrine	-9.49615
rigina	-9.49649
character	-9.49675
rti	-9.49796
stab	-9.49824
▁its	-9.49841
▁later	-9.49854
sing	-9.49867
tre	-9.50007
ume	-9.50046
▁sai	-9.5008
enti	-9.50183
ordin	-9.50204
▁str	-9.50268
sitio	-9.5029
nda	-9.50322
▁fe	-9.50322
follo	-9.50418
following	-9.50463
nsi	-9.50528
way	-9.50573
▁years	-9.50573
incl	-9.50611
▁es	-9.50637
▁original	-9.50695
▁plac	-9.50719
▁ag	-9.50734
esi	-9.50785
long	-9.50792
▁foll	-9.50837
mes	-9.50915
▁him	-9.50938
rst	-9.5096
▁characte	-9.51005
ile	-9.51109
ppoint	-9.5118
stle	-9.5118
▁est	-9.51197
origi	-9.51236
later	-9.51377
cated	-9.51485
His	-9.51498
spe	-9.51517
has	-9.51537
jin	-9.51583
ositi	-9.5168
ian	-9.51706
dhis	-9.51787
kyo	-9.5185
▁San	-9.51856
oint	-9.51969
▁FUJIW	-9.51974
imp	-9.52
ppointe	-9.52041
▁Chin	-9.5205
▁desc	-9.52072
ew	-9.52104
udd	-9.52104
Im	-9.52144
ood	-9.52268
prov	-9.52318
rri	-9.5232
kur	-9.52412
peop	-9.52467
▁court	-9.52498
military	-9.5259
▁pu	-9.52635
▁over	-9.52804
athe	-9.52809
mm	-9.52831
igi	-9.52859
▁MINAMOTO	-9.52886
▁writte	-9.53007
▁station	-9.53011
▁orig	-9.53024
There	-9.53068
ece	-9.53077
mer	-9.53136
hog	-9.53242
▁thro	-9.53322
Tak	-9.53335
nate	-9.53337
akura	-9.53344
oca	-9.53361
rac	-9.53381
nera	-9.5339
sha	-9.53474
uct	-9.53534
ious	-9.53585
ira	-9.5364
▁bakufu	-9.53702
fou	-9.53766
ote	-9.53806
▁tho	-9.53833
rdin	-9.5385
icial	-9.53897
lor	-9.53913
includi	-9.5395
onsider	-9.5395
ollowing	-9.54037
▁region	-9.5409
▁Dai	-9.54126
▁rea	-9.54144
▁und	-9.54153
yu	-9.54282
provi	-9.54331
KA	-9.54424
▁sch	-9.54447
astl	-9.54554
line	-9.54554
rad	-9.54708
▁Ther	-9.54733
ool	-9.54923
cau	-9.5493
construct	-9.55004
nces	-9.55056
▁This	-9.55148
istr	-9.55244
llo	-9.55294
▁On	-9.55301
▁vi	-9.55348
▁Cou	-9.55389
HI	-9.5542
said	-9.5547
▁loc	-9.55515
Ju	-9.55524
Castle	-9.55564
▁peo	-9.55668
Shrin	-9.55689
▁cour	-9.55892
▁her	-9.55913
▁orde	-9.55949
ffici	-9.55983
person	-9.55985
lation	-9.56053
ilit	-9.56076
rder	-9.56157
tal	-9.5623
▁Shri	-9.56244
▁writ	-9.56369
ener	-9.56394
▁produc	-9.56437
ogu	-9.56448
RA	-9.56453
▁all	-9.56494
houg	-9.56549
spec	-9.56549
ddhi	-9.56576
WA	-9.56599
tate	-9.56603
rding	-9.56722
brother	-9.56724
Howe	-9.56841
sse	-9.56893
▁found	-9.569
thro	-9.56932
▁area	-9.56996
▁office	-9.57028
rel	-9.57038
▁How	-9.5707
ys	-9.57088
ust	-9.57141
ording	-9.57161
▁provi	-9.57161
ilitary	-9.57189
gener	-9.57191
cre	-9.57258
▁same	-9.57306
poin	-9.57317
▁them	-9.57317
lthough	-9.5735
Bud	-9.57382
tern	-9.57391
haracter	-9.574
▁consid	-9.5743
▁sect	-9.57478
▁militar	-9.57492
ddh	-9.57513
amakura	-9.57543
nstruct	-9.57591
inst	-9.5763
ij	-9.5769
▁rank	-9.57709
aine	-9.57741
scho	-9.57741
St	-9.57829
▁gene	-9.57882
tw	-9.57972
ute	-9.58067
onsidered	-9.58081
▁bro	-9.58092
considere	-9.58143
loc	-9.58192
oka	-9.58233
▁differen	-9.58247
ficia	-9.58264
▁only	-9.5831
yam	-9.58373
ely	-9.584
▁Ku	-9.58414
▁bet	-9.58426
coun	-9.58445
▁Thi	-9.58454
▁War	-9.58472
plac	-9.58547
▁second	-9.58547
ze	-9.58561
orde	-9.58584
▁As	-9.58596
inted	-9.58647
ind	-9.58666
▁fol	-9.58677
shogu	-9.58822
▁Re	-9.58868
ack	-9.58875
ale	-9.58882
▁Mu	-9.58924
itte	-9.59013
obu	-9.59114
ccordi	-9.59134
located	-9.59167
ttle	-9.59191
able	-9.59237
▁eve	-9.59256
rv	-9.5927
original	-9.59331
▁addition	-9.59338
ais	-9.59359
eta	-9.59394
ange	-9.59434
Pri	-9.59458
ritten	-9.59472
▁gra	-9.595
change	-9.59556
perform	-9.59627
pointe	-9.59627
▁appoi	-9.5974
ointed	-9.59754
nown	-9.59773
oy	-9.59792
tak	-9.59832
ving	-9.59839
consi	-9.59876
▁buil	-9.59876
histor	-9.59952
▁Min	-9.5998
san	-9.60051
▁char	-9.60112
serve	-9.60171
ffice	-9.60183
ars	-9.60228
isi	-9.60228
SHI	-9.60285
struc	-9.60301
econ	-9.60396
▁ka	-9.60427
▁shogu	-9.60462
ior	-9.60477
ors	-9.60477
ora	-9.60569
Go	-9.6059
▁Ni	-9.6064
isto	-9.60719
onstruct	-9.60747
hrough	-9.60819
mas	-9.60819
kura	-9.60823
writte	-9.60833
▁perfor	-9.60835
abli	-9.60852
riginal	-9.60852
ky	-9.60857
After	-9.60919
tary	-9.60947
mad	-9.60954
ize	-9.60983
ddhist	-9.61047
iver	-9.61052
nly	-9.61061
▁located	-9.61071
▁serve	-9.61076
siti	-9.61081
about	-9.61133
nati	-9.61281
iro	-9.61398
characte	-9.61434
hro	-9.61448
▁line	-9.61468
clu	-9.61506
omai	-9.6153
lea	-9.61592
truct	-9.61611
tes	-9.61614
chan	-9.61626
ties	-9.61626
court	-9.61671
▁descri	-9.61705
igin	-9.61799
atu	-9.61887
Ha	-9.61928
MINAMOTO	-9.61952
▁main	-9.6196
posi	-9.6202
▁brothe	-9.62058
▁ran	-9.62068
cour	-9.62087
ndi	-9.6209
▁fathe	-9.62111
nded	-9.62116
▁Kamaku	-9.6216
▁cu	-9.62184
ncl	-9.62205
tori	-9.62251
▁cent	-9.62273
yos	-9.6235
18	-9.62353
riest	-9.62382
▁ins	-9.62386
sign	-9.62464
ual	-9.62502
rigi	-9.62609
▁out	-9.62754
▁charact	-9.62764
egi	-9.62779
▁Yama	-9.62781
ract	-9.62793
▁many	-9.62829
econd	-9.62866
▁work	-9.62951
where	-9.62963
station	-9.63041
▁however	-9.63114
enter	-9.6317
00	-9.63241
rank	-9.6328
IWARA	-9.63475
▁member	-9.63484
▁pres	-9.63499
rnm	-9.63568
▁construct	-9.6367
oj	-9.63798
each	-9.63866
ntin	-9.63866
Taka	-9.63876
arch	-9.63876
iko	-9.63972
tom	-9.63994
llowing	-9.6405
inister	-9.64085
militar	-9.64102
Tok	-9.64208
story	-9.64247
▁FUJI	-9.64259
ise	-9.64274
Mo	-9.64363
▁Ra	-9.64415
luding	-9.64422
rch	-9.64459
▁ord	-9.64545
▁train	-9.64555
rme	-9.6457
▁death	-9.64585
visi	-9.64605
▁shrin	-9.64689
esen	-9.64753
▁posi	-9.64815
sum	-9.64845
ms	-9.64872
rodu	-9.64892
hes	-9.64897
oduc	-9.64911
ughter	-9.64911
iga	-9.64926
▁child	-9.64926
scri	-9.64971
▁around	-9.65018
ears	-9.65021
shri	-9.65021
vis	-9.65045
only	-9.6516
ditional	-9.65239
▁know	-9.65311
mar	-9.65329
▁Ed	-9.65329
ild	-9.65336
produc	-9.65359
Kam	-9.65373
itt	-9.65373
Min	-9.65426
fathe	-9.65498
osit	-9.65508
ollo	-9.65578
ocated	-9.65703
▁abou	-9.65735
ings	-9.65748
emon	-9.65758
▁coun	-9.65773
orme	-9.65828
▁high	-9.65848
succe	-9.6586
som	-9.65898
tural	-9.65935
my	-9.66058
stru	-9.66058
dered	-9.66073
eate	-9.66158
▁Domain	-9.66206
▁regi	-9.66261
ddition	-9.66347
▁direct	-9.66382
oli	-9.66402
Chin	-9.6653
▁imperial	-9.66576
▁ge	-9.66621
yste	-9.66651
▁power	-9.66666
▁acc	-9.66722
edi	-9.66727
ppe	-9.66787
attle	-9.66878
▁even	-9.66878
▁succ	-9.66904
▁relat	-9.66954
eng	-9.66969
akur	-9.66974
▁reco	-9.66992
▁known	-9.67121
ivi	-9.67205
icia	-9.67289
▁again	-9.67304
▁prov	-9.67309
▁served	-9.67337
machi	-9.6736
served	-9.67365
wing	-9.67441
years	-9.67449
cri	-9.67494
nside	-9.67499
second	-9.67533
FUJIW	-9.6755
cul	-9.67571
UJIWA	-9.67576
ssion	-9.67601
twee	-9.67675
bakufu	-9.677
ween	-9.67746
▁refer	-9.67792
oki	-9.678
igina	-9.67856
region	-9.67884
▁differe	-9.6792
lati	-9.6794
TO	-9.68007
ncludi	-9.68022
▁exp	-9.68022
hose	-9.68053
▁trans	-9.68053
cer	-9.68091
▁ceremon	-9.68124
stem	-9.68135
overnor	-9.6814
office	-9.68206
ien	-9.68214
sun	-9.68252
▁Court	-9.68314
▁post	-9.68393
▁writt	-9.68406
dur	-9.68437
style	-9.68483
▁gen	-9.68483
oul	-9.68506
gawa	-9.68535
ident	-9.68535
erati	-9.68548
▁va	-9.68653
acti	-9.68679
differen	-9.6874
▁act	-9.68823
mit	-9.68838
aught	-9.68934
▁ref	-9.68936
imperial	-9.68967
ccord	-9.68998
tru	-9.69071
stan	-9.69091
vel	-9.69117
onsi	-9.69184
nsider	-9.69272
▁various	-9.69298
erson	-9.69321
rent	-9.69329
onside	-9.6935
betw	-9.69422
writ	-9.69454
▁died	-9.69516
rte	-9.69529
orig	-9.69599
arri	-9.69724
▁daugh	-9.69755
▁include	-9.69755
▁prie	-9.69789
onsidere	-9.69838
nsidered	-9.69859
San	-9.6988
▁pers	-9.6988
▁present	-9.69901
eneral	-9.69927
hara	-9.69963
hima	-9.69994
▁cr	-9.70067
roug	-9.70109
tten	-9.7012
stl	-9.70185
addition	-9.70339
itary	-9.70363
uku	-9.70365
chang	-9.70402
iki	-9.70499
▁milita	-9.70533
oe	-9.70564
count	-9.70572
ato	-9.70617
lon	-9.7068
▁bel	-9.70706
▁locat	-9.70727
haracte	-9.70735
aracter	-9.70753
ilitar	-9.70774
sel	-9.70924
▁being	-9.70948
found	-9.70966
▁According	-9.70979
arti	-9.71011
rother	-9.71122
▁inte	-9.71138
owing	-9.71164
makura	-9.7128
brothe	-9.71375
▁three	-9.71375
Ya	-9.71386
ntain	-9.71402
lud	-9.71415
erform	-9.71455
direct	-9.7147
mili	-9.71529
them	-9.7155
iji	-9.71566
child	-9.71574
rot	-9.71582
vers	-9.71582
rain	-9.71592
locat	-9.716
eld	-9.71717
ordi	-9.71773
consid	-9.71868
Fu	-9.71884
▁ev	-9.71884
che	-9.72012
▁att	-9.72049
litary	-9.72108
ouse	-9.72134
desc	-9.72166
tit	-9.72171
Dai	-9.72227
▁different	-9.72251
▁change	-9.72291
kno	-9.72307
gene	-9.72326
gn	-9.72363
uki	-9.72371
pec	-9.72379
▁old	-9.72433
land	-9.72465
however	-9.72497
gat	-9.72508
aste	-9.7255
foll	-9.72658
nior	-9.72668
▁contr	-9.72733
tly	-9.72749
appoi	-9.72759
▁Although	-9.72869
gan	-9.72893
oper	-9.72915
buil	-9.72926
member	-9.7299
win	-9.72998
▁broth	-9.73038
kam	-9.73046
sect	-9.73076
rds	-9.73095
Wa	-9.73125
▁Cast	-9.73162
usa	-9.7324
state	-9.73256
ih	-9.73313
▁ass	-9.73432
rdi	-9.73434
▁Chinese	-9.73442
ses	-9.73451
▁emperor	-9.73486
▁differ	-9.7355
▁statu	-9.73556
locate	-9.73572
▁ori	-9.73648
fici	-9.73734
shik	-9.73756
residen	-9.73816
Kamaku	-9.73832
▁secon	-9.73946
▁ga	-9.73986
uld	-9.741
work	-9.74125
eci	-9.74157
herefore	-9.74223
▁locate	-9.74234
nse	-9.74263
latio	-9.74272
▁op	-9.7428
▁mai	-9.74353
ula	-9.74362
ged	-9.74394
Ci	-9.74451
Edo	-9.74451
ende	-9.74528
same	-9.74571
train	-9.74571
died	-9.74648
▁ove	-9.74692
eop	-9.74697
neral	-9.74708
▁ent	-9.74746
▁foun	-9.74749
charact	-9.74768
▁mea	-9.74801
Ther	-9.74867
uction	-9.7491
ocat	-9.74976
perfor	-9.74976
err	-9.75009
ceremon	-9.75036
ultur	-9.75064
descri	-9.75075
nding	-9.75091
tter	-9.7513
kai	-9.75165
This	-9.75174
▁Nobu	-9.75174
▁mon	-9.75196
▁shog	-9.75242
INAMOTO	-9.75286
taine	-9.75325
akufu	-9.75339
▁count	-9.75339
opl	-9.7538
cordi	-9.75435
shog	-9.7546
inal	-9.75482
ling	-9.75526
air	-9.75529
hange	-9.75559
nstru	-9.756
hina	-9.7568
lic	-9.75752
▁Ca	-9.75777
lowing	-9.75802
Yama	-9.75824
▁stati	-9.75851
▁University	-9.75868
scr	-9.75959
refer	-9.7607
▁charac	-9.76078
▁perfo	-9.762
▁prese	-9.762
bro	-9.76209
Su	-9.76223
iginal	-9.76267
vision	-9.76267
ditiona	-9.76311
Chinese	-9.76331
uchi	-9.76367
itional	-9.7637
esc	-9.765
itten	-9.765
rg	-9.76506
▁start	-9.76517
▁lin	-9.76545
▁lea	-9.76556
pen	-9.76567
aro	-9.76576
uma	-9.76576
lie	-9.76609
usi	-9.76617
eli	-9.76626
Da	-9.76701
provinc	-9.76818
lec	-9.76868
▁those	-9.76868
around	-9.76919
arm	-9.76927
ased	-9.76969
uro	-9.76969
▁wr	-9.76994
▁presen	-9.77033
efo	-9.77053
▁Kamak	-9.7707
▁wri	-9.77148
char	-9.7717
WARA	-9.77204
uke	-9.77263
reside	-9.77288
▁general	-9.77316
ointe	-9.77437
▁style	-9.77457
ked	-9.77516
ritte	-9.77591
three	-9.77634
erve	-9.77642
tie	-9.77667
ments	-9.77732
pers	-9.77743
cati	-9.77789
Shri	-9.77845
▁appo	-9.77845
bel	-9.77896
▁MINAMO	-9.77899
histo	-9.78141
eac	-9.78158
▁you	-9.78173
ean	-9.78192
ail	-9.78252
eti	-9.78252
rted	-9.78354
hang	-9.78456
▁thre	-9.78467
▁Shr	-9.7849
area	-9.78524
naga	-9.78581
eig	-9.78746
According	-9.78814
rl	-9.78865
▁membe	-9.78883
sty	-9.78891
sch	-9.78934
minist	-9.78985
nister	-9.79002
▁resi	-9.79008
▁success	-9.79014
egion	-9.79022
▁Tsu	-9.79025
wee	-9.79028
ought	-9.79036
writt	-9.79036
▁cas	-9.79036
ived	-9.79048
relat	-9.79079
▁against	-9.79128
tradition	-9.79199
dhist	-9.79208
milita	-9.79208
nio	-9.79302
dhi	-9.79319
bout	-9.79391
trai	-9.79402
ngs	-9.79474
met	-9.7956
▁poli	-9.79638
enda	-9.79643
ict	-9.79646
rod	-9.79646
eside	-9.79767
Cou	-9.79776
▁Buddhism	-9.79793
▁dea	-9.7985
twe	-9.7987
constru	-9.79893
fice	-9.79896
So	-9.79908
▁before	-9.79914
how	-9.79939
mou	-9.79939
que	-9.79957
inistr	-9.79965
▁chan	-9.79997
differe	-9.80014
▁well	-9.8004
bas	-9.80086
ifferen	-9.80115
▁state	-9.80121
▁trai	-9.80199
▁chang	-9.80208
▁onl	-9.80242
saka	-9.80254
ocate	-9.80257
▁fath	-9.80315
eremon	-9.80329
Minist	-9.80398
▁aroun	-9.80416
niversity	-9.80442
peo	-9.80633
mportant	-9.80648
▁while	-9.80729
▁started	-9.80787
mura	-9.8081
iou	-9.80833
many	-9.80845
ghter	-9.80851
▁Rank	-9.80851
truc	-9.80938
irect	-9.80967
ju	-9.81066
▁bas	-9.81136
ega	-9.81139
bet	-9.81148
▁shri	-9.81186
val	-9.81244
▁hist	-9.81244
high	-9.81264
uji	-9.81331
different	-9.81358
Domain	-9.81463
ected	-9.81478
▁retaine	-9.81557
▁building	-9.81595
ision	-9.81609
various	-9.81703
osi	-9.81718
▁star	-9.81741
▁chil	-9.81858
▁than	-9.81858
uding	-9.81873
ative	-9.81888
dr	-9.81903
▁lord	-9.81903
moto	-9.8192
rge	-9.81929
Ni	-9.81979
death	-9.81991
ets	-9.81991
general	-9.82011
ural	-9.82049
▁bui	-9.82061
ffe	-9.82079
ode	-9.82096
▁diff	-9.82182
▁himself	-9.82191
udi	-9.82203
▁relati	-9.82238
iest	-9.8225
include	-9.82259
ffer	-9.82285
▁rela	-9.82285
ert	-9.82459
▁describe	-9.82468
power	-9.82477
AWA	-9.82486
koku	-9.82509
gain	-9.82533
eated	-9.82536
hol	-9.82574
poi	-9.82574
▁variou	-9.82631
atte	-9.82687
▁appear	-9.82713
cludi	-9.82743
trans	-9.82773
▁ki	-9.82841
▁since	-9.82859
▁fac	-9.82864
▁Universit	-9.82876
▁tradition	-9.82876
ited	-9.82888
▁Yori	-9.82891
▁generation	-9.82891
Although	-9.82924
rest	-9.82936
▁retainer	-9.82948
ARA	-9.82983
nf	-9.83013
▁day	-9.83019
abou	-9.83043
resi	-9.83114
nsidere	-9.83191
sidered	-9.83212
▁const	-9.83215
▁theor	-9.8334
▁cen	-9.83388
▁die	-9.83424
inter	-9.83426
cce	-9.83537
vernor	-9.83555
dh	-9.83632
emperor	-9.8365
▁Cour	-9.8374
onst	-9.83758
▁sy	-9.8377
appear	-9.83806
▁Masa	-9.8383
ruct	-9.83842
cto	-9.83887
umi	-9.83932
FUJI	-9.8395
aster	-9.8395
thern	-9.83965
How	-9.83977
▁additi	-9.84028
fol	-9.84058
esti	-9.84082
erm	-9.84094
Thi	-9.84148
litera	-9.8422
nally	-9.84235
niversit	-9.84238
▁can	-9.8425
▁Yam	-9.84262
nl	-9.84328
▁ter	-9.84334
▁col	-9.8437
▁Hideyoshi	-9.844
ferred	-9.84491
Court	-9.84506
alace	-9.84581
acc	-9.84626
▁kno	-9.8466
rious	-9.84702
radition	-9.8472
fac	-9.84726
▁becom	-9.84726
University	-9.84853
erved	-9.84883
▁samurai	-9.84914
▁provinc	-9.84962
▁Do	-9.84971
dan	-9.84989
▁ceremony	-9.84998
stra	-9.85095
wher	-9.85108
▁han	-9.85144
pte	-9.85153
again	-9.85156
ema	-9.85171
post	-9.85229
▁tran	-9.85277
daugh	-9.85293
itar	-9.85302
sig	-9.85363
broth	-9.85414
arge	-9.85435
esiden	-9.85435
▁agai	-9.85521
▁war	-9.85533
▁hand	-9.85582
cas	-9.85591
▁residen	-9.85618
▁milit	-9.85655
▁up	-9.85682
hree	-9.85691
▁constru	-9.85716
rect	-9.8574
secon	-9.85749
IWAR	-9.85765
▁Palace	-9.85765
prin	-9.85789
cco	-9.85792
▁territor	-9.85792
cult	-9.85826
War	-9.85847
escri	-9.85902
roduce	-9.85911
▁two	-9.85972
▁refe	-9.85979
regio	-9.86101
gina	-9.86119
haract	-9.86132
aracte	-9.8615
racter	-9.86168
ris	-9.86178
arc	-9.86187
const	-9.86193
▁reside	-9.86236
ucce	-9.86242
ilita	-9.8627
▁conf	-9.8627
reco	-9.86291
▁give	-9.863
traditional	-9.86309
ghte	-9.86316
regi	-9.86316
▁FUJ	-9.86414
▁ou	-9.86417
▁develop	-9.86426
nji	-9.86435
mportan	-9.86451
shima	-9.86546
tran	-9.86574
uary	-9.86586
unc	-9.8662
rve	-9.86657
rther	-9.86669
generation	-9.86685
▁baku	-9.86777
national	-9.8682
nclude	-9.86851
sider	-9.86901
▁side	-9.86916
ntai	-9.86944
▁mean	-9.86947
▁hig	-9.87043
▁battle	-9.87077
nstr	-9.87092
hon	-9.87129
ike	-9.87148
ttl	-9.87157
dere	-9.87179
▁sup	-9.87253
mach	-9.87278
while	-9.87442
▁Ten	-9.87464
onsid	-9.87535
herefor	-9.87554
erefore	-9.87576
ete	-9.87632
uth	-9.87641
▁forme	-9.8765
tsun	-9.87663
assi	-9.8775
fath	-9.8775
▁servi	-9.87781
differ	-9.878
succ	-9.878
tura	-9.87825
thin	-9.8785
▁describ	-9.87862
▁grou	-9.87862
being	-9.87893
prie	-9.879
dministrat	-9.87925
▁young	-9.87931
▁daug	-9.8794
▁publi	-9.8795
▁Tai	-9.88062
ship	-9.88124
▁rep	-9.88149
tyle	-9.88237
ffere	-9.88253
special	-9.88253
nstruction	-9.88268
▁Muromachi	-9.88362
▁vari	-9.88362
JIWA	-9.88375
▁Kama	-9.88378
▁then	-9.88378
litar	-9.88393
contr	-9.88456
▁service	-9.88463
rothe	-9.88472
pea	-9.88531
▁September	-9.88582
ollect	-9.88626
ept	-9.88701
ger	-9.88748
building	-9.88764
Jun	-9.88767
fere	-9.88802
mpo	-9.88833
▁Yoshit	-9.88846
▁perf	-9.88896
Ku	-9.88934
attl	-9.88966
gion	-9.88991
feren	-9.89022
oni	-9.89089
▁car	-9.89092
provin	-9.89117
▁appea	-9.89117
▁dec	-9.89155
▁bein	-9.89164
teri	-9.89167
ann	-9.89183
oda	-9.89193
onstru	-9.89288
raditional	-9.89306
thre	-9.89332
augh	-9.8937
▁administrat	-9.89382
styl	-9.89395
▁base	-9.89401
makur	-9.89465
hor	-9.89468
Buddhism	-9.89522
erfor	-9.89528
itiona	-9.89534
Re	-9.89547
hile	-9.89573
amaku	-9.89592
ating	-9.89607
▁given	-9.8963
esign	-9.89639
rform	-9.89687
nsid	-9.8975
speci	-9.89782
mate	-9.89788
▁retain	-9.8982
▁prod	-9.8983
UJIW	-9.89839
aish	-9.89852
▁Hide	-9.90021
appo	-9.90043
roduced	-9.90065
success	-9.90065
charac	-9.90145
stati	-9.90148
statu	-9.90148
▁Naga	-9.90212
bou	-9.90231
dea	-9.90269
force	-9.90276
September	-9.90375
lowe	-9.90413
poli	-9.90439
eni	-9.90461
strat	-9.90499
▁theory	-9.90512
▁nation	-9.90535
icat	-9.90567
times	-9.90596
MINAMO	-9.90605
NAMOTO	-9.90605
ient	-9.90618
istory	-9.90644
ultural	-9.90647
grou	-9.90669
hild	-9.90669
rson	-9.90695
territor	-9.90746
hem	-9.90759
▁Meiji	-9.90759
exp	-9.90778
eath	-9.90875
▁yo	-9.90894
elo	-9.90952
ceremony	-9.90978
lthou	-9.90981
▁force	-9.9101
▁residence	-9.91029
On	-9.91042
shr	-9.91106
▁gro	-9.91132
membe	-9.91206
ccor	-9.91274
erally	-9.9128
uj	-9.91397
▁chara	-9.91397
AM	-9.91409
▁mother	-9.91413
▁ope	-9.91429
hinese	-9.91435
ifferent	-9.91442
erso	-9.91506
stri	-9.91506
rated	-9.91513
retainer	-9.91519
word	-9.91558
▁arm	-9.91558
Kamak	-9.91561
oji	-9.91561
event	-9.91642
▁politic	-9.91675
▁imperi	-9.91684
▁tw	-9.91697
ppoi	-9.91713
gre	-9.91717
▁Ke	-9.91717
efer	-9.91726
arious	-9.91746
operat	-9.91765
can	-9.91814
Hideyoshi	-9.91853
ried	-9.91869
iversity	-9.91882
▁domain	-9.91934
retaine	-9.9198
started	-9.9198
▁Minist	-9.9198
▁Osaka	-9.9198
administrat	-9.92005
▁acco	-9.92031
describe	-9.92038
samurai	-9.92048
As	-9.92103
▁Nob	-9.92103
▁become	-9.92116
against	-9.92139
▁number	-9.92139
start	-9.92145
kus	-9.92165
uka	-9.92175
▁title	-9.92214
▁succes	-9.9223
rep	-9.92262
then	-9.92298
▁supp	-9.92341
dministrati	-9.92364
chil	-9.92468
ncient	-9.92527
▁MINAM	-9.92585
Universit	-9.92615
eing	-9.92625
onl	-9.92664
resid	-9.92667
rthe	-9.92677
uil	-9.92733
kami	-9.92873
▁held	-9.92896
foun	-9.92913
nshi	-9.93031
tant	-9.93057
urre	-9.9307
ently	-9.93126
construction	-9.93136
kufu	-9.93136
▁inter	-9.93136
vent	-9.93149
Mu	-9.93156
perfo	-9.93159
hous	-9.93202
▁Accordi	-9.93268
etsu	-9.93281
▁Universi	-9.93294
struction	-9.93353
those	-9.93356
odu	-9.93363
iter	-9.93373
publi	-9.93373
onstruction	-9.93409
owin	-9.93412
tea	-9.93422
ryo	-9.93432
▁Nobunaga	-9.93472
iffere	-9.93492
etw	-9.93541
▁stud	-9.93571
try	-9.9362
▁Mas	-9.93624
minis	-9.93686
yst	-9.93749
olle	-9.93769
Junior	-9.93789
sist	-9.93809
itera	-9.93819
▁Line	-9.93868
fl	-9.93881
uga	-9.93888
▁countr	-9.93931
▁starte	-9.93931
curre	-9.93934
ek	-9.93934
ele	-9.93938
▁pol	-9.93981
lowin	-9.94001
portant	-9.94001
appea	-9.94034
▁j	-9.9404
▁styl	-9.9405
▁Hei	-9.9406
▁believe	-9.9406
▁hel	-9.941
▁administrati	-9.9412
script	-9.94167
amura	-9.942
ginal	-9.94233
hika	-9.94233
amurai	-9.94246
▁ear	-9.94246
house	-9.9425
ained	-9.94266
constr	-9.94266
cultur	-9.94266
AMOTO	-9.94299
Nobu	-9.94299
▁collect	-9.94299
uilding	-9.94303
rans	-9.94313
before	-9.94366
pecial	-9.94386
rito	-9.94432
visio	-9.94449
sm	-9.94486
iss	-9.94496
come	-9.94512
eal	-9.94556
▁Cas	-9.94566
appe	-9.94579
gai	-9.94586
literally	-9.94666
▁Heian	-9.94666
nivers	-9.94746
former	-9.94766
▁army	-9.94816
perat	-9.94866
oa	-9.95094
well	-9.951
cide	-9.95114
aroun	-9.95134
eneration	-9.95178
ork	-9.95228
▁Ran	-9.95275
Cast	-9.95288
▁February	-9.95329
▁early	-9.95349
▁January	-9.95369
gio	-9.95409
orth	-9.95409
fferen	-9.9549
himself	-9.95497
▁himsel	-9.95497
arly	-9.95544
mal	-9.95561
rk	-9.95578
▁adopted	-9.95584
wri	-9.95611
cle	-9.95621
sub	-9.95652
▁book	-9.95756
▁remain	-9.95756
Muromachi	-9.95844
▁Gen	-9.95868
SH	-9.95874
ular	-9.95908
▁these	-9.95976
chie	-9.95989
▁Me	-9.96016
inces	-9.96026
you	-9.96037
▁exist	-9.96057
▁control	-9.96124
ves	-9.96189
early	-9.96196
▁wel	-9.96233
rce	-9.9624
ago	-9.9629
remo	-9.96314
▁Ri	-9.96331
OTO	-9.96352
AK	-9.96396
liter	-9.96433
relati	-9.96443
ized	-9.96464
Gen	-9.96474
▁operat	-9.96491
▁traditional	-9.96504
ped	-9.96515
urr	-9.96566
▁inst	-9.96569
nds	-9.96627
▁return	-9.96634
racte	-9.96671
▁importan	-9.96698
kawa	-9.96763
▁memb	-9.96824
isa	-9.96831
▁cerem	-9.96852
ntro	-9.96968
▁important	-9.96995
suke	-9.97022
llowi	-9.97063
ncident	-9.97063
milit	-9.9708
lord	-9.97091
variou	-9.97097
▁dr	-9.97097
remon	-9.97115
TA	-9.97125
ndin	-9.97159
▁fat	-9.97159
▁dist	-9.97217
ultu	-9.97227
hogunate	-9.97269
iversit	-9.97279
lding	-9.97286
▁ancient	-9.97296
▁section	-9.97323
ude	-9.97334
elat	-9.97365
▁vario	-9.97365
ltur	-9.97378
▁territo	-9.97433
refor	-9.97457
ates	-9.97474
niversi	-9.97495
nting	-9.97509
develop	-9.97543
idered	-9.9757
mur	-9.97581
porta	-9.97594
February	-9.97598
akuf	-9.97639
▁historical	-9.97667
imperi	-9.97715
cie	-9.97756
▁provin	-9.9776
▁arou	-9.97766
rred	-9.97804
mea	-9.97828
▁constr	-9.97856
inat	-9.97859
others	-9.9788
▁though	-9.97928
stori	-9.97939
onstr	-9.97973
urren	-9.98059
hand	-9.98066
adition	-9.98073
▁Yor	-9.9808
▁add	-9.98108
▁statue	-9.98122
ollection	-9.98149
▁samura	-9.9817
nistr	-9.98198
▁ko	-9.98201
tera	-9.98218
iyo	-9.98222
administrati	-9.98232
according	-9.98242
cient	-9.98301
Tsu	-9.98315
rela	-9.98329
ailway	-9.98336
▁December	-9.98336
kat	-9.98357
▁Pa	-9.98378
ministrat	-9.98398
▁whil	-9.98405
eremony	-9.98412
▁Af	-9.9845
vo	-9.98454
▁Doma	-9.98457
▁sin	-9.98495
Minis	-9.98561
▁resid	-9.98565
clude	-9.98596
lli	-9.98596
nch	-9.98596
sidere	-9.98606
▁gi	-9.98617
▁-	-9.98648
▁histori	-9.98648
January	-9.98655
additi	-9.98669
ying	-9.9869
essi	-9.98731
▁design	-9.98801
▁Nag	-9.98815
ities	-9.98822
residence	-9.98836
▁Muromach	-9.98867
▁emp	-9.98954
describ	-9.98996
ention	-9.99003
outh	-9.99038
empero	-9.99045
kok	-9.99076
December	-9.99093
sted	-9.99191
etaine	-9.99254
iva	-9.99254
oh	-9.99254
ali	-9.99306
itu	-9.99306
▁addit	-9.99422
nob	-9.99443
star	-9.99485
▁cer	-9.99555
estival	-9.99558
▁based	-9.9959
esid	-9.99597
▁De	-9.99611
dditi	-9.99625
oshin	-9.99625
ein	-9.99632
ritt	-9.99639
aru	-9.99695
▁dire	-9.9973
more	-9.99751
crea	-9.99779
▁fu	-9.99821
▁giv	-9.99835
aditional	-9.99843
Osaka	-9.99853
urn	-9.99906
▁TOKUGAWA	-9.99906
istorical	-9.99937
▁pow	-9.99976
since	-10.0001
service	-10.0007
Palace	-10.001
▁Li	-10.0012
▁too	-10.0015
car	-10.0025
▁relationship	-10.0026
nger	-10.0029
adi	-10.0035
cur	-10.004
kn	-10.0048
rta	-10.0049
▁mem	-10.005
hie	-10.0051
theor	-10.0052
ctor	-10.0053
ecte	-10.0055
rved	-10.0055
▁complet	-10.0058
etainer	-10.0059
imo	-10.006
amak	-10.0061
▁Kin	-10.0063
Minister	-10.0064
ancient	-10.0069
▁feudal	-10.0074
rally	-10.0075
▁earl	-10.0077
▁sen	-10.0078
escribe	-10.0082
▁School	-10.0082
Yoshit	-10.0084
▁ol	-10.0089
▁record	-10.0094
MA	-10.0095
MOTO	-10.0095
Ra	-10.0104
sea	-10.0105
▁theo	-10.0107
hrou	-10.0111
servi	-10.0111
▁promot	-10.0114
▁Ge	-10.0115
egio	-10.0115
▁15	-10.0116
cien	-10.0118
bui	-10.0121
▁rice	-10.0123
nar	-10.0128
▁em	-10.0129
ider	-10.0131
battle	-10.0133
orit	-10.0134
▁residenc	-10.0137
ppear	-10.0145
Nobunaga	-10.0147
trat	-10.0148
tered	-10.015
▁construction	-10.015
NA	-10.0151
▁support	-10.0152
oshim	-10.0154
acter	-10.0159
rop	-10.0161
ually	-10.0163
▁generati	-10.0163
mporta	-10.0167
col	-10.0172
▁servic	-10.0172
mpor	-10.0174
ivers	-10.0175
section	-10.0177
ernor	-10.0177
▁succeed	-10.0178
utsu	-10.0181
ministrati	-10.0182
collect	-10.0184
sis	-10.0186
portan	-10.0187
▁group	-10.0187
▁she	-10.0187
▁historic	-10.0189
arg	-10.019
▁shr	-10.0194
mother	-10.0199
▁spe	-10.0199
▁poe	-10.0201
▁ov	-10.0207
ollecti	-10.0209
▁Chine	-10.021
▁October	-10.0212
▁relation	-10.0215
▁stor	-10.0215
eptember	-10.0215
▁battl	-10.0217
formed	-10.0219
wel	-10.0219
important	-10.0221
▁emper	-10.0223
oko	-10.0224
shit	-10.0228
etai	-10.023
equ	-10.0233
▁belie	-10.0234
gro	-10.0236
▁November	-10.0237
usin	-10.0238
erred	-10.0242
retain	-10.0243
title	-10.0243
▁came	-10.0243
gar	-10.0248
arte	-10.0248
▁according	-10.0251
becom	-10.0254
▁political	-10.0254
▁complete	-10.026
baku	-10.0264
ban	-10.0264
erritor	-10.0265
ecord	-10.0265
unior	-10.0267
agai	-10.0269
▁Shogun	-10.027
isti	-10.027
ompa	-10.027
ferre	-10.027
ords	-10.0273
enta	-10.0277
ays	-10.0278
uddhism	-10.028
uccess	-10.0282
▁play	-10.0285
acte	-10.0286
Rank	-10.0287
rice	-10.0289
▁governor	-10.0289
uts	-10.029
▁Nar	-10.0292
▁rem	-10.0293
refore	-10.0295
▁National	-10.0296
erefor	-10.0297
mori	-10.0299
lection	-10.03
▁FU	-10.0301
Tai	-10.0302
politic	-10.0303
irec	-10.0305
Ed	-10.0306
hter	-10.0308
▁new	-10.0311
lita	-10.0312
ountain	-10.0321
▁lor	-10.0321
▁retai	-10.0325
nated	-10.0327
▁pas	-10.0328
ession	-10.0334
than	-10.0335
Sen	-10.0337
like	-10.0338
siden	-10.0339
Yori	-10.034
IWA	-10.0343
▁Univers	-10.0343
udin	-10.0344
National	-10.0346
▁generat	-10.0346
rol	-10.0353
Masa	-10.0353
diff	-10.0356
iat	-10.0356
ontr	-10.0356
peci	-10.0356
ideyoshi	-10.036
▁enter	-10.036
ntly	-10.0362
importan	-10.0366
ativ	-10.0367
ado	-10.0368
Yam	-10.0369
historical	-10.037
▁sub	-10.0372
compa	-10.0372
▁Ba	-10.0373
young	-10.0374
nstructi	-10.0375
▁mili	-10.0376
scribe	-10.038
isio	-10.0382
acco	-10.0387
llect	-10.0387
versi	-10.0387
constructi	-10.0389
Accordi	-10.0392
▁kn	-10.0395
atur	-10.0397
territo	-10.0397
hre	-10.0397
aint	-10.04
Cour	-10.0404
▁mor	-10.0406
▁compl	-10.0411
harac	-10.0414
oduce	-10.0414
▁house	-10.0417
iffer	-10.0418
hel	-10.0418
▁ru	-10.0418
ken	-10.0423
base	-10.0423
▁nat	-10.0423
tainer	-10.0424
deat	-10.0426
Universi	-10.0428
mag	-10.043
aract	-10.0433
arl	-10.0433
sys	-10.0433
ecor	-10.0433
▁Railway	-10.0433
▁receive	-10.0433
▁changed	-10.0436
▁dif	-10.0448
las	-10.045
▁end	-10.0454
▁comple	-10.0456
▁appe	-10.0458
ouncil	-10.0464
▁described	-10.0466
theory	-10.047
take	-10.0472
given	-10.0473
fferent	-10.0474
powe	-10.0478
number	-10.0479
self	-10.0481
ife	-10.0481
play	-10.0484
rib	-10.0484
eren	-10.0487
ludi	-10.0491
stern	-10.0492
orce	-10.0492
versity	-10.0492
domain	-10.0499
▁aga	-10.05
mis	-10.05
▁politi	-10.05
Ten	-10.0507
rtic	-10.0507
▁like	-10.0508
governor	-10.051
iterally	-10.051
truction	-10.0513
▁century	-10.0513
oro	-10.0514
artic	-10.0516
▁former	-10.0516
gainst	-10.0517
▁would	-10.0519
November	-10.0522
evelop	-10.0526
eyoshi	-10.053
▁imper	-10.053
▁believ	-10.0531
▁receiv	-10.0531
give	-10.0534
▁contro	-10.0534
succes	-10.0535
two	-10.0535
▁command	-10.054
▁more	-10.054
cident	-10.0541
erf	-10.0544
tical	-10.0545
oduced	-10.0548
▁forc	-10.0551
istoric	-10.0552
ervi	-10.0553
▁bak	-10.0553
▁clo	-10.0559
prod	-10.0562
WAR	-10.0563
▁mil	-10.0567
ifi	-10.057
istori	-10.0577
▁together	-10.0577
mean	-10.0579
tatu	-10.0585
▁without	-10.0585
emper	-10.0588
conf	-10.0589
hines	-10.0592
▁natio	-10.0593
samura	-10.0595
mpress	-10.0597
▁administ	-10.0601
▁performe	-10.0601
ultura	-10.0602
▁prin	-10.0603
▁rece	-10.0603
curren	-10.0604
ltural	-10.0606
earl	-10.0608
mini	-10.0608
Meiji	-10.0611
▁mountain	-10.0611
ccess	-10.0613
▁youn	-10.0614
alac	-10.0619
hern	-10.062
neration	-10.062
oshit	-10.0626
roth	-10.0626
▁tre	-10.0629
ngo	-10.0633
onstructi	-10.0634
hese	-10.0641
nall	-10.0641
tere	-10.0643
believe	-10.0644
▁families	-10.0644
▁shi	-10.0644
onc	-10.0647
Naga	-10.0649
▁attac	-10.0651
▁Accord	-10.0652
ward	-10.0653
▁cam	-10.0653
forma	-10.0654
Shr	-10.0655
stu	-10.066
▁seve	-10.0665
nit	-10.0666
esidence	-10.0668
▁import	-10.067
rma	-10.0671
lla	-10.0673
changed	-10.0678
control	-10.0681
Heian	-10.0682
▁Tan	-10.0682
tarted	-10.0683
ollec	-10.0684
MI	-10.0684
reta	-10.0685
Kama	-10.0687
hiki	-10.069
▁suppo	-10.069
adopted	-10.0691
▁see	-10.0693
nne	-10.0693
ubli	-10.0694
▁adopt	-10.0694
riou	-10.07
▁succeeded	-10.0705
▁promoted	-10.0709
▁result	-10.071
imes	-10.0711
▁land	-10.0716
erall	-10.0718
pol	-10.0718
inci	-10.0718
maku	-10.0718
ervice	-10.0719
starte	-10.0719
▁relations	-10.072
ruc	-10.0721
ormer	-10.0725
ucti	-10.0726
become	-10.0728
aya	-10.0731
countr	-10.0733
ctiv	-10.0735
generati	-10.0735
▁Minis	-10.0735
▁conc	-10.0737
ery	-10.0737
chin	-10.0744
▁Ts	-10.0746
▁var	-10.0747
October	-10.0749
uromachi	-10.075
UJI	-10.0751
mac	-10.0751
▁age	-10.0755
ext	-10.0755
daug	-10.0756
Muromach	-10.0759
▁collec	-10.0763
let	-10.0767
▁princ	-10.0769
hira	-10.0771
len	-10.0778
ecom	-10.0782
▁Tokyo	-10.0785
▁Osak	-10.079
▁common	-10.0805
relationship	-10.0808
▁Hid	-10.0808
MINAM	-10.0809
▁down	-10.0811
▁importa	-10.082
chara	-10.0821
▁class	-10.0822
istrat	-10.0824
lay	-10.0824
▁coll	-10.0826
histori	-10.0829
az	-10.0833
▁build	-10.0833
▁promote	-10.0835
lig	-10.0841
duct	-10.0842
mountain	-10.0845
lations	-10.0848
wr	-10.0853
▁pass	-10.0853
▁stu	-10.0855
▁example	-10.086
iversi	-10.0863
cerem	-10.0865
curr	-10.0866
ompan	-10.0866
▁Kore	-10.0866
▁sid	-10.0868
sy	-10.0868
perf	-10.0875
INAMO	-10.0876
▁back	-10.0876
▁Ji	-10.0879
▁adopte	-10.088
▁history	-10.0881
mport	-10.0882
opera	-10.0882
ape	-10.0883
forc	-10.0885
▁Meij	-10.0891
Hei	-10.0892
epar	-10.0894
▁cultur	-10.0894
book	-10.0895
▁tea	-10.0895
▁addi	-10.0901
ala	-10.0902
▁local	-10.0902
vari	-10.0905
feudal	-10.0907
til	-10.0907
mount	-10.0909
eiji	-10.0911
thers	-10.0913
ssed	-10.0923
Hide	-10.0925
whil	-10.0926
ensh	-10.0937
mem	-10.0939
ortant	-10.0939
▁MINA	-10.094
hoguna	-10.0946
hers	-10.0948
▁sou	-10.0952
get	-10.0957
design	-10.0958
ilding	-10.096
residenc	-10.0962
complet	-10.0967
inese	-10.0967
remain	-10.0967
▁Tada	-10.0971
dec	-10.0972
support	-10.0972
too	-10.0973
nth	-10.0975
historic	-10.0977
based	-10.0984
riginally	-10.0985
atin	-10.0985
Chine	-10.0986
complete	-10.0987
escrib	-10.0988
supp	-10.0988
llection	-10.099
▁Nara	-10.099
rei	-10.0992
rly	-10.0993
▁large	-10.0995
ariou	-10.0996
▁mak	-10.0996
▁dau	-10.0999
hip	-10.1
sup	-10.1009
▁howe	-10.1009
▁national	-10.1013
▁Hideyo	-10.1016
inistrat	-10.1018
bein	-10.1019
elati	-10.1023
▁speci	-10.1023
ks	-10.1026
▁how	-10.1027
los	-10.1028
compl	-10.1029
▁ASHIKAGA	-10.103
▁province	-10.103
xpress	-10.1037
tua	-10.1041
orma	-10.1043
▁titl	-10.1043
amu	-10.1045
▁four	-10.1047
ige	-10.1051
▁introduc	-10.1051
fat	-10.1055
oge	-10.1057
▁believed	-10.1058
structi	-10.1059
▁Muromac	-10.1061
ogunate	-10.1062
▁lan	-10.1063
political	-10.1069
ida	-10.107
generat	-10.107
▁capital	-10.1071
orta	-10.1072
nno	-10.1074
ncien	-10.1074
▁constructi	-10.1074
imself	-10.1077
exist	-10.108
local	-10.108
▁mu	-10.1083
return	-10.1084
himsel	-10.1086
▁prom	-10.1088
▁opera	-10.1089
ebruary	-10.1092
ument	-10.1094
continu	-10.1095
scription	-10.1101
▁took	-10.1103
riv	-10.1104
gs	-10.1112
▁temples	-10.1118
urth	-10.1123
TOKUGAWA	-10.1124
ism	-10.1124
ela	-10.1125
atter	-10.1129
cript	-10.1129
amat	-10.1131
▁bei	-10.1131
▁continu	-10.1134
onf	-10.1136
esig	-10.1138
▁each	-10.1147
oration	-10.1147
▁influen	-10.1149
enj	-10.115
erfo	-10.1156
tart	-10.1156
nciden	-10.1167
storical	-10.1172
stud	-10.1172
rece	-10.1173
dire	-10.1175
▁another	-10.1178
▁castle	-10.1178
statue	-10.1179
▁tak	-10.1179
aug	-10.1181
bor	-10.1182
rfor	-10.1184
▁originally	-10.1187
▁thou	-10.1188
ranc	-10.1199
administ	-10.1206
inally	-10.121
ounc	-10.121
ctive	-10.1212
described	-10.1214
orat	-10.1216
ltho	-10.1218
▁mat	-10.1218
eb	-10.1218
these	-10.1226
▁parti	-10.1229
▁designated	-10.123
Ca	-10.1231
pose	-10.1232
▁thes	-10.1232
inistrati	-10.1236
murai	-10.1236
versit	-10.1236
scrip	-10.1238
ecember	-10.1245
▁could	-10.1245
bus	-10.1248
tree	-10.1254
FUJ	-10.1255
held	-10.1261
eed	-10.1261
ecial	-10.1262
pear	-10.1267
rmer	-10.1269
▁cere	-10.127
▁bi	-10.1273
etain	-10.1274
▁disc	-10.1276
record	-10.1277
entl	-10.1283
relation	-10.1283
memb	-10.1285
ontrol	-10.1286
▁Heia	-10.1288
niver	-10.129
dom	-10.1292
miya	-10.1294
▁noble	-10.1303
tric	-10.1305
▁atta	-10.1306
ferr	-10.1312
kush	-10.1313
duced	-10.1314
▁trad	-10.132
dminist	-10.132
ministr	-10.1329
▁boo	-10.133
fact	-10.1331
▁Kor	-10.1334
current	-10.134
GA	-10.1343
▁received	-10.1344
read	-10.1349
▁20	-10.1356
▁centur	-10.1357
▁Sen	-10.1358
▁long	-10.136
liti	-10.1363
arted	-10.1366
▁built	-10.1371
▁aro	-10.1375
▁members	-10.1376
▁unknown	-10.1379
ury	-10.138
▁influence	-10.138
remony	-10.1383
lecti	-10.1386
sug	-10.1388
Shogun	-10.139
nged	-10.1397
tomo	-10.1397
tud	-10.1398
▁calendar	-10.1398
scen	-10.1399
ssa	-10.14
anuary	-10.1402
ung	-10.1402
AR	-10.1405
ucc	-10.1408
moun	-10.1409
thes	-10.141
mpa	-10.1412
command	-10.1416
imper	-10.1417
▁desig	-10.1419
▁When	-10.1421
▁art	-10.1422
▁descend	-10.1422
▁produce	-10.1422
▁exis	-10.1425
▁Shog	-10.1427
Mas	-10.143
pted	-10.1433
olitic	-10.1434
tsuk	-10.1435
evel	-10.1443
reate	-10.1445
▁move	-10.1451
eth	-10.1457
duce	-10.1457
umber	-10.1463
vario	-10.1466
▁Mei	-10.1466
lite	-10.1467
▁Lin	-10.1469
howe	-10.1472
dist	-10.1479
obunaga	-10.1482
succeed	-10.1482
▁sur	-10.1488
ufu	-10.1489
hte	-10.149
▁paint	-10.149
common	-10.1492
▁Shig	-10.1494
estiva	-10.1495
hok	-10.1496
stival	-10.1497
▁batt	-10.1498
▁performed	-10.1498
ication	-10.1499
pera	-10.15
▁fl	-10.15
ink	-10.1513
ldi	-10.1513
thos	-10.1521
hal	-10.1523
elationship	-10.1524
▁exi	-10.1524
ended	-10.1525
idence	-10.1527
amur	-10.1536
School	-10.1539
servic	-10.1539
tyl	-10.1545
▁ric	-10.1546
rade	-10.1547
rall	-10.1549
chief	-10.1549
ptember	-10.1551
class	-10.1551
designated	-10.1556
xp	-10.1559
ppea	-10.1564
▁hal	-10.1564
Line	-10.1569
▁April	-10.1569
lowi	-10.157
idere	-10.1574
▁practic	-10.1575
nom	-10.1577
cap	-10.1579
▁exc	-10.1582
scrib	-10.1582
roduct	-10.1589
ges	-10.159
Univers	-10.1591
▁Al	-10.1591
▁great	-10.1591
comple	-10.1593
promot	-10.1593
families	-10.1595
▁younger	-10.1595
▁among	-10.1596
▁colle	-10.1598
aking	-10.1599
▁regard	-10.16
▁feuda	-10.1601
together	-10.1602
ature	-10.1605
▁attack	-10.1605
▁others	-10.1608
▁document	-10.1612
▁sty	-10.1615
▁impo	-10.1617
ugu	-10.1618
hiro	-10.162
pon	-10.1621
vice	-10.1622
▁Nobuna	-10.1623
▁fact	-10.1624
yle	-10.1624
boo	-10.1626
▁founde	-10.1626
▁mov	-10.1627
eki	-10.1629
arou	-10.163
province	-10.1631
scribed	-10.1634
▁should	-10.164
ining	-10.1642
army	-10.1648
▁promo	-10.1653
dic	-10.1656
ilway	-10.1657
hine	-10.1658
ieve	-10.1658
AMOT	-10.166
Ge	-10.1664
▁children	-10.1664
uda	-10.1666
▁March	-10.1666
turn	-10.1668
▁Univer	-10.1669
▁Therefore	-10.1671
importa	-10.1675
deyoshi	-10.1678
orthern	-10.1681
hige	-10.1683
okyo	-10.1685
addit	-10.1688
▁polit	-10.1688
Railway	-10.1693
performe	-10.1695
rned	-10.1695
entio	-10.1696
ett	-10.1698
ption	-10.1698
▁Mitsu	-10.1703
ering	-10.1705
JIW	-10.1709
akin	-10.1711
▁ind	-10.1713
gy	-10.1714
ontinu	-10.1716
▁liv	-10.1716
▁hous	-10.1719
ief	-10.1721
rmed	-10.1721
collec	-10.1723
ntion	-10.1723
▁painting	-10.1724
▁16	-10.1727
group	-10.1728
eason	-10.173
ommand	-10.1731
receive	-10.1731
great	-10.1732
relations	-10.1732
Nob	-10.1733
upp	-10.1733
succeeded	-10.1736
terally	-10.1745
llecti	-10.1746
ures	-10.1758
import	-10.1763
iwa	-10.1763
without	-10.1772
▁rema	-10.1774
▁adminis	-10.1775
cid	-10.1777
elieve	-10.1783
▁accord	-10.1783
▁descendant	-10.1784
ainst	-10.1784
continue	-10.1785
osa	-10.1787
▁Shogu	-10.1791
hief	-10.1792
errito	-10.1794
ferent	-10.1796
▁Jun	-10.1797
contro	-10.1804
rritor	-10.1804
century	-10.1807
compan	-10.1809
Tokyo	-10.1812
▁Dom	-10.1821
ddhism	-10.1821
ization	-10.1822
izu	-10.1824
▁vassal	-10.1825
▁spec	-10.1831
iation	-10.1834
▁designat	-10.1834
escribed	-10.1839
15	-10.1842
politi	-10.1842
▁dep	-10.1843
ruction	-10.1845
enerati	-10.1848
ues	-10.1849
omplete	-10.1851
▁tradit	-10.1851
rso	-10.1852
▁designate	-10.1852
promoted	-10.1853
▁August	-10.1854
▁thought	-10.1856
untain	-10.1857
literal	-10.1857
ovember	-10.1857
esp	-10.1861
retai	-10.1865
heory	-10.1869
▁contin	-10.1869
Kin	-10.1871
▁MI	-10.1871
live	-10.1875
sts	-10.1875
▁transfer	-10.1876
add	-10.1877
eight	-10.1877
heor	-10.1878
masa	-10.1878
ival	-10.188
myo	-10.1881
ubl	-10.1882
mples	-10.1884
▁left	-10.1884
Do	-10.1889
originally	-10.189
temples	-10.189
olo	-10.1898
▁Ar	-10.1898
belie	-10.1901
esidenc	-10.1905
ples	-10.1905
Mini	-10.191
eet	-10.191
easure	-10.1913
iven	-10.1914
▁Pala	-10.1918
▁bus	-10.1919
olitical	-10.1921
▁popula	-10.1923
Accord	-10.1923
anci	-10.1924
battl	-10.1924
▁live	-10.1924
yak	-10.1926
▁recei	-10.1928
▁Yoshin	-10.1932
unio	-10.1933
refo	-10.1936
believ	-10.1939
built	-10.1941
jinja	-10.1943
este	-10.1946
Juni	-10.1953
▁gran	-10.1956
urrent	-10.1957
rvi	-10.1958
tradit	-10.1959
rren	-10.1963
term	-10.1963
lude	-10.1965
uce	-10.1966
iyama	-10.1967
cter	-10.197
history	-10.1974
dep	-10.1977
Osak	-10.1984
enji	-10.1984
esse	-10.1987
sidence	-10.1989
ormed	-10.1999
receiv	-10.2
itor	-10.2003
another	-10.2004
ortan	-10.2008
▁reta	-10.2008
▁commo	-10.2011
ersi	-10.2012
▁dir	-10.2013
reign	-10.2016
tok	-10.2017
▁nati	-10.2023
ngu	-10.2026
inj	-10.2029
ersity	-10.2031
omplet	-10.2031
▁sea	-10.2034
attac	-10.2036
lity	-10.2036
▁Februa	-10.2043
▁beg	-10.2044
▁empe	-10.2044
▁wife	-10.2044
move	-10.2046
build	-10.2049
princ	-10.2049
fin	-10.2051
Doma	-10.2051
romachi	-10.2052
▁partic	-10.2052
▁continue	-10.2053
▁beli	-10.2055
suppo	-10.2059
new	-10.2062
▁desi	-10.2068
▁dom	-10.2068
ngi	-10.2073
erem	-10.2075
signed	-10.2075
example	-10.2076
bak	-10.2082
uromach	-10.2082
lway	-10.2086
ucces	-10.209
Muromac	-10.2091
contin	-10.2094
ful	-10.2094
storic	-10.2094
▁Ro	-10.2095
accord	-10.2096
trad	-10.21
itie	-10.2101
tsur	-10.2103
ounci	-10.2105
hanged	-10.2107
introduc	-10.2107
pass	-10.2107
seve	-10.2108
heref	-10.2109
ontinue	-10.211
romot	-10.2111
▁am	-10.2114
▁Yoshim	-10.2119
Nag	-10.212
ounde	-10.212
▁impe	-10.212
asse	-10.2122
▁often	-10.2122
▁collecti	-10.2124
tatue	-10.2124
clo	-10.2128
ouncilor	-10.2128
dopted	-10.213
promote	-10.2131
elation	-10.2134
▁originall	-10.2135
▁Shu	-10.2138
▁description	-10.2138
▁thir	-10.214
back	-10.2141
sso	-10.2145
large	-10.2148
▁11	-10.215
conc	-10.2154
sting	-10.2155
four	-10.2155
▁take	-10.2157
▁Fo	-10.2158
riginall	-10.2159
nother	-10.2162
▁ente	-10.2162
iginally	-10.2162
owi	-10.2167
▁Buddha	-10.2168
Ke	-10.2169
ming	-10.2171
▁times	-10.2175
fie	-10.2177
atta	-10.2182
JI	-10.2183
believed	-10.2187
ainer	-10.2188
kuf	-10.2188
ants	-10.2189
velop	-10.219
ASHIKAGA	-10.219
ddit	-10.219
operation	-10.219
▁Accor	-10.219
ountr	-10.2192
▁exampl	-10.2192
gon	-10.2196
cribe	-10.2197
itle	-10.2197
▁product	-10.2197
och	-10.2198
▁famili	-10.2198
rinces	-10.2204
▁ASHIKAG	-10.2204
▁pra	-10.2204
esignated	-10.2206
▁Empress	-10.2208
omot	-10.221
theo	-10.221
very	-10.2211
▁compa	-10.2211
dat	-10.2214
gyo	-10.2214
sol	-10.2214
capital	-10.2217
tual	-10.2219
adopte	-10.2219
▁10	-10.2221
▁Hidey	-10.2222
erno	-10.2224
sinc	-10.2224
Ran	-10.2226
oya	-10.2226
▁inf	-10.2229
▁popular	-10.2229
lass	-10.2233
result	-10.2233
▁visit	-10.2235
gak	-10.2239
▁amo	-10.224
most	-10.2245
Hideyo	-10.2251
produce	-10.2254
children	-10.2257
omachi	-10.2259
▁Shinto	-10.226
upport	-10.2264
zed	-10.2266
▁Mar	-10.2266
amoto	-10.2267
spect	-10.2271
row	-10.2272
cription	-10.2275
ocal	-10.2275
dence	-10.2278
rne	-10.2279
▁China	-10.228
▁represent	-10.228
xt	-10.2285
pas	-10.2286
sune	-10.2286
▁express	-10.2286
ciden	-10.2287
uncil	-10.2287
▁Period	-10.2288
AW	-10.2291
ctober	-10.2291
outhern	-10.2291
designate	-10.2293
gains	-10.2293
ole	-10.2293
oliti	-10.2296
oung	-10.2296
itic	-10.23
Cas	-10.23
stand	-10.23
▁clas	-10.23
▁Os	-10.2301
▁Yoritomo	-10.2301
document	-10.2303
▁younge	-10.2303
▁Osa	-10.2307
accordi	-10.2309
strict	-10.2309
gran	-10.231
rev	-10.2311
Nara	-10.2314
adopt	-10.232
domai	-10.232
▁descen	-10.2322
enerat	-10.2328
ropert	-10.2328
would	-10.2329
inting	-10.2331
elf	-10.2335
cip	-10.2336
ness	-10.2337
Nar	-10.234
orn	-10.2345
▁Mini	-10.2347
▁material	-10.2349
inistra	-10.235
urai	-10.2351
ASHI	-10.2353
nistrat	-10.2353
painting	-10.2353
radi	-10.2357
▁tradi	-10.2357
anged	-10.236
erre	-10.236
▁capita	-10.2369
kushi	-10.2369
▁influenc	-10.2369
lth	-10.2373
▁practi	-10.2378
tica	-10.238
ande	-10.2383
lf	-10.2383
uall	-10.2383
▁Muroma	-10.2384
▁mar	-10.2385
uf	-10.2387
▁terri	-10.2387
▁Ward	-10.2391
reated	-10.2392
Tan	-10.2395
castle	-10.2398
▁included	-10.2398
odo	-10.2399
ii	-10.2399
▁Korea	-10.24
rnor	-10.2401
influence	-10.2402
▁cult	-10.2403
easur	-10.2407
rse	-10.2408
organiz	-10.2409
influen	-10.2412
bun	-10.2414
nistrati	-10.2414
samur	-10.2416
illage	-10.2416
youn	-10.2417
mpres	-10.2418
iev	-10.242
designat	-10.2421
▁Septem	-10.2422
hird	-10.2423
▁doma	-10.2423
Yor	-10.2424
ltura	-10.2425
kk	-10.2425
illa	-10.2426
▁dai	-10.2426
parti	-10.2429
emain	-10.2432
eigh	-10.2437
emples	-10.2438
commo	-10.2438
isho	-10.2442
see	-10.2446
torical	-10.245
▁TA	-10.2451
giv	-10.2453
OKUGAWA	-10.2453
▁cap	-10.2453
▁accordi	-10.2457
▁gre	-10.246
▁sha	-10.246
aim	-10.2462
rincess	-10.2463
epa	-10.2465
tradi	-10.2465
calendar	-10.2468
eij	-10.2468
titl	-10.2468
▁developed	-10.2468
ired	-10.2471
performed	-10.2474
ched	-10.2477
lationship	-10.2477
coll	-10.248
▁met	-10.248
anu	-10.2484
arde	-10.2486
tarte	-10.2486
down	-10.2487
pow	-10.2488
▁performance	-10.2489
roduction	-10.2491
▁Nation	-10.2491
▁moth	-10.2492
▁characters	-10.2493
▁enshrine	-10.2495
received	-10.2497
lde	-10.2499
orc	-10.25
▁TOKUGA	-10.2501
ochi	-10.2504
▁above	-10.2506
tel	-10.2508
stitut	-10.2511
▁adop	-10.2513
ovem	-10.2515
romoted	-10.2523
August	-10.253
ervic	-10.2533
ecome	-10.2535
▁Minister	-10.2535
▁Toky	-10.2535
adminis	-10.2539
descend	-10.2539
rvice	-10.2542
kaw	-10.255
bei	-10.2553
polit	-10.2554
esignat	-10.2554
ota	-10.2554
Kore	-10.2556
public	-10.2557
yin	-10.2559
ether	-10.2565
nomi	-10.2565
descendant	-10.2567
istra	-10.2569
members	-10.257
msel	-10.2573
▁numb	-10.2576
rim	-10.2578
uti	-10.2578
roo	-10.258
ssu	-10.2583
gunate	-10.2585
iri	-10.2585
oble	-10.2585
collecti	-10.2587
gashi	-10.2592
arac	-10.2598
ltu	-10.26
trea	-10.26
tructi	-10.2601
stin	-10.2602
ogether	-10.2606
llec	-10.2607
▁inv	-10.2615
unknown	-10.2615
epresent	-10.2616
▁right	-10.2617
OT	-10.262
asi	-10.2623
ecia	-10.2624
lower	-10.2624
amilies	-10.2625
▁hou	-10.2626
iffe	-10.2627
▁tow	-10.2627
eudal	-10.2629
bruary	-10.2631
poe	-10.2632
Februa	-10.2634
rak	-10.2637
erforme	-10.2638
apital	-10.2639
▁bat	-10.264
gaku	-10.2653
rning	-10.2654
tac	-10.2656
inin	-10.2657
uen	-10.2657
Therefore	-10.2659
sou	-10.2659
amon	-10.266
elations	-10.2664
▁Higashi	-10.2668
ided	-10.267
ntl	-10.2672
liv	-10.2674
ontro	-10.2675
cere	-10.2677
shiki	-10.2677
April	-10.2679
attack	-10.2683
oratio	-10.2683
hron	-10.2684
March	-10.2686
transfer	-10.269
orati	-10.2691
▁bac	-10.2692
▁creat	-10.2695
▁lik	-10.2695
dif	-10.2699
eian	-10.2699
ncie	-10.2699
▁Nor	-10.2703
▁Tokugawa	-10.2708
▁unknow	-10.2712
nan	-10.2712
rmy	-10.2712
feuda	-10.2716
operati	-10.2718
mov	-10.2719
vic	-10.2721
iff	-10.2722
▁Gr	-10.2724
▁birth	-10.2725
once	-10.2727
strati	-10.2728
oke	-10.2731
younger	-10.2731
colle	-10.2732
rope	-10.2736
▁therefore	-10.2737
▁200	-10.2738
dy	-10.2739
▁dow	-10.2742
▁transferred	-10.2747
practic	-10.275
▁sometimes	-10.2751
roup	-10.2755
▁dev	-10.2756
rtant	-10.2758
obe	-10.2758
sce	-10.2761
oguna	-10.2762
eturn	-10.2765
Shinto	-10.2767
ontinued	-10.2775
▁introduced	-10.2775
▁Shim	-10.2776
desig	-10.2779
cept	-10.2781
▁Mur	-10.2781
Nobuna	-10.2783
cember	-10.2786
empe	-10.2786
estern	-10.2786
ontin	-10.2788
remai	-10.2788
sure	-10.279
umo	-10.2792
founde	-10.2795
▁public	-10.2799
▁pub	-10.2799
ibu	-10.2804
ncide	-10.2807
MOT	-10.2809
mand	-10.2809
▁introduce	-10.2811
nstitut	-10.2815
aving	-10.2816
paint	-10.2816
oss	-10.282
peration	-10.282
umen	-10.2823
continued	-10.283
cces	-10.2831
ucceeded	-10.2831
Meij	-10.2833
▁Mor	-10.2833
▁pai	-10.2833
▁childre	-10.2835
KU	-10.2836
oup	-10.2839
▁territory	-10.2839
gas	-10.2841
description	-10.2842
▁Hon	-10.2844
nic	-10.2845
constructed	-10.2847
▁Battle	-10.2851
assa	-10.2853
eceive	-10.2853
centur	-10.2856
shir	-10.2857
xpres	-10.2858
dminis	-10.2859
ompl	-10.2861
prom	-10.2861
express	-10.2861
pai	-10.2867
MINA	-10.287
oga	-10.2874
▁term	-10.2877
istrati	-10.2878
rand	-10.2878
noble	-10.2879
product	-10.2881
addi	-10.2883
▁establishment	-10.2884
▁returned	-10.2884
▁Wh	-10.2886
ainting	-10.2888
ario	-10.2891
ntra	-10.2891
▁acti	-10.2893
▁koku	-10.2893
▁sev	-10.2895
bat	-10.2896
imsel	-10.2896
▁pi	-10.2897
mself	-10.2898
gard	-10.29
pport	-10.29
Empress	-10.2904
▁oper	-10.2907
▁sit	-10.2908
▁cre	-10.291
Heia	-10.2912
▁Nobun	-10.2915
▁cast	-10.2917
Nation	-10.2918
xample	-10.2918
eu	-10.2921
De	-10.2924
ucceed	-10.2927
omple	-10.2929
Tada	-10.293
AKA	-10.2932
▁special	-10.2932
ocument	-10.2934
▁enshrin	-10.2936
originall	-10.2939
pect	-10.294
Me	-10.2941
NAMO	-10.2944
Period	-10.2944
▁Shige	-10.2946
Tokugawa	-10.2947
▁produced	-10.2948
ease	-10.2957
▁shogunate	-10.2957
regard	-10.2958
went	-10.2961
INAM	-10.297
▁retu	-10.2971
▁third	-10.2972
ibe	-10.2973
oky	-10.2976
anj	-10.2978
right	-10.2983
mong	-10.2983
▁passe	-10.2989
▁feud	-10.2992
unag	-10.2993
ommon	-10.2997
ram	-10.3
mpan	-10.3002
isc	-10.3003
▁pain	-10.3007
20	-10.3008
▁MIN	-10.3008
ijo	-10.3018
bunaga	-10.302
provincial	-10.3023
elie	-10.3025
Higashi	-10.3027
▁Jo	-10.3029
inall	-10.303
represent	-10.3038
Yoshin	-10.304
could	-10.3045
hildren	-10.3047
ersit	-10.3054
▁branch	-10.306
romote	-10.3061
estor	-10.3061
ph	-10.3061
estiv	-10.3064
▁country	-10.3065
▁coul	-10.3066
ynasty	-10.3069
emony	-10.3071
esignate	-10.3073
SU	-10.3075
resp	-10.3075
▁Sei	-10.3077
▁case	-10.3078
▁issue	-10.3081
▁operation	-10.3081
took	-10.3083
hrines	-10.3086
▁Tad	-10.3086
dministration	-10.3088
Septem	-10.3089
rema	-10.309
▁Yamato	-10.309
Shig	-10.3092
tember	-10.3092
hino	-10.3102
iza	-10.3102
inu	-10.3104
ras	-10.3104
thought	-10.3104
▁Coun	-10.3105
nv	-10.3106
▁admini	-10.3107
ntrol	-10.3109
inja	-10.3111
should	-10.3112
▁nobl	-10.3117
▁moun	-10.3119
Ri	-10.312
sic	-10.3121
Mitsu	-10.3124
Univer	-10.3124
▁trains	-10.3124
popula	-10.3127
performance	-10.3129
pat	-10.313
▁shrines	-10.3131
▁regar	-10.3138
▁rest	-10.3141
▁Con	-10.3142
▁tit	-10.3142
▁samu	-10.3145
treet	-10.3148
radit	-10.3155
disc	-10.3156
ithout	-10.3156
ros	-10.316
DA	-10.316
ncluded	-10.3161
▁master	-10.3161
▁transf	-10.3161
vassal	-10.3164
lik	-10.3166
cribed	-10.3167
rovincial	-10.3167
▁min	-10.3167
leg	-10.317
Shog	-10.3173
ntroduc	-10.3178
ards	-10.3181
GAWA	-10.3183
▁curren	-10.3185
MO	-10.3187
shrines	-10.3188
posed	-10.3189
entury	-10.319
Shogu	-10.3194
orther	-10.3205
xist	-10.3206
miy	-10.3208
▁Unive	-10.3208
Genji	-10.3211
kas	-10.3211
mos	-10.3211
▁festival	-10.3211
▁most	-10.3211
rthern	-10.3214
var	-10.3217
▁Is	-10.3218
▁organiz	-10.3223
nuary	-10.3225
vement	-10.3225
among	-10.3228
njo	-10.3236
olit	-10.3239
uild	-10.3241
kun	-10.3241
territory	-10.3241
elieved	-10.3242
Buddha	-10.3246
councilor	-10.3246
shogunate	-10.3246
▁Shint	-10.3246
roper	-10.3247
aining	-10.3249
litic	-10.3252
litical	-10.3253
samu	-10.3253
ems	-10.3256
idenc	-10.3259
iteral	-10.326
popular	-10.3266
▁until	-10.3275
erin	-10.3276
▁Kei	-10.3278
▁referred	-10.3281
nfluence	-10.3282
ritor	-10.3284
ribe	-10.3286
soci	-10.3286
using	-10.3289
council	-10.329
escription	-10.3294
ively	-10.3294
escendant	-10.3294
▁practice	-10.3294
entr	-10.3296
eliev	-10.3296
▁Scho	-10.3296
rf	-10.3297
stic	-10.3298
developed	-10.3299
▁administration	-10.3299
vem	-10.33
▁Un	-10.33
igned	-10.3303
exis	-10.3305
TSU	-10.3307
zan	-10.3307
▁Princess	-10.3307
nerati	-10.331
sei	-10.331
shimi	-10.3311
stiva	-10.3311
▁Whe	-10.3311
tival	-10.3321
▁accor	-10.3322
ancie	-10.3323
bur	-10.3323
▁fin	-10.3325
▁both	-10.3328
▁comma	-10.3334
OK	-10.3341
ton	-10.3341
aik	-10.3343
eceiv	-10.3345
capita	-10.3346
mme	-10.3346
crip	-10.3347
establishment	-10.3347
Hid	-10.3347
master	-10.3354
ript	-10.3354
cultural	-10.3356
signat	-10.3357
zation	-10.336
▁Southern	-10.336
pital	-10.3365
erent	-10.3372
llowe	-10.3375
▁grea	-10.3375
▁collection	-10.3376
Yoritomo	-10.3376
ducation	-10.3376
organization	-10.3378
▁conti	-10.3378
impe	-10.3382
signated	-10.3384
▁Apri	-10.3385
▁organization	-10.3385
iner	-10.3386
ution	-10.3387
rganization	-10.3392
▁increas	-10.3392
mplete	-10.3393
vember	-10.3393
▁Augus	-10.3393
▁chief	-10.3399
▁TO	-10.34
▁resu	-10.3404
▁trea	-10.3407
eceived	-10.3407
enshrine	-10.3408
reig	-10.341
oduct	-10.3412
onstructed	-10.3412
▁amon	-10.3412
promo	-10.3414
included	-10.3416
alt	-10.3417
dle	-10.342
characters	-10.3422
estoration	-10.3422
▁Marc	-10.3422
▁prop	-10.3422
16	-10.3423
▁close	-10.3423
Pa	-10.3424
dl	-10.3425
▁An	-10.3427
impo	-10.3428
nive	-10.3428
rganiz	-10.3429
material	-10.3432
sidenc	-10.3432
Yoshim	-10.3435
Li	-10.3438
partic	-10.3438
qua	-10.3439
famili	-10.344
ific	-10.3441
tiva	-10.3441
▁lon	-10.3445
▁Princes	-10.3447
tment	-10.3449
▁popul	-10.3449
▁develope	-10.3454
rica	-10.3455
When	-10.3461
uncilor	-10.3463
osed	-10.3465
▁mot	-10.3467
clas	-10.3469
thir	-10.3473
▁Mit	-10.3477
nomiya	-10.3482
erformed	-10.3483
scripti	-10.3484
▁continued	-10.3486
east	-10.3491
eor	-10.3493
Ba	-10.3493
▁def	-10.3493
secti	-10.3494
ginally	-10.3494
iginall	-10.3494
stitu	-10.3501
dau	-10.3502
lated	-10.3504
yasu	-10.3505
zo	-10.351
alendar	-10.3512
ared	-10.3515
icle	-10.3515
influenc	-10.3515
ially	-10.3516
▁belo	-10.3519
vat	-10.3521
▁Mits	-10.3521
ASHIKAG	-10.3522
SHIKAGA	-10.3522
▁materia	-10.3523
ynast	-10.3524
Kor	-10.3524
ntinu	-10.3526
xi	-10.3529
▁ASHIKA	-10.3529
ationship	-10.353
sal	-10.353
▁sometime	-10.353
terri	-10.3531
anothe	-10.3536
collection	-10.3536
▁reason	-10.3536
anag	-10.3537
uced	-10.3537
gata	-10.3539
▁shoguna	-10.3539
.'	-10.354
▁bef	-10.3543
ishin	-10.3546
▁word	-10.3549
transferred	-10.3551
mmand	-10.3551
stablishment	-10.3551
igashi	-10.3557
unci	-10.3557
ounta	-10.3559
ransfer	-10.3561
katsu	-10.3569
tand	-10.3571
▁ve	-10.3572
eque	-10.3573
icati	-10.3581
romo	-10.3581
umbe	-10.3581
▁Febru	-10.3581
▁el	-10.3584
childre	-10.3586
batt	-10.3588
cts	-10.3588
▁did	-10.3588
shoguna	-10.3589
▁kami	-10.3589
mpr	-10.3591
romach	-10.3591
set	-10.3591
uard	-10.3592
ublic	-10.3592
▁north	-10.3594
▁business	-10.3598
arried	-10.36
cil	-10.3601
akam	-10.3602
Korea	-10.3604
lieve	-10.3607
▁make	-10.3607
sometimes	-10.3607
descen	-10.3609
ription	-10.361
rrito	-10.3614
ddi	-10.3615
exampl	-10.3615
▁expres	-10.3617
ories	-10.3619
Muroma	-10.3621
uromac	-10.3621
agi	-10.3627
itsun	-10.3627
untai	-10.3627
▁due	-10.3632
cast	-10.3636
hito	-10.3636
▁nob	-10.3636
younge	-10.3639
kak	-10.3644
produced	-10.3644
dhism	-10.3645
ntinue	-10.3645
socia	-10.365
▁rai	-10.365
perati	-10.3651
introduced	-10.3652
aig	-10.3657
▁visi	-10.3657
uilt	-10.3658
ishment	-10.3663
qui	-10.3666
rip	-10.3668
oduction	-10.3668
recei	-10.367
tow	-10.3671
elatio	-10.3673
hiyama	-10.3673
▁operati	-10.3673
Yamato	-10.3676
China	-10.3678
▁Toku	-10.3678
IN	-10.3679
tta	-10.3679
nfluen	-10.3682
▁went	-10.3683
bra	-10.3685
AT	-10.3692
asure	-10.3693
▁exam	-10.3693
Mei	-10.3694
tia	-10.3694
kuni	-10.3697
▁author	-10.3703
erformance	-10.3703
ommander	-10.3705
▁Northern	-10.3708
ompany	-10.3712
▁Incident	-10.3717
▁calend	-10.3717
exi	-10.3718
rrent	-10.3718
referred	-10.3721
therefore	-10.3721
▁bor	-10.3721
denc	-10.3723
scend	-10.3723
▁Yorit	-10.3724
▁mou	-10.3726
▁religio	-10.3726
▁Acco	-10.3726
10	-10.3727
ason	-10.3728
▁situation	-10.3729
organi	-10.3731
oned	-10.3732
Hidey	-10.3736
rical	-10.3739
ncil	-10.374
practi	-10.374
trati	-10.3741
▁stand	-10.3743
Accor	-10.3744
ao	-10.3744
yas	-10.3744
▁having	-10.3745
▁Yamat	-10.3746
▁published	-10.3749
nstructed	-10.3754
ril	-10.376
rations	-10.3763
signe	-10.377
often	-10.3775
ands	-10.3777
▁set	-10.3777
eft	-10.3778
asak	-10.3783
administration	-10.3785
AMO	-10.3786
cluded	-10.3786
▁successi	-10.3786
▁therefor	-10.3786
appeared	-10.3787
istri	-10.379
Ji	-10.3791
eter	-10.3791
crib	-10.3795
introduce	-10.3795
mentioned	-10.3795
ps	-10.3796
▁terr	-10.3798
itical	-10.3798
desi	-10.3799
▁enshrined	-10.38
outher	-10.3801
▁Hig	-10.3806
▁descripti	-10.3806
escend	-10.3808
graph	-10.3808
▁ci	-10.3809
unaga	-10.3811
▁means	-10.3811
sl	-10.3812
omach	-10.3816
toric	-10.3816
▁born	-10.3816
▁own	-10.3816
dre	-10.3817
▁capit	-10.3817
iho	-10.3826
third	-10.3831
uthern	-10.3832
mbers	-10.3834
Af	-10.384
dir	-10.3845
iku	-10.3845
▁Sak	-10.3845
Ts	-10.3848
▁resp	-10.3849
mplet	-10.3855
rsity	-10.3855
bac	-10.3862
▁sword	-10.3863
inf	-10.3865
ometimes	-10.387
▁create	-10.3872
▁uni	-10.3874
embers	-10.3882
ailw	-10.3884
▁Decem	-10.3885
conti	-10.3886
▁Sada	-10.3886
ilwa	-10.3886
don	-10.3887
ministration	-10.3888
hout	-10.389
site	-10.389
nistra	-10.3891
nka	-10.3891
onsh	-10.3892
▁commande	-10.3893
▁daimyo	-10.3893
▁mater	-10.3894
▁began	-10.3898
▁anc	-10.3901
▁Pal	-10.3903
unate	-10.3904
▁Murom	-10.3904
visit	-10.3906
iyam	-10.3909
▁along	-10.3913
racti	-10.3914
Shu	-10.3915
accor	-10.3917
▁bot	-10.3917
exc	-10.3919
ntio	-10.3922
amp	-10.3923
turned	-10.3923
grea	-10.3926
tsum	-10.3926
▁mount	-10.3926
istrict	-10.3926
dia	-10.3927
ptio	-10.3928
orical	-10.3929
▁commander	-10.393
medi	-10.3932
▁kok	-10.3934
opted	-10.3935
FU	-10.3939
doma	-10.394
dopte	-10.394
nknown	-10.3941
▁influ	-10.3941
nothe	-10.3948
▁Grade	-10.3951
ssociat	-10.3952
▁appr	-10.3953
wife	-10.3959
▁num	-10.3959
▁Septe	-10.396
11	-10.3964
irt	-10.3966
ractic	-10.3966
▁transferr	-10.3966
incess	-10.397
egard	-10.3972
Princess	-10.3974
Toky	-10.3976
▁water	-10.3976
enshrin	-10.3977
▁Michi	-10.3979
left	-10.3984
Battle	-10.3985
▁using	-10.3985
nstitution	-10.3987
KUGAWA	-10.3992
itomo	-10.3993
stric	-10.3993
iha	-10.3996
TOKUGA	-10.3998
erri	-10.4001
birth	-10.4003
esult	-10.4006
uppo	-10.4007
dar	-10.402
ttac	-10.402
ivision	-10.4022
beli	-10.4024
eign	-10.4024
enior	-10.4024
ndar	-10.403
Govern	-10.4033
himi	-10.4033
rfo	-10.4033
Pala	-10.4035
Shint	-10.4035
ransferred	-10.4035
returned	-10.4037
▁returne	-10.4037
yed	-10.4037
▁TOKUG	-10.4039
entra	-10.404
aut	-10.404
nstitu	-10.4042
trict	-10.4043
apita	-10.4048
nerat	-10.4051
llowed	-10.4052
opular	-10.4052
▁wou	-10.4052
▁distri	-10.4058
rok	-10.4059
omoted	-10.4061
ester	-10.4064
▁adv	-10.4066
▁village	-10.4066
ah	-10.4067
esto	-10.4068
yl	-10.407
ideyo	-10.4072
thing	-10.4072
admini	-10.4077
ctions	-10.4077
▁Pe	-10.4083
mpre	-10.4085
ushim	-10.4088
arrie	-10.4093
UJ	-10.4094
▁Am	-10.4094
ucted	-10.4095
eory	-10.41
haracters	-10.4101
INA	-10.4102
ntinued	-10.4103
oved	-10.4109
tely	-10.4109
urned	-10.4109
hinto	-10.4111
▁lef	-10.4113
tober	-10.4114
jinj	-10.4117
▁belong	-10.4118
ugo	-10.4118
▁show	-10.4119
esu	-10.4125
titu	-10.413
country	-10.4133
▁Rail	-10.4138
festival	-10.4138
▁issu	-10.4141
evi	-10.4142
mitsu	-10.4143
gether	-10.4147
duction	-10.4148
ntere	-10.4149
opert	-10.4151
Osa	-10.4153
unknow	-10.4153
rts	-10.4155
omin	-10.4156
creat	-10.4157
ounger	-10.4157
igne	-10.4158
cceeded	-10.4159
aimyo	-10.4159
Southern	-10.416
▁crea	-10.4165
milies	-10.4166
ommande	-10.4166
▁rega	-10.4167
icul	-10.4173
mic	-10.4177
mid	-10.4177
rforme	-10.4179
entu	-10.4181
Shim	-10.4185
▁Gra	-10.4185
▁Ieyasu	-10.4189
nsho	-10.419
iddle	-10.4191
mater	-10.4199
llage	-10.4202
opula	-10.4205
▁House	-10.4205
anno	-10.4209
rty	-10.4211
▁3	-10.4212
dow	-10.4213
spo	-10.4214
▁Janu	-10.4218
rovision	-10.422
▁Si	-10.4222
▁Street	-10.4222
log	-10.4224
▁lived	-10.4227
rtan	-10.4228
illag	-10.4232
▁beginning	-10.4232
kill	-10.4233
moth	-10.4237
▁constructed	-10.4237
▁kill	-10.424
erritory	-10.4241
stration	-10.4241
icate	-10.4256
osho	-10.4256
menta	-10.4258
▁sti	-10.4258
ird	-10.426
nga	-10.426
published	-10.426
▁La	-10.4261
heo	-10.4263
tire	-10.4263
yaku	-10.4263
▁officials	-10.4264
ners	-10.4265
▁enshri	-10.4268
Lin	-10.4269
entered	-10.4275
prop	-10.4278
okugawa	-10.4279
▁Sai	-10.4282
entur	-10.4283
▁defe	-10.4283
num	-10.4284
eq	-10.4285
▁Novem	-10.4285
nshrine	-10.4287
AS	-10.4293
anch	-10.4293
above	-10.4294
epte	-10.4299
ommo	-10.4302
tively	-10.4302
wara	-10.4302
▁Yorito	-10.4305
velo	-10.4308
resu	-10.4312
Mar	-10.4313
Princes	-10.4313
ically	-10.4315
ojo	-10.4316
▁admi	-10.4318
▁publishe	-10.4318
orthe	-10.4321
▁particular	-10.4325
YAMA	-10.433
eref	-10.433
aterial	-10.4332
igo	-10.4333
isting	-10.4334
titut	-10.4334
aye	-10.4342
mmon	-10.4343
branch	-10.4344
ceive	-10.4345
ganization	-10.4345
ovincial	-10.4345
ugust	-10.4348
Augus	-10.435
transf	-10.435
atue	-10.4354
espec	-10.4356
commander	-10.4357
equently	-10.4358
eveloped	-10.4358
practice	-10.4358
untr	-10.4358
asur	-10.436
ssociation	-10.4361
▁At	-10.4362
oted	-10.4362
▁ado	-10.4362
pra	-10.4364
▁activ	-10.4364
Nobun	-10.4364
nning	-10.4364
ttack	-10.4367
kug	-10.4368
▁12	-10.4368
larg	-10.4369
▁awa	-10.4376
Nihon	-10.4378
▁charge	-10.4378
tioned	-10.438
▁ver	-10.438
amot	-10.4386
IW	-10.4391
▁Fuk	-10.4391
elop	-10.4393
▁organi	-10.4397
Northern	-10.4397
pub	-10.4398
expres	-10.44
mention	-10.4401
▁created	-10.4402
▁lead	-10.4405
develope	-10.4406
signate	-10.4408
kata	-10.441
▁Ok	-10.4413
ified	-10.4413
ructi	-10.4416
ndo	-10.4418
ege	-10.4419
trains	-10.4419
Shige	-10.4421
tablishment	-10.4421
etired	-10.4423
▁anci	-10.4424
▁cul	-10.4426
▁nor	-10.4426
dica	-10.4432
▁cond	-10.4432
dopt	-10.4435
ued	-10.4436
minister	-10.4437
aij	-10.4437
▁righ	-10.4438
mina	-10.4446
nten	-10.4446
scendant	-10.4446
rines	-10.4446
ruary	-10.4449
▁Di	-10.4449
mous	-10.4452
Febru	-10.4454
dest	-10.4454
ebrua	-10.4454
▁referr	-10.4458
yor	-10.4459
▁publish	-10.4463
reason	-10.4465
oritomo	-10.4466
▁prince	-10.447
alen	-10.4472
pain	-10.4472
▁River	-10.4472
cument	-10.4475
storation	-10.4475
▁propert	-10.4476
ample	-10.4479
▁contain	-10.4481
▁En	-10.4483
hought	-10.4488
▁event	-10.4488
rap	-10.4498
officials	-10.45
emai	-10.4501
▁real	-10.4501
urther	-10.4502
illed	-10.4504
named	-10.4504
passe	-10.4504
commande	-10.4507
▁represe	-10.4507
▁within	-10.4508
NO	-10.4512
rsi	-10.4512
sometime	-10.4512
▁mus	-10.4512
▁small	-10.4515
sat	-10.4517
imate	-10.4518
ground	-10.4518
teral	-10.452
rovisional	-10.4526
▁Souther	-10.4529
numb	-10.4532
▁poem	-10.4532
▁Naka	-10.4534
Hon	-10.4537
feud	-10.454
adop	-10.4545
UGAWA	-10.4545
hold	-10.4554
nfluenc	-10.4555
▁Dynasty	-10.456
obl	-10.4562
▁sol	-10.4563
hid	-10.4565
throne	-10.4565
▁shou	-10.4565
himo	-10.4567
tsune	-10.4568
iled	-10.4569
tration	-10.457
eyos	-10.4576
istin	-10.4579
sor	-10.458
hildre	-10.4582
▁Ac	-10.4583
aj	-10.4584
fluence	-10.4586
Yamat	-10.4587
stro	-10.4587
ildren	-10.4588
Ward	-10.4589
owed	-10.4589
enshrined	-10.459
tag	-10.459
outhe	-10.4595
signa	-10.4595
ceived	-10.4598
obuna	-10.4598
omote	-10.4598
ging	-10.4603
inate	-10.4604
rticle	-10.4605
Decem	-10.4607
Coun	-10.4607
placed	-10.4608
Dom	-10.461
hib	-10.461
▁17	-10.461
ick	-10.4612
kaku	-10.4612
▁alon	-10.4615
hap	-10.4617
▁For	-10.4618
ntroduced	-10.462
eh	-10.4625
▁nu	-10.4627
ately	-10.4629
comma	-10.4635
▁appro	-10.4635
daimyo	-10.4638
otsu	-10.4638
▁admin	-10.4642
centu	-10.4643
▁retainers	-10.4643
rded	-10.4645
▁officer	-10.465
increas	-10.4652
business	-10.4659
▁current	-10.4659
epartment	-10.466
▁Hir	-10.4661
close	-10.4665
▁Be	-10.4667
ethe	-10.4668
vol	-10.4669
ille	-10.4672
trol	-10.4674
stitution	-10.4675
uta	-10.4679
dmini	-10.4679
▁Take	-10.4682
religio	-10.4684
roducti	-10.4684
▁proper	-10.4684
cultura	-10.4688
SA	-10.4689
emi	-10.4689
descripti	-10.4691
olog	-10.4695
▁gu	-10.4696
god	-10.4697
terr	-10.4701
▁South	-10.4706
issue	-10.4708
orie	-10.4708
tionship	-10.4708
gash	-10.471
ucation	-10.4711
eno	-10.4713
hiy	-10.4713
obun	-10.4713
ignated	-10.4715
actic	-10.4716
endant	-10.4716
Ministry	-10.4717
▁ju	-10.4718
troduc	-10.4719
▁curre	-10.4719
▁killed	-10.4719
▁world	-10.4719
▁entered	-10.4722
respon	-10.4726
structed	-10.4726
tend	-10.4726
ceeded	-10.473
unti	-10.4731
▁technique	-10.4733
lling	-10.4739
xampl	-10.4739
cceed	-10.4744
▁clos	-10.4744
etire	-10.4753
▁south	-10.4753
AGA	-10.4757
rformance	-10.4757
inistration	-10.4758
top	-10.4758
put	-10.476
Governor	-10.4762
materia	-10.4763
ieved	-10.4764
rvic	-10.4765
▁conce	-10.4767
ots	-10.4772
situation	-10.4772
ihon	-10.4774
mission	-10.4775
village	-10.4775
regar	-10.4775
Incident	-10.4776
having	-10.4777
▁kam	-10.4778
YA	-10.4779
mony	-10.4783
▁volume	-10.4783
lieved	-10.4784
enth	-10.4785
pita	-10.4785
ading	-10.4787
▁Dynast	-10.4787
ppor	-10.4787
days	-10.4794
shino	-10.4798
ital	-10.4801
table	-10.4801
tures	-10.4801
▁Uni	-10.4801
north	-10.4804
gam	-10.4804
nnin	-10.4805
rried	-10.4812
ranch	-10.4815
▁aut	-10.4817
200	-10.4818
rformed	-10.4819
oshu	-10.4819
▁Yu	-10.4827
ako	-10.4832
CHI	-10.4833
▁Division	-10.4839
euda	-10.484
▁July	-10.4844
beg	-10.4845
vil	-10.4845
appr	-10.4847
▁Grad	-10.4847
▁exa	-10.4847
lement	-10.4849
udal	-10.4851
AMA	-10.4852
ective	-10.4852
▁Octo	-10.4852
ione	-10.4853
Marc	-10.4856
ivin	-10.4856
▁Matsu	-10.4863
▁incident	-10.4864
nja	-10.4866
escen	-10.4867
nasty	-10.4867
iate	-10.4867
zen	-10.4869
hould	-10.4872
▁Sec	-10.4874
Sei	-10.4875
▁(1	-10.4875
▁open	-10.4875
▁Norther	-10.4876
nization	-10.4881
onti	-10.4883
west	-10.4883
hitsu	-10.4884
successi	-10.4885
▁cur	-10.4885
▁Tos	-10.4888
ntroduce	-10.489
▁Inciden	-10.489
▁rev	-10.489
oci	-10.4894
therefor	-10.4895
until	-10.4898
Apri	-10.4902
pril	-10.4904
▁Ministry	-10.4906
AN	-10.4906
ometime	-10.4907
publishe	-10.4908
Septe	-10.491
assal	-10.491
dicat	-10.491
eyo	-10.4911
eptem	-10.4912
cially	-10.4914
▁litera	-10.4915
▁plan	-10.4915
amed	-10.4922
amato	-10.4924
mati	-10.4925
anization	-10.4931
lwa	-10.4931
appro	-10.4933
▁lar	-10.4934
itsuryo	-10.4935
pti	-10.4935
popul	-10.4936
▁mos	-10.4936
ification	-10.4937
equent	-10.4938
moted	-10.4938
Unive	-10.4944
transferr	-10.4947
guna	-10.4948
iati	-10.495
uddha	-10.495
▁era	-10.495
mote	-10.4952
▁Chu	-10.4952
entioned	-10.4955
KI	-10.4956
nb	-10.4964
water	-10.4964
orld	-10.4966
tribut	-10.4966
okuga	-10.497
ribed	-10.497
▁eas	-10.4971
thout	-10.4976
noth	-10.4978
▁generations	-10.498
amili	-10.4982
tione	-10.4982
▁unti	-10.4982
sev	-10.4983
pert	-10.4985
vassa	-10.4985
▁vis	-10.4985
itl	-10.4985
inag	-10.4987
hiya	-10.4989
rno	-10.499
▁Fe	-10.499
etur	-10.4992
reet	-10.4992
terna	-10.4993
ildi	-10.4996
nz	-10.4997
organ	-10.4999
tch	-10.4999
eferred	-10.5
Kei	-10.5001
hirakawa	-10.5001
ncilor	-10.5001
▁arr	-10.5001
▁somet	-10.5004
▁occ	-10.5006
culture	-10.5008
daijin	-10.5008
▁days	-10.5008
riti	-10.501
▁mention	-10.501
ainin	-10.5011
KAWA	-10.5012
ntury	-10.5014
▁Univ	-10.5014
ncid	-10.5015
author	-10.5018
ift	-10.5018
avin	-10.5019
▁expe	-10.5019
specially	-10.502
cripti	-10.5022
front	-10.5022
▁passed	-10.5024
▁respect	-10.5024
due	-10.5025
pit	-10.5025
▁grand	-10.5025
nstitutio	-10.5031
ginall	-10.5032
▁defeat	-10.5032
rgani	-10.5034
ja	-10.5035
isted	-10.5037
omiya	-10.504
mmander	-10.504
▁appeared	-10.5041
ASHIKA	-10.5043
HIKAGA	-10.5043
particular	-10.5043
vemen	-10.5043
tec	-10.5046
lendar	-10.5053
ATSU	-10.5054
▁Kok	-10.5054
arded	-10.5057
Toku	-10.5059
SHIKAG	-10.506
▁intro	-10.506
▁placed	-10.5061
egar	-10.5061
▁Bo	-10.5062
▁villa	-10.5064
light	-10.5066
Mur	-10.5069
▁TOKU	-10.5072
epresentative	-10.5073
born	-10.5075
retu	-10.508
▁Kat	-10.508
capit	-10.5081
iting	-10.5081
▁Empre	-10.5081
iso	-10.5083
both	-10.5085
ppeared	-10.5085
▁strong	-10.5085
ansferred	-10.5088
nshrin	-10.5088
▁stan	-10.5089
AI	-10.5095
abu	-10.5097
Nor	-10.5101
nobl	-10.5101
ansfer	-10.5102
▁increase	-10.5104
akus	-10.5106
Con	-10.5108
▁Rai	-10.5108
akat	-10.5111
itua	-10.5115
garde	-10.5116
rains	-10.5116
▁Fuku	-10.5116
ony	-10.5122
Ar	-10.5123
1,	-10.5125
ignat	-10.5125
imit	-10.5125
▁Kag	-10.5125
hims	-10.5127
unta	-10.5127
charge	-10.5131
▁followe	-10.5132
iving	-10.5133
▁Muro	-10.5136
▁mentioned	-10.5136
ugawa	-10.5139
calend	-10.5141
rior	-10.5141
▁Cultural	-10.5141
eeded	-10.5142
▁countries	-10.5142
▁au	-10.5143
cessi	-10.5148
iption	-10.5148
nast	-10.5148
shment	-10.5148
▁Mon	-10.5148
case	-10.5151
ountry	-10.5152
rna	-10.5152
▁mas	-10.5155
▁middle	-10.5155
ination	-10.5159
rote	-10.516
▁Kiyo	-10.5163
▁distr	-10.5166
▁West	-10.5169
▁highe	-10.5169
▁soldier	-10.5169
cale	-10.5172
▁vass	-10.5178
ASH	-10.5178
ported	-10.518
▁13	-10.5182
plete	-10.5187
ppr	-10.5189
▁regarded	-10.5189
ceiv	-10.5191
create	-10.5191
ishmen	-10.5191
▁jo	-10.5191
▁disp	-10.5192
aini	-10.5193
rive	-10.5193
beginning	-10.5194
SHIKA	-10.5201
ulture	-10.5201
grand	-10.5204
Genj	-10.5205
metimes	-10.5205
officer	-10.5205
▁Augu	-10.5207
referr	-10.5208
▁kil	-10.521
▁soldiers	-10.521
righ	-10.5212
▁Alt	-10.5212
Novem	-10.5213
uroma	-10.5213
▁Southe	-10.5213
▁Tokuga	-10.5213
distri	-10.5216
▁chie	-10.5216
▁conduct	-10.5217
Matsu	-10.5219
eading	-10.5219
▁Sad	-10.5221
▁compan	-10.5221
▁feu	-10.5221
anua	-10.5224
sword	-10.5225
erations	-10.5226
URA	-10.5233
hrone	-10.5234
▁Fuji	-10.5234
ders	-10.5236
publish	-10.5238
NAM	-10.5239
▁Miya	-10.524
hosh	-10.524
vely	-10.524
ances	-10.5243
eade	-10.5243
azu	-10.5244
stiv	-10.5248
provinci	-10.525
ganiz	-10.5252
oz	-10.5252
articular	-10.5253
Os	-10.5255
ntered	-10.5262
oad	-10.5262
plan	-10.5262
▁particula	-10.5267
inistry	-10.5267
oba	-10.5269
eturned	-10.5271
Ro	-10.5273
coul	-10.5274
aracters	-10.5279
ounge	-10.5279
sional	-10.528
▁liter	-10.528
nshrined	-10.5283
rsit	-10.5283
suna	-10.5283
tent	-10.5286
nni	-10.5287
▁poet	-10.5288
hint	-10.5291
shitsu	-10.5294
divi	-10.5295
▁god	-10.5295
nomiy	-10.5297
▁Shins	-10.5301
igash	-10.5302
rovinces	-10.5302
sult	-10.5302
▁infl	-10.5302
ijin	-10.5305
urne	-10.5305
▁mode	-10.5305
▁reli	-10.5308
▁still	-10.5308
MIN	-10.5312
istration	-10.5312
▁organ	-10.5312
▁music	-10.5319
small	-10.532
itom	-10.5322
partment	-10.5326
shika	-10.5329
▁sake	-10.5329
returne	-10.533
ublished	-10.5331
▁flo	-10.5331
inv	-10.5332
lve	-10.5332
▁ke	-10.5337
pend	-10.5338
▁men	-10.5338
dev	-10.5346
ractice	-10.5347
Al	-10.5349
Mits	-10.535
escripti	-10.535
imyo	-10.5353
pin	-10.5353
isit	-10.5355
sity	-10.5355
▁performa	-10.5355
▁west	-10.5356
agon	-10.536
retainers	-10.5361
fluen	-10.5365
ourth	-10.5365
▁swor	-10.5365
Mor	-10.5366
ense	-10.5367
ablishment	-10.5368
imat	-10.537
porte	-10.5372
▁Yoshitsu	-10.5372
▁center	-10.5372
▁cultural	-10.5377
dal	-10.5379
avi	-10.5381
ference	-10.5381
cipa	-10.5384
vid	-10.5386
adit	-10.5387
ceed	-10.5387
chik	-10.5387
▁Acc	-10.5387
▁Febr	-10.5387
dditional	-10.5388
akas	-10.5389
stit	-10.5389
hiyam	-10.539
ivel	-10.5391
mono	-10.5391
terial	-10.5391
pula	-10.5394
▁villag	-10.5397
yi	-10.54
goku	-10.5403
eit	-10.5404
wat	-10.5406
mus	-10.5408
enin	-10.5408
romac	-10.5411
ritomo	-10.5413
▁nort	-10.5414
▁manage	-10.5414
sociation	-10.5415
ecei	-10.5416
▁Fi	-10.5417
eligio	-10.542
▁Since	-10.542
Murom	-10.5423
Scho	-10.5423
nced	-10.5423
▁Sch	-10.5423
▁daimy	-10.5424
make	-10.5428
▁Katsu	-10.5428
mall	-10.543
mse	-10.5435
olume	-10.5435
▁Per	-10.5435
ido	-10.5437
▁rul	-10.5437
tinue	-10.5441
▁curr	-10.5444
Janu	-10.5445
fficials	-10.5447
hite	-10.5447
▁festiv	-10.5448
Yorit	-10.545
api	-10.5451
usiness	-10.5457
▁completed	-10.5459
eia	-10.546
tc	-10.546
ocia	-10.5462
aisho	-10.5462
istric	-10.5464
aijin	-10.5471
nas	-10.5471
umb	-10.5471
Senior	-10.5475
▁Fujiwara	-10.5475
say	-10.5477
▁Sc	-10.5477
utio	-10.5484
▁bran	-10.5484
Ieyasu	-10.5486
ssocia	-10.5486
Souther	-10.5487
nden	-10.5488
eprese	-10.549
sociat	-10.5493
wed	-10.5495
oyo	-10.5499
▁kin	-10.5501
istan	-10.5502
bot	-10.5502
ioned	-10.5505
hak	-10.5508
▁Yoshino	-10.551
ciation	-10.5512
Michi	-10.5514
enshri	-10.5515
resident	-10.5515
itions	-10.5519
killed	-10.5519
▁Higas	-10.5519
▁although	-10.5519
liev	-10.552
created	-10.5521
unk	-10.5521
▁say	-10.5523
evelopment	-10.5526
▁ni	-10.5526
gned	-10.5532
▁religious	-10.5532
amou	-10.5535
▁sak	-10.5535
mpany	-10.5535
Gr	-10.5536
lies	-10.5537
▁Mat	-10.5537
▁consist	-10.554
atsum	-10.5545
luded	-10.5545
ncial	-10.5545
represe	-10.5546
rovisio	-10.5546
opp	-10.5548
soc	-10.5548
▁connect	-10.555
means	-10.5554
ovision	-10.5555
▁front	-10.5556
▁life	-10.5557
rrie	-10.5559
▁Cho	-10.5559
▁playe	-10.5559
pract	-10.556
▁Man	-10.5562
aso	-10.5567
ffairs	-10.5567
vide	-10.5567
▁sent	-10.5569
belong	-10.557
ounded	-10.557
▁bir	-10.5572
stratio	-10.5572
▁existe	-10.5572
rovisiona	-10.5574
omac	-10.5577
rritory	-10.5577
ovisional	-10.558
▁district	-10.558
lue	-10.5581
HIKA	-10.5584
requ	-10.5584
▁sold	-10.5585
▁disciple	-10.5585
taka	-10.5586
inn	-10.5589
sume	-10.5594
uther	-10.5597
olde	-10.5599
lected	-10.56
Acco	-10.5604
pproximately	-10.5604
rmi	-10.5604
bar	-10.5605
▁Apr	-10.5606
▁Han	-10.5606
▁polic	-10.5611
ented	-10.5612
activ	-10.5615
ncess	-10.5615
Fo	-10.5616
lear	-10.5616
okus	-10.5618
ousehold	-10.5618
evelope	-10.562
cep	-10.562
omma	-10.5621
ject	-10.5623
moved	-10.5628
tmen	-10.5631
▁Peri	-10.5631
Dynasty	-10.5633
veloped	-10.5633
ede	-10.5633
ransferr	-10.5633
tained	-10.5633
did	-10.5635
odern	-10.5637
▁capi	-10.5637
tinued	-10.5641
ened	-10.5646
▁situat	-10.5646
approximately	-10.5652
modern	-10.5652
▁Moto	-10.5652
toration	-10.5653
ionship	-10.5654
contain	-10.5659
▁issued	-10.5659
isha	-10.566
oric	-10.566
along	-10.5662
▁type	-10.5662
technique	-10.5663
▁Govern	-10.5663
▁KA	-10.5663
trie	-10.5665
bers	-10.567
lowed	-10.5674
south	-10.5674
yok	-10.5674
rovinci	-10.5676
▁repres	-10.5676
ility	-10.568
vincial	-10.568
belo	-10.5683
Tad	-10.5683
▁Dece	-10.5683
turne	-10.5687
▁mate	-10.5687
toku	-10.5688
quently	-10.5689
influ	-10.5693
siona	-10.5693
▁Mich	-10.5693
▁fore	-10.5696
mitted	-10.5697
▁North	-10.5697
creas	-10.5699
scendan	-10.5702
▁originat	-10.5702
prince	-10.5704
nagon	-10.5705
orea	-10.5705
▁will	-10.5705
rar	-10.5706
▁County	-10.5706
Street	-10.5708
mmande	-10.5708
eya	-10.571
nistration	-10.5711
tinu	-10.5713
alo	-10.5715
reasure	-10.5715
▁mid	-10.5715
began	-10.5718
meter	-10.5718
17	-10.572
although	-10.5723
ilt	-10.5723
▁Ieyas	-10.5723
Norther	-10.5724
etainers	-10.5728
hall	-10.5728
nr	-10.5729
exam	-10.573
ials	-10.5735
ransf	-10.5736
siste	-10.5736
roperty	-10.5737
▁prac	-10.574
Yorito	-10.5741
xis	-10.5741
Sak	-10.5747
▁leg	-10.5748
iw	-10.5749
matsu	-10.5749
▁Ie	-10.5749
oshitsu	-10.575
ynas	-10.5753
▁Hiro	-10.5755
▁Miy	-10.5755
mman	-10.5758
nknow	-10.5758
ertain	-10.576
▁seven	-10.576
niz	-10.5764
▁town	-10.5765
▁Yas	-10.5765
wen	-10.5766
Grade	-10.5768
propert	-10.5768
▁Sept	-10.5768
▁documents	-10.5768
ena	-10.577
volume	-10.5771
cendant	-10.5772
hism	-10.5775
kugawa	-10.5775
renc	-10.5775
hun	-10.5777
▁proc	-10.5777
oute	-10.5783
▁Com	-10.5785
▁Ot	-10.5787
lead	-10.5788
rrit	-10.5788
▁rule	-10.5793
uccessi	-10.5794
▁sever	-10.5794
daiji	-10.5796
tance	-10.5796
grap	-10.5798
kats	-10.5798
troduced	-10.5798
▁several	-10.5798
▁Yasu	-10.5799
▁troop	-10.5802
cally	-10.5809
▁proce	-10.5809
mains	-10.5812
▁indi	-10.5812
entere	-10.5813
OKUGA	-10.5815
Tokuga	-10.5817
rro	-10.5817
▁charg	-10.5817
TOKUG	-10.5818
blic	-10.582
equen	-10.5824
ission	-10.5824
▁Nati	-10.5824
0,	-10.5827
Jo	-10.5831
Sada	-10.5833
mode	-10.5836
refectural	-10.5837
ituation	-10.5838
depend	-10.5839
nari	-10.5841
▁lit	-10.5841
tob	-10.5841
ateria	-10.5843
generations	-10.5843
stitutio	-10.5843
nish	-10.5846
▁bra	-10.5846
▁discipl	-10.5848
endan	-10.5849
suma	-10.5851
▁ext	-10.5851
ublishe	-10.5851
Gover	-10.5853
nstit	-10.5853
date	-10.5853
titution	-10.5853
unat	-10.5856
incident	-10.5858
▁Hous	-10.5859
maki	-10.5861
tial	-10.5861
Mit	-10.5862
onogatari	-10.5872
playe	-10.5872
12	-10.5874
ache	-10.5874
presentative	-10.5874
pular	-10.5875
unger	-10.5875
mmo	-10.5875
admin	-10.5878
ifica	-10.5878
▁Toshi	-10.5881
Division	-10.5884
rega	-10.5884
House	-10.5887
▁materials	-10.5887
nstituti	-10.5889
nea	-10.5891
escript	-10.5891
▁production	-10.5892
ublish	-10.5893
▁story	-10.5893
▁wen	-10.5894
chu	-10.5898
cend	-10.5904
ddle	-10.5904
within	-10.5904
▁private	-10.5904
▁typ	-10.5904
▁sw	-10.5908
respect	-10.5909
erna	-10.5914
lose	-10.5917
▁way	-10.5917
▁refers	-10.5918
▁moved	-10.5919
mma	-10.5921
▁Hok	-10.5922
ilies	-10.5922
ech	-10.5923
uments	-10.5923
▁named	-10.5923
ften	-10.5924
nen	-10.5925
awar	-10.5927
mits	-10.5927
lived	-10.5929
formance	-10.5929
sui	-10.5933
cke	-10.5934
lishment	-10.5934
elect	-10.5935
▁assume	-10.594
▁retire	-10.594
▁Nove	-10.5941
▁Furthermore	-10.5942
▁Ken	-10.5942
Gra	-10.5944
Hig	-10.5944
inti	-10.5945
▁inciden	-10.5945
ignate	-10.5946
treat	-10.5954
ofte	-10.5955
plet	-10.5955
▁assumed	-10.5955
▁modern	-10.5958
Whe	-10.5961
▁classi	-10.5963
idey	-10.5965
sul	-10.5969
irth	-10.597
OKU	-10.5973
▁Restoration	-10.5973
cin	-10.5975
▁doc	-10.5975
Shins	-10.598
South	-10.598
▁Kami	-10.598
milie	-10.5983
Ministr	-10.5985
unit	-10.5986
def	-10.5988
uru	-10.5988
mitte	-10.5989
iterature	-10.5992
tsuna	-10.5993
raph	-10.5993
▁Cultur	-10.5994
production	-10.5996
▁assum	-10.5996
▁bur	-10.5996
▁development	-10.5996
kil	-10.6002
admi	-10.6004
reasur	-10.6004
▁tri	-10.6004
erc	-10.6005
eyasu	-10.6005
shape	-10.6005
aiji	-10.6006
middle	-10.6007
Histor	-10.6011
mage	-10.6011
▁Ministr	-10.6011
hom	-10.6013
▁Histor	-10.6021
proper	-10.6023
▁famous	-10.603
fied	-10.6034
▁Count	-10.6034
Yoshitsu	-10.6037
▁manag	-10.6038
▁someti	-10.6039
Naka	-10.604
Fujiwara	-10.6042
soldiers	-10.6042
▁Batt	-10.6044
▁atte	-10.6044
▁east	-10.6044
issu	-10.6045
eans	-10.6047
lop	-10.605
manage	-10.605
Take	-10.6055
aying	-10.6057
tired	-10.6057
tting	-10.6057
GAW	-10.6058
eginning	-10.6058
fluenc	-10.6058
ipt	-10.6061
tructed	-10.6061
▁Nishi	-10.6061
orte	-10.6063
tage	-10.6065
rant	-10.6068
ulat	-10.6068
Dynast	-10.6069
▁conta	-10.6069
religious	-10.6073
world	-10.6073
▁Kawa	-10.6076
epresentati	-10.6082
soldier	-10.6084
particula	-10.6085
MATSU	-10.6086
branc	-10.6086
omme	-10.6086
gok	-10.6087
ncreas	-10.6089
ionally	-10.6093
ayed	-10.6094
real	-10.6094
tivel	-10.6096
countries	-10.6096
ntil	-10.6096
▁dra	-10.6102
▁mainly	-10.6102
▁Yoshitsun	-10.6105
pic	-10.6106
Inciden	-10.6107
edit	-10.6107
tratio	-10.6108
▁hall	-10.6109
▁authori	-10.6109
icl	-10.6112
fication	-10.6114
omet	-10.6114
ier	-10.6116
ised	-10.6117
▁iss	-10.6117
opte	-10.6125
clos	-10.6127
luence	-10.6127
▁incre	-10.6127
rni	-10.6129
▁er	-10.6131
,'	-10.6133
nfl	-10.6133
nua	-10.6133
icall	-10.6135
search	-10.6135
▁participa	-10.6138
cover	-10.6141
ulation	-10.6143
▁Northe	-10.6143
ainti	-10.6144
teria	-10.6144
rict	-10.6146
▁prope	-10.6147
orito	-10.6148
gnated	-10.6155
comme	-10.6157
eis	-10.6159
▁Yoshitsune	-10.6161
Cultural	-10.6161
inan	-10.6161
ducati	-10.6163
uation	-10.6163
▁kille	-10.6163
tainers	-10.6166
▁oft	-10.6167
▁good	-10.6167
tobe	-10.6169
sca	-10.617
▁requ	-10.6174
espe	-10.6177
ndant	-10.6177
pecially	-10.6177
IKA	-10.6178
dicate	-10.6178
erence	-10.6178
rp	-10.6183
▁divi	-10.6183
apit	-10.6185
oshima	-10.6186
ifie	-10.619
▁ten	-10.619
Kok	-10.6192
erature	-10.6193
▁letter	-10.6193
erate	-10.6197
dministrative	-10.6198
odai	-10.6198
spi	-10.6202
mato	-10.6203
seven	-10.6203
enio	-10.6208
regarded	-10.6208
▁stre	-10.621
conduct	-10.6212
▁Festival	-10.6214
ebr	-10.6216
pul	-10.6218
increase	-10.6219
wate	-10.6219
oducti	-10.6225
troduce	-10.6225
esul	-10.6229
▁Tosh	-10.6233
lage	-10.6235
▁medi	-10.6236
July	-10.6245
defe	-10.6245
▁point	-10.6245
Sai	-10.6247
lef	-10.6247
niv	-10.6253
endar	-10.6256
▁central	-10.6256
ober	-10.6258
River	-10.6259
private	-10.6262
Empre	-10.6265
deyo	-10.6266
nsferred	-10.6266
Octo	-10.6269
passed	-10.6269
consist	-10.6271
roku	-10.6271
fficer	-10.6273
uthe	-10.6274
▁theref	-10.6276
show	-10.6277
tsug	-10.6277
Rail	-10.6287
tionally	-10.6287
irakawa	-10.629
ntioned	-10.629
conce	-10.6292
urthe	-10.6292
▁occu	-10.6292
laye	-10.6293
cumen	-10.6295
tack	-10.6295
type	-10.6295
▁adm	-10.6295
▁reas	-10.6295
ccessi	-10.6296
▁stone	-10.6296
ctob	-10.6298
rity	-10.6298
Fuk	-10.63
amas	-10.63
thron	-10.6302
villa	-10.6302
performa	-10.6303
▁volum	-10.6304
▁fina	-10.6305
formation	-10.6308
villag	-10.6312
okug	-10.6314
▁Cultura	-10.6314
▁Jan	-10.6314
bef	-10.6316
mation	-10.632
ucte	-10.6324
▁Dynas	-10.6324
▁names	-10.6328
stre	-10.633
Yoshino	-10.6332
followe	-10.6332
district	-10.6335
igna	-10.6338
nori	-10.6343
tsuryo	-10.6344
Fuku	-10.6348
tue	-10.6348
▁Durin	-10.6348
▁Genji	-10.6348
completed	-10.635
alon	-10.6353
poem	-10.6353
roma	-10.6353
▁treat	-10.6356
laced	-10.6358
▁exce	-10.6358
lder	-10.6359
ovement	-10.6359
Higas	-10.6361
Southe	-10.6364
▁conducted	-10.6368
▁ow	-10.6368
bove	-10.6369
uh	-10.6372
mik	-10.6376
ticle	-10.6378
aimy	-10.638
esearch	-10.6383
shiyama	-10.6383
orted	-10.6385
articula	-10.6388
ques	-10.6388
▁arti	-10.6388
▁territori	-10.6388
lemen	-10.6391
▁authorit	-10.6392
▁forces	-10.6392
▁provinces	-10.6395
▁making	-10.6397
opul	-10.6399
tone	-10.6399
uent	-10.6404
ildre	-10.6405
cit	-10.6406
▁June	-10.6408
ldren	-10.6411
aced	-10.6412
iddl	-10.6412
▁SA	-10.6414
▁prefectur	-10.6415
ae	-10.6416
blishment	-10.6416
mun	-10.6416
sue	-10.6416
ugus	-10.6417
eived	-10.6421
▁bl	-10.6422
llag	-10.6425
espon	-10.6428
town	-10.6428
▁toge	-10.6428
expe	-10.6431
rticular	-10.6431
tice	-10.6431
cro	-10.6434
still	-10.6435
gust	-10.6436
▁descendants	-10.6436
fai	-10.6438
aise	-10.6439
cula	-10.6439
bles	-10.6442
etter	-10.6442
▁culture	-10.6447
▁ordered	-10.6447
metime	-10.6448
daimy	-10.6452
stone	-10.6452
feat	-10.6458
para	-10.6458
lot	-10.6458
miss	-10.646
rship	-10.6462
▁headed	-10.6462
documents	-10.6464
▁allow	-10.6464
▁gradua	-10.6467
itsury	-10.6468
▁auth	-10.6472
proximately	-10.6474
ssociati	-10.6479
adv	-10.648
▁soldie	-10.6481
Yoshitsune	-10.6482
urthermore	-10.6482
eud	-10.6485
strong	-10.6485
ffair	-10.6485
▁intr	-10.6485
esident	-10.6491
tories	-10.6493
ntur	-10.6495
▁mast	-10.6495
SHIK	-10.6498
▁rig	-10.6498
anda	-10.6501
crease	-10.6501
somet	-10.6502
revi	-10.6503
hment	-10.6509
presentati	-10.6509
▁calligraph	-10.6511
hins	-10.6511
▁Mus	-10.6511
paper	-10.6516
▁Sout	-10.6516
center	-10.6517
An	-10.652
▁wat	-10.6522
Is	-10.6525
mande	-10.6526
eish	-10.6528
open	-10.6528
▁conduc	-10.6528
entral	-10.6529
mander	-10.6529
ntrod	-10.6536
olic	-10.6536
Katsu	-10.6539
Wh	-10.6541
AIRA	-10.6544
Miya	-10.6544
respo	-10.6546
Nihonshoki	-10.6549
defeat	-10.6549
epart	-10.6549
itut	-10.6555
cem	-10.6555
bility	-10.6557
tir	-10.6557
▁Nak	-10.656
Fuji	-10.6566
eligious	-10.6566
oldi	-10.6566
▁Tokug	-10.6566
▁guard	-10.6566
▁method	-10.6571
Augu	-10.6574
eive	-10.6574
Yoshitsun	-10.658
velopment	-10.658
rgan	-10.6582
dor	-10.6584
AG	-10.6585
Niho	-10.6585
▁literature	-10.6585
anding	-10.6586
▁Ga	-10.6586
yori	-10.6587
zum	-10.659
▁defeated	-10.6592
development	-10.6593
ociation	-10.6593
▁deci	-10.6593
▁relig	-10.6594
▁privat	-10.6595
ield	-10.6596
net	-10.6596
connect	-10.66
▁TOK	-10.6601
distr	-10.661
racters	-10.6614
▁provid	-10.6614
kuga	-10.6615
ASHIK	-10.6617
ectiv	-10.6617
music	-10.6617
▁away	-10.6617
existe	-10.6619
peared	-10.6619
shrined	-10.6619
▁stron	-10.6623
▁compil	-10.6623
▁assi	-10.6624
indi	-10.6626
sake	-10.6628
nsist	-10.6631
uthor	-10.6631
▁ASHI	-10.6631
owa	-10.6633
icipa	-10.6634
shou	-10.6636
ovinces	-10.6638
disciple	-10.6642
hy	-10.6642
cy	-10.6646
Pal	-10.6649
mod	-10.6649
ducti	-10.6651
ampl	-10.6653
standing	-10.6653
▁distinguish	-10.6656
13	-10.6657
aza	-10.6658
ogo	-10.666
▁Nat	-10.6661
artment	-10.6662
guard	-10.6662
making	-10.6664
vate	-10.6664
enerations	-10.6665
highe	-10.6665
quent	-10.6669
Febr	-10.6669
West	-10.6672
alend	-10.6675
ruar	-10.6678
ecre	-10.668
brua	-10.6683
ebru	-10.6683
ncia	-10.6683
▁Monogatari	-10.6683
▁MATSU	-10.6684
visional	-10.6686
Chu	-10.6689
atel	-10.6689
buna	-10.6691
echnique	-10.6691
igas	-10.6691
ntry	-10.6691
road	-10.6691
▁middl	-10.6693
provinces	-10.6697
000	-10.6699
eded	-10.6702
koto	-10.6702
sive	-10.6702
urrently	-10.6702
ssal	-10.6705
▁grad	-10.6706
▁areas	-10.6709
reli	-10.6711
bed	-10.6711
▁hu	-10.6713
territori	-10.6715
▁law	-10.6716
festiv	-10.6717
ctively	-10.6719
etimes	-10.6722
▁alo	-10.6722
▁Keihan	-10.6724
stance	-10.6726
▁cor	-10.6727
▁TOYOTOMI	-10.6728
dra	-10.673
ocuments	-10.673
▁Fushimi	-10.673
▁eight	-10.673
ribut	-10.6731
▁difficult	-10.6734
ssistant	-10.6735
Nishi	-10.6737
eligi	-10.6737
ista	-10.6741
eparat	-10.6742
resentative	-10.6744
ppro	-10.6749
Restoration	-10.6751
epres	-10.6751
ovisiona	-10.6752
▁provide	-10.6752
wif	-10.6755
▁join	-10.6755
▁achieve	-10.6757
ilw	-10.6759
intro	-10.6762
tribu	-10.6762
gne	-10.6763
uryo	-10.6766
▁participat	-10.6766
ctic	-10.6769
eturne	-10.6771
▁mod	-10.6771
▁vas	-10.6771
usan	-10.6774
,000	-10.6782
ficials	-10.6782
▁Tsun	-10.6782
▁originate	-10.6782
icu	-10.6788
inated	-10.6788
itsur	-10.6789
▁article	-10.6791
▁State	-10.6792
ssue	-10.6793
charg	-10.6796
originat	-10.6796
Furthermore	-10.6797
fun	-10.6803
store	-10.6803
mana	-10.6805
rag	-10.6805
▁techn	-10.6805
llin	-10.6807
▁wea	-10.6807
nistry	-10.6809
sequently	-10.6809
ibut	-10.681
Dece	-10.6813
▁Shimo	-10.6813
rave	-10.6816
rist	-10.6819
prefectur	-10.6821
▁qu	-10.6821
ciat	-10.6824
cilor	-10.6824
▁meaning	-10.6824
stituti	-10.6826
▁every	-10.683
wak	-10.6832
ecem	-10.6832
IKAGA	-10.6835
cemb	-10.6835
ending	-10.6838
etir	-10.6838
▁oc	-10.684
▁foo	-10.6844
ripti	-10.6845
▁allowed	-10.6846
dge	-10.6851
▁nobles	-10.6855
eved	-10.6858
▁princip	-10.6858
materials	-10.6859
▁conflict	-10.6859
HIKAG	-10.6862
▁Goshirakawa	-10.6863
ront	-10.6866
▁cente	-10.6867
▁allo	-10.6869
▁vill	-10.6869
▁Kur	-10.6872
ditionally	-10.6873
lai	-10.6874
vere	-10.6877
ntu	-10.6878
centra	-10.688
▁Jul	-10.688
pal	-10.6882
▁Ap	-10.6884
dmin	-10.6886
ching	-10.6887
actice	-10.6888
efectural	-10.689
pora	-10.6891
velope	-10.6893
harge	-10.6894
ience	-10.6894
stry	-10.6894
▁Ak	-10.6897
▁Sengoku	-10.6897
discipl	-10.69
ible	-10.69
oreign	-10.6901
repres	-10.6901
roa	-10.6901
▁Empr	-10.6901
unge	-10.6902
▁div	-10.6902
nshri	-10.6904
ferenc	-10.6905
ims	-10.6907
▁instead	-10.6908
wou	-10.6912
▁administrative	-10.6912
ix	-10.6914
▁expr	-10.6915
headed	-10.6918
ander	-10.6919
Hir	-10.692
▁independen	-10.692
hits	-10.6922
nsfer	-10.6926
ifu	-10.6928
shmen	-10.6929
asty	-10.693
egan	-10.693
onally	-10.693
▁process	-10.693
aniz	-10.6933
tuation	-10.6934
siness	-10.6935
▁Because	-10.6936
▁view	-10.6936
disp	-10.6939
eferr	-10.694
IK	-10.694
dori	-10.6942
▁foreign	-10.6942
▁similar	-10.6942
Nati	-10.6945
administrative	-10.6949
oshino	-10.6952
usehold	-10.6954
▁mainl	-10.6956
YAM	-10.6958
North	-10.6961
company	-10.6964
shina	-10.6964
hus	-10.6966
olu	-10.6966
ayama	-10.6968
Fushimi	-10.6969
ansferr	-10.6969
shing	-10.6971
Peri	-10.6973
exa	-10.6973
privat	-10.6973
uest	-10.6973
usines	-10.6973
untry	-10.6975
olum	-10.6976
▁Tang	-10.6978
ministrative	-10.6981
tici	-10.6981
words	-10.6982
div	-10.6986
played	-10.6986
adin	-10.6987
▁founded	-10.6987
ducat	-10.6989
TOKU	-10.6993
sequent	-10.6993
aded	-10.6998
capi	-10.6998
▁retired	-10.6998
▁unt	-10.6998
manag	-10.7
hug	-10.7
shig	-10.7001
sistan	-10.7003
saki	-10.7004
nem	-10.7005
▁14	-10.7005
▁roo	-10.701
▁moder	-10.7011
▁supporte	-10.7011
For	-10.7013
eadin	-10.7014
classi	-10.7015
▁Kon	-10.7015
Un	-10.7018
lete	-10.7018
▁sim	-10.7018
lture	-10.7025
tates	-10.7025
Kiyo	-10.7027
onin	-10.7027
inciden	-10.7028
▁provincial	-10.7029
Muro	-10.703
moder	-10.7032
ddha	-10.7032
nort	-10.7032
apt	-10.7037
▁Oct	-10.7038
IRA	-10.7039
bilit	-10.7039
essed	-10.7039
onta	-10.7041
▁olde	-10.7042
Kat	-10.7043
Grad	-10.7044
ames	-10.7044
enerally	-10.7044
oti	-10.7047
▁aw	-10.7047
several	-10.7048
issued	-10.7049
meters	-10.7049
nogatari	-10.7049
rovisi	-10.7049
sus	-10.7049
nner	-10.7052
▁brought	-10.7055
▁council	-10.7055
▁organiza	-10.7056
▁authority	-10.7057
ontain	-10.7058
Han	-10.7062
especially	-10.7064
gnat	-10.7064
quest	-10.7064
▁stil	-10.7064
ifth	-10.7067
ndan	-10.7067
esce	-10.7069
swor	-10.7069
coming	-10.7071
▁characteristic	-10.7071
Since	-10.7074
opt	-10.7079
menti	-10.7082
▁Tr	-10.7082
np	-10.7082
anot	-10.7084
descendants	-10.7084
▁indicat	-10.7084
flo	-10.7088
ovisio	-10.7088
▁severa	-10.7088
▁techni	-10.7088
▁troops	-10.7088
abi	-10.7092
ette	-10.7092
houl	-10.7092
▁studie	-10.7093
ements	-10.7097
▁TAIRA	-10.7097
oldiers	-10.7098
elong	-10.7099
structur	-10.7101
eased	-10.7103
iness	-10.7103
nshu	-10.7104
eav	-10.7105
calligraph	-10.7107
poet	-10.7107
▁approximately	-10.7108
▁carr	-10.711
▁Western	-10.7112
rivate	-10.7114
structure	-10.7114
▁7	-10.7115
▁cit	-10.7115
rtain	-10.7117
ritory	-10.7118
▁especially	-10.7123
Man	-10.7127
Sept	-10.7127
participa	-10.7127
polic	-10.7128
Minamoto	-10.713
▁schools	-10.713
▁warrior	-10.713
▁Higa	-10.7132
▁orga	-10.7132
ait	-10.7133
ptem	-10.7135
▁musi	-10.7135
▁Dec	-10.7138
approximate	-10.7139
stron	-10.7139
currently	-10.714
▁relative	-10.714
▁daim	-10.7142
situat	-10.7144
tam	-10.7144
gani	-10.7147
eloped	-10.7148
missi	-10.715
UR	-10.7151
atch	-10.7153
istered	-10.7153
▁Om	-10.7155
det	-10.7157
itted	-10.7157
nki	-10.7157
Univ	-10.7158
itho	-10.7158
tanding	-10.7158
▁wil	-10.7158
assumed	-10.7163
ountries	-10.7164
ivat	-10.7167
Tos	-10.7168
inati	-10.7168
Keihan	-10.717
terature	-10.717
orga	-10.7176
ciple	-10.7178
related	-10.7178
titutio	-10.7178
▁Kiy	-10.7178
Cho	-10.7181
uence	-10.7182
▁volu	-10.7182
itution	-10.7184
ritom	-10.7186
usu	-10.7189
rone	-10.719
Northe	-10.7191
ionshi	-10.7191
▁works	-10.7191
ibed	-10.7193
onship	-10.7196
vass	-10.7196
Festival	-10.7199
meaning	-10.7199
▁Fuj	-10.7199
ham	-10.72
uy	-10.72
▁Gover	-10.72
▁repre	-10.72
eaning	-10.7204
retire	-10.7204
michi	-10.7207
▁structure	-10.7207
County	-10.7209
Sec	-10.7209
ssistan	-10.7209
▁protect	-10.721
ithin	-10.7211
kille	-10.7211
▁custom	-10.7214
suka	-10.7216
ovinci	-10.7218
epend	-10.7218
Toshi	-10.7222
ark	-10.7222
incial	-10.7222
roc	-10.7224
▁structur	-10.7224
fairs	-10.7225
▁generally	-10.7229
Mat	-10.7231
fron	-10.7231
itin	-10.7231
tury	-10.7231
uently	-10.7231
▁Mot	-10.7231
ocation	-10.7234
cendan	-10.7235
hiraka	-10.7235
▁marri	-10.7235
oder	-10.7239
ivate	-10.724
oet	-10.7241
Am	-10.7244
ligio	-10.7244
mainly	-10.7244
provision	-10.7244
▁Kats	-10.7244
▁abolished	-10.7244
vas	-10.7246
tually	-10.7248
lishmen	-10.7249
alligraph	-10.725
airs	-10.7251
omiy	-10.7251
pproximate	-10.7251
▁May	-10.7251
anage	-10.7255
oem	-10.7255
eede	-10.7257
authori	-10.726
erforma	-10.726
ormance	-10.7265
Nove	-10.7265
▁retir	-10.7265
gate	-10.7268
sons	-10.7268
veme	-10.7268
nique	-10.7269
nship	-10.7269
Kag	-10.7272
nobu	-10.7274
lassi	-10.7276
oshitsune	-10.7276
▁movement	-10.7276
bran	-10.7277
▁bea	-10.7277
operty	-10.7279
TS	-10.728
central	-10.728
ompleted	-10.728
▁gradually	-10.728
▁spr	-10.728
nog	-10.7281
▁Lo	-10.7281
zuk	-10.7283
▁pur	-10.7283
law	-10.7285
▁education	-10.7287
less	-10.7289
urom	-10.7289
▁characteri	-10.729
mitt	-10.7292
ormation	-10.7292
oshitsun	-10.7292
Senio	-10.7295
ligh	-10.7295
unded	-10.7295
dop	-10.7296
izat	-10.7298
▁Kai	-10.73
Ieyas	-10.7302
ofu	-10.7311
names	-10.7313
ociat	-10.7317
▁repr	-10.7317
▁Sep	-10.7318
princip	-10.7321
ihi	-10.7322
▁occurred	-10.7322
Kawa	-10.7327
▁Wak	-10.7327
cular	-10.7327
etime	-10.7331
oldier	-10.7331
▁lif	-10.7333
espect	-10.7336
▁Z	-10.7338
HIK	-10.7342
▁Waka	-10.7342
▁ever	-10.7346
▁half	-10.7346
Cultur	-10.7349
La	-10.7352
ingu	-10.7353
▁pop	-10.7353
bir	-10.7355
Kami	-10.7356
ivisi	-10.7357
▁Ichi	-10.7357
raka	-10.7359
assume	-10.7362
distinguish	-10.7363
▁themselves	-10.7363
▁fron	-10.7364
lem	-10.7366
literature	-10.7368
rman	-10.7368
ujiwara	-10.7372
xc	-10.7374
lend	-10.7377
▁Wes	-10.7377
▁det	-10.7377
▁tro	-10.7377
famous	-10.738
mast	-10.738
lum	-10.7382
typ	-10.7382
ginning	-10.7383
letter	-10.7384
someti	-10.7384
▁student	-10.7386
sas	-10.7388
refers	-10.7393
vie	-10.7393
proce	-10.7394
life	-10.7397
▁ob	-10.74
▁Kita	-10.7401
conducted	-10.7402
▁cause	-10.7402
▁186	-10.7403
feu	-10.7404
eared	-10.7405
▁guar	-10.7405
ikan	-10.7406
▁actual	-10.7408
Pe	-10.7409
cei	-10.7415
▁associat	-10.7415
lecte	-10.7416
▁oppo	-10.7416
operate	-10.7419
Mon	-10.7419
▁Lower	-10.7419
▁Aug	-10.7421
▁Shing	-10.7424
haracteristic	-10.7427
organiza	-10.7427
roximately	-10.7427
▁Family	-10.7429
article	-10.7434
rence	-10.7438
ives	-10.7439
compani	-10.7439
▁played	-10.7439
Per	-10.7442
dance	-10.7442
etu	-10.7442
▁producti	-10.7442
ificati	-10.7445
nago	-10.7448
torie	-10.7449
infl	-10.7451
inning	-10.7451
▁calligrap	-10.7456
mats	-10.7459
Tokug	-10.746
▁prefectu	-10.7462
▁founder	-10.7462
inued	-10.7464
▁Mik	-10.7465
nsen	-10.7468
rite	-10.7468
▁paper	-10.7468
▁studi	-10.7468
havi	-10.7471
image	-10.7471
rais	-10.7471
occ	-10.7475
ncrease	-10.7481
warrior	-10.7481
▁Dainagon	-10.7482
Com	-10.7484
uat	-10.7484
gnate	-10.7486
ods	-10.7486
▁Stre	-10.7486
▁docu	-10.7486
▁Omi	-10.7489
▁pref	-10.749
▁books	-10.7491
Cultura	-10.7491
Minam	-10.7494
allow	-10.7494
enk	-10.7497
sever	-10.7497
Ok	-10.75
sma	-10.75
sold	-10.7501
tors	-10.7501
resentati	-10.7502
alli	-10.7504
authorit	-10.7504
▁thin	-10.7505
Hiro	-10.7507
egarded	-10.7507
aterials	-10.751
grad	-10.751
▁swo	-10.751
ecially	-10.7512
Moto	-10.7513
sses	-10.7516
▁Nort	-10.7516
▁distinguis	-10.7517
ique	-10.7519
▁Sou	-10.7519
▁abolish	-10.7522
▁Nish	-10.7527
smal	-10.7528
ateri	-10.7531
escendants	-10.7531
stant	-10.7531
▁Yamashi	-10.7534
rthermore	-10.7535
▁begin	-10.7535
ordered	-10.7538
▁Ieya	-10.7538
Uni	-10.7542
▁research	-10.7542
itory	-10.7546
uded	-10.7546
▁Mai	-10.7546
▁beginn	-10.7549
▁spirit	-10.7554
Di	-10.7555
fair	-10.7555
aigo	-10.7558
▁Feb	-10.7558
will	-10.7561
ngin	-10.7564
▁related	-10.7564
gus	-10.7565
▁representative	-10.7565
ored	-10.7567
toge	-10.7567
▁famou	-10.7567
ector	-10.7572
▁five	-10.7572
achin	-10.7576
supporte	-10.7576
volum	-10.7576
nging	-10.758
vided	-10.758
characteristic	-10.758
flue	-10.7585
tari	-10.7585
gur	-10.7587
troop	-10.7587
En	-10.7591
luen	-10.7591
ages	-10.7594
rits	-10.7594
ihonshoki	-10.7596
sferred	-10.7596
daij	-10.7597
independen	-10.7598
wes	-10.7598
▁role	-10.7598
ecords	-10.7603
ructed	-10.7603
soldie	-10.7603
org	-10.7605
ante	-10.7606
▁status	-10.7607
pli	-10.7607
join	-10.7609
lume	-10.7609
proc	-10.7609
arat	-10.7612
dmi	-10.7614
bili	-10.7615
rative	-10.7617
ikawa	-10.7617
▁assu	-10.7617
▁ensh	-10.7621
uto	-10.7623
ices	-10.7624
▁achiev	-10.7628
Monogatari	-10.7629
▁poss	-10.7629
Mich	-10.763
tron	-10.7633
loo	-10.7635
ogy	-10.7635
▁separat	-10.7636
Yasu	-10.7642
edic	-10.7645
anin	-10.7648
▁Museum	-10.7649
▁HOSOKAWA	-10.765
inue	-10.7651
nflu	-10.7651
rakawa	-10.7653
▁Further	-10.7654
depen	-10.7655
rance	-10.7659
lag	-10.766
ollowe	-10.7662
assum	-10.7663
conta	-10.7663
participat	-10.7666
mete	-10.7669
▁marr	-10.767
▁assigned	-10.7671
sw	-10.7675
aba	-10.7678
assigned	-10.7679
onduct	-10.768
hereditary	-10.7682
▁hol	-10.7682
Si	-10.7689
action	-10.7689
orl	-10.7689
▁Shogunate	-10.7689
roperties	-10.7691
ainers	-10.7694
rule	-10.7694
stered	-10.7694
Hok	-10.7696
esentative	-10.7697
icult	-10.7697
rary	-10.7697
sumed	-10.7697
▁warri	-10.7698
Goshirakawa	-10.77
▁stro	-10.7701
rul	-10.7705
ectural	-10.7707
▁throne	-10.7707
Rai	-10.7712
ermi	-10.7712
nerations	-10.7712
pany	-10.7712
posthumous	-10.7712
rticula	-10.7713
quen	-10.7715
tructure	-10.7715
▁today	-10.7717
dern	-10.7718
oget	-10.7718
▁decide	-10.7718
ndai	-10.7721
till	-10.7724
rature	-10.7726
kot	-10.7728
conduc	-10.773
▁Sin	-10.773
sequen	-10.7735
nec	-10.7737
Count	-10.7739
Mina	-10.7739
education	-10.7739
ngl	-10.7744
onsist	-10.7744
sistant	-10.7745
defeated	-10.7745
▁Jin	-10.7745
theref	-10.7749
Miy	-10.7751
Sad	-10.7751
producti	-10.7752
ticular	-10.7755
5,	-10.7758
elopment	-10.7758
▁participate	-10.7758
isciple	-10.7761
onk	-10.7762
▁occurre	-10.7764
prope	-10.7765
▁instru	-10.7766
▁Hou	-10.7767
Apr	-10.7769
shiya	-10.7769
History	-10.7771
erated	-10.7771
difficult	-10.7774
ator	-10.7776
▁operate	-10.7776
gl	-10.7779
rama	-10.7779
view	-10.7779
prac	-10.7785
▁field	-10.7785
▁deit	-10.7788
▁put	-10.7788
nke	-10.779
divid	-10.7792
▁mana	-10.7792
erritori	-10.7794
nty	-10.7794
originate	-10.7794
▁accompan	-10.7794
asaki	-10.7796
elli	-10.7801
▁remains	-10.7801
ws	-10.7804
MURA	-10.7807
ached	-10.7811
▁Genj	-10.7811
TOYOTOMI	-10.7813
gradua	-10.7813
▁We	-10.7813
esigned	-10.7814
representative	-10.7814
sociati	-10.7814
ounty	-10.7815
fus	-10.7818
▁MATSUDAIRA	-10.7818
Shimo	-10.7819
hronicle	-10.7819
▁decided	-10.7819
▁gat	-10.7822
dem	-10.7824
cting	-10.7827
middl	-10.7827
nsti	-10.7828
Histo	-10.7831
Western	-10.7836
spon	-10.7838
rld	-10.7838
compil	-10.7841
ATS	-10.7843
lif	-10.7843
onstitution	-10.7843
▁surround	-10.7843
Batt	-10.7847
June	-10.785
fea	-10.785
▁cloth	-10.785
inistrative	-10.7851
foreign	-10.7852
Yu	-10.7853
mano	-10.7856
▁Department	-10.786
assed	-10.7865
omen	-10.7865
▁Mic	-10.7865
▁company	-10.7868
epe	-10.7871
ushimi	-10.7873
ighe	-10.7875
incre	-10.7877
▁succession	-10.7877
itionally	-10.7878
luenc	-10.7881
ncrea	-10.7881
▁stop	-10.7881
KAW	-10.7882
▁poems	-10.7882
gami	-10.7884
irector	-10.7885
▁worship	-10.7887
Dynas	-10.7889
▁acce	-10.7889
ipa	-10.7889
tructur	-10.789
cove	-10.7893
oshik	-10.7896
ovemen	-10.7896
rently	-10.7896
shiro	-10.7896
oft	-10.7899
▁TOYOTOM	-10.7899
earch	-10.79
ligious	-10.7901
shiy	-10.7902
sout	-10.7902
▁Shos	-10.7904
▁They	-10.7904
Alt	-10.7906
egen	-10.7906
forces	-10.7906
temporar	-10.7906
tog	-10.7906
rganiza	-10.7906
allo	-10.7909
Acc	-10.791
onnect	-10.791
▁custo	-10.791
▁Satsuma	-10.7912
aff	-10.7915
fica	-10.7915
shiyam	-10.7915
▁priv	-10.7916
Ken	-10.792
fes	-10.792
ibi	-10.792
xpr	-10.792
hime	-10.7921
tted	-10.7921
▁accomp	-10.7923
volu	-10.7924
bega	-10.7927
chika	-10.7927
cus	-10.7929
xam	-10.7929
▁makin	-10.7929
Tosh	-10.793
nkno	-10.793
▁ano	-10.793
method	-10.7934
▁restor	-10.7934
istinguish	-10.7935
danc	-10.7937
exce	-10.7937
bject	-10.7939
▁Fujiwa	-10.7939
▁incr	-10.7939
hape	-10.794
generally	-10.7941
field	-10.7943
ntri	-10.7943
tect	-10.7943
▁sel	-10.7943
ritsu	-10.7947
▁Ritsuryo	-10.7948
Hous	-10.7949
allowed	-10.7955
priv	-10.7958
raise	-10.7958
tanc	-10.7962
erenc	-10.7966
istry	-10.7966
riginat	-10.7966
▁fire	-10.7966
ansf	-10.7968
▁Ne	-10.7969
rivat	-10.797
▁Bat	-10.7971
▁teach	-10.7971
onge	-10.7974
KUGA	-10.7977
centr	-10.7978
okush	-10.7978
▁History	-10.798
visiona	-10.7983
erit	-10.7983
strate	-10.7985
ldest	-10.7986
ucati	-10.7986
trac	-10.7987
usic	-10.7987
▁fig	-10.7987
icated	-10.799
parat	-10.799
sident	-10.799
▁Prefectural	-10.799
▁heade	-10.799
prefectu	-10.7993
▁affairs	-10.7993
onshi	-10.7994
provide	-10.7994
idd	-10.7999
ificat	-10.7999
▁rol	-10.8002
conflict	-10.8005
kyu	-10.8006
tsury	-10.8009
retired	-10.801
OKUG	-10.8015
Yamashi	-10.8016
enden	-10.8017
cession	-10.8021
isional	-10.8021
process	-10.8021
▁rou	-10.8021
daim	-10.8024
aishi	-10.8025
chnique	-10.8027
▁althou	-10.8027
relig	-10.8029
Sengoku	-10.8032
kim	-10.8032
ndependen	-10.8032
▁Fushim	-10.8032
▁prote	-10.8032
▁caus	-10.8037
▁compile	-10.8037
▁condu	-10.8037
rrently	-10.8038
elec	-10.804
stil	-10.804
provid	-10.8042
ests	-10.8043
guar	-10.8043
▁Toki	-10.8045
Gove	-10.8046
articipa	-10.8049
equi	-10.8049
thor	-10.8049
authority	-10.8053
itsune	-10.8056
dditionally	-10.8057
nou	-10.806
rum	-10.806
tsugu	-10.806
ajo	-10.8063
▁poin	-10.8064
cuments	-10.8065
eiv	-10.8065
▁Taira	-10.8065
▁kan	-10.8065
▁study	-10.8065
3,	-10.8067
fectural	-10.8068
trate	-10.8068
achieve	-10.8071
abolished	-10.8075
▁med	-10.8075
▁originated	-10.8075
At	-10.8076
approximat	-10.8076
founded	-10.8076
imy	-10.8079
Yas	-10.8082
sla	-10.8082
student	-10.8082
Because	-10.8087
good	-10.8087
▁vassals	-10.8087
▁Dyna	-10.8088
Ac	-10.8089
hiko	-10.809
characteri	-10.8092
alth	-10.8094
associat	-10.8094
tore	-10.8094
Durin	-10.8096
ficer	-10.8096
ilie	-10.8097
nage	-10.8097
onn	-10.8098
▁compo	-10.8098
14	-10.81
ntati	-10.81
insh	-10.8103
perate	-10.8103
▁comme	-10.8103
eaded	-10.8104
▁affair	-10.8104
▁regula	-10.8104
▁metho	-10.8108
▁ston	-10.8108
shap	-10.8109
hot	-10.8113
cum	-10.8115
similar	-10.8115
oming	-10.8116
eik	-10.8117
Be	-10.8122
doc	-10.8122
▁independent	-10.8122
▁priva	-10.8122
▁major	-10.8127
ology	-10.8128
KAGA	-10.8128
ooks	-10.8128
ayo	-10.8132
operated	-10.8132
rtment	-10.8132
▁Mori	-10.8132
▁successor	-10.8132
riva	-10.8135
lectric	-10.8137
▁Nov	-10.8138
essor	-10.814
works	-10.814
relate	-10.8141
hih	-10.8143
▁throughout	-10.8144
▁councilor	-10.8147
ule	-10.8148
▁HO	-10.8148
adm	-10.8151
angi	-10.8151
calligrap	-10.8153
acters	-10.8155
suryo	-10.8155
▁Kane	-10.8159
away	-10.816
hrined	-10.816
▁Governor	-10.816
▁color	-10.816
butsu	-10.8163
emor	-10.8163
satsu	-10.8163
everal	-10.8165
ograph	-10.8165
iple	-10.8167
relative	-10.817
▁Association	-10.817
eihan	-10.8171
ajor	-10.8173
iscipl	-10.8175
Bo	-10.8176
▁allowe	-10.8176
aira	-10.8179
marri	-10.8179
reque	-10.8179
vinces	-10.8179
instead	-10.8182
ogi	-10.8182
aper	-10.8183
▁far	-10.8183
▁Keiha	-10.8184
Jan	-10.8186
▁Kyushu	-10.8187
▁monk	-10.8187
▁palace	-10.8187
eyas	-10.8189
incide	-10.8189
▁learn	-10.8189
▁los	-10.8189
Sch	-10.8191
Sout	-10.8195
five	-10.8195
ormal	-10.8195
gna	-10.8196
▁site	-10.8207
▁achievement	-10.8208
rdered	-10.8213
▁married	-10.8214
ordina	-10.8218
orin	-10.8218
rincip	-10.8218
cee	-10.8222
trong	-10.8223
▁Sengok	-10.8226
▁accept	-10.8226
aracteristic	-10.8227
cente	-10.8227
▁accom	-10.8227
Tang	-10.823
eaching	-10.8232
▁advan	-10.8232
entati	-10.8237
possib	-10.8237
non	-10.8242
iraka	-10.8243
▁Office	-10.8243
▁unk	-10.8243
2,	-10.8247
ipl	-10.8247
Department	-10.8251
books	-10.8251
▁shor	-10.8251
▁vo	-10.8251
▁ele	-10.8253
▁distinguished	-10.8255
akawa	-10.8255
ctivel	-10.8256
nko	-10.8256
rmin	-10.8256
ttin	-10.8256
udo	-10.8256
efeat	-10.8259
▁fie	-10.8259
▁wood	-10.8259
▁abolishe	-10.8261
▁sma	-10.8263
ometi	-10.8263
radua	-10.8263
ayoshi	-10.8266
eces	-10.8266
▁supported	-10.8267
gradually	-10.8268
▁Electric	-10.8268
▁representati	-10.8269
indicat	-10.8271
rease	-10.8271
tribute	-10.8271
▁follows	-10.8272
uses	-10.8279
▁highest	-10.8279
actor	-10.8279
ibl	-10.8283
yna	-10.8283
inaga	-10.8284
layed	-10.8284
vill	-10.8285
▁posthumous	-10.8285
▁relativ	-10.8285
ikoto	-10.8288
dant	-10.8288
pproximat	-10.829
founder	-10.8294
poss	-10.8295
▁Kaw	-10.8295
cloth	-10.8296
osthumous	-10.8297
proximate	-10.8297
protect	-10.83
▁ment	-10.83
hiz	-10.8302
hoku	-10.8304
nobles	-10.8304
regula	-10.8304
▁tog	-10.8304
▁NA	-10.8307
Waka	-10.8308
distinguis	-10.8308
pened	-10.8308
MATS	-10.8311
etr	-10.8312
themselves	-10.8316
andi	-10.8317
dependen	-10.8317
▁Kit	-10.8317
ndu	-10.8319
ssumed	-10.8319
Fe	-10.8321
tudi	-10.8321
icials	-10.8324
ics	-10.8324
▁goo	-10.8324
pur	-10.8326
ston	-10.8327
▁six	-10.8327
ality	-10.8328
▁ground	-10.8328
peare	-10.8332
▁dan	-10.8334
ainly	-10.834
▁187	-10.834
companie	-10.8343
andin	-10.8348
▁attacked	-10.8348
▁ty	-10.8348
gua	-10.8351
schools	-10.8351
ntral	-10.8352
Higa	-10.8353
ecr	-10.8355
uin	-10.8355
logy	-10.8356
Chronicle	-10.8363
Shogunate	-10.8363
bush	-10.8363
occu	-10.8363
▁partici	-10.8363
bru	-10.8365
lectri	-10.8368
tituti	-10.8368
CH	-10.8369
lls	-10.8373
▁mer	-10.8373
enerall	-10.8373
▁pat	-10.8376
commen	-10.8377
Ichi	-10.8379
brought	-10.8379
eave	-10.8379
miko	-10.8379
nerally	-10.8379
rmation	-10.8379
aph	-10.8382
▁ens	-10.8382
ogatari	-10.8385
▁brough	-10.8385
expr	-10.8392
▁image	-10.8392
xiste	-10.8393
kon	-10.8395
Dainagon	-10.8395
movement	-10.8395
▁structu	-10.8395
Maizuru	-10.8396
graphy	-10.8397
istant	-10.8397
nju	-10.8399
mainl	-10.8401
fina	-10.8402
goin	-10.8402
▁indica	-10.8408
▁request	-10.8408
iet	-10.8409
techn	-10.8409
▁Shik	-10.8409
eare	-10.8412
elated	-10.8412
techni	-10.8412
married	-10.8413
haracteri	-10.8414
provisio	-10.8415
epara	-10.8417
loped	-10.8417
ihan	-10.8418
alligrap	-10.8421
▁condition	-10.8421
redi	-10.8425
▁Guards	-10.8425
ctural	-10.8426
ashiyama	-10.8428
lligraph	-10.8428
every	-10.843
ulati	-10.843
structu	-10.843
▁joined	-10.843
▁approximate	-10.8431
auth	-10.8435
▁Wester	-10.8436
cipal	-10.8438
▁prev	-10.8438
certain	-10.8442
Association	-10.8446
Collection	-10.8446
makin	-10.8446
▁fourt	-10.8446
ienc	-10.8448
iteratu	-10.8448
▁cau	-10.8448
▁movemen	-10.8448
shitsune	-10.8454
Nat	-10.8456
udie	-10.8457
State	-10.8458
ilo	-10.8458
▁operated	-10.8458
▁relate	-10.8459
onom	-10.8461
anted	-10.8462
espo	-10.8464
ssin	-10.8464
▁priesthood	-10.8464
inamoto	-10.8465
▁Oc	-10.8466
▁ed	-10.8466
inam	-10.8471
pil	-10.8471
▁kind	-10.8471
oximately	-10.8473
ushu	-10.8474
▁midd	-10.8475
iyoshi	-10.8476
rav	-10.8476
erie	-10.8477
Fushim	-10.848
custom	-10.848
occurred	-10.848
▁compiled	-10.848
▁inherit	-10.848
▁involve	-10.848
areas	-10.8483
ncre	-10.8484
▁gave	-10.8487
▁visited	-10.8487
atsuma	-10.849
sehold	-10.849
▁prot	-10.8491
Empr	-10.8494
cing	-10.8494
roll	-10.8494
arrior	-10.8495
ereditary	-10.8495
studie	-10.8495
tme	-10.8495
untries	-10.8499
▁MATS	-10.8499
▁select	-10.8499
fort	-10.85
bil	-10.8503
actual	-10.8505
olished	-10.8505
▁Famil	-10.8505
▁carried	-10.8507
Kita	-10.851
articipat	-10.851
nsferr	-10.851
severa	-10.851
ilor	-10.8513
onducted	-10.8513
▁Riv	-10.8513
▁places	-10.8517
▁literatu	-10.8518
representati	-10.852
stanc	-10.852
▁Later	-10.852
tsuma	-10.8524
estora	-10.8525
▁Offic	-10.8525
▁treasure	-10.8525
ocum	-10.8527
latform	-10.8528
western	-10.8528
tut	-10.853
▁atten	-10.853
aci	-10.8532
color	-10.8532
festi	-10.8532
ype	-10.8532
▁tu	-10.8535
▁very	-10.8536
tations	-10.854
▁meters	-10.854
vation	-10.8545
emori	-10.8549
nfor	-10.855
Mai	-10.8555
▁Gon	-10.8556
▁SHI	-10.8556
▁Sane	-10.8557
ciati	-10.8561
inoge	-10.8561
repre	-10.8561
Satsuma	-10.8563
imag	-10.8563
tada	-10.8563
▁Guard	-10.8565
rdina	-10.8565
trib	-10.8566
MATSUDAIRA	-10.857
intr	-10.857
rotect	-10.857
hii	-10.8572
shok	-10.8573
hink	-10.8576
scendants	-10.8577
nized	-10.8578
▁associa	-10.858
▁fourth	-10.858
akush	-10.8582
▁Str	-10.8586
gis	-10.8587
wea	-10.859
amous	-10.859
hereditar	-10.8592
shitsun	-10.8592
Kon	-10.8595
althou	-10.8595
bea	-10.8595
dren	-10.8596
▁rit	-10.8596
bin	-10.8597
▁compos	-10.8598
rew	-10.86
TAIRA	-10.8603
tudie	-10.8603
troops	-10.8604
issi	-10.8606
research	-10.8606
rshi	-10.8606
ticl	-10.8606
▁prefect	-10.8606
ishing	-10.8609
▁Nis	-10.8609
▁vol	-10.8609
mpleted	-10.8615
▁distin	-10.8615
Nish	-10.8616
pare	-10.8616
leme	-10.8619
▁tech	-10.8619
participate	-10.8628
Tsun	-10.8629
cipl	-10.8629
ddl	-10.8632
warri	-10.8632
▁facilit	-10.8633
ldre	-10.8636
nsis	-10.8636
flu	-10.8639
half	-10.8639
ldiers	-10.8639
ogra	-10.8639
formati	-10.8645
usho	-10.8646
eters	-10.8649
deci	-10.865
▁6	-10.865
▁Tam	-10.865
oshirakawa	-10.8653
abolish	-10.8656
endin	-10.8657
oday	-10.866
Shing	-10.8661
dents	-10.8661
actu	-10.8663
hmen	-10.8663
uthori	-10.8665
lv	-10.8666
8,	-10.8668
elig	-10.867
elope	-10.867
oria	-10.8673
stea	-10.8676
▁Goshiraka	-10.8678
del	-10.868
esentati	-10.868
yuk	-10.868
▁western	-10.868
ows	-10.8682
sines	-10.8682
▁powerful	-10.8682
▁respective	-10.8683
Nak	-10.8685
amashi	-10.8685
ansh	-10.8686
ribu	-10.8686
shira	-10.8686
kag	-10.869
spirit	-10.869
Taira	-10.8691
▁Also	-10.8691
▁Mun	-10.8693
▁joi	-10.8696
buk	-10.8697
Kur	-10.87
accompan	-10.87
▁Ry	-10.87
timate	-10.8705
uthorit	-10.8709
▁respon	-10.8709
tora	-10.871
▁Kanto	-10.871
ctice	-10.8712
▁directly	-10.8712
thermore	-10.8713
itutio	-10.8715
jiwara	-10.8715
separat	-10.8715
xpe	-10.8715
usine	-10.8716
▁ku	-10.8717
eache	-10.872
ental	-10.872
honshoki	-10.872
iqu	-10.872
oreig	-10.872
tution	-10.872
▁Festiv	-10.8721
▁low	-10.8723
imilar	-10.8725
▁minister	-10.8728
heade	-10.8728
independent	-10.8729
okushi	-10.873
▁elde	-10.8733
bolished	-10.8733
oden	-10.8733
presenta	-10.8733
▁cho	-10.8733
lus	-10.8735
ubsequent	-10.8735
▁MA	-10.8735
▁occur	-10.8735
succession	-10.8737
natur	-10.8741
ontai	-10.8741
rovis	-10.8741
Kai	-10.8743
▁fest	-10.8745
trod	-10.8747
dey	-10.8748
▁Po	-10.8748
Family	-10.875
presented	-10.875
sentative	-10.875
ssigned	-10.875
legitimate	-10.8754
▁positions	-10.8754
▁report	-10.8756
Prefectural	-10.8757
▁surr	-10.8758
musi	-10.876
▁certain	-10.876
▁decid	-10.876
emporar	-10.8762
hirak	-10.8762
osuke	-10.8762
▁Au	-10.8763
Kats	-10.8764
priva	-10.8766
Nihonsho	-10.8767
ccu	-10.8768
tempora	-10.8768
erti	-10.8771
uenc	-10.8771
▁buildings	-10.8771
▁literat	-10.8774
vinci	-10.8775
▁8	-10.8777
Fi	-10.8779
ituat	-10.8779
tries	-10.8779
▁carrie	-10.878
▁alt	-10.8781
▁short	-10.8781
hisa	-10.8784
▁occurr	-10.8786
onstitutio	-10.8788
ssued	-10.8792
upporte	-10.8792
▁YAMA	-10.8792
van	-10.8793
forman	-10.8796
ormanc	-10.8796
shirakawa	-10.8796
▁last	-10.8796
eadi	-10.8798
remains	-10.8798
▁Mina	-10.88
epre	-10.8801
rforma	-10.8801
orporat	-10.8804
▁separate	-10.8804
nistrative	-10.8805
Mus	-10.8806
rmance	-10.8806
▁Gos	-10.8808
▁already	-10.8808
▁mis	-10.8808
ommen	-10.8809
sible	-10.8809
▁wom	-10.8811
retir	-10.8813
uly	-10.8814
HOSOKAWA	-10.8822
▁HOSOKAW	-10.8822
▁Propert	-10.8822
▁information	-10.8822
▁Tais	-10.8826
▁maki	-10.8826
distinguished	-10.8828
▁Zen	-10.8828
ashir	-10.8834
▁soci	-10.8834
ssist	-10.8839
aning	-10.8843
ssume	-10.8843
hai	-10.8844
terials	-10.8845
▁Uji	-10.8845
▁detail	-10.8845
▁opened	-10.8845
oso	-10.885
successor	-10.885
▁activities	-10.885
uz	-10.8852
TAK	-10.8855
▁sm	-10.8855
icip	-10.8856
ropertie	-10.8856
Fujiwa	-10.8862
nve	-10.8862
shor	-10.8862
▁assign	-10.8863
(1	-10.8864
▁indicate	-10.8865
operties	-10.8869
ila	-10.887
Office	-10.8873
ovisi	-10.8873
raised	-10.8873
▁except	-10.8875
riginate	-10.8876
▁priests	-10.8876
UGA	-10.8878
Ot	-10.8879
rown	-10.8879
▁poetry	-10.8881
iterat	-10.8883
▁Nihon	-10.8883
epen	-10.8886
▁possib	-10.8887
Dec	-10.8888
NAKA	-10.889
onstitut	-10.889
tti	-10.8893
today	-10.8894
▁involv	-10.8899
,"	-10.89
ompani	-10.8903
possible	-10.8903
pper	-10.8903
▁property	-10.8903
Keiha	-10.8907
lain	-10.8907
▁colo	-10.8907
lw	-10.8909
▁meter	-10.8909
Ritsuryo	-10.891
ifficult	-10.891
inherit	-10.8911
liz	-10.8911
iba	-10.8914
pir	-10.8914
anded	-10.8915
tende	-10.8915
ligi	-10.8917
▁distinguishe	-10.8917
▁fun	-10.8917
amb	-10.8919
condition	-10.8919
eep	-10.8919
ler	-10.8919
▁independ	-10.8919
▁NAKA	-10.892
Wak	-10.8924
correspond	-10.8924
estr	-10.8924
▁Fushi	-10.8924
opu	-10.8929
▁centr	-10.8929
uo	-10.8934
Jul	-10.8937
surround	-10.8938
▁Tom	-10.8941
sim	-10.895
▁AS	-10.8955
harg	-10.8958
▁granted	-10.8958
▁let	-10.8958
dha	-10.896
tral	-10.8962
▁seen	-10.8963
Further	-10.8965
icular	-10.8965
mpos	-10.8965
nstead	-10.8965
▁opinion	-10.8965
olish	-10.8967
▁opp	-10.8969
engoku	-10.8971
tudent	-10.8971
ionsh	-10.8971
▁fought	-10.8971
aged	-10.8972
comi	-10.8976
ogr	-10.8976
lent	-10.8979
istinguis	-10.8981
▁Furthe	-10.8984
originated	-10.8984
resse	-10.8984
▁Gove	-10.8984
ficati	-10.8986
rga	-10.8986
shih	-10.8986
atsur	-10.8989
stinguish	-10.8989
7,	-10.899
endants	-10.899
worship	-10.899
entative	-10.8993
beginn	-10.8996
foo	-10.8996
ipti	-10.8996
▁Tsune	-10.8996
▁shape	-10.8996
▁situ	-10.8997
ransport	-10.9
▁respons	-10.9
efeated	-10.9002
dera	-10.9007
okan	-10.9007
ppos	-10.9007
IKAG	-10.901
iwara	-10.901
oetry	-10.901
quar	-10.901
possibl	-10.9014
wood	-10.9014
oop	-10.9015
imon	-10.9017
uno	-10.9017
decided	-10.902
positions	-10.902
▁maintain	-10.902
▁just	-10.9023
depende	-10.9026
spr	-10.9028
▁provinci	-10.9028
Lower	-10.9032
hichi	-10.9032
anto	-10.9035
▁TAK	-10.9035
▁reti	-10.9036
ectively	-10.9042
igious	-10.9043
▁Du	-10.9046
aching	-10.9049
garded	-10.9049
▁imag	-10.9049
ructure	-10.905
alit	-10.9052
▁respectively	-10.9052
status	-10.9054
ithi	-10.9056
eremoni	-10.9056
kaido	-10.9058
sk	-10.9061
epr	-10.9062
ainagon	-10.9062
marr	-10.9062
tuall	-10.9062
nyo	-10.9064
urs	-10.9064
▁followed	-10.9067
achievement	-10.9069
occurre	-10.9069
▁achievemen	-10.9069
▁Fukuchiyama	-10.9069
nking	-10.9071
ompil	-10.9071
ayam	-10.9073
ecret	-10.9076
▁prefecture	-10.9078
ctual	-10.908
ressi	-10.908
▁5	-10.9082
▁Gu	-10.9083
▁platform	-10.9083
meth	-10.9083
▁vil	-10.9083
▁rese	-10.9084
lia	-10.9085
bs	-10.9087
▁educat	-10.9087
▁difference	-10.9088
eries	-10.9089
throughout	-10.9089
▁spiri	-10.909
lopment	-10.9093
TOK	-10.9096
longe	-10.9097
ndependent	-10.9097
racteristic	-10.9097
▁led	-10.9097
Oct	-10.9098
Museum	-10.9101
lette	-10.9102
perty	-10.9102
rong	-10.9104
compile	-10.9105
egula	-10.9106
▁involved	-10.9106
repr	-10.9108
▁Additionally	-10.9109
lope	-10.9111
uthority	-10.9111
ahi	-10.9114
▁occasion	-10.9114
fuku	-10.9115
sury	-10.9115
fth	-10.9117
▁Fifth	-10.9117
hronicl	-10.9118
esigne	-10.9122
ivis	-10.9122
▁dispatch	-10.9122
▁natur	-10.9122
rritori	-10.9124
▁Kannon	-10.9124
elon	-10.9125
▁vie	-10.9125
provisional	-10.9126
instru	-10.9127
stitute	-10.913
▁selected	-10.913
atsuk	-10.9132
nternational	-10.9132
oldie	-10.9132
treasure	-10.9132
▁Household	-10.9132
▁minist	-10.9136
owers	-10.9137
decide	-10.9138
palace	-10.9138
▁gradual	-10.9139
▁lost	-10.9141
TOYOTOM	-10.9142
▁Satsum	-10.9142
achiev	-10.9143
carr	-10.9146
OYOTOMI	-10.9148
highest	-10.9148
ronicle	-10.9148
rticul	-10.9148
▁spread	-10.9148
studi	-10.915
▁Nori	-10.915
sfer	-10.9153
▁prefe	-10.9153
iners	-10.9154
ldier	-10.9154
seque	-10.9154
writing	-10.9154
shme	-10.9157
pression	-10.9161
▁require	-10.9161
run	-10.9164
▁aboli	-10.9164
▁confe	-10.9164
Fuj	-10.9167
nformation	-10.9168
orces	-10.9168
▁aff	-10.9168
▁paintings	-10.9168
ATA	-10.9169
erta	-10.9171
isp	-10.9172
uards	-10.9172
▁lett	-10.9172
▁next	-10.9172
▁Kyu	-10.9175
▁immediate	-10.9176
yog	-10.9177
accomp	-10.918
ternal	-10.918
efers	-10.9181
▁restaurant	-10.9184
Nort	-10.9189
igio	-10.9189
ransportation	-10.9189
May	-10.919
minat	-10.9194
ishm	-10.9196
roce	-10.9196
famou	-10.9198
aido	-10.9206
orship	-10.9206
▁Electri	-10.921
▁any	-10.921
irak	-10.9213
abolishe	-10.9217
bit	-10.9217
ccession	-10.9217
ounder	-10.9217
▁thron	-10.9217
ucat	-10.9221
▁raise	-10.9222
Fukuchiyama	-10.9223
cked	-10.9224
supported	-10.9225
akatsu	-10.9228
docu	-10.9228
kka	-10.9228
ticula	-10.9228
▁Tair	-10.9229
bov	-10.923
shige	-10.9234
sions	-10.9234
useum	-10.9234
▁Lowe	-10.9234
innin	-10.9238
wan	-10.9241
▁active	-10.9241
▁amount	-10.9241
nanc	-10.9249
cords	-10.9252
evera	-10.9252
respective	-10.9256
▁read	-10.9256
echn	-10.926
vassals	-10.926
▁treasur	-10.926
stere	-10.926
onflict	-10.9266
▁depart	-10.9266
pref	-10.9267
▁poi	-10.9267
▁oppos	-10.927
4,	-10.9274
cret	-10.9274
restor	-10.9276
orei	-10.9277
begin	-10.9278
radually	-10.9281
rocess	-10.9281
seas	-10.9281
▁characteris	-10.9281
▁approximat	-10.9282
range	-10.9287
Electric	-10.9288
perated	-10.9291
heat	-10.9292
nue	-10.9292
sciple	-10.9292
attacked	-10.9295
oppo	-10.9295
rces	-10.9295
rtai	-10.9295
prefect	-10.9297
ency	-10.9299
▁Cult	-10.93
▁Toyo	-10.93
▁food	-10.93
▁correspond	-10.9301
istinguished	-10.9302
dependent	-10.9305
esso	-10.9306
hita	-10.9306
Council	-10.9309
Sc	-10.9309
affairs	-10.9309
mich	-10.9309
▁existed	-10.9309
▁offer	-10.9313
directly	-10.9317
atar	-10.932
aji	-10.9321
uccession	-10.9321
poems	-10.9323
stora	-10.9323
chieve	-10.9324
▁Shoguna	-10.9324
▁piece	-10.9324
Sep	-10.9326
busin	-10.9327
reve	-10.9327
▁busi	-10.9327
assign	-10.9329
▁commi	-10.9329
▁attacke	-10.9331
Nih	-10.9332
anne	-10.9334
simila	-10.9334
▁Iey	-10.9334
▁Second	-10.9334
chools	-10.934
piece	-10.9341
▁Keih	-10.9345
▁cri	-10.9345
▁teaching	-10.9345
AIR	-10.9348
Jin	-10.9348
▁Ich	-10.9349
monk	-10.9352
▁org	-10.9352
▁contribut	-10.9354
format	-10.9356
ociati	-10.9356
rms	-10.9356
rovide	-10.9356
▁Minam	-10.9356
▁bri	-10.9356
lectr	-10.9359
Omi	-10.9361
▁Kiyom	-10.9361
anjo	-10.9363
fire	-10.9363
llion	-10.9363
sine	-10.9363
Wester	-10.9367
▁come	-10.9368
hemselves	-10.9369
enm	-10.9372
iel	-10.9372
study	-10.9372
▁educati	-10.9374
ctures	-10.9377
except	-10.9377
sugu	-10.9377
Later	-10.9381
advan	-10.9381
nize	-10.9381
priesthood	-10.9381
reti	-10.9381
rticipa	-10.9385
▁She	-10.9385
onstituti	-10.9386
▁warr	-10.9386
ops	-10.9388
▁concern	-10.9388
▁fight	-10.9388
Offic	-10.939
uhi	-10.9391
▁marrie	-10.9391
nsu	-10.9394
overe	-10.9395
IR	-10.9395
compiled	-10.9395
lion	-10.9395
Shik	-10.9399
articipate	-10.9399
cessor	-10.9399
rua	-10.9399
stage	-10.9399
▁wide	-10.9399
Shos	-10.9403
ential	-10.9405
okk	-10.9407
ethod	-10.9408
spread	-10.9415
associa	-10.9416
Seni	-10.9417
fourth	-10.9421
rector	-10.9421
major	-10.9422
nduct	-10.9422
veral	-10.9422
tructu	-10.9426
▁Sengo	-10.9426
rativ	-10.9431
teach	-10.9431
Aug	-10.9432
ructur	-10.9432
▁Fa	-10.9432
▁scholar	-10.9432
orrespond	-10.9434
custo	-10.9435
elative	-10.9435
6,	-10.9437
Fushi	-10.944
rid	-10.9442
allowe	-10.9448
ganiza	-10.9448
▁Taish	-10.9448
▁conve	-10.9448
▁secret	-10.9448
accept	-10.9453
ects	-10.9453
ening	-10.9453
▁records	-10.9453
colo	-10.9457
▁wid	-10.9457
organize	-10.9461
proximat	-10.9461
tee	-10.9461
reach	-10.9462
Kyushu	-10.9464
rima	-10.9464
spir	-10.9464
wide	-10.9464
atari	-10.9467
relativ	-10.9467
▁resto	-10.947
eiha	-10.9471
▁port	-10.9471
▁resign	-10.9473
dg	-10.9475
kar	-10.9475
roximate	-10.9475
sthumous	-10.9475
▁Fujiw	-10.9475
▁Hachi	-10.9475
▁writing	-10.9475
hugo	-10.9479
last	-10.9479
istic	-10.9481
onduc	-10.9481
vera	-10.9482
▁Koku	-10.9485
Feb	-10.9486
nos	-10.9489
compo	-10.949
▁divided	-10.949
▁toda	-10.949
Important	-10.9491
assu	-10.9493
niqu	-10.9497
yp	-10.9497
▁advance	-10.9497
▁distingu	-10.95
kash	-10.9501
▁disti	-10.9502
tinguish	-10.9504
▁san	-10.9504
elected	-10.9505
hitsune	-10.9505
actio	-10.9508
iginat	-10.9508
▁Kyush	-10.9508
▁Some	-10.9508
▁stage	-10.9508
ocu	-10.9511
literat	-10.9511
eratu	-10.9512
hitsun	-10.9513
▁conte	-10.9513
role	-10.9515
▁dei	-10.9515
▁prepar	-10.9518
lize	-10.9519
condu	-10.9521
Ie	-10.9522
olor	-10.9522
pped	-10.9522
utra	-10.9522
Wes	-10.9524
isiona	-10.9524
▁cases	-10.9524
Ieya	-10.9526
ebellion	-10.9526
ength	-10.9526
literatu	-10.9526
▁run	-10.9526
impl	-10.953
ssum	-10.953
▁Aki	-10.953
▁home	-10.9531
▁belonged	-10.9532
▁ceremoni	-10.9532
ereditar	-10.9533
▁increased	-10.9535
endi	-10.9537
ssoc	-10.9537
▁Har	-10.9537
wil	-10.9541
▁carri	-10.9541
edu	-10.9543
chievement	-10.9544
eadquarter	-10.9544
gree	-10.9544
ket	-10.9546
hood	-10.9548
powerful	-10.9548
▁leading	-10.9548
onsis	-10.9549
eadquarters	-10.955
distinguishe	-10.9552
home	-10.9552
ocati	-10.9553
▁director	-10.9557
echni	-10.9558
earn	-10.9559
etim	-10.9559
orks	-10.9559
information	-10.956
▁confer	-10.9563
▁har	-10.9566
Sengok	-10.9568
hnique	-10.9568
mei	-10.9568
ntries	-10.9568
quarter	-10.9569
siv	-10.9571
onstitu	-10.9575
ndicat	-10.9579
cters	-10.9581
just	-10.9581
▁Inci	-10.9581
▁remained	-10.9582
cel	-10.9587
moni	-10.9588
▁gua	-10.9588
eau	-10.959
immediate	-10.959
sushi	-10.959
aracteri	-10.9592
spective	-10.9592
,00	-10.9593
affair	-10.9596
chim	-10.9596
▁surrounding	-10.9596
organized	-10.9598
▁Res	-10.9599
ompanie	-10.9601
▁fift	-10.9604
ependen	-10.9608
follows	-10.9608
prefecture	-10.9608
sibl	-10.961
imasa	-10.9613
itori	-10.9613
Toki	-10.9614
▁Korean	-10.9614
Mik	-10.9615
Mot	-10.9615
▁temporar	-10.9615
anji	-10.9618
▁worke	-10.9618
9,	-10.9621
atten	-10.9622
ATSUDAIRA	-10.9623
endent	-10.9623
▁Mt	-10.9623
▁bre	-10.9625
prote	-10.9627
▁rais	-10.9627
▁Ritsu	-10.9629
▁successive	-10.9631
Sou	-10.9632
fourt	-10.9632
roop	-10.9632
partici	-10.9633
▁artic	-10.9634
▁accompani	-10.9636
▁regions	-10.9636
emains	-10.964
hori	-10.964
loistered	-10.964
▁shu	-10.964
enge	-10.9643
kama	-10.9643
uati	-10.9643
▁ste	-10.9643
compos	-10.9645
nie	-10.9645
pring	-10.9645
rought	-10.9645
six	-10.9645
▁Sect	-10.9645
Stre	-10.9651
far	-10.9651
ximately	-10.9651
▁clot	-10.9655
▁cust	-10.9655
egitimate	-10.9656
▁further	-10.9658
pie	-10.9662
ping	-10.9662
hroughout	-10.9665
director	-10.9666
reditary	-10.9666
Kiy	-10.9668
elate	-10.9668
inanc	-10.9668
tings	-10.9668
list	-10.9669
troo	-10.9669
agam	-10.9673
guchi	-10.9673
imited	-10.9673
▁Goshirak	-10.9673
uden	-10.9677
ectric	-10.9679
imately	-10.9679
186	-10.9681
aha	-10.9684
city	-10.9684
ntal	-10.9684
▁territories	-10.9684
oyama	-10.9687
rticipat	-10.9688
yuki	-10.9688
ivid	-10.9692
provisi	-10.9692
stop	-10.9692
waka	-10.9692
▁stru	-10.9692
nued	-10.9695
▁Jus	-10.9695
▁cro	-10.9695
▁danc	-10.9696
Goshiraka	-10.9698
osu	-10.9698
deit	-10.9699
Ga	-10.9701
mul	-10.9701
General	-10.9705
rovid	-10.9706
educ	-10.9706
▁Fus	-10.9706
sut	-10.9709
mashi	-10.971
oveme	-10.971
▁serving	-10.971
request	-10.9711
riting	-10.9712
acce	-10.9714
astern	-10.9718
▁tax	-10.9718
umed	-10.9721
bolish	-10.9723
movemen	-10.9724
awara	-10.9729
pressi	-10.9729
tude	-10.9729
location	-10.9733
seng	-10.9733
nnect	-10.9733
▁teac	-10.9733
cher	-10.9736
instr	-10.9738
fest	-10.974
ritual	-10.974
esear	-10.9743
visited	-10.9744
mediat	-10.9746
cendants	-10.9747
orial	-10.9747
▁fil	-10.9751
metho	-10.9752
▁gate	-10.9752
activities	-10.9757
lligrap	-10.9757
hij	-10.976
resented	-10.9762
carried	-10.9763
ligraph	-10.9763
sib	-10.9765
ecto	-10.9766
▁inste	-10.9768
buildings	-10.9774
▁Kanno	-10.9774
▁properties	-10.9774
nducted	-10.9776
▁subject	-10.9777
accom	-10.978
legitimat	-10.9782
easures	-10.9783
select	-10.9785
▁direction	-10.9785
▁Yoshik	-10.979
▁concer	-10.979
zat	-10.979
▁simil	-10.979
Higashiyama	-10.9794
▁instrument	-10.9794
Nihonsh	-10.9796
▁season	-10.9796
pop	-10.9799
sical	-10.9799
▁studied	-10.98
aizuru	-10.9802
gatari	-10.9802
indica	-10.9802
ribute	-10.9802
▁Education	-10.9804
active	-10.9807
marrie	-10.9807
places	-10.9807
ured	-10.9807
▁Higashiyama	-10.9807
▁brothers	-10.9807
involve	-10.9809
ossi	-10.9811
separate	-10.9815
ccurred	-10.9816
hered	-10.9818
▁month	-10.9819
ficat	-10.9822
independ	-10.9822
mmediate	-10.9822
serving	-10.9822
▁provided	-10.9824
▁por	-10.9826
empora	-10.983
learn	-10.9832
▁offe	-10.9832
istrative	-10.9833
bre	-10.9836
ctri	-10.9837
ondition	-10.9837
media	-10.9841
rb	-10.9841
respectively	-10.9841
▁confi	-10.9841
▁revi	-10.9841
dm	-10.9845
oho	-10.9847
bri	-10.985
joined	-10.9852
ssenger	-10.9855
▁toward	-10.9855
swo	-10.9858
tif	-10.9858
ainl	-10.986
presente	-10.986
rdere	-10.986
▁Monogat	-10.986
fers	-10.9864
inde	-10.9864
aken	-10.9868
elde	-10.9868
▁Council	-10.9868
ccompan	-10.9868
facilit	-10.9868
entat	-10.9869
poetry	-10.9869
▁Late	-10.9869
Kane	-10.9875
ceremoni	-10.9875
spa	-10.9875
uccessor	-10.9875
▁route	-10.9875
▁legitimate	-10.9877
dv	-10.9879
▁conferred	-10.9879
▁indic	-10.9881
depe	-10.9883
jor	-10.9886
nshin	-10.9888
▁meth	-10.9888
▁activit	-10.989
▁pattern	-10.989
nak	-10.9892
ureau	-10.9893
inten	-10.9898
namoto	-10.9898
▁Hall	-10.9898
dam	-10.9901
dua	-10.9903
xa	-10.9903
ubsequen	-10.9905
▁Inc	-10.9905
mediate	-10.9908
▁Fukuchiyam	-10.9908
Additionally	-10.9909
bsequent	-10.9913
▁railway	-10.9913
brough	-10.9915
nerall	-10.9915
nvo	-10.9915
aces	-10.9917
▁stri	-10.9917
riginated	-10.9918
male	-10.9921
ogatar	-10.9921
ological	-10.9921
onogat	-10.9921
ugyo	-10.9921
entia	-10.9922
▁inherited	-10.9926
▁insi	-10.9926
logical	-10.9928
▁divide	-10.9928
▁raised	-10.9928
▁immediately	-10.9932
acto	-10.9936
▁Sat	-10.9936
ray	-10.9938
▁Fr	-10.9938
▁grant	-10.9938
▁joine	-10.9938
ffect	-10.9941
▁majo	-10.9941
▁near	-10.9941
▁formed	-10.9941
distin	-10.9943
opened	-10.9943
rined	-10.9945
terat	-10.9945
Mori	-10.9947
Guards	-10.9949
incip	-10.995
stead	-10.995
ngoku	-10.9955
restaurant	-10.9955
▁Yamas	-10.9955
▁commit	-10.9955
indicate	-10.9959
obles	-10.996
▁conn	-10.996
characteris	-10.9961
ritori	-10.9961
▁facili	-10.9961
Ak	-10.9962
difference	-10.9964
hide	-10.9966
naka	-10.9966
olishe	-10.9966
▁picture	-10.9966
▁wester	-10.9968
correspon	-10.9969
lized	-10.9969
paintings	-10.9969
▁Divi	-10.9969
ormati	-10.9972
incid	-10.9974
▁advanc	-10.9975
▁rei	-10.9978
quarters	-10.9981
territories	-10.9981
▁Sum	-10.9981
ryu	-10.9983
sashi	-10.9983
scipl	-10.9983
▁tree	-10.9983
▁students	-10.9986
cross	-10.9988
▁Dainag	-10.9988
ansportation	-10.9989
report	-10.9989
teratu	-10.9989
uildings	-10.9989
Tais	-10.9993
abuki	-10.9993
orpora	-10.9995
▁Chunagon	-10.9995
ists	-10.9997
onse	-10.9997
sland	-10.9998
tters	-10.9998
▁conv	-10.9998
Minamo	-11.0001
chir	-11.0001
lege	-11.0001
ternational	-11.0003
ubsequently	-11.0003
fuk	-11.0003
They	-11.0004
Satsum	-11.0006
ssing	-11.0007
onte	-11.0008
resenta	-11.0008
achievemen	-11.0012
property	-11.0012
wester	-11.0012
▁struc	-11.0012
ock	-11.0015
sentati	-11.0015
sil	-11.0015
treasur	-11.0015
uko	-11.0015
▁inform	-11.0015
gula	-11.0016
educat	-11.0018
▁taken	-11.0018
midd	-11.002
▁Restora	-11.002
haracteris	-11.0022
lm	-11.0022
▁Fami	-11.0022
▁differenc	-11.0022
▁worked	-11.0022
tended	-11.0024
▁dance	-11.0029
▁resigned	-11.0029
ctin	-11.0031
higa	-11.0031
tach	-11.0031
▁Bus	-11.0031
bolishe	-11.0035
priests	-11.0035
untrie	-11.0035
urround	-11.0035
▁Satsu	-11.0035
▁recogni	-11.0035
ossib	-11.0036
▁participated	-11.0038
hamberlain	-11.0041
unty	-11.0043
▁specifi	-11.0043
joi	-11.0044
uns	-11.0044
specti	-11.0047
hermore	-11.0049
onshoki	-11.0049
▁Yoshih	-11.0049
acteristic	-11.005
ides	-11.005
niti	-11.005
oems	-11.0054
agawa	-11.0055
Dyna	-11.0058
Hist	-11.0058
Kannon	-11.0058
ctua	-11.0058
legitima	-11.0058
aboli	-11.006
respond	-11.0062
separa	-11.0064
ayosh	-11.0065
cials	-11.0065
asan	-11.0066
izen	-11.0066
pene	-11.0066
▁Toy	-11.0066
▁latter	-11.0069
Festiv	-11.007
atform	-11.007
gement	-11.007
gor	-11.007
provisiona	-11.007
▁circ	-11.007
deta	-11.0074
pirit	-11.0075
ntains	-11.0076
nkin	-11.0077
▁soc	-11.0077
dde	-11.0078
fig	-11.0078
gest	-11.0081
icture	-11.0081
ihonsho	-11.0082
mentary	-11.0082
arts	-11.0085
▁eff	-11.0085
▁top	-11.0085
▁Nichi	-11.0087
ehold	-11.0089
▁Proper	-11.0089
▁purpose	-11.0089
Kit	-11.009
goi	-11.0093
▁detai	-11.0093
short	-11.0094
ustom	-11.0094
▁requir	-11.0096
incr	-11.0097
selected	-11.0097
istinguishe	-11.0098
nza	-11.0099
amag	-11.0101
face	-11.0101
▁ide	-11.0101
▁spring	-11.0103
Famil	-11.0104
▁exte	-11.0104
UG	-11.0104
secret	-11.0104
vati	-11.0104
▁4	-11.0106
Nov	-11.0107
fil	-11.0107
▁Ze	-11.0107
Om	-11.0108
ssor	-11.0108
vered	-11.0108
covered	-11.0109
pleted	-11.011
▁exten	-11.011
oped	-11.0112
pict	-11.0112
already	-11.0116
educati	-11.0116
owne	-11.0116
ressed	-11.0116
▁effect	-11.0116
▁once	-11.0118
iew	-11.0119
ikot	-11.012
ntat	-11.012
shii	-11.012
▁Kas	-11.012
▁city	-11.0123
erse	-11.0124
meti	-11.0124
▁hom	-11.0124
▁KO	-11.0125
hamber	-11.0128
maintain	-11.0128
▁Kawachi	-11.0128
▁seem	-11.0128
▁sl	-11.0131
sued	-11.0132
▁hon	-11.0132
Household	-11.0134
inherited	-11.0134
platform	-11.0135
▁spi	-11.0135
Shoguna	-11.0136
Taish	-11.0137
▁hold	-11.0137
mentar	-11.0139
grant	-11.0142
▁Seng	-11.0142
Propert	-11.0143
ression	-11.0143
sear	-11.0143
Fukuchiyam	-11.0147
onne	-11.0147
HOSOKAW	-11.015
OSOKAWA	-11.015
kei	-11.0154
Ne	-11.0157
ntial	-11.0157
stinguis	-11.0159
oot	-11.016
Kanto	-11.0162
Shinsengumi	-11.0162
tall	-11.0163
ections	-11.0164
ositions	-11.0167
shita	-11.0167
ukuchiyama	-11.0167
eum	-11.0168
iyosh	-11.0171
▁here	-11.0171
stinguished	-11.0172
igat	-11.0174
Hachi	-11.0176
▁Kuni	-11.0176
ehi	-11.0177
respons	-11.0177
hijo	-11.0178
ompile	-11.018
ectri	-11.0181
▁hereditary	-11.0183
ituti	-11.0186
torat	-11.0186
gist	-11.019
opertie	-11.0191
▁Tomo	-11.0191
Kaw	-11.0192
abolis	-11.0192
Confucian	-11.0195
cut	-11.0195
▁transport	-11.0196
Sin	-11.0198
aptain	-11.0198
icer	-11.0198
▁MATSUDA	-11.0198
▁actor	-11.0198
▁ban	-11.0202
▁final	-11.0204
perties	-11.0205
eport	-11.0206
▁compose	-11.0206
ardi	-11.0209
▁seri	-11.021
iginate	-11.0211
opinion	-11.0211
ldes	-11.0213
▁caused	-11.0218
raphy	-11.022
followed	-11.0221
oha	-11.0221
▁respecti	-11.0221
ossible	-11.0225
carrie	-11.0227
lative	-11.0227
infor	-11.023
rmal	-11.0233
xce	-11.0233
hod	-11.0236
teaching	-11.0237
bon	-11.0245
detail	-11.0245
ecu	-11.0245
occasion	-11.0245
▁V	-11.0245
▁correspon	-11.0245
fficult	-11.0246
picture	-11.0246
▁manuscript	-11.0248
thorit	-11.0251
rang	-11.0253
bashi	-11.0254
imila	-11.0254
rting	-11.0254
timat	-11.0254
cra	-11.0256
pposed	-11.0256
▁Kant	-11.0259
aintings	-11.026
dispatch	-11.026
ensi	-11.026
▁Yoshina	-11.026
▁ei	-11.0262
tuati	-11.0264
granted	-11.0266
Ap	-11.0268
inly	-11.0268
ases	-11.0272
roops	-11.0274
▁Fush	-11.0274
▁SH	-11.0274
icles	-11.0279
risti	-11.0279
MUR	-11.028
hronic	-11.028
uarter	-11.028
▁commonly	-11.0283
Guard	-11.0284
involved	-11.0284
occurr	-11.0286
▁critic	-11.0287
▁grante	-11.0287
mine	-11.0288
acked	-11.0289
rpo	-11.0289
espective	-11.0292
▁merchant	-11.0292
▁opinio	-11.0294
haku	-11.0296
tempor	-11.0298
Tair	-11.03
loth	-11.03
mpi	-11.0304
mporar	-11.0304
rrior	-11.0304
▁poetr	-11.0304
▁provision	-11.0304
ompiled	-11.0308
upported	-11.0308
▁Kun	-11.0308
▁attend	-11.0308
anm	-11.031
▁horse	-11.031
▁scr	-11.0312
kind	-11.0316
▁tempora	-11.0316
▁wrote	-11.0316
leading	-11.0321
pporte	-11.0321
▁Dur	-11.0323
▁Kann	-11.0323
ntative	-11.0328
sente	-11.0328
sferr	-11.0328
spiri	-11.0328
boli	-11.0331
ansport	-11.0335
imin	-11.0335
Nis	-11.0336
estaurant	-11.0336
hum	-11.0336
▁becoming	-11.0336
dicated	-11.0342
ginat	-11.0343
serva	-11.0343
▁Offi	-11.0343
▁coo	-11.0343
▁win	-11.0343
ghe	-11.0345
rporat	-11.0345
▁inci	-11.0348
loister	-11.0349
records	-11.0349
erials	-11.0351
▁Shinsengumi	-11.0351
▁woo	-11.0355
▁Electr	-11.0356
nherit	-11.0357
▁Bi	-11.0357
▁[	-11.0361
akama	-11.0363
arin	-11.0363
contribut	-11.0363
depart	-11.0363
▁Dain	-11.0363
mance	-11.0368
▁basi	-11.0368
▁calli	-11.0369
ccessor	-11.037
existed	-11.037
gradual	-11.037
unicipal	-11.0371
▁Saga	-11.0373
orse	-11.0375
▁Nan	-11.0375
▁garden	-11.0377
endai	-11.0378
otect	-11.0378
▁Guar	-11.0378
buts	-11.0379
riesthood	-11.0381
▁opene	-11.0381
eda	-11.0384
inog	-11.0387
wers	-11.0387
arden	-11.0388
rotec	-11.0388
surrounding	-11.0389
Bat	-11.039
Electri	-11.0391
Koku	-11.0391
sats	-11.0391
Second	-11.0393
conve	-11.0393
nounce	-11.0393
tinguished	-11.0393
ounding	-11.0398
eih	-11.0402
offe	-11.0403
rter	-11.0403
creased	-11.0405
divided	-11.0405
▁invol	-11.0405
▁Kiyomori	-11.0408
▁fre	-11.0411
▁limited	-11.0411
rik	-11.0414
ull	-11.0414
▁YA	-11.0414
older	-11.0418
rties	-11.0418
erty	-11.0419
prev	-11.0419
▁Ritsur	-11.0419
je	-11.0427
amash	-11.0428
attacke	-11.0433
Sane	-11.0435
accompani	-11.0435
involv	-11.0435
toda	-11.0435
Mic	-11.0438
xe	-11.0439
nflict	-11.0441
ticipa	-11.0441
prefe	-11.0443
▁lineage	-11.0443
rke	-11.0444
thority	-11.0447
uarters	-11.0447
▁Kum	-11.0447
86	-11.0449
Hou	-11.045
ependent	-11.0451
rticipate	-11.0453
ticipat	-11.0454
▁sister	-11.0454
Keih	-11.0455
osuk	-11.0455
anb	-11.0456
diers	-11.0458
fought	-11.0459
prec	-11.0459
uted	-11.0459
fight	-11.0463
▁recognize	-11.0463
▁additional	-11.0466
Tsune	-11.0468
decid	-11.0468
heredit	-11.0468
ndation	-11.0468
orman	-11.0468
▁mete	-11.0468
Lo	-11.0469
▁ann	-11.0471
▁services	-11.0471
engo	-11.0475
akaw	-11.0479
require	-11.0482
▁Fourth	-11.0482
brothers	-11.0483
thori	-11.0483
▁TOYOT	-11.0483
eginn	-11.0488
▁stag	-11.0488
jus	-11.0489
wid	-11.0489
adua	-11.0491
radu	-11.0491
inagon	-11.0495
tad	-11.0495
▁Par	-11.0495
ority	-11.0498
commonly	-11.0499
dual	-11.0499
Furthe	-11.0501
adquarters	-11.0503
ebellio	-11.0503
mmediately	-11.0503
tandi	-11.0503
▁separ	-11.0507
▁street	-11.051
clot	-11.0511
prot	-11.0511
tech	-11.0511
ndants	-11.0513
distingu	-11.0515
▁General	-11.0515
▁possibl	-11.0515
▁policy	-11.0517
HO	-11.0519
yom	-11.0519
▁Furth	-11.0519
occur	-11.0523
pment	-11.0523
successive	-11.0523
scholar	-11.0524
epende	-11.0525
ossibl	-11.0525
▁forma	-11.0525
▁standing	-11.0525
suki	-11.0527
tuat	-11.0527
umulus	-11.0531
ON	-11.0533
commi	-11.0533
tutio	-11.0533
principal	-11.0534
Tr	-11.0535
merc	-11.0535
Korean	-11.0537
ndepend	-11.0538
ttacked	-11.0538
▁Company	-11.0539
feated	-11.0543
increased	-11.0543
▁taking	-11.0545
emselves	-11.0547
milar	-11.0548
pende	-11.0548
xcept	-11.0548
ecided	-11.0549
dina	-11.0551
isin	-11.0551
▁Ryo	-11.0551
ersonal	-11.0552
hibit	-11.0553
▁Additional	-11.0554
▁ingredient	-11.0554
cles	-11.0555
season	-11.0555
Fifth	-11.0558
MAT	-11.0558
dation	-11.0561
▁deta	-11.0563
nsp	-11.0567
lishm	-11.0568
▁mini	-11.0568
ISHI	-11.0572
▁Bosatsu	-11.0572
equest	-11.0574
instrument	-11.0574
remoni	-11.0574
▁Shir	-11.0574
▁saying	-11.0574
▁successiv	-11.0574
▁words	-11.0574
elle	-11.0576
▁Rok	-11.0576
▁subsequent	-11.0577
Collecti	-11.058
surr	-11.058
▁cover	-11.0586
chievemen	-11.0589
ommi	-11.0592
ucture	-11.0592
adquarter	-11.0598
amount	-11.0598
ccurre	-11.0598
ctivities	-11.0598
hievement	-11.0598
mochi	-11.0599
toshi	-11.0599
orrespon	-11.0604
rsh	-11.0604
▁dri	-11.0604
▁sprin	-11.0604
agami	-11.0609
rrespond	-11.0612
adually	-11.0616
concern	-11.0616
ntent	-11.0619
rmanc	-11.0619
▁wors	-11.0619
▁equ	-11.062
▁manufactur	-11.0621
irectly	-11.0623
chiev	-11.0624
engok	-11.0624
laces	-11.0624
prove	-11.0624
arn	-11.0625
▁translat	-11.0625
udent	-11.0629
rus	-11.0631
opment	-11.0635
▁informati	-11.0635
gave	-11.0637
taken	-11.064
▁dem	-11.0641
confe	-11.0645
▁activi	-11.0645
▁plat	-11.0645
▁sign	-11.0645
spring	-11.0647
aped	-11.0649
▁shap	-11.065
Importan	-11.0653
imas	-11.0653
ronicl	-11.0653
tto	-11.0653
▁location	-11.0653
▁previous	-11.0653
aring	-11.0655
tudy	-11.0657
▁Third	-11.0659
▁minis	-11.0659
inar	-11.0661
inse	-11.0661
nami	-11.0661
uman	-11.0661
nct	-11.0665
ranking	-11.0666
acke	-11.0669
ipal	-11.0669
repa	-11.0669
▁Art	-11.0669
aised	-11.067
icula	-11.067
▁Niho	-11.067
titute	-11.0671
ujiwa	-11.0675
▁Chik	-11.0675
▁Cons	-11.0675
belonged	-11.0677
erchan	-11.0677
ighest	-11.0677
▁Maizuru	-11.0677
Fujiw	-11.0681
OYOTOM	-11.0684
YOTOMI	-11.0684
kit	-11.0684
▁MAT	-11.0686
▁usually	-11.0686
espectively	-11.0689
assals	-11.069
nosuke	-11.069
onicle	-11.069
tles	-11.069
▁eig	-11.069
ernal	-11.0691
▁sig	-11.0694
KAG	-11.0696
ogata	-11.0696
uis	-11.0696
oundation	-11.0699
asion	-11.0701
Gos	-11.0702
rganized	-11.0702
▁188	-11.0702
▁confl	-11.0702
▁destroy	-11.0702
igashiyama	-11.0706
▁propertie	-11.0706
rganize	-11.0709
Also	-11.071
anor	-11.071
room	-11.0714
mpani	-11.0716
properties	-11.0716
ifference	-11.0717
tributed	-11.0718
▁Bun	-11.0718
itsuna	-11.0721
aniza	-11.0722
ridge	-11.0722
▁leav	-11.0722
Kawachi	-11.0724
conte	-11.0727
eventh	-11.0727
students	-11.0727
187	-11.073
rks	-11.073
railway	-11.0731
warr	-11.0731
▁Som	-11.0731
acilit	-11.0733
forced	-11.0733
noge	-11.0735
▁stations	-11.0736
ooden	-11.0737
rring	-11.0737
▁schola	-11.0738
▁if	-11.0739
thu	-11.0742
ubo	-11.0742
▁Fift	-11.0742
▁coin	-11.0742
Education	-11.0745
▁Government	-11.0745
▁individual	-11.0745
cov	-11.0748
igu	-11.0751
▁Kyus	-11.0752
goo	-11.0755
food	-11.0756
iwar	-11.0756
eto	-11.0758
▁secre	-11.0758
remained	-11.076
specifi	-11.076
direction	-11.0764
irit	-11.0764
olis	-11.0764
▁legitima	-11.0764
advance	-11.0767
buki	-11.0768
ntern	-11.0768
shis	-11.0768
▁actu	-11.0768
▁spir	-11.0768
▁These	-11.077
ango	-11.0772
▁Cha	-11.0772
offer	-11.0773
nction	-11.0776
KUG	-11.0779
immediately	-11.0779
▁recognized	-11.0779
owerful	-11.0781
reserv	-11.0782
ncer	-11.0784
raku	-11.0784
zak	-11.0786
mune	-11.0789
nkn	-11.0789
ntar	-11.0789
▁accepted	-11.0792
▁possible	-11.0792
achie	-11.0794
tatus	-11.0794
ssh	-11.0795
roximat	-11.0796
near	-11.0797
yushu	-11.0799
▁legitimat	-11.0799
▁pala	-11.0799
TSUDAIRA	-11.0801
eati	-11.0801
▁Associat	-11.0801
▁celebrat	-11.0801
oximate	-11.0803
kaid	-11.0805
rove	-11.0805
egitimat	-11.0809
hings	-11.0809
▁owne	-11.0809
raining	-11.081
thumous	-11.081
▁Nichiren	-11.081
▁training	-11.081
▁completely	-11.0813
▁reach	-11.0813
ccomp	-11.0815
Goshirak	-11.0818
oistered	-11.0818
etail	-11.082
▁principal	-11.082
nab	-11.0826
arty	-11.083
▁tec	-11.083
confer	-11.0832
tinguis	-11.0832
▁deity	-11.0832
gitimate	-11.0834
gricultur	-11.0838
hish	-11.0838
participated	-11.0838
inguish	-11.0839
gious	-11.0841
quire	-11.0841
▁responsib	-11.0841
Tam	-11.0842
uit	-11.0842
roughout	-11.0843
▁Jugoino	-11.0843
Counci	-11.0845
nsf	-11.0845
states	-11.0845
▁divid	-11.0845
▁q	-11.0845
ulti	-11.0847
bol	-11.0848
erritories	-11.0851
hieve	-11.0851
prepar	-11.0851
scape	-11.0851
▁entr	-11.0851
▁invo	-11.0851
▁specif	-11.0854
rived	-11.0856
conferred	-11.0857
mmen	-11.0859
nsportation	-11.0859
hio	-11.086
bellion	-11.0861
eparate	-11.0861
reditar	-11.0861
lett	-11.0863
ssen	-11.0863
Great	-11.0867
ticul	-11.0867
▁Mune	-11.0867
▁connecti	-11.0867
▁manu	-11.0867
thod	-11.0868
▁Suk	-11.0868
Chronic	-11.0869
purpose	-11.0869
ihonsh	-11.087
ising	-11.0872
Gon	-11.0873
Chunagon	-11.0876
mig	-11.0876
oshiraka	-11.0876
eishi	-11.0877
▁faci	-11.0877
OS	-11.0882
oce	-11.0882
oncern	-11.0882
arie	-11.0884
provided	-11.0884
tche	-11.0884
▁199	-11.0884
▁statues	-11.0884
Zen	-11.0888
prea	-11.0888
▁inten	-11.0888
▁ritual	-11.0891
abe	-11.0892
Kiyom	-11.0893
Toyo	-11.0893
heri	-11.0893
▁classifi	-11.0895
▁northern	-11.0895
OM	-11.0897
Yamas	-11.0898
ssign	-11.0903
stag	-11.0905
▁foundation	-11.0905
orr	-11.0907
nsa	-11.091
pattern	-11.0913
▁Als	-11.0914
▁presented	-11.0914
maro	-11.0918
artici	-11.092
presse	-11.092
regions	-11.092
reb	-11.0923
▁conferre	-11.0923
nders	-11.0924
▁tried	-11.0926
pective	-11.0927
racteri	-11.0927
Kanno	-11.0929
egin	-11.093
▁TAI	-11.093
anz	-11.0933
▁prepa	-11.0933
We	-11.0935
ecide	-11.0935
further	-11.0935
subject	-11.0935
▁Muse	-11.0935
▁Roku	-11.0935
▁furthe	-11.0935
▁hereditar	-11.0935
oks	-11.0936
▁9	-11.0937
elativ	-11.0939
resign	-11.0939
▁calligraphy	-11.0939
annon	-11.094
▁natu	-11.094
▁Yoshita	-11.0943
▁suggest	-11.0943
avo	-11.0945
▁Gosh	-11.0945
▁limit	-11.0945
▁store	-11.0945
IM	-11.0951
oom	-11.0951
ovis	-11.0951
▁Moreover	-11.0951
▁Yoshihi	-11.0951
▁volumes	-11.0951
bsequently	-11.0956
ernational	-11.0956
palac	-11.0956
▁Comp	-11.0956
▁las	-11.0956
approx	-11.0958
▁super	-11.0958
natu	-11.096
strative	-11.096
▁jus	-11.096
▁inherite	-11.0961
Yoshik	-11.0964
shiraka	-11.0964
rticu	-11.0966
▁achi	-11.0966
eted	-11.0968
olve	-11.0968
reac	-11.0968
Genera	-11.097
got	-11.097
▁Great	-11.097
Kyush	-11.0971
ormat	-11.0971
▁escape	-11.0971
Nori	-11.0977
Uji	-11.098
tains	-11.0982
ashiya	-11.0983
curred	-11.0989
▁composed	-11.0989
▁tal	-11.0989
▁cert	-11.0993
rincipal	-11.0994
▁outside	-11.0994
Sengo	-11.0998
disti	-11.0998
▁appearance	-11.0998
OKA	-11.0999
differenc	-11.0999
editary	-11.1001
eani	-11.1002
rcha	-11.1002
ssis	-11.1002
▁repo	-11.1003
YO	-11.1006
iece	-11.1006
▁waka	-11.1008
respecti	-11.1011
eam	-11.1012
▁YAM	-11.1015
▁MATSUD	-11.1016
▁dynast	-11.1016
▁sevent	-11.1016
cert	-11.1019
ndica	-11.1019
▁subs	-11.1019
muni	-11.1023
reme	-11.1023
ronic	-11.1024
Late	-11.1027
yn	-11.103
resente	-11.1031
sci	-11.1031
provis	-11.1034
▁measure	-11.1036
▁ren	-11.1036
Ich	-11.1037
natural	-11.1038
hinsengumi	-11.104
ratu	-11.104
▁From	-11.104
▁Yamashiro	-11.104
ntia	-11.1044
▁dispatched	-11.1044
ayi	-11.1047
nks	-11.1047
anti	-11.1049
clear	-11.1051
oppos	-11.1051
stinguishe	-11.1051
▁Beca	-11.1051
▁Comm	-11.1051
▁prec	-11.1051
divide	-11.1053
seen	-11.1053
▁ima	-11.1053
personal	-11.1061
Ritsu	-11.1067
entar	-11.1067
simil	-11.1067
tics	-11.107
additional	-11.1072
urrounding	-11.1072
inni	-11.1074
aracteris	-11.1075
nary	-11.1078
ools	-11.1078
▁Gi	-11.1078
▁Route	-11.1078
bine	-11.1083
ndition	-11.1083
ously	-11.1083
resto	-11.1083
▁Express	-11.1087
arter	-11.1088
studied	-11.109
ushima	-11.1091
Shinsengum	-11.1093
manuscript	-11.1093
amberlain	-11.1094
▁necessar	-11.1094
▁required	-11.1094
iginated	-11.1096
kuri	-11.1096
HOSOKA	-11.1098
esented	-11.1098
mposed	-11.1098
quarte	-11.1098
tention	-11.1098
▁rout	-11.1099
hiba	-11.11
cteristic	-11.1104
itual	-11.1104
ocess	-11.1104
ompos	-11.1104
sush	-11.1104
▁Or	-11.1104
▁Retired	-11.1104
▁Monoga	-11.1105
rtie	-11.1108
ducted	-11.1111
ndicate	-11.1113
transport	-11.1114
▁Minamoto	-11.1114
confi	-11.1115
mash	-11.1117
plo	-11.1117
fift	-11.1121
itak	-11.1121
adu	-11.1123
▁piec	-11.1125
erving	-11.113
ncy	-11.113
penden	-11.113
▁Right	-11.113
▁Village	-11.113
mpose	-11.1131
lands	-11.1136
oined	-11.1136
ollows	-11.1136
olved	-11.1136
grandfather	-11.1138
sash	-11.1138
▁Yuki	-11.1142
▁mont	-11.1142
essive	-11.1143
etry	-11.1143
latter	-11.1143
mpanie	-11.1143
oetr	-11.1143
situ	-11.1143
▁NAK	-11.1143
SHIM	-11.1147
Satsu	-11.1147
ashim	-11.1147
ichir	-11.1147
resigned	-11.1147
ustr	-11.1147
Kyu	-11.1152
ava	-11.1152
ccept	-11.1152
ppose	-11.1152
pread	-11.1152
▁persons	-11.1156
ested	-11.1158
▁wooden	-11.1158
reci	-11.116
articularly	-11.1162
igraph	-11.1162
▁Le	-11.1162
hools	-11.1163
onj	-11.1165
pture	-11.1168
Tom	-11.1172
activit	-11.1173
compose	-11.1173
▁leader	-11.1173
▁patter	-11.1173
▁red	-11.1173
inform	-11.1175
mmer	-11.1177
0,000	-11.1179
horse	-11.1179
ologi	-11.1179
ovide	-11.1179
▁corr	-11.1179
inomiya	-11.118
recogni	-11.118
▁measur	-11.118
fish	-11.1181
ternat	-11.1181
▁recogniz	-11.1181
▁theories	-11.1181
carri	-11.1185
kasa	-11.1186
Monogat	-11.1188
ccasion	-11.1188
▁lower	-11.1188
Chronicles	-11.119
▁decline	-11.119
ukuchiyam	-11.1191
87	-11.1192
imitsu	-11.1194
▁women	-11.1194
▁Counci	-11.1195
lev	-11.1197
▁resigne	-11.1199
concer	-11.1201
uccessive	-11.1201
▁lords	-11.1201
▁arch	-11.1206
isited	-11.1207
nformati	-11.1207
▁directi	-11.1207
▁inher	-11.1207
▁Shinsengum	-11.1209
Jugoino	-11.121
Government	-11.1212
▁destroyed	-11.1212
Fush	-11.1216
merchant	-11.1216
ncr	-11.1217
▁transportation	-11.1217
ontroll	-11.1218
Fus	-11.122
kuchiyama	-11.122
mately	-11.122
▁architectur	-11.122
▁older	-11.122
appearance	-11.1222
Collect	-11.1226
bell	-11.1229
▁now	-11.1229
attend	-11.1233
sister	-11.1233
recto	-11.1239
bsequen	-11.1241
egitima	-11.1241
celebrat	-11.1242
nherited	-11.1242
ticipate	-11.1242
▁Yoshito	-11.1242
Mun	-11.1243
raw	-11.1243
eer	-11.1246
▁wal	-11.1246
Shinsen	-11.1248
goinoge	-11.1248
ructu	-11.1249
worke	-11.1249
▁merchan	-11.125
▁natural	-11.125
Lowe	-11.1255
ompi	-11.1255
uctur	-11.1255
nfo	-11.1256
▁financ	-11.1256
▁states	-11.1256
nstrument	-11.1259
oshina	-11.1259
taki	-11.1259
▁Iwa	-11.1259
▁appears	-11.1259
Restora	-11.1263
dvan	-11.1263
edia	-11.1263
full	-11.1263
limited	-11.1263
lost	-11.1263
ollowed	-11.1263
treated	-11.1263
Dainag	-11.1266
ricultur	-11.1268
ndent	-11.1271
phy	-11.1272
alligraphy	-11.1277
▁dish	-11.1277
efu	-11.1279
epo	-11.1279
▁Daina	-11.1279
▁requi	-11.1279
Some	-11.1281
▁Myo	-11.1281
rials	-11.1282
OTOM	-11.1285
iction	-11.1285
identi	-11.1285
inherite	-11.1285
lligra	-11.1285
▁Restor	-11.1286
▁Hach	-11.1287
ssible	-11.1292
Associat	-11.1294
usto	-11.1294
▁finally	-11.1294
▁sil	-11.1294
cases	-11.1298
ligrap	-11.1298
nvolve	-11.1298
tative	-11.1298
▁Confucian	-11.1298
▁room	-11.1298
mpil	-11.1303
ompo	-11.1303
tail	-11.1303
▁Yoshimi	-11.1303
asures	-11.1305
toward	-11.1305
Str	-11.1308
wom	-11.1308
rchitectur	-11.1309
▁financial	-11.1309
▁Low	-11.1311
month	-11.1315
legitim	-11.1317
Nihons	-11.1318
equivalent	-11.132
iyos	-11.132
agu	-11.1324
dier	-11.1324
ildings	-11.1324
kum	-11.1324
lities	-11.1324
termin	-11.1324
▁Ise	-11.1324
▁Takeda	-11.1324
translat	-11.1329
alf	-11.1331
kayama	-11.1331
housand	-11.1332
nduc	-11.1333
niza	-11.1333
ldr	-11.1334
nco	-11.1338
northern	-11.1338
onfucian	-11.1338
riests	-11.1338
▁exchange	-11.1338
Yoshina	-11.134
Cult	-11.1342
Nichi	-11.1342
omes	-11.1342
Yoshih	-11.1344
Confucia	-11.1346
busi	-11.1346
clea	-11.1346
next	-11.1346
training	-11.1346
MATSUDA	-11.1347
Riv	-11.1347
Yamashiro	-11.1347
imite	-11.1347
tinguishe	-11.1347
usually	-11.1347
entary	-11.1351
eva	-11.1351
imot	-11.1351
measur	-11.1351
sua	-11.1351
erva	-11.1355
▁inside	-11.1355
hunagon	-11.1363
ldie	-11.1364
manufactur	-11.1364
▁surrender	-11.1364
calligraphy	-11.1365
conv	-11.1368
llio	-11.1368
iers	-11.1373
▁wak	-11.1373
iar	-11.1377
pinion	-11.1377
sequ	-11.1377
okin	-11.1381
▁blo	-11.1381
ntrie	-11.1386
▁alth	-11.1386
egulation	-11.1387
ctr	-11.139
hme	-11.139
okai	-11.139
ontribut	-11.139
previous	-11.139
▁grandfather	-11.139
ishik	-11.1391
oshih	-11.1391
sitions	-11.1393
▁female	-11.1393
▁legend	-11.1393
acteri	-11.1397
herit	-11.1397
senger	-11.1397
▁corre	-11.1397
▁Izu	-11.1399
▁immedia	-11.1399
▁nex	-11.1399
oreover	-11.1401
▁Four	-11.1402
facili	-11.1403
▁Fur	-11.1403
recognize	-11.1407
becoming	-11.1408
subsequent	-11.1408
commit	-11.141
▁pap	-11.1412
dei	-11.1413
▁Yoshimitsu	-11.1413
▁Shinsh	-11.1417
mited	-11.1419
vit	-11.142
eating	-11.1423
nterna	-11.1423
ispatch	-11.1424
route	-11.1424
▁scen	-11.1424
effect	-11.143
individual	-11.143
▁figure	-11.1432
▁living	-11.1432
Nichiren	-11.1434
ediate	-11.1436
hronicles	-11.1436
may	-11.1436
ross	-11.1439
ingredient	-11.1441
rmati	-11.1441
▁clea	-11.1441
ogat	-11.1443
taking	-11.1443
▁circu	-11.1443
erl	-11.1446
ffa	-11.1446
fis	-11.1446
inguished	-11.1446
aintain	-11.1448
logi	-11.1448
▁Kawach	-11.1448
Kiyomori	-11.1452
tm	-11.1452
▁fish	-11.1452
rothers	-11.1455
advanc	-11.1456
mmi	-11.1456
ogical	-11.1456
sually	-11.1456
arrow	-11.1457
hoshi	-11.1457
omori	-11.1457
▁regu	-11.1457
seum	-11.1461
suga	-11.1461
articipated	-11.1462
Additional	-11.1463
aemon	-11.1463
bolis	-11.1463
efi	-11.1463
Ry	-11.1465
▁pea	-11.1465
▁text	-11.1469
istingu	-11.1471
inste	-11.1474
▁Hos	-11.1474
sevent	-11.1476
thermo	-11.1476
KO	-11.1479
▁total	-11.1483
ediat	-11.1485
indic	-11.1485
rry	-11.1486
edie	-11.1487
rage	-11.1487
espond	-11.149
rectly	-11.149
izuru	-11.1491
sprin	-11.1491
HA	-11.1492
nsta	-11.1492
toki	-11.1492
eastern	-11.1494
gent	-11.1496
honsho	-11.1496
onfer	-11.1496
onomi	-11.1496
yush	-11.1496
▁Sutra	-11.1496
▁available	-11.1496
▁conferr	-11.1496
▁techniques	-11.1499
ctric	-11.1502
▁decl	-11.1502
nshoki	-11.1503
zai	-11.1503
▁Shink	-11.1503
▁profess	-11.1505
gatar	-11.1507
intings	-11.151
night	-11.1513
ccompani	-11.1514
necessar	-11.1514
staurant	-11.1514
unda	-11.1514
eho	-11.1516
nai	-11.1516
ney	-11.1516
▁Genera	-11.1517
onoga	-11.1519
▁distribut	-11.1519
▁subsequen	-11.1519
pap	-11.152
ujo	-11.152
Nan	-11.1523
erg	-11.1523
formal	-11.1523
iety	-11.1523
▁Cul	-11.1523
nform	-11.1524
▁Kuma	-11.1524
tomi	-11.1527
worked	-11.153
▁Nich	-11.153
▁scene	-11.153
majo	-11.1532
rden	-11.1532
▁informa	-11.1532
iated	-11.1535
rters	-11.1535
dually	-11.1536
informati	-11.1536
lassic	-11.1536
lk	-11.1536
▁disco	-11.1536
cust	-11.1541
utes	-11.1541
▁princes	-11.1541
inl	-11.1543
▁Elect	-11.1543
ectr	-11.1545
▁tod	-11.1545
▁facilities	-11.1548
assistan	-11.155
esenta	-11.155
ntaine	-11.155
rob	-11.155
▁Musashi	-11.155
▁reign	-11.155
ayer	-11.1554
piec	-11.1554
Jugoinoge	-11.1556
dquarters	-11.1556
elling	-11.1556
measure	-11.1556
mediately	-11.1556
nvolved	-11.1556
ritua	-11.1558
wards	-11.1558
▁Mura	-11.1558
▁body	-11.1558
iesthood	-11.1559
▁classif	-11.1559
mental	-11.1563
▁Sag	-11.1563
▁rebellion	-11.1563
▁treas	-11.1563
lineage	-11.1564
successiv	-11.1567
ccur	-11.1568
▁classic	-11.1568
dings	-11.1569
anking	-11.157
arding	-11.157
onshok	-11.157
rab	-11.157
▁maint	-11.157
▁northe	-11.1572
bes	-11.1573
▁Constitution	-11.1573
poetr	-11.1574
▁Higashiya	-11.1574
lready	-11.1577
ranted	-11.1577
rround	-11.1577
rrow	-11.1577
eak	-11.158
kuchi	-11.158
ommonly	-11.158
kuch	-11.1581
assist	-11.1583
shaped	-11.1583
▁management	-11.1584
hihi	-11.1586
takin	-11.1586
▁bod	-11.1586
lim	-11.1587
ady	-11.159
enn	-11.159
ermore	-11.159
mark	-11.159
nnec	-11.159
▁resea	-11.159
roni	-11.1595
teac	-11.1595
Proper	-11.1597
espons	-11.1597
▁latte	-11.1597
services	-11.1604
▁Affairs	-11.1604
▁Fam	-11.1604
▁higher	-11.1604
recognized	-11.1608
spectively	-11.1608
▁Shosh	-11.161
akan	-11.1613
▁189	-11.1613
▁dynasty	-11.1613
Offi	-11.1617
cholar	-11.1617
qual	-11.1617
requir	-11.1617
▁Jugoinoge	-11.1619
tax	-11.162
etho	-11.1622
hort	-11.1622
▁assassinat	-11.1622
▁hor	-11.1622
Har	-11.1624
overed	-11.1624
ibute	-11.1625
▁pray	-11.1625
ingl	-11.1626
▁dispat	-11.1627
▁painte	-11.1627
Cloistered	-11.1631
empor	-11.1631
sual	-11.1631
▁childhood	-11.1631
chiy	-11.1635
pported	-11.1635
tudents	-11.1635
▁tempor	-11.1635
ecess	-11.1636
joine	-11.1636
atural	-11.1637
covere	-11.1637
▁recorded	-11.1637
Comm	-11.164
Dain	-11.164
accepted	-11.164
oshita	-11.1644
pecifi	-11.1644
▁criti	-11.1644
▁ceremonies	-11.1646
pecti	-11.1647
▁enthrone	-11.1647
▁resident	-11.1647
circ	-11.1649
ncreased	-11.1649
▁declin	-11.1651
mpora	-11.1653
sf	-11.1653
aliz	-11.1658
ondu	-11.1658
tivities	-11.1658
▁Sanj	-11.1659
ogen	-11.1662
▁cus	-11.1662
leted	-11.1664
Oc	-11.1667
Shir	-11.1667
▁eldest	-11.1667
kuj	-11.1668
ohi	-11.1668
▁Uj	-11.1668
NAK	-11.1671
Saga	-11.1671
osatsu	-11.1671
ashin	-11.1676
oncer	-11.1676
▁Shinsen	-11.1676
SOKAWA	-11.1678
oshimi	-11.1678
▁Property	-11.1678
forms	-11.1681
▁Hokk	-11.1681
▁reac	-11.1681
OSOKAW	-11.1685
eem	-11.1685
wooden	-11.1685
Inci	-11.1689
engt	-11.1689
Bosatsu	-11.169
profess	-11.169
critic	-11.1692
oon	-11.1692
▁HOSOK	-11.1692
stom	-11.1694
▁194	-11.1694
gem	-11.1695
Captain	-11.1698
insi	-11.1698
responsib	-11.1698
unicipa	-11.1698
▁dee	-11.1698
▁may	-11.1698
▁recommend	-11.1698
ois	-11.1702
avor	-11.1703
▁Noh	-11.1703
calli	-11.1704
▁Fest	-11.1704
Fourth	-11.1705
▁clear	-11.1705
nicipal	-11.1706
nounced	-11.1706
chant	-11.171
secre	-11.171
leve	-11.1712
street	-11.1712
leader	-11.1719
lowers	-11.1719
oncerning	-11.1719
Colle	-11.1721
architectur	-11.1721
completely	-11.1721
foundation	-11.1721
yoku	-11.1721
▁date	-11.1721
Electr	-11.1726
erties	-11.1726
esh	-11.1726
unding	-11.1726
gashiyama	-11.1729
▁Cu	-11.1729
onferred	-11.173
transportation	-11.173
ways	-11.173
▁Shingon	-11.173
caused	-11.1732
pertie	-11.1732
▁Christian	-11.1732
rien	-11.1735
jim	-11.1736
nbu	-11.1736
▁Kans	-11.1738
Ritsur	-11.1739
ersona	-11.1739
garden	-11.1739
ginate	-11.1739
undation	-11.1739
▁personal	-11.1739
woo	-11.1743
nogat	-11.1744
▁Thir	-11.1744
opinio	-11.1746
radual	-11.1746
tacked	-11.1746
tum	-11.1746
ishu	-11.1748
ngok	-11.1748
stations	-11.1748
Higashiya	-11.1749
propertie	-11.1749
Sum	-11.1753
eredit	-11.1753
ngth	-11.1753
Maizu	-11.1755
corre	-11.1755
tsuka	-11.1755
Kuni	-11.1757
onfe	-11.1757
rnal	-11.1757
▁details	-11.1757
▁Ashikaga	-11.176
detai	-11.1761
nounc	-11.1761
opene	-11.1761
tempo	-11.1761
pendent	-11.1762
▁Fou	-11.1762
UCHI	-11.1767
hievemen	-11.1767
oken	-11.1767
▁Hal	-11.1767
▁Mitsuhide	-11.1767
Aki	-11.177
tot	-11.177
▁NAKAMURA	-11.177
▁ritsuryo	-11.177
super	-11.1772
."	-11.1773
lio	-11.1773
dquarter	-11.1776
ievement	-11.1776
▁Compan	-11.1778
anuscript	-11.178
assistant	-11.178
conn	-11.178
onic	-11.178
temporary	-11.178
utr	-11.178
▁accompanied	-11.178
▁actually	-11.178
▁etc	-11.178
amber	-11.1784
rving	-11.1784
usual	-11.1784
chni	-11.1785
inta	-11.1785
ours	-11.1785
ternati	-11.1786
TOM	-11.1787
ficult	-11.1787
Kann	-11.1789
▁Lat	-11.1789
▁cle	-11.1789
▁hei	-11.1789
▁rail	-11.1789
▁committe	-11.1791
Confuci	-11.1794
Sect	-11.1794
composed	-11.1794
▁Shiki	-11.1794
redit	-11.1795
▁equivalent	-11.1796
grante	-11.1801
specif	-11.1801
irection	-11.1803
seri	-11.1803
orate	-11.1807
Constitution	-11.1808
alized	-11.1808
awachi	-11.1808
ranspo	-11.1808
urse	-11.1808
valu	-11.1808
▁escap	-11.1808
ccom	-11.1812
classifi	-11.1812
ench	-11.1812
guch	-11.1812
repar	-11.1812
sportation	-11.1812
▁interpret	-11.1812
OSHI	-11.1817
▁fif	-11.1817
rection	-11.1818
rpora	-11.1818
dvance	-11.1822
nste	-11.1822
nstitute	-11.1822
▁previou	-11.1822
inamo	-11.1824
▁lowe	-11.1824
▁particularly	-11.1824
Company	-11.1826
▁recent	-11.1826
▁diffi	-11.1828
sada	-11.1831
rrespon	-11.1834
imono	-11.1835
ndustr	-11.1835
oister	-11.1835
tama	-11.1835
▁products	-11.1842
▁surro	-11.1842
onve	-11.1845
eart	-11.1849
mpiled	-11.1849
nkan	-11.1849
▁legitim	-11.1849
exten	-11.1853
untri	-11.1853
▁enthronement	-11.1854
dri	-11.1856
▁unit	-11.1858
agat	-11.1863
oyam	-11.1863
▁controll	-11.1863
▁responsi	-11.1863
▁simpl	-11.1863
▁subj	-11.1864
Shok	-11.1868
connecti	-11.1868
oundatio	-11.1868
▁exchang	-11.1868
amachi	-11.187
tima	-11.1872
▁don	-11.1872
outside	-11.1874
tform	-11.1876
ifferenc	-11.1877
nsport	-11.1877
ssib	-11.1877
ttacke	-11.1877
zur	-11.1877
▁reconstruct	-11.1877
▁Ex	-11.188
ences	-11.1881
hroni	-11.1881
separ	-11.1881
destroy	-11.1883
mselves	-11.1883
ociety	-11.1884
Kas	-11.1887
gemen	-11.1887
▁stra	-11.1887
▁Ic	-11.1891
anagement	-11.1894
fference	-11.1895
▁Fourt	-11.1898
▁night	-11.1898
▁regulation	-11.1898
orced	-11.1899
▁approx	-11.1899
▁circumstance	-11.1899
Au	-11.19
Cha	-11.1901
amen	-11.1905
rritories	-11.1905
shihi	-11.1905
▁dispatche	-11.1905
▁film	-11.1905
▁garde	-11.1905
▁travel	-11.1907
dish	-11.1909
llows	-11.191
lords	-11.191
reased	-11.1911
xisted	-11.1911
aika	-11.1914
slan	-11.1914
tus	-11.1915
▁et	-11.1915
ainte	-11.1916
▁Hong	-11.1916
Shinse	-11.1918
flower	-11.1918
jima	-11.1918
zane	-11.1918
▁Yuk	-11.1918
nance	-11.1922
emained	-11.1923
ilities	-11.1923
sica	-11.1923
▁problem	-11.1923
ternation	-11.1925
▁First	-11.1925
▁presente	-11.1925
chig	-11.1928
ssibl	-11.1928
▁Ishi	-11.1928
▁architect	-11.1928
ranslat	-11.1931
ivided	-11.1932
ontrolle	-11.1932
▁arrange	-11.1932
▁attempt	-11.1932
akash	-11.1933
IMA	-11.1936
shm	-11.1936
nect	-11.1937
ovid	-11.1937
ebelli	-11.1939
ommit	-11.1939
ssive	-11.1939
▁maj	-11.1942
edita	-11.1945
atic	-11.1946
equire	-11.1946
mikoto	-11.1946
pani	-11.1951
umul	-11.1951
▁Treasur	-11.1951
▁committ	-11.1951
▁nea	-11.1951
oshihi	-11.1953
▁contra	-11.1956
anufactur	-11.1957
eserv	-11.1957
Hall	-11.196
esea	-11.196
piri	-11.196
▁Nichire	-11.196
▁accepte	-11.196
▁celebra	-11.196
Chik	-11.1965
Tomo	-11.1965
Takeda	-11.1967
arters	-11.1967
▁party	-11.1967
alize	-11.1968
arate	-11.1968
final	-11.1968
urea	-11.197
ODA	-11.1971
dispatched	-11.1974
tosh	-11.1974
Iey	-11.1978
body	-11.1979
dies	-11.1979
▁ill	-11.1979
porat	-11.198
▁necess	-11.198
ommuni	-11.1981
30	-11.1984
elonged	-11.1988
ffered	-11.1988
hority	-11.1988
rofess	-11.1988
horit	-11.1992
oza	-11.1992
▁road	-11.1992
plat	-11.1993
AKE	-11.1995
icipat	-11.1995
persona	-11.1996
▁Hongan	-11.1996
ausoleum	-11.1998
maga	-11.1998
onsho	-11.1998
▁existence	-11.1998
Ryo	-11.1999
lab	-11.1999
female	-11.2002
ndatio	-11.2002
▁Tra	-11.2002
edica	-11.2003
mpile	-11.2003
▁impr	-11.2003
rovided	-11.2005
▁Educati	-11.2007
▁industr	-11.2007
rnational	-11.2009
▁Daig	-11.2009
▁Kage	-11.2009
▁TOYO	-11.2009
sona	-11.2012
Retired	-11.2013
egu	-11.2013
▁itself	-11.2013
▁usuall	-11.2013
lativ	-11.2015
Divi	-11.2016
▁Kar	-11.2016
kes	-11.202
Express	-11.2021
hinsh	-11.2021
ncip	-11.2021
ptain	-11.2021
▁192	-11.2021
schola	-11.2023
▁usual	-11.2023
abuk	-11.2026
conferre	-11.2026
hibi	-11.2026
▁reb	-11.2026
Yoshita	-11.2029
▁destro	-11.2029
▁estate	-11.2029
policy	-11.203
▁destr	-11.203
wrote	-11.2033
Fami	-11.2035
mont	-11.2035
▁norther	-11.2035
▁whether	-11.2035
ctivit	-11.2037
ganized	-11.2037
kiy	-11.2037
saying	-11.2037
pprox	-11.2039
▁Gua	-11.204
ppearance	-11.2041
▁warriors	-11.2041
bellio	-11.2044
istance	-11.2046
nex	-11.2048
chn	-11.2051
uca	-11.2051
Kant	-11.2054
ributed	-11.2054
▁compar	-11.2054
goino	-11.2056
randfather	-11.2056
bod	-11.2058
earing	-11.2058
teen	-11.2058
tod	-11.2058
Christian	-11.2062
Third	-11.2062
Yoshihi	-11.2062
ego	-11.2062
rante	-11.2062
▁Importan	-11.2062
▁flower	-11.2062
▁register	-11.2062
Sat	-11.2066
bash	-11.2068
hiku	-11.2073
hinsengum	-11.2073
particularly	-11.2073
uge	-11.2073
▁While	-11.2073
▁Yoshiaki	-11.2073
isten	-11.2074
Seng	-11.2077
quir	-11.2077
▁architectu	-11.2077
▁bar	-11.2077
emorial	-11.2078
Gu	-11.208
ashiro	-11.208
uarte	-11.208
▁passenger	-11.208
Moreover	-11.2082
insengumi	-11.2083
▁Main	-11.2086
otok	-11.2087
reache	-11.2087
tsuh	-11.2087
▁Div	-11.2087
dynast	-11.2094
rsonal	-11.2094
▁destroye	-11.2094
▁white	-11.2094
immedia	-11.2095
ccurr	-11.2097
hest	-11.2101
ordinary	-11.2101
▁Iz	-11.2101
▁pal	-11.2101
articularl	-11.2103
▁cove	-11.2103
fre	-11.2104
ldings	-11.2108
rmo	-11.2108
▁Compa	-11.2108
reau	-11.211
sand	-11.211
pressed	-11.2112
hoj	-11.2115
rticularly	-11.2115
seki	-11.2115
▁Oki	-11.2115
▁Suke	-11.2115
▁hors	-11.2115
▁rebellio	-11.2115
▁specific	-11.2115
She	-11.2119
persons	-11.212
statues	-11.212
▁circumstances	-11.212
▁critici	-11.212
sited	-11.2121
▁trie	-11.2121
tholog	-11.2122
Jus	-11.2126
financial	-11.2126
lti	-11.2126
rrounding	-11.2126
porar	-11.2127
▁Mono	-11.2127
Po	-11.2129
activi	-11.2129
limi	-11.2129
proxim	-11.2129
▁association	-11.2129
inher	-11.2133
ounce	-11.2133
SUDAIRA	-11.2136
sag	-11.2136
▁reform	-11.2136
nshok	-11.2139
text	-11.2139
uchiyama	-11.2139
▁communi	-11.2139
corr	-11.2143
cros	-11.2143
inguis	-11.2143
nity	-11.2143
▁appointment	-11.2143
gitimat	-11.2145
▁Shinse	-11.2145
▁flow	-11.2145
▁stay	-11.2145
ndividual	-11.2147
amashiro	-11.2148
regu	-11.2148
▁decorat	-11.2148
gation	-11.2151
management	-11.2151
TAKE	-11.2153
oshirak	-11.2153
▁ordina	-11.2153
ainag	-11.2157
flict	-11.2157
egions	-11.2158
hereafter	-11.2158
portation	-11.2158
▁Masak	-11.2158
▁Takauji	-11.2158
ctors	-11.2162
Res	-11.2165
▁Kos	-11.2167
appointment	-11.2168
▁standard	-11.2168
itimate	-11.217
oughout	-11.217
▁Jugoin	-11.217
▁Tendai	-11.217
isci	-11.2172
▁arriv	-11.2172
regulation	-11.2174
▁dest	-11.2174
KAM	-11.2176
exte	-11.2177
tead	-11.2177
reached	-11.2178
coo	-11.2179
sonal	-11.218
isco	-11.2181
nfer	-11.2181
rtin	-11.2181
classic	-11.2186
nvolv	-11.2186
▁Depart	-11.2186
Cons	-11.2191
lice	-11.2191
▁spri	-11.2192
olding	-11.2193
▁oldest	-11.2195
▁interna	-11.2196
aiz	-11.2201
rankin	-11.2201
▁fifth	-11.2201
▁regist	-11.2203
recogniz	-11.2205
umu	-11.2208
eader	-11.221
scip	-11.221
▁prof	-11.221
Musashi	-11.2211
Toy	-11.2211
appears	-11.2211
▁depend	-11.2211
▁strength	-11.2211
cs	-11.2215
emporary	-11.2215
exchange	-11.2215
▁fis	-11.2215
▁light	-11.2215
TOYOT	-11.2216
cided	-11.2216
Roku	-11.222
suggest	-11.222
destroyed	-11.2222
invol	-11.2222
▁KI	-11.2226
elebrat	-11.2228
▁assist	-11.2228
icti	-11.2229
iu	-11.2229
nguish	-11.2229
redita	-11.2229
riz	-11.2229
etc	-11.2233
emoni	-11.2234
ermin	-11.2234
▁incorporat	-11.2234
▁underst	-11.2234
erning	-11.2236
volumes	-11.2236
artm	-11.2239
ankin	-11.224
available	-11.2244
ayos	-11.2244
ones	-11.2244
uso	-11.2244
▁Fro	-11.2244
▁eastern	-11.2244
▁manuscri	-11.2244
Kawach	-11.2251
ganize	-11.2251
▁money	-11.2251
mberlain	-11.2253
racteris	-11.2253
interpret	-11.2254
Yoshimitsu	-11.2258
grave	-11.2258
tsuhi	-11.2258
▁Daijo	-11.2258
Bus	-11.2262
required	-11.2263
▁Sek	-11.2263
distribut	-11.2265
asti	-11.2268
itat	-11.2268
▁dat	-11.2268
chijo	-11.227
lassifi	-11.227
teristic	-11.2272
▁Shira	-11.2272
TOMI	-11.2277
attern	-11.228
abol	-11.2282
corporat	-11.2282
dants	-11.2282
inago	-11.2282
rmor	-11.2282
spons	-11.2282
▁cir	-11.2287
▁medieval	-11.2287
jik	-11.229
ibit	-11.2292
ugoinoge	-11.2292
▁heredit	-11.2292
▁recorde	-11.2292
urpose	-11.2294
▁Shug	-11.2294
revious	-11.2295
trative	-11.2295
quivalent	-11.2298
rtu	-11.2298
controll	-11.2301
enthronement	-11.2301
ehol	-11.2306
limit	-11.2306
AKI	-11.2308
ubject	-11.2308
▁Ik	-11.2308
▁envoy	-11.2308
warriors	-11.2311
▁190	-11.2311
Village	-11.2312
especti	-11.2312
incipal	-11.2312
ommitte	-11.2312
underst	-11.2312
▁achievements	-11.2313
northe	-11.2316
volved	-11.2316
Furth	-11.2318
sport	-11.2318
▁inco	-11.2318
▁sepa	-11.2318
ngredient	-11.2319
rincipa	-11.232
▁onc	-11.232
▁social	-11.232
werful	-11.2323
orean	-11.2324
▁accompanie	-11.2326
merchan	-11.2329
Shinsh	-11.233
deity	-11.233
izo	-11.233
lligraphy	-11.233
mulus	-11.233
oximat	-11.233
surrender	-11.233
theories	-11.233
seem	-11.2335
inside	-11.2337
sco	-11.2337
accompanied	-11.234
fusa	-11.234
kaya	-11.234
nion	-11.234
▁transpo	-11.234
▁tru	-11.234
acilities	-11.2341
gui	-11.2341
sad	-11.2341
orporation	-11.2342
locati	-11.2345
manc	-11.2345
ximate	-11.2345
▁leave	-11.2345
▁Shingo	-11.2346
90	-11.2347
yus	-11.2348
gulation	-11.2349
rail	-11.2349
▁society	-11.2349
ANA	-11.2352
equivalen	-11.2352
humous	-11.2352
rchitectu	-11.2352
▁Goshi	-11.2352
▁organize	-11.2352
eric	-11.2354
facilities	-11.2354
▁past	-11.2354
▁principle	-11.2354
nso	-11.2356
shirak	-11.2359
ernat	-11.236
chitectur	-11.2363
erchant	-11.2363
basi	-11.2364
ready	-11.2366
aphy	-11.2369
enthrone	-11.2369
imil	-11.2369
kuchiyam	-11.2369
uccessiv	-11.2369
▁Off	-11.2369
Yoshito	-11.2371
volve	-11.2372
▁Daij	-11.2372
Kum	-11.2374
oops	-11.2374
parate	-11.2374
gni	-11.2377
▁Wo	-11.2377
Shink	-11.2379
ccessive	-11.2379
datio	-11.2379
techniques	-11.2379
▁Captain	-11.2379
mperors	-11.238
MATSUD	-11.2381
hole	-11.2383
kusa	-11.2383
▁rat	-11.2383
Shiki	-11.2385
▁Kuro	-11.2385
hoki	-11.2388
patter	-11.2388
▁seas	-11.2391
Hach	-11.2393
Art	-11.2396
ugoino	-11.2396
▁surrende	-11.2396
Yoshimi	-11.2397
▁forced	-11.2397
akes	-11.2398
hida	-11.2398
IT	-11.2403
editar	-11.2403
ellion	-11.2403
icultur	-11.2405
▁Retire	-11.2405
▁handed	-11.2405
pala	-11.2408
eform	-11.2409
honsh	-11.2409
lines	-11.2409
▁Echi	-11.2409
course	-11.241
tos	-11.241
chij	-11.2413
tuti	-11.2413
dynasty	-11.2414
informa	-11.2414
amoun	-11.2415
rticipated	-11.2415
furthe	-11.2417
nba	-11.2417
nished	-11.2417
▁interest	-11.2417
▁restore	-11.2417
directi	-11.2422
Kun	-11.2425
▁ritua	-11.2425
omb	-11.2428
achiman	-11.2431
ginated	-11.2431
Record	-11.2432
init	-11.2432
unders	-11.2432
Gosh	-11.2437
strument	-11.2437
communi	-11.2439
ecoming	-11.2439
memor	-11.2439
▁farm	-11.2439
▁includes	-11.2439
▁woman	-11.2439
omic	-11.2442
ott	-11.2443
▁Confuci	-11.2447
decorat	-11.2448
ervices	-11.2448
subsequen	-11.245
gg	-11.2452
nosuk	-11.2452
▁Eng	-11.2452
tition	-11.2454
cessive	-11.2457
info	-11.2457
nferred	-11.2457
These	-11.2458
matic	-11.2458
▁trac	-11.2458
▁valu	-11.2458
OMI	-11.2461
akushi	-11.2461
mila	-11.2461
rebellion	-11.2461
▁added	-11.2461
asaka	-11.2464
ercha	-11.2464
tence	-11.2464
escape	-11.2469
idai	-11.2471
useh	-11.2471
oor	-11.2472
▁ancestor	-11.2472
▁assassin	-11.2472
▁officers	-11.2472
resigne	-11.2474
▁Kabuki	-11.2474
ghest	-11.2476
onicl	-11.2476
rchitect	-11.2476
sth	-11.2476
▁Shima	-11.2476
▁expl	-11.2476
▁grave	-11.2476
▁spre	-11.2476
OTOMI	-11.2482
itute	-11.2482
rchan	-11.2482
▁States	-11.2482
eremonies	-11.2483
seu	-11.2483
ches	-11.2486
ctly	-11.2486
gical	-11.2488
▁Michinaga	-11.2488
houses	-11.2491
ompose	-11.2491
▁punish	-11.2491
confl	-11.2495
ssals	-11.2495
actually	-11.2496
seho	-11.2496
vert	-11.2496
▁val	-11.2496
▁Chunag	-11.2499
▁formal	-11.2499
YOTOM	-11.2501
akami	-11.2501
assassinat	-11.2501
nicle	-11.2501
▁Shinkansen	-11.2501
▁Cl	-11.2502
Guar	-11.2506
oman	-11.2506
▁lines	-11.2506
▁tur	-11.2506
▁High	-11.2507
▁Shok	-11.2507
princes	-11.2508
angu	-11.251
rmat	-11.251
scap	-11.251
atsun	-11.2513
ourse	-11.2513
tched	-11.2513
ecognize	-11.2515
suhi	-11.2515
Bun	-11.2517
decline	-11.2517
oshimitsu	-11.2517
▁Mino	-11.2519
▁ingredients	-11.252
▁restoration	-11.252
Rok	-11.2524
ceremonies	-11.2525
inguishe	-11.2525
ritsuryo	-11.2525
▁miko	-11.2525
▁provisi	-11.2525
▁Collection	-11.2528
▁institut	-11.2528
Fift	-11.253
iyom	-11.253
rrio	-11.253
▁ODA	-11.253
▁exe	-11.253
uic	-11.2531
▁Toda	-11.2531
▁id	-11.2531
ndic	-11.2535
oward	-11.2538
▁Addition	-11.2539
anba	-11.254
chit	-11.254
▁pic	-11.254
ditary	-11.2543
ordinar	-11.2543
tudied	-11.2543
acili	-11.2544
otec	-11.2545
vise	-11.2545
▁prevent	-11.2545
▁wha	-11.2545
▁1,	-11.2546
aizu	-11.255
childhood	-11.255
cilit	-11.255
prepa	-11.255
venth	-11.255
▁Higashiy	-11.255
nherite	-11.2551
rba	-11.2554
▁eventually	-11.2555
IS	-11.2557
hinsen	-11.2557
quired	-11.2557
sented	-11.2557
celebra	-11.256
kiyo	-11.256
shio	-11.256
▁Affair	-11.256
▁Sha	-11.256
▁execut	-11.256
agistrate	-11.2561
▁Thes	-11.2562
▁amou	-11.2562
esente	-11.2565
ingo	-11.2565
▁pie	-11.2565
sar	-11.2568
▁Kiyomo	-11.2568
▁officially	-11.2568
ecogni	-11.2572
financ	-11.2572
natura	-11.2572
hiev	-11.2575
nguished	-11.2575
▁Trea	-11.2575
herited	-11.2577
icipate	-11.2577
▁Monog	-11.258
▁Tale	-11.2581
reconstruct	-11.2582
ecognized	-11.2583
servation	-11.2583
▁instruct	-11.2583
▁Nichir	-11.2586
▁transl	-11.2586
ranked	-11.2587
urred	-11.2587
▁Villa	-11.2587
▁sett	-11.2587
99	-11.2589
unic	-11.2589
nctio	-11.2593
▁disa	-11.2593
▁gold	-11.2593
Chr	-11.2594
Inc	-11.2594
Mitsuhide	-11.2594
tentio	-11.2594
▁content	-11.2594
▁institution	-11.2594
▁settle	-11.2594
▁Municipal	-11.2599
▁mountains	-11.2599
finally	-11.2603
illi	-11.2604
Confucianism	-11.2609
Kyus	-11.2609
figure	-11.2609
nforma	-11.2609
gistrat	-11.2612
▁turn	-11.2612
Ashikaga	-11.2614
oyed	-11.2614
ronicles	-11.2614
specific	-11.2614
▁Cloister	-11.2617
▁function	-11.2617
onfli	-11.2618
▁expression	-11.2623
Comp	-11.2624
flow	-11.2624
hors	-11.2624
ineage	-11.2624
storie	-11.2624
▁depa	-11.2624
▁figur	-11.2624
suh	-11.2628
wne	-11.2628
conferr	-11.2629
yogo	-11.2629
▁Takat	-11.2632
▁characteristics	-11.2634
eff	-11.2635
ols	-11.2635
norther	-11.2638
tically	-11.2638
Monoga	-11.2639
architect	-11.2639
gions	-11.2643
women	-11.2643
▁deities	-11.2644
▁enthron	-11.2644
agement	-11.2647
classif	-11.2647
edieval	-11.2647
nfucian	-11.2647
onfucia	-11.2647
plement	-11.2647
ecid	-11.2649
isite	-11.2649
ondi	-11.2649
owned	-11.2649
▁thousand	-11.265
legend	-11.2654
ptur	-11.2654
▁arrang	-11.2655
▁fort	-11.2655
nfe	-11.2658
wors	-11.2659
Right	-11.2662
architectu	-11.2662
pectively	-11.2662
▁household	-11.2662
▁woode	-11.2662
Constitutio	-11.2664
fine	-11.2664
jiwa	-11.2664
nterpret	-11.2664
pons	-11.2664
▁Hak	-11.2664
nok	-11.2665
ihons	-11.2668
latte	-11.2668
oshir	-11.2668
oshis	-11.2668
ttend	-11.2668
▁Rit	-11.2669
▁Takam	-11.2669
Shingon	-11.2673
existence	-11.2673
nze	-11.2673
ugy	-11.2673
imits	-11.2674
▁Ele	-11.2674
▁Road	-11.2674
Confucianis	-11.2678
nthronement	-11.2678
▁connection	-11.2678
ginn	-11.2679
inom	-11.2679
manu	-11.2679
▁wear	-11.268
▁contri	-11.2682
▁length	-11.2682
atus	-11.2684
circumstance	-11.2684
ety	-11.2684
▁Br	-11.2684
▁patte	-11.2684
resig	-11.2687
shoki	-11.2687
okka	-11.2689
oode	-11.2689
pris	-11.2689
▁silver	-11.269
mmedia	-11.2692
wal	-11.2692
▁leade	-11.2692
▁what	-11.2693
recorded	-11.2694
▁Kaz	-11.2694
▁Nih	-11.2694
▁treated	-11.2694
recommend	-11.2695
▁HA	-11.2695
ardin	-11.2699
haracteristics	-11.2699
imu	-11.2699
ncern	-11.2699
▁Jugoi	-11.2699
▁prob	-11.2699
▁shin	-11.2699
rva	-11.2703
egitim	-11.2707
opi	-11.2707
tatues	-11.2707
▁rebel	-11.2707
amin	-11.2709
gul	-11.271
kay	-11.271
▁belonging	-11.2712
▁prep	-11.2712
Restor	-11.2714
coin	-11.2714
ilar	-11.2714
inomiy	-11.2714
previou	-11.2717
enced	-11.2718
ompletely	-11.2718
omon	-11.2719
rout	-11.2719
Bureau	-11.2722
casion	-11.2722
▁purpo	-11.2722
▁Mitsuhi	-11.2724
▁equivalen	-11.2724
▁persona	-11.2724
▁seventh	-11.2724
ichiren	-11.2726
ntribut	-11.2726
▁series	-11.2726
moch	-11.2729
rtici	-11.2731
tried	-11.2731
association	-11.2733
Nichire	-11.2734
ediately	-11.2734
icho	-11.2734
xchange	-11.2734
▁Ama	-11.2734
▁domains	-11.2734
anp	-11.2737
ashiy	-11.2737
▁advis	-11.2737
leav	-11.2739
▁hai	-11.2739
blo	-11.2741
▁individu	-11.2741
▁recommen	-11.2741
Route	-11.2743
stories	-11.2743
88	-11.2744
Jugoin	-11.2744
painte	-11.2744
▁che	-11.2744
▁influential	-11.2744
magistrate	-11.2749
pmen	-11.2749
▁reve	-11.2749
iq	-11.2752
ishiki	-11.2752
▁Island	-11.2752
Yuki	-11.2754
gasa	-11.2754
leas	-11.2754
▁Fukuchi	-11.2754
▁coi	-11.2754
ntroll	-11.2759
ugi	-11.2759
uper	-11.2759
▁198	-11.2759
▁sep	-11.2759
Gener	-11.2762
OKAWA	-11.2762
ender	-11.2762
rian	-11.2765
living	-11.2767
ntary	-11.2768
agas	-11.277
ologic	-11.2775
▁Ashi	-11.2775
▁Kintetsu	-11.2775
▁memorial	-11.2775
enr	-11.2778
iyomori	-11.2778
▁societ	-11.2778
▁Grea	-11.2781
▁sixt	-11.2781
gitima	-11.2782
oinoge	-11.2782
esponsib	-11.2785
household	-11.2786
kko	-11.2786
otoku	-11.2787
▁Inter	-11.279
mone	-11.2795
standard	-11.2795
zumi	-11.2795
▁transp	-11.2796
limite	-11.2797
treate	-11.2797
▁My	-11.2797
▁Taked	-11.2797
Shosh	-11.28
▁KU	-11.2805
▁ph	-11.2809
▁Ass	-11.281
▁wro	-11.281
inion	-11.2813
enga	-11.2815
hant	-11.2815
dvanc	-11.2819
earth	-11.2819
▁advi	-11.2819
HIM	-11.282
▁commu	-11.282
▁tempo	-11.282
Higashiy	-11.2825
Mune	-11.2825
assenger	-11.2825
faci	-11.2825
sides	-11.2825
▁Izum	-11.2825
Sanj	-11.283
igra	-11.283
uire	-11.283
ikk	-11.2832
treas	-11.2832
▁perm	-11.2832
▁profes	-11.2832
Du	-11.2833
onfi	-11.2835
products	-11.2835
register	-11.2835
responsi	-11.2835
chima	-11.2838
termi	-11.2838
arro	-11.2841
estaura	-11.2841
icke	-11.2841
▁becomi	-11.2841
Daina	-11.2844
bushi	-11.2844
circumstances	-11.2844
quart	-11.2844
white	-11.2844
iary	-11.2846
▁fur	-11.2846
▁roa	-11.2846
ecessar	-11.2849
taurant	-11.2849
alent	-11.2851
anshi	-11.2851
fall	-11.2851
hinse	-11.2851
▁Miko	-11.2851
▁clans	-11.2851
▁dispa	-11.2851
▁organized	-11.2851
▁sum	-11.2851
ispatched	-11.2854
Property	-11.2856
repo	-11.2856
Hongan	-11.2858
JO	-11.2858
olv	-11.2858
▁Crown	-11.2858
▁course	-11.2858
ivide	-11.2863
ppointment	-11.2863
▁crit	-11.2863
▁latt	-11.2863
ography	-11.2867
servati	-11.2867
orar	-11.2871
necess	-11.2874
ousand	-11.2874
scende	-11.2874
▁linea	-11.2874
Mino	-11.2876
aijo	-11.2876
atche	-11.2876
committe	-11.2876
▁Musash	-11.2876
▁purp	-11.2876
ecting	-11.2881
ppl	-11.2881
usuall	-11.2881
▁insid	-11.2881
▁Rout	-11.2883
Hokk	-11.2886
NAKAMURA	-11.2886
igashiya	-11.2886
ncerning	-11.2886
▁gar	-11.2886
▁possess	-11.2886
ATSUDA	-11.2889
iding	-11.2889
▁Kaga	-11.2889
idge	-11.2891
esthood	-11.2894
omposed	-11.2894
hapter	-11.2897
rack	-11.2897
▁learned	-11.2897
▁barbarians	-11.29
chiya	-11.2902
denti	-11.2902
ridg	-11.2902
ujiw	-11.2902
onnecti	-11.2903
▁matter	-11.2903
▁object	-11.2903
tis	-11.2904
unagon	-11.2904
▁recog	-11.2904
OSOKA	-11.2908
lways	-11.2908
chiyama	-11.2912
dly	-11.2912
egister	-11.2912
exchang	-11.2912
rating	-11.2912
▁Takak	-11.2912
▁entrance	-11.2912
HOSOK	-11.2914
▁associate	-11.2914
▁ef	-11.2916
anki	-11.2917
ax	-11.2917
▁Ancient	-11.2917
jir	-11.292
onsti	-11.2921
▁Saka	-11.2921
asio	-11.2922
First	-11.2927
cifi	-11.2927
circu	-11.2927
ducte	-11.2927
reen	-11.2927
scene	-11.2927
▁Sang	-11.2927
▁chapter	-11.2927
Affairs	-11.293
▁econom	-11.293
onar	-11.2932
▁Gre	-11.2932
dispatche	-11.2935
longed	-11.2935
▁ritsury	-11.2938
188	-11.2939
thology	-11.2939
▁pieces	-11.2939
logic	-11.294
Four	-11.2943
anis	-11.2943
ntings	-11.2943
reover	-11.2943
rpor	-11.2943
▁Fif	-11.2943
▁thing	-11.2943
199	-11.2947
ransp	-11.2947
sures	-11.2947
From	-11.2948
details	-11.2948
gumi	-11.2948
rrin	-11.2948
spatch	-11.295
preci	-11.2953
requi	-11.2953
▁191	-11.2953
▁disciples	-11.2953
ccepted	-11.2957
condit	-11.2958
minute	-11.2958
nuscript	-11.2958
▁Hachiman	-11.2958
Shira	-11.2959
ebell	-11.2959
essiv	-11.2959
himan	-11.2959
89	-11.2961
Kans	-11.2963
vest	-11.2963
accepte	-11.2966
ctually	-11.2966
itaka	-11.2966
panie	-11.2966
senge	-11.2966
▁collected	-11.2966
Fa	-11.2968
sek	-11.297
▁architec	-11.297
ask	-11.2974
cape	-11.2974
inge	-11.2974
ommitt	-11.2974
▁Wakas	-11.2974
▁qua	-11.2974
arriors	-11.2975
isu	-11.2977
accompanie	-11.2979
igrap	-11.2979
▁Shirakawa	-11.2979
▁outs	-11.2979
▁regulat	-11.2979
▁running	-11.2979
▁Hokkaido	-11.2981
▁Kawac	-11.2981
▁condi	-11.2981
▁determin	-11.2981
▁value	-11.2981
onfu	-11.2984
▁commen	-11.2984
YOSHI	-11.2985
ecent	-11.2985
pecif	-11.2985
easter	-11.2989
eldest	-11.2989
higher	-11.2989
hinaga	-11.2989
intain	-11.2989
aisha	-11.2992
econstruct	-11.2992
ociet	-11.2992
scriptions	-11.2992
▁committed	-11.2992
Treasur	-11.2993
ivities	-11.2993
▁ancest	-11.2993
▁minute	-11.2993
deri	-11.2994
disco	-11.2998
ader	-11.2999
atam	-11.2999
▁influenced	-11.2999
▁reached	-11.2999
arrange	-11.3002
cian	-11.3005
gura	-11.3005
ights	-11.3005
subs	-11.3005
ticipated	-11.3005
▁Moro	-11.3011
ola	-11.3012
pieces	-11.3012
stingu	-11.3012
restoration	-11.3014
Mura	-11.3015
rres	-11.3015
▁politics	-11.3016
Sutra	-11.3017
▁entertain	-11.3017
content	-11.302
taining	-11.302
▁Gener	-11.302
empo	-11.3025
Kuma	-11.303
Shinkansen	-11.303
enshi	-11.303
invo	-11.303
ticu	-11.303
total	-11.303
tifi	-11.3036
utside	-11.3036
chola	-11.3037
▁unders	-11.3038
Suk	-11.3043
anized	-11.3043
bje	-11.3043
igher	-11.3043
officially	-11.3043
▁inde	-11.3043
pond	-11.3046
unction	-11.3047
Muse	-11.3051
sura	-11.3051
▁Kob	-11.3051
nsai	-11.3056
onferre	-11.3056
rdinary	-11.3056
▁fal	-11.3056
travel	-11.3059
▁favor	-11.3059
dict	-11.3062
▁Yoshika	-11.3062
AMURA	-11.3063
ectly	-11.3063
sauce	-11.3063
▁esca	-11.3063
undatio	-11.3065
AKAM	-11.3067
Kabuki	-11.3067
▁broke	-11.3067
piled	-11.3069
inancial	-11.3072
nagement	-11.3072
ritories	-11.3072
▁Bec	-11.3072
iin	-11.3075
passenger	-11.3075
seventh	-11.3075
▁featur	-11.3075
▁international	-11.3075
grav	-11.3077
shid	-11.3077
unce	-11.3077
Daig	-11.3082
Kintetsu	-11.3082
arth	-11.3082
draw	-11.3082
eser	-11.3082
therm	-11.3082
uya	-11.3082
gri	-11.3086
teg	-11.3086
Grea	-11.3088
omor	-11.3088
Som	-11.309
Hachiman	-11.3093
ernation	-11.3093
istribut	-11.3093
▁celebr	-11.3093
ecl	-11.3094
gum	-11.3094
Mt	-11.3095
allig	-11.3095
ictio	-11.3095
incorporat	-11.3095
Noh	-11.3098
achievements	-11.3098
▁Dy	-11.3098
▁Sanjo	-11.3098
▁frequent	-11.3098
enger	-11.3102
ievemen	-11.3102
towar	-11.3102
Beca	-11.3103
rebellio	-11.3103
occasi	-11.3106
uss	-11.3106
egend	-11.3108
ligra	-11.3108
nnon	-11.3108
▁does	-11.3108
andfather	-11.311
principle	-11.311
▁District	-11.311
▁Of	-11.311
▁supposed	-11.311
evement	-11.3111
tandard	-11.3111
▁intern	-11.3111
Dur	-11.3114
mmonly	-11.3114
Iwa	-11.3118
contra	-11.3121
estate	-11.3121
▁Masam	-11.3121
▁capt	-11.3121
▁follower	-11.3121
tick	-11.3124
▁Katsura	-11.3124
orked	-11.3128
tenti	-11.3128
▁department	-11.3128
dispat	-11.3129
vor	-11.3129
▁locati	-11.3129
▁seems	-11.3129
diate	-11.3135
mite	-11.3135
nufactur	-11.3135
ox	-11.3135
▁rebelli	-11.3135
▁occas	-11.3137
pecific	-11.3139
▁events	-11.3139
Nich	-11.314
▁ach	-11.314
fifth	-11.3141
unn	-11.3141
Yoshiaki	-11.3145
mination	-11.3145
oine	-11.3145
▁expressi	-11.3145
agasaki	-11.3148
▁asso	-11.3148
▁previo	-11.3148
▁posts	-11.3153
leade	-11.3154
mmuni	-11.3154
rmore	-11.3154
▁Jodo	-11.3154
lows	-11.3156
medieval	-11.3156
memorial	-11.3156
rticularl	-11.3157
Depart	-11.3161
Par	-11.3161
iests	-11.3161
simi	-11.3161
▁Oku	-11.3161
▁implement	-11.3161
ody	-11.3165
MU	-11.3166
ntained	-11.3166
declin	-11.3169
ticularly	-11.3169
udents	-11.3169
▁Treasure	-11.3169
KE	-11.3171
▁classified	-11.3171
▁Yoshinobu	-11.3174
▁towa	-11.3174
orporati	-11.3177
▁Tsuk	-11.318
arme	-11.3182
inka	-11.3182
committ	-11.3184
Elect	-11.3187
ccompanied	-11.3187
taish	-11.3187
SAK	-11.3192
Shirakawa	-11.3192
nsiste	-11.3192
▁Corporation	-11.3192
▁Honga	-11.3192
▁arc	-11.3192
▁headquarter	-11.3192
pinio	-11.3194
tives	-11.3194
▁Kansai	-11.3194
▁mone	-11.3194
noga	-11.3198
wear	-11.3198
holog	-11.32
anke	-11.3203
rked	-11.3203
rounding	-11.3208
▁Nagas	-11.3208
▁edi	-11.3208
▁financi	-11.3208
▁flowe	-11.3208
▁my	-11.3208
fferenc	-11.3212
RI	-11.3213
akata	-11.3213
UDAIRA	-11.3216
ounced	-11.3216
▁30	-11.3216
▁southern	-11.3216
inki	-11.3219
pearance	-11.3219
▁awarded	-11.3219
cteri	-11.322
insen	-11.322
uyo	-11.322
industr	-11.3221
▁reache	-11.3221
kaga	-11.3224
orre	-11.3224
profes	-11.3224
selves	-11.3224
rashi	-11.3227
destroye	-11.3229
ountains	-11.3229
Educati	-11.3231
ntation	-11.3231
rnation	-11.3231
whether	-11.3231
compar	-11.3232
unicip	-11.3232
emale	-11.3233
erior	-11.3233
reven	-11.3233
Koji	-11.3235
▁fai	-11.3235
aiko	-11.324
ancestor	-11.324
assic	-11.324
hristian	-11.324
insengum	-11.324
izur	-11.324
nicipa	-11.324
nscription	-11.324
officers	-11.324
orke	-11.324
ortation	-11.324
problem	-11.324
uish	-11.324
▁Left	-11.324
▁Yoshiak	-11.324
▁commun	-11.324
▁companies	-11.324
ravel	-11.3246
verse	-11.3246
Compan	-11.3248
icipal	-11.3248
▁towns	-11.3248
attempt	-11.3249
▁descriptions	-11.3249
strength	-11.325
uctu	-11.325
Assistant	-11.3252
ssassinat	-11.3252
ventually	-11.3252
olicy	-11.3253
track	-11.3253
characteristics	-11.326
▁East	-11.326
▁fall	-11.326
estroyed	-11.3261
nsengumi	-11.3261
echniques	-11.3264
ersons	-11.3264
estroy	-11.3264
▁containe	-11.3264
ritic	-11.3266
▁mik	-11.3266
ntrolle	-11.3268
dee	-11.3272
ereafter	-11.3272
secr	-11.3272
vailable	-11.3272
▁minutes	-11.3272
▁whole	-11.3272
inobu	-11.3273
suall	-11.3273
tured	-11.3273
▁Kamo	-11.3273
▁Prop	-11.3273
▁Sekigahara	-11.3273
associate	-11.3276
essa	-11.3277
lved	-11.3277
▁Shoshi	-11.3277
▁sal	-11.3277
ISH	-11.328
Myo	-11.328
atura	-11.328
ctivi	-11.328
▁necessary	-11.328
▁recen	-11.328
onth	-11.3282
orms	-11.3282
interna	-11.3286
▁tota	-11.3286
unte	-11.3288
▁reported	-11.3288
resea	-11.3293
▁HOSO	-11.3293
▁Educat	-11.3296
▁trave	-11.3296
Hong	-11.3298
gosh	-11.3298
hermo	-11.33
maint	-11.33
▁existing	-11.33
ingredients	-11.3302
ernati	-11.3304
namo	-11.3304
oces	-11.3304
onfuci	-11.3304
▁frequen	-11.3304
criti	-11.3306
spond	-11.3306
▁list	-11.3306
Thir	-11.3309
gend	-11.3309
ousl	-11.3309
eached	-11.3312
handed	-11.3312
▁insta	-11.3312
▁permi	-11.3312
Ancient	-11.3314
Takauji	-11.3314
interest	-11.3314
manuscri	-11.3314
orim	-11.3314
pray	-11.3314
usly	-11.3314
Bi	-11.3317
destr	-11.332
lega	-11.332
tivit	-11.332
udy	-11.332
ushin	-11.332
vance	-11.332
corpora	-11.3324
obi	-11.3324
▁rebell	-11.3324
dividual	-11.3325
nna	-11.3328
recent	-11.3328
ores	-11.333
▁frequently	-11.3332
usoleum	-11.3333
▁Juni	-11.3333
Ishi	-11.3336
lassif	-11.3336
maj	-11.3336
onog	-11.3336
▁reig	-11.334
zuru	-11.3341
Fr	-11.3344
,0	-11.3346
comes	-11.3346
erni	-11.3346
urrender	-11.3346
▁Nao	-11.3346
▁assistan	-11.3348
Ze	-11.3352
critici	-11.3352
gasaki	-11.3352
saku	-11.3352
amach	-11.3353
petition	-11.3357
Tendai	-11.336
assis	-11.336
regist	-11.336
senta	-11.336
▁Bureau	-11.3361
prof	-11.3362
suku	-11.3362
▁nin	-11.3362
ellin	-11.3366
equir	-11.3366
flowe	-11.3366
tsura	-11.3366
aishogun	-11.3368
sisted	-11.3368
ecretar	-11.337
nthrone	-11.337
oshiaki	-11.337
▁noodle	-11.337
▁theori	-11.337
▁ji	-11.3372
Sats	-11.3373
aves	-11.3373
egent	-11.3373
tacke	-11.3373
▁info	-11.3373
▁track	-11.3376
Fukuchi	-11.338
cific	-11.338
haped	-11.338
mashiro	-11.338
▁Ei	-11.338
atched	-11.3384
oryo	-11.3384
inomi	-11.3386
perti	-11.3386
understand	-11.3386
▁barbarian	-11.3386
▁describes	-11.3386
nus	-11.3388
ecogniz	-11.3389
heories	-11.3389
moti	-11.3389
ppre	-11.3389
institution	-11.339
sud	-11.3392
Fourt	-11.3393
ichin	-11.3393
merge	-11.3393
urrou	-11.3393
diat	-11.3394
Hos	-11.3396
rporation	-11.3396
▁Yoshimit	-11.3396
▁Taisho	-11.3398
belli	-11.34
▁Hac	-11.34
▁look	-11.34
influential	-11.3405
ermor	-11.3407
destro	-11.3408
vements	-11.3408
▁widely	-11.3408
abinet	-11.3416
arring	-11.3416
ritu	-11.3416
spre	-11.3416
▁thems	-11.3416
fered	-11.342
ker	-11.342
knowledge	-11.342
▁prohibit	-11.342
akak	-11.3421
sele	-11.3421
tens	-11.3421
▁dedicat	-11.3421
▁eat	-11.3421
TAI	-11.3424
oldest	-11.3424
shikag	-11.3424
level	-11.3427
▁gather	-11.3427
atsura	-11.3432
pile	-11.3432
▁announce	-11.3432
▁deep	-11.3433
189	-11.344
Ise	-11.344
aracteristics	-11.344
expression	-11.344
holar	-11.344
▁Bosat	-11.344
▁exper	-11.344
▁trade	-11.344
Tale	-11.3443
aked	-11.3443
ando	-11.3443
Izu	-11.3444
▁Vi	-11.3444
Article	-11.3446
uchiyam	-11.3446
erful	-11.3447
simpl	-11.3447
Sag	-11.3448
olumes	-11.3448
oshira	-11.3448
ukai	-11.3448
▁Kom	-11.3448
ircumstance	-11.345
onfucianism	-11.345
kir	-11.3452
awach	-11.3454
eater	-11.3454
eventually	-11.3454
quivalen	-11.3454
thronement	-11.3454
▁Shon	-11.3454
▁Yoshimasa	-11.3454
▁existen	-11.3454
regulat	-11.3455
Michinaga	-11.3456
necessary	-11.3456
▁honor	-11.3456
wachi	-11.3461
▁Hy	-11.3461
▁effe	-11.3461
Import	-11.3465
Shingo	-11.3465
determin	-11.3465
herm	-11.3465
mained	-11.3465
▁circumstan	-11.3465
▁sauce	-11.3465
▁univers	-11.3465
ecifi	-11.3467
Municipal	-11.3469
aina	-11.347
anslat	-11.3473
epi	-11.3473
egist	-11.3474
woode	-11.3474
▁decora	-11.3474
uivalent	-11.3475
▁Sut	-11.3475
▁availab	-11.3475
fur	-11.3477
TSUDA	-11.3481
▁incorporate	-11.3481
▁suppress	-11.3481
edition	-11.3484
▁conten	-11.3484
sten	-11.3486
surrende	-11.3486
▁Kanpaku	-11.3486
assin	-11.3488
Retire	-11.3489
reform	-11.3489
usashi	-11.3489
chiz	-11.3492
noun	-11.3492
ONO	-11.3493
recorde	-11.3493
SOKAW	-11.3494
ounte	-11.3494
shida	-11.3494
▁teachings	-11.3494
egulat	-11.3497
gredient	-11.3497
oes	-11.3497
spri	-11.3497
▁Nin	-11.3497
▁Tame	-11.3501
tute	-11.3503
uran	-11.3503
length	-11.3505
Cloister	-11.3508
aused	-11.3508
department	-11.3508
function	-11.3508
igure	-11.3508
ligraphy	-11.3508
party	-11.3508
▁boa	-11.3508
▁dedicated	-11.3508
▁surv	-11.3508
ewa	-11.3509
gav	-11.3509
ubs	-11.3509
maru	-11.3513
▁eng	-11.3513
Shima	-11.3515
intai	-11.3515
yer	-11.3517
cilities	-11.3519
ebel	-11.3519
ecretary	-11.3519
plain	-11.3522
▁universit	-11.3522
chievements	-11.3524
▁fel	-11.3524
himot	-11.3528
international	-11.3528
oiste	-11.3528
Hokkaido	-11.353
belonging	-11.353
bute	-11.353
chitectu	-11.353
ircumstances	-11.353
▁Ban	-11.353
▁responsible	-11.353
▁sug	-11.353
enthron	-11.3531
transpo	-11.3531
▁Nyorai	-11.3531
[...]
