▁	-4.17272
e	-4.83164
t	-5.10691
o	-5.2446
a	-5.25715
i	-5.31381
n	-5.344
s	-5.46307
r	-5.47898
h	-5.8695
l	-5.93962
d	-6.13263
c	-6.16832
u	-6.24008
m	-6.4204
p	-6.4898
f	-6.57543
g	-6.77738
y	-6.89189
w	-6.95922
b	-7.04639
,	-7.24663
v	-7.27048
.	-7.33134
k	-7.92194
T	-8.39741
I	-8.41146
@	-8.4192
;	-8.65749
C	-8.67548
-	-8.70712
S	-8.73656
&	-8.74562
E	-8.77545
A	-8.78833
M	-8.86868
x	-8.9013
P	-8.93633
q	-8.94136
0	-8.95848
1	-9.34333
W	-9.4144
B	-9.43506
2	-9.48459
j	-9.52878
U	-9.56624
F	-9.57566
R	-9.58373
D	-9.62885
G	-9.67988
H	-9.68612
O	-9.71889
z	-9.73158
L	-9.76717
N	-9.81262
9	-9.92167
(	-9.93436
)	-9.94329
3	-10.1833
:	-10.2098
5	-10.3011
4	-10.3971
V	-10.5065
K	-10.6274
8	-10.6682
6	-10.7204
7	-10.7729
J	-10.7778
/	-10.8242
?	-10.8963
Y	-10.9391
#	-11.1764
!	-11.3498
%	-11.604
Z	-12.0871
X	-12.1259
Q	-12.1468
é	-12.184
ü	-12.594
ö	-12.8388
á	-12.9845
ä	-13.1265
▁the	-5.51754
▁th	-5.51988
▁t	-5.52644
th	-5.7354
the	-5.73676
▁a	-5.83313
he	-5.91836
in	-6.03441
an	-6.19187
re	-6.21183
on	-6.22911
er	-6.27842
▁o	-6.31322
▁i	-6.33495
▁and	-6.42513
at	-6.45526
en	-6.47855
ti	-6.50728
▁an	-6.51579
es	-6.52379
▁of	-6.53519
ion	-6.56456
▁in	-6.56651
and	-6.58219
tion	-6.58979
or	-6.5979
▁s	-6.6205
▁to	-6.62449
nd	-6.62712
is	-6.65082
▁w	-6.65351
te	-6.67609
▁c	-6.68764
nt	-6.69295
▁.	-6.73489
it	-6.74113
ing	-6.75024
al	-6.77914
ar	-6.78183
to	-6.80835
▁p	-6.84229
st	-6.86521
tio	-6.87191
io	-6.87505
ent	-6.88147
ou	-6.89562
of	-6.90525
▁f	-6.93164
▁b	-6.94997
ng	-6.95643
ed	-6.96735
▁co	-6.96826
ation	-6.97145
ha	-6.99111
ro	-7.0141
ve	-7.03297
se	-7.06818
me	-7.08398
▁that	-7.09115
co	-7.09947
▁re	-7.10925
le	-7.12167
ur	-7.15953
▁m	-7.16679
de	-7.18322
ea	-7.18889
atio	-7.19192
▁r	-7.19194
▁tha	-7.20076
as	-7.20973
ic	-7.2099
ati	-7.21817
▁for	-7.2485
for	-7.25272
▁be	-7.26829
ri	-7.27829
▁d	-7.28121
li	-7.28477
ra	-7.28898
si	-7.30372
om	-7.3064
that	-7.31419
▁h	-7.32333
▁is	-7.33124
hi	-7.33898
po	-7.35503
ne	-7.35637
ce	-7.35793
▁e	-7.36386
ta	-7.36652
▁pr	-7.36916
ll	-7.37916
ment	-7.38764
▁fo	-7.39591
be	-7.43081
▁wi	-7.43104
hat	-7.43466
▁with	-7.45395
ec	-7.48157
tha	-7.48281
ns	-7.49722
pe	-7.4989
▁pro	-7.49966
men	-7.50164
el	-7.50785
ot	-7.50817
pr	-7.53631
fo	-7.54005
ate	-7.54666
▁on	-7.58995
res	-7.59072
▁con	-7.6023
ca	-7.60466
us	-7.60839
ch	-7.61221
il	-7.61621
▁ha	-7.62817
ma	-7.63407
▁n	-7.6373
pro	-7.63958
ct	-7.64099
ter	-7.64307
la	-7.64468
▁l	-7.66926
os	-7.6697
▁wit	-7.67129
with	-7.67515
con	-7.67818
▁Th	-7.68112
rt	-7.68463
▁The	-7.69903
ss	-7.70094
tr	-7.71706
▁wh	-7.72945
her	-7.73119
▁Europe	-7.73489
wi	-7.73571
di	-7.73599
▁are	-7.73664
ac	-7.73888
nc	-7.74965
are	-7.75348
▁this	-7.7589
ons	-7.761
pos	-7.77506
op	-7.78191
▁thi	-7.78266
ly	-7.78767
un	-7.78949
em	-7.78965
ts	-7.79666
▁T	-7.79769
et	-7.79924
▁European	-7.80156
▁de	-7.80181
no	-7.80552
ie	-7.81632
all	-7.8206
▁I	-7.82384
ho	-7.82496
▁ar	-7.8279
rs	-7.83527
▁ma	-7.84315
ut	-7.84523
his	-7.84939
ee	-7.8597
na	-7.86933
ni	-7.87024
▁you	-7.8703
ith	-7.87086
ere	-7.87234
ther	-7.87366
▁we	-7.87543
ver	-7.88044
▁Europ	-7.88076
thi	-7.88559
Europe	-7.8881
our	-7.88949
ul	-7.89673
▁which	-7.89962
ge	-7.90588
European	-7.91906
▁Europea	-7.91928
▁no	-7.93155
▁have	-7.93534
we	-7.93845
wit	-7.93968
▁Commission	-7.94433
▁com	-7.94846
▁ca	-7.95092
tions	-7.95818
ions	-7.95874
com	-7.96139
ect	-7.96172
lo	-7.96578
so	-7.96972
▁al	-7.97034
mi	-7.97394
apos	-7.97424
ia	-7.97499
this	-7.9813
ers	-7.98298
ap	-7.98371
The	-7.984
rea	-7.98809
ol	-7.99867
▁it	-8.00683
ci	-8.00912
ort	-8.01381
▁se	-8.01875
nce	-8.02159
▁st	-8.02551
ive	-8.03085
▁Euro	-8.03177
port	-8.0358
sion	-8.03641
Commission	-8.03962
▁as	-8.04296
uropean	-8.05125
Europea	-8.05252
▁&	-8.05278
ted	-8.05494
Europ	-8.06202
urope	-8.06862
su	-8.07043
ess	-8.07188
iti	-8.07624
▁will	-8.0805
which	-8.08177
▁whic	-8.08192
eve	-8.08255
Th	-8.08391
▁not	-8.08559
am	-8.09482
ai	-8.098
ope	-8.10064
▁C	-8.10277
pa	-8.10754
ad	-8.10884
▁g	-8.10982
mo	-8.11147
wh	-8.11372
▁hav	-8.11567
est	-8.12118
ommission	-8.1242
id	-8.12753
im	-8.13814
vi	-8.14177
▁Commissi	-8.145
iv	-8.14764
ill	-8.15007
you	-8.15271
cti	-8.15358
pl	-8.15463
have	-8.15492
▁yo	-8.15622
ow	-8.15728
▁po	-8.18187
fi	-8.18443
mp	-8.18459
ir	-8.18725
sta	-8.18761
ide	-8.18866
▁su	-8.19592
int	-8.19627
▁whi	-8.20052
rop	-8.20423
uropea	-8.20528
ropean	-8.20538
nte	-8.20695
▁u	-8.20805
here	-8.2125
▁from	-8.21381
rope	-8.21636
ting	-8.21975
not	-8.22093
▁mo	-8.22363
ould	-8.2249
ies	-8.23029
apo	-8.2363
mmission	-8.24191
▁Co	-8.24935
▁Eur	-8.24947
▁S	-8.25231
Euro	-8.25362
por	-8.26083
mission	-8.26126
▁di	-8.26134
ble	-8.26176
▁Commiss	-8.26268
Commissi	-8.26276
ction	-8.26427
ev	-8.26731
qu	-8.26799
tin	-8.26857
ave	-8.27055
ssi	-8.27335
▁wo	-8.27665
oun	-8.27676
▁E	-8.28228
urop	-8.2824
▁M	-8.283
▁pa	-8.28494
▁A	-8.28786
ssion	-8.29054
ke	-8.29169
▁wil	-8.29346
▁int	-8.29729
bl	-8.29897
will	-8.29906
hich	-8.29928
▁y	-8.29934
whic	-8.30489
▁so	-8.30926
▁fr	-8.30953
ld	-8.31567
sio	-8.32024
▁wa	-8.32227
sh	-8.3238
rat	-8.32732
ity	-8.33209
ig	-8.3339
tu	-8.3424
wa	-8.34519
▁ne	-8.34776
ab	-8.35008
ty	-8.35081
tra	-8.35097
omm	-8.35651
▁ex	-8.36138
av	-8.37273
ommissi	-8.3755
▁Commi	-8.37778
ica	-8.38146
▁P	-8.38559
hav	-8.38671
ropea	-8.38733
opean	-8.3876
ry	-8.38844
ag	-8.38915
▁res	-8.39239
▁Commis	-8.39614
Commiss	-8.39619
▁Comm	-8.399
▁fro	-8.39915
quot	-8.39927
▁or	-8.40643
ain	-8.40682
▁Presiden	-8.40912
ission	-8.412
▁President	-8.4131
missio	-8.41538
▁@	-8.4164
ement	-8.41826
per	-8.421
wo	-8.42597
▁comp	-8.42932
from	-8.43647
ure	-8.43667
tive	-8.43681
tic	-8.44621
▁li	-8.45157
▁fi	-8.45232
ant	-8.45245
art	-8.4641
nal	-8.46413
▁can	-8.46474
ces	-8.46598
ations	-8.46792
▁en	-8.46838
ore	-8.476
der	-8.47643
▁by	-8.47668
ich	-8.4769
tional	-8.47782
ay	-8.47919
whi	-8.48046
fe	-8.48061
▁me	-8.48195
▁has	-8.48228
▁inte	-8.48248
ist	-8.48515
ctio	-8.48557
uro	-8.48623
ional	-8.4874
one	-8.48833
ear	-8.49146
yo	-8.49151
oo	-8.4921
oul	-8.49349
▁v	-8.49483
hic	-8.49746
str	-8.49785
ex	-8.50058
ust	-8.5011
able	-8.50186
▁all	-8.50322
▁cont	-8.50666
rom	-8.50669
uld	-8.51055
mm	-8.51082
ssio	-8.51299
nter	-8.51494
President	-8.5183
par	-8.52009
ome	-8.52219
residen	-8.52564
Presiden	-8.52676
▁Preside	-8.52688
ommiss	-8.52943
mmissi	-8.52958
gr	-8.53372
▁Eu	-8.53392
▁ou	-8.53514
Eur	-8.53585
sa	-8.53663
▁sh	-8.53963
emen	-8.54141
▁at	-8.54153
sp	-8.54535
sti	-8.54542
ov	-8.54556
▁Parliament	-8.54599
rd	-8.54732
▁sta	-8.54844
igh	-8.54911
ove	-8.54945
Commis	-8.55027
ine	-8.55092
▁Com	-8.55141
▁ac	-8.55285
use	-8.5554
resident	-8.55768
Commi	-8.56007
act	-8.56009
tiv	-8.56171
▁cou	-8.56674
can	-8.56777
gh	-8.57216
▁tr	-8.57387
missi	-8.57461
wil	-8.57523
out	-8.57989
ight	-8.58147
inte	-8.58253
▁there	-8.58293
▁should	-8.58324
ame	-8.58481
ean	-8.58505
man	-8.58668
side	-8.59086
onal	-8.59155
nti	-8.59362
ste	-8.59407
issio	-8.59428
ommi	-8.5955
ntr	-8.59616
lit	-8.59617
od	-8.59687
ding	-8.59701
▁par	-8.59775
comp	-8.59909
uc	-8.60025
pre	-8.60248
abl	-8.60307
▁inter	-8.60627
▁also	-8.60641
da	-8.60942
pean	-8.61032
opea	-8.61033
▁part	-8.61247
pea	-8.61358
▁would	-8.61378
ial	-8.614
tur	-8.61427
▁wor	-8.61689
tiona	-8.62125
Comm	-8.62129
fr	-8.62208
ple	-8.62241
rm	-8.62248
arliament	-8.62682
cal	-8.63049
▁do	-8.63116
ents	-8.63227
do	-8.63254
▁bu	-8.63496
ition	-8.63566
eme	-8.63801
Parliament	-8.64124
enc	-8.64271
▁pe	-8.64671
eas	-8.64728
Co	-8.64848
nts	-8.6496
▁sho	-8.65019
age	-8.65451
cou	-8.65483
▁countr	-8.6581
oc	-8.65974
▁Presid	-8.66004
Preside	-8.66028
cu	-8.66133
und	-8.66158
tat	-8.66175
iona	-8.66303
ecti	-8.66311
ern	-8.66323
has	-8.66509
eg	-8.6658
wor	-8.66753
fro	-8.66844
esiden	-8.66886
part	-8.66908
count	-8.66984
reside	-8.67317
ration	-8.67663
nation	-8.68126
quo	-8.68265
▁ho	-8.68386
end	-8.68533
ep	-8.68591
uot	-8.68602
▁their	-8.68616
esident	-8.68945
ls	-8.69165
▁le	-8.69569
ran	-8.69945
▁fa	-8.70022
ue	-8.70304
▁our	-8.70318
▁imp	-8.70502
mber	-8.7069
ef	-8.70876
hou	-8.71005
ese	-8.71068
anc	-8.71137
ommis	-8.71145
▁he	-8.71156
mmiss	-8.71168
pp	-8.71232
▁count	-8.71282
ount	-8.71399
cont	-8.71485
▁si	-8.71852
ont	-8.71886
era	-8.72161
rn	-8.72323
den	-8.72477
lat	-8.72557
inter	-8.72612
iss	-8.72803
▁la	-8.72826
ally	-8.72878
over	-8.73087
▁ther	-8.73216
ational	-8.73643
▁tra	-8.73656
should	-8.73734
▁shoul	-8.73738
rati	-8.74043
ance	-8.74337
rliament	-8.7446
als	-8.74505
ona	-8.74682
ght	-8.74806
hin	-8.74846
other	-8.75113
▁pre	-8.75235
▁countries	-8.7543
din	-8.75437
there	-8.75547
ical	-8.75649
▁un	-8.75823
ember	-8.76393
▁W	-8.76508
han	-8.76553
mmi	-8.76633
ff	-8.76693
if	-8.7674
ren	-8.77131
ments	-8.77321
▁your	-8.77405
ber	-8.77455
miss	-8.77754
▁us	-8.77997
▁im	-8.78054
rec	-8.78176
▁cons	-8.78388
issi	-8.78496
▁importan	-8.78613
eat	-8.78852
tan	-8.78954
▁was	-8.79045
ei	-8.79095
gi	-8.79118
bu	-8.79299
ba	-8.79449
would	-8.79602
▁woul	-8.79607
tes	-8.79636
tor	-8.79856
cl	-8.79895
cr	-8.80063
eri	-8.80161
du	-8.80287
form	-8.80301
ga	-8.80352
ote	-8.80503
▁other	-8.80607
een	-8.80678
national	-8.81118
countr	-8.81184
iden	-8.81385
eside	-8.81404
Presid	-8.81405
▁Presi	-8.81415
ident	-8.8142
bo	-8.81434
nde	-8.81462
lic	-8.81861
rie	-8.82084
omp	-8.82092
by	-8.82249
lation	-8.82517
▁als	-8.82607
cial	-8.82708
sid	-8.82758
also	-8.82925
enti	-8.82939
ence	-8.83056
itio	-8.83231
ated	-8.83342
▁te	-8.83493
▁lo	-8.8358
Com	-8.8366
ice	-8.8366
rin	-8.83737
sident	-8.83962
reat	-8.84062
ever	-8.84076
▁more	-8.84142
imp	-8.84172
▁B	-8.8448
ina	-8.84641
resid	-8.84641
siden	-8.84664
ratio	-8.84701
cation	-8.84807
unt	-8.84826
fa	-8.8491
lly	-8.85206
▁produc	-8.8545
up	-8.85665
mis	-8.85795
countries	-8.85962
▁countrie	-8.85964
inc	-8.86021
▁poli	-8.86032
natio	-8.86345
▁develop	-8.86351
ind	-8.86371
▁Parliam	-8.86443
ture	-8.86589
▁ch	-8.86672
▁sa	-8.86805
▁thei	-8.86833
their	-8.86845
ake	-8.86884
ree	-8.86887
ard	-8.87105
▁dis	-8.87189
tt	-8.87306
tri	-8.87315
nat	-8.87428
▁important	-8.87577
▁In	-8.87595
very	-8.8765
dent	-8.87657
liament	-8.87778
▁coun	-8.88002
coun	-8.88063
ak	-8.88103
ite	-8.88206
ua	-8.88214
▁ta	-8.88225
▁been	-8.88252
ationa	-8.88386
ring	-8.88393
sho	-8.88751
rou	-8.88775
sin	-8.89121
spe	-8.89141
sed	-8.89183
lea	-8.8976
ten	-8.89948
sit	-8.90036
oth	-8.9009
▁importa	-8.9015
importan	-8.90248
king	-8.90415
hould	-8.9042
▁its	-8.9065
red	-8.90872
ous	-8.9094
▁information	-8.91068
▁comm	-8.91355
▁Member	-8.91392
eco	-8.91673
▁shou	-8.91697
ven	-8.91757
min	-8.91947
shoul	-8.91964
um	-8.92012
cess	-8.92172
thin	-8.92192
mpl	-8.92481
cia	-8.92656
pport	-8.92663
work	-8.92704
ution	-8.92827
tate	-8.93028
esi	-8.93247
mmis	-8.93441
ning	-8.9349
comm	-8.93613
ast	-8.93674
Eu	-8.93807
nta	-8.93887
ser	-8.94012
ner	-8.9405
rk	-8.94206
lu	-8.94374
rit	-8.94399
nationa	-8.94426
ins	-8.9455
▁report	-8.94911
va	-8.95301
▁import	-8.95415
othe	-8.95537
ctiv	-8.95564
any	-8.95609
spec	-8.95679
roduc	-8.95736
▁ba	-8.9574
lin	-8.95799
▁per	-8.96068
▁This	-8.96217
ates	-8.96235
ctive	-8.96359
▁support	-8.96521
cons	-8.96582
oli	-8.96689
ountries	-8.96916
pres	-8.97004
mu	-8.97094
produc	-8.97111
cat	-8.97125
▁Pres	-8.97143
nati	-8.9715
▁sp	-8.97162
▁rep	-8.97256
▁mu	-8.9749
embe	-8.97708
countrie	-8.97738
▁countri	-8.97742
app	-8.9784
mbe	-8.97878
important	-8.97948
▁rea	-8.98013
orm	-8.98091
ountr	-8.98129
▁mor	-8.98147
nternational	-8.98166
amen	-8.98576
nst	-8.98775
▁othe	-8.98834
develop	-8.99112
its	-8.99225
rl	-8.99315
information	-8.99371
mb	-8.99521
Presi	-8.99634
your	-8.99691
▁develo	-8.99696
Parliam	-8.99789
▁whe	-8.99812
more	-8.99939
fer	-9.00038
▁but	-9.00296
fu	-9.00536
▁work	-9.00613
▁F	-9.0068
▁produ	-9.00681
latio	-9.00741
ral	-9.00875
ection	-9.00932
ament	-9.00942
lati	-9.01014
mat	-9.01067
lity	-9.01138
ase	-9.01171
▁acc	-9.01269
▁wou	-9.01295
▁reg	-9.01389
▁product	-9.01393
ali	-9.01507
pla	-9.01581
resi	-9.01615
▁pol	-9.0163
tho	-9.01892
ffe	-9.01898
woul	-9.01913
ose	-9.02141
▁pla	-9.02204
▁ag	-9.02361
▁hi	-9.02374
ens	-9.02554
lt	-9.02566
nformation	-9.02657
esid	-9.02734
ew	-9.02773
▁ad	-9.0283
mportan	-9.02946
catio	-9.03032
iament	-9.03139
▁must	-9.03159
arliam	-9.03226
▁development	-9.03273
▁gr	-9.03318
importa	-9.03357
▁time	-9.03398
▁about	-9.03483
tte	-9.03597
▁app	-9.04122
▁eve	-9.04283
eed	-9.04387
▁pl	-9.04436
▁Pr	-9.04642
▁inc	-9.04685
▁right	-9.04738
tal	-9.04771
poli	-9.04782
▁Council	-9.04813
▁people	-9.04849
vel	-9.04963
▁fu	-9.05015
but	-9.05121
uo	-9.05138
▁particular	-9.05211
au	-9.05216
ery	-9.05391
▁ab	-9.05397
tel	-9.05463
kin	-9.05536
ans	-9.05559
ties	-9.05589
ective	-9.05592
▁State	-9.05621
evelop	-9.05826
les	-9.06508
ds	-9.0654
Member	-9.06785
nternationa	-9.06796
ternational	-9.0686
dis	-9.06896
heir	-9.06903
ries	-9.07013
▁bee	-9.07251
fic	-9.07256
was	-9.07302
lso	-9.07421
prov	-9.07499
ime	-9.07543
formation	-9.07562
evelopment	-9.07744
▁international	-9.07776
evel	-9.07973
▁informati	-9.08123
duc	-9.082
ell	-9.08232
rg	-9.08327
▁like	-9.08409
cha	-9.08415
ili	-9.08532
▁exp	-9.08553
lar	-9.08707
▁these	-9.08799
thei	-9.08807
ht	-9.08853
mportant	-9.08954
▁use	-9.09051
gre	-9.0914
sing	-9.09276
hen	-9.09449
nci	-9.09493
▁States	-9.09528
nit	-9.09587
▁man	-9.09631
▁cl	-9.09644
support	-9.09756
rate	-9.09804
mor	-9.09856
▁suppor	-9.09868
pri	-9.10004
▁1	-9.10026
report	-9.10116
ountrie	-9.10267
untries	-9.10269
rep	-9.10288
▁repor	-9.10324
▁need	-9.10376
rti	-9.10379
ord	-9.10425
pec	-9.10546
been	-9.1056
▁mus	-9.10627
import	-9.10648
ire	-9.10696
▁We	-9.10779
▁impor	-9.1081
▁Union	-9.10976
countri	-9.1109
▁H	-9.1131
product	-9.11329
development	-9.11526
time	-9.11643
ru	-9.11785
▁they	-9.11837
ene	-9.11871
▁developmen	-9.11972
bi	-9.12
rr	-9.12353
ini	-9.12369
ication	-9.12445
ndi	-9.12512
houl	-9.1271
tern	-9.12805
▁G	-9.12896
ost	-9.12905
ilit	-9.1297
▁mi	-9.13233
tim	-9.13525
lan	-9.13592
ities	-9.13619
▁parti	-9.13841
▁Thi	-9.13924
shou	-9.13941
stan	-9.14051
▁cha	-9.14075
▁str	-9.14358
▁particula	-9.14396
emb	-9.14452
go	-9.14494
develo	-9.14519
utio	-9.14551
▁Pre	-9.14609
particular	-9.14721
▁year	-9.14861
ppor	-9.14958
acti	-9.14974
▁supp	-9.14994
gra	-9.15006
▁devel	-9.1505
right	-9.15057
produ	-9.15099
sen	-9.1512
▁one	-9.15129
international	-9.15143
▁service	-9.15149
▁internationa	-9.15161
▁Parli	-9.15209
▁vi	-9.15329
inst	-9.15497
roduct	-9.15519
▁econom	-9.15561
▁impo	-9.15625
ork	-9.1563
ough	-9.15652
serv	-9.15676
nes	-9.15762
▁because	-9.1583
uti	-9.15869
hes	-9.16123
ui	-9.16203
nternation	-9.16296
ternationa	-9.1632
ernational	-9.16387
▁between	-9.16394
▁Pa	-9.1644
▁cr	-9.16622
▁rec	-9.16663
lle	-9.1669
ise	-9.16796
ki	-9.16995
arl	-9.17059
eci	-9.1712
▁pri	-9.17122
ib	-9.17171
nge	-9.17227
▁go	-9.17288
nin	-9.17352
ck	-9.17401
▁2	-9.17406
▁-	-9.17462
ult	-9.17535
mple	-9.17632
▁spe	-9.17637
rodu	-9.17654
▁system	-9.17772
▁provi	-9.17777
tain	-9.17826
ish	-9.17872
oduc	-9.18041
mporta	-9.18099
informati	-9.18104
▁propos	-9.18157
Council	-9.18162
▁ver	-9.1826
velopment	-9.18272
evelopmen	-9.18277
portan	-9.18339
▁prop	-9.1834
This	-9.18352
ffer	-9.18462
ula	-9.18577
▁informat	-9.18637
Pres	-9.18678
ectio	-9.18755
▁prod	-9.18783
sur	-9.18786
ori	-9.18794
dition	-9.19019
▁who	-9.19051
▁only	-9.19076
ormation	-9.19255
▁under	-9.19257
formatio	-9.19339
uct	-9.19343
▁very	-9.19349
ach	-9.19366
▁Stat	-9.19453
▁ev	-9.19696
▁fin	-9.19845
▁pos	-9.19934
people	-9.19937
untr	-9.20049
▁take	-9.20102
erv	-9.20127
ual	-9.20199
nsi	-9.20222
ress	-9.2024
▁peopl	-9.20262
▁Uni	-9.20289
▁some	-9.20431
▁partic	-9.2058
▁ap	-9.20783
og	-9.20812
ric	-9.20964
developmen	-9.21054
▁suppo	-9.21077
▁oth	-9.21142
▁political	-9.21186
ris	-9.21204
▁than	-9.21231
nder	-9.21264
about	-9.21266
iamen	-9.21331
liame	-9.21425
arlia	-9.21447
cati	-9.2145
rliam	-9.21458
bility	-9.21474
▁abou	-9.21478
present	-9.21549
▁R	-9.21828
ny	-9.21846
rese	-9.22026
ob	-9.22066
whe	-9.22274
portant	-9.22292
▁D	-9.22381
acc	-9.22453
▁St	-9.22457
▁trans	-9.2248
ectiv	-9.22492
pol	-9.22581
isi	-9.22767
eal	-9.2277
upport	-9.22777
lis	-9.22781
ari	-9.22796
▁conc	-9.22939
▁righ	-9.22967
arti	-9.23065
ead	-9.23103
internationa	-9.23121
▁internation	-9.23141
ace	-9.23213
hing	-9.23255
▁provide	-9.23365
nformati	-9.23369
sc	-9.23392
velop	-9.23404
rma	-9.23766
State	-9.23817
rta	-9.23818
articular	-9.23936
ppo	-9.23974
▁op	-9.23987
▁polic	-9.24002
▁tim	-9.24037
reg	-9.24041
evelo	-9.24048
ntries	-9.24058
bilit	-9.24067
erat	-9.24075
mer	-9.24102
▁provid	-9.2412
▁prov	-9.24221
▁ra	-9.24294
rc	-9.24302
eport	-9.24362
prop	-9.24501
econ	-9.24566
▁sup	-9.24648
ms	-9.24662
▁inform	-9.2471
▁particul	-9.24793
▁new	-9.2486
particula	-9.24907
States	-9.24943
▁Memb	-9.24994
suppor	-9.25166
▁Mr	-9.25187
tie	-9.25217
ues	-9.25222
▁ser	-9.25322
ey	-9.25432
must	-9.25453
ely	-9.25484
▁abo	-9.25516
fore	-9.25634
untrie	-9.25673
ountri	-9.25682
▁Sta	-9.25759
▁Par	-9.25835
eration	-9.25949
▁ri	-9.25959
like	-9.25978
nion	-9.26067
fin	-9.26086
cc	-9.26109
lia	-9.26144
▁politic	-9.26248
tai	-9.26311
▁thes	-9.26537
nment	-9.26546
ternation	-9.26626
these	-9.26815
nternatio	-9.26824
ernationa	-9.26852
rnational	-9.26922
▁Commissioner	-9.27031
gen	-9.27032
▁informa	-9.27069
cre	-9.27079
tates	-9.27104
ade	-9.27109
▁ins	-9.27152
ervice	-9.27449
▁repo	-9.27559
In	-9.27636
▁servic	-9.27794
reas	-9.27842
▁tak	-9.27849
icatio	-9.27855
mport	-9.27884
tical	-9.27913
service	-9.27952
▁contr	-9.27987
▁propo	-9.28014
repor	-9.28345
ong	-9.28406
▁ve	-9.28443
▁out	-9.28503
▁bo	-9.28615
tation	-9.28635
▁economi	-9.28685
ani	-9.28715
provi	-9.28756
hese	-9.28777
rmation	-9.28849
impor	-9.2886
porta	-9.29008
▁economic	-9.2903
▁market	-9.29049
because	-9.2917
▁becaus	-9.29181
Union	-9.29195
▁Unio	-9.29203
econom	-9.2925
even	-9.29488
uni	-9.29488
des	-9.29566
ien	-9.29598
between	-9.29721
▁betwee	-9.29739
▁proce	-9.29816
ass	-9.29833
informat	-9.2986
wou	-9.30024
velopmen	-9.30048
elopment	-9.30049
pi	-9.30052
political	-9.30072
rov	-9.30172
ative	-9.30195
enta	-9.30225
▁U	-9.30238
▁rel	-9.30257
presen	-9.30264
ele	-9.30285
take	-9.303
ses	-9.30364
parti	-9.30368
system	-9.30438
ound	-9.30469
▁lik	-9.30542
ntern	-9.30582
wer	-9.30763
▁onl	-9.3082
formati	-9.30848
sure	-9.30885
hei	-9.30892
▁econo	-9.30973
esti	-9.31149
rel	-9.3121
terna	-9.31271
speci	-9.31301
efore	-9.31311
mon	-9.31439
ned	-9.31445
efor	-9.31454
▁serv	-9.31456
now	-9.31468
ouncil	-9.31621
▁politica	-9.31696
▁qu	-9.31716
eople	-9.31761
internation	-9.31799
▁internatio	-9.31833
ary	-9.31903
under	-9.31988
tl	-9.31992
▁developm	-9.32037
▁off	-9.3211
▁includ	-9.32161
ref	-9.32174
tre	-9.32313
▁intern	-9.32378
forma	-9.32511
▁ti	-9.32521
ormatio	-9.32607
need	-9.32638
▁nee	-9.3266
ility	-9.32664
devel	-9.32676
▁proposal	-9.32724
▁20	-9.32768
cent	-9.32916
cul	-9.32933
▁direct	-9.32937
ang	-9.32938
cause	-9.32974
▁interna	-9.33056
▁It	-9.33069
eir	-9.33132
▁syste	-9.33168
▁deve	-9.33202
tem	-9.33304
▁Parl	-9.33332
▁problem	-9.33343
Parli	-9.33435
propos	-9.33533
ves	-9.33578
oduct	-9.33743
gu	-9.33915
pt	-9.33933
articula	-9.34018
they	-9.34102
ert	-9.34143
▁suc	-9.34201
ug	-9.34312
ded	-9.34327
ub	-9.3436
crea	-9.34383
sse	-9.3442
▁L	-9.3455
abou	-9.34558
▁pres	-9.34592
pen	-9.34619
nn	-9.34973
▁Commissione	-9.34974
Commissioner	-9.35032
rest	-9.35138
▁unde	-9.3518
tries	-9.35209
own	-9.35259
resent	-9.3557
▁da	-9.35639
rticular	-9.35714
bee	-9.35715
▁act	-9.35733
▁through	-9.35797
itie	-9.35802
partic	-9.35848
exp	-9.35879
pu	-9.35941
00	-9.36013
▁question	-9.36016
▁sec	-9.3618
overnment	-9.36261
icat	-9.36268
▁yea	-9.36338
duct	-9.36372
▁environment	-9.36432
nstitution	-9.3647
ternati	-9.36491
ortan	-9.36541
particul	-9.36546
▁particu	-9.36564
▁conce	-9.36608
erm	-9.36646
nformat	-9.36688
provide	-9.3669
supp	-9.36795
format	-9.36845
▁Un	-9.36887
equ	-9.36898
▁ind	-9.36901
year	-9.37016
arli	-9.37067
orta	-9.37096
ditio	-9.37157
abo	-9.37229
prod	-9.37266
righ	-9.37326
mus	-9.37422
▁pu	-9.37623
impo	-9.3765
ortant	-9.37693
unde	-9.3781
ecause	-9.37847
sto	-9.37934
politic	-9.37945
ntri	-9.38128
peopl	-9.38168
ernation	-9.38327
mation	-9.38351
economic	-9.38359
ternatio	-9.38396
▁mak	-9.38439
▁peop	-9.38493
▁tran	-9.38501
ici	-9.38523
▁Ma	-9.38528
▁possib	-9.38577
▁differen	-9.3858
nternati	-9.38589
rnationa	-9.38629
come	-9.38646
suppo	-9.38742
solution	-9.38834
herefore	-9.38956
ud	-9.39038
bili	-9.39081
▁bec	-9.39096
▁marke	-9.39117
▁Me	-9.39173
olution	-9.39308
conom	-9.39358
▁dev	-9.39387
▁politi	-9.39413
▁them	-9.39432
ugh	-9.39491
provid	-9.39507
inform	-9.3951
▁again	-9.39696
▁make	-9.39698
▁first	-9.39777
economi	-9.39821
tar	-9.39824
nterna	-9.39874
informa	-9.39875
trans	-9.39941
olitical	-9.39964
oi	-9.40062
▁inst	-9.40066
▁infor	-9.40108
▁even	-9.40135
ange	-9.40174
▁speci	-9.40189
nf	-9.40256
lem	-9.40402
only	-9.40403
nu	-9.40431
▁servi	-9.40454
▁resp	-9.40523
▁200	-9.40614
▁policy	-9.40656
ys	-9.40667
sent	-9.40668
prese	-9.4075
rent	-9.40862
ject	-9.40872
tati	-9.40953
uppor	-9.41004
▁stat	-9.41048
odu	-9.41057
some	-9.41114
Stat	-9.41154
mit	-9.41164
bout	-9.41171
▁inclu	-9.41179
que	-9.41218
internatio	-9.41321
ystem	-9.4135
▁internati	-9.41355
ye	-9.41356
eratio	-9.41362
owe	-9.41362
ext	-9.41416
mpor	-9.41438
conomic	-9.41496
ention	-9.41525
than	-9.41538
▁agree	-9.41545
politica	-9.41821
▁wel	-9.4188
conc	-9.41919
operat	-9.41938
▁rig	-9.41995
▁what	-9.42084
artic	-9.42113
▁inf	-9.42149
uch	-9.42169
polic	-9.42172
tak	-9.42219
erati	-9.42221
ntrie	-9.42227
▁am	-9.42337
▁progr	-9.42345
egi	-9.42365
rac	-9.42379
▁som	-9.42386
rig	-9.42412
Thi	-9.4245
market	-9.42471
ommissioner	-9.42496
rod	-9.42514
unc	-9.42578
rge	-9.4259
Pre	-9.42598
bou	-9.42605
iame	-9.42615
▁over	-9.4263
servic	-9.42661
nvironment	-9.42758
liam	-9.42766
low	-9.42849
nis	-9.42851
▁ye	-9.429
▁possible	-9.42911
icati	-9.42915
▁thr	-9.42929
oin	-9.4296
feren	-9.43015
ura	-9.43216
developm	-9.43367
lopment	-9.43383
mpo	-9.43384
elopmen	-9.434
evelopm	-9.43406
ating	-9.43575
direct	-9.43584
Commissione	-9.43671
etween	-9.43723
thing	-9.43729
rlia	-9.4374
oug	-9.43824
ail	-9.43843
▁O	-9.4385
▁process	-9.43872
untri	-9.43896
▁into	-9.43908
hey	-9.43957
icul	-9.44087
▁proc	-9.44097
mati	-9.441
contr	-9.4419
▁cu	-9.44213
▁offer	-9.44245
ond	-9.44249
rmatio	-9.44263
▁agreement	-9.44264
stitution	-9.44284
Pr	-9.44296
operation	-9.44361
cen	-9.44383
ike	-9.4439
tant	-9.44466
proposal	-9.44476
▁proposa	-9.44497
liti	-9.44531
becaus	-9.44583
▁mea	-9.44588
▁becau	-9.4459
ip	-9.44644
ervic	-9.44848
velo	-9.45023
dit	-9.45026
possible	-9.45075
ria	-9.4508
propo	-9.45084
environment	-9.45097
▁environmen	-9.45125
betwee	-9.45128
▁betwe	-9.45134
orma	-9.45135
irect	-9.45164
tabl	-9.45246
uest	-9.45328
▁interest	-9.45334
tica	-9.45344
bil	-9.45381
uri	-9.45534
war	-9.45539
elop	-9.45594
thes	-9.45637
conomi	-9.4564
rvice	-9.45677
che	-9.45804
erna	-9.45828
nly	-9.45851
ormati	-9.45889
new	-9.45915
nfor	-9.46014
▁Mem	-9.46072
▁und	-9.46106
possib	-9.46305
interna	-9.46356
eli	-9.46368
ause	-9.46381
qui	-9.46442
▁program	-9.46456
▁ro	-9.46465
ian	-9.46533
▁N	-9.46549
problem	-9.46576
▁therefor	-9.46619
epor	-9.46656
▁proble	-9.46681
ful	-9.46782
tatio	-9.46786
question	-9.46991
nstitutio	-9.47001
resen	-9.47067
esp	-9.47075
articul	-9.47175
Memb	-9.47285
menta	-9.47295
rticula	-9.47313
econo	-9.47458
proce	-9.47476
includ	-9.47523
tly	-9.47609
intern	-9.47647
through	-9.4765
sible	-9.47711
who	-9.47739
▁ge	-9.47771
▁such	-9.47779
▁questio	-9.47793
▁Coun	-9.47942
vernment	-9.48026
day	-9.48105
ffic	-9.48118
omi	-9.48172
oper	-9.48211
perat	-9.48224
ommuni	-9.48229
ible	-9.48234
rovi	-9.48245
mar	-9.48269
▁direc	-9.48293
▁spec	-9.48406
ious	-9.48477
lemen	-9.4858
special	-9.4861
syste	-9.48652
nforma	-9.48671
nmen	-9.48694
▁any	-9.48805
differen	-9.48817
ark	-9.4886
Uni	-9.48951
▁possibl	-9.48964
elo	-9.48991
ticular	-9.49009
ounci	-9.49041
peci	-9.49069
▁econ	-9.49096
▁throug	-9.49118
▁concern	-9.4914
tab	-9.49357
nl	-9.49366
repo	-9.49437
▁ot	-9.49499
lution	-9.49575
▁different	-9.49589
rect	-9.49604
▁mark	-9.49617
▁up	-9.49765
nform	-9.49782
ommissione	-9.49843
uncil	-9.49852
rli	-9.49863
particu	-9.49892
bli	-9.49924
itu	-9.49965
stat	-9.49974
▁Ho	-9.50004
ervi	-9.50046
ativ	-9.50052
▁world	-9.50139
▁differe	-9.50177
▁compa	-9.50231
nio	-9.50479
▁fac	-9.50567
rovide	-9.50573
▁bet	-9.50814
We	-9.50836
▁compl	-9.50846
rtic	-9.50937
olitic	-9.50986
ternat	-9.51041
onc	-9.51063
fac	-9.51071
greement	-9.51085
▁acti	-9.51134
trie	-9.51138
operati	-9.51226
ropos	-9.51246
▁well	-9.51289
▁syst	-9.51348
rnation	-9.51388
nstitut	-9.51412
Unio	-9.51503
vo	-9.51504
call	-9.5159
har	-9.51645
ernatio	-9.51671
rv	-9.51817
ernati	-9.5182
internati	-9.51848
infor	-9.51851
▁internat	-9.51879
nternat	-9.51925
gree	-9.52011
once	-9.52024
mmissioner	-9.52027
way	-9.52112
▁mar	-9.52126
ack	-9.52165
herefor	-9.52171
vice	-9.522
▁ce	-9.52228
▁government	-9.52248
▁k	-9.52261
nee	-9.52276
ivi	-9.52289
erefore	-9.52307
ign	-9.52323
ifi	-9.52408
caus	-9.52409
tro	-9.52463
nding	-9.5248
nclud	-9.52506
olic	-9.52542
tit	-9.52716
tran	-9.52736
rans	-9.5275
agreement	-9.52801
sup	-9.52862
politi	-9.52949
ling	-9.52956
ccess	-9.53064
government	-9.53077
mark	-9.5315
possibl	-9.5316
late	-9.53218
refor	-9.53229
vironment	-9.53281
nvironmen	-9.53285
olitica	-9.53285
▁diff	-9.53285
uestion	-9.53306
litical	-9.53316
usi	-9.53336
lect	-9.53376
get	-9.53438
Sta	-9.53491
▁acce	-9.53491
▁country	-9.53494
ines	-9.53503
fere	-9.53527
ece	-9.53538
order	-9.53605
lik	-9.53612
esent	-9.53714
▁increas	-9.53731
resp	-9.53749
conce	-9.53829
ople	-9.5383
▁beca	-9.53865
peration	-9.53885
otel	-9.53942
▁possi	-9.53959
▁polit	-9.53961
▁area	-9.54019
eopl	-9.54029
marke	-9.54074
arket	-9.54208
ormat	-9.54238
rough	-9.54294
ster	-9.54361
▁high	-9.54411
att	-9.54416
Par	-9.5442
vid	-9.54463
▁Cou	-9.54564
cer	-9.54574
sel	-9.54584
environmen	-9.5462
▁protect	-9.54631
ges	-9.54645
▁environme	-9.54651
onomic	-9.54778
deve	-9.54893
spo	-9.55003
led	-9.55053
▁lea	-9.55142
off	-9.55229
servi	-9.55304
▁concer	-9.55387
diti	-9.55429
onom	-9.55447
▁his	-9.55486
tment	-9.55522
▁when	-9.55549
▁relat	-9.55561
Parl	-9.55639
ness	-9.55646
onsi	-9.55662
▁rela	-9.55672
tw	-9.55707
▁point	-9.55714
son	-9.55722
rtant	-9.55906
cur	-9.55915
chan	-9.55992
nclu	-9.55996
Pa	-9.56001
rovid	-9.56037
▁info	-9.56051
policy	-9.56055
stitutio	-9.56056
titution	-9.56056
eren	-9.56061
ecaus	-9.56077
▁tho	-9.56112
▁respon	-9.56139
chi	-9.56279
ommittee	-9.56279
▁expe	-9.56341
process	-9.56363
edi	-9.56473
matio	-9.56581
ommitte	-9.56652
rity	-9.56661
▁na	-9.56668
itical	-9.56679
▁situation	-9.5675
▁interes	-9.56759
agree	-9.56772
▁were	-9.56859
rem	-9.56883
interest	-9.56888
▁des	-9.56908
eral	-9.57023
ulation	-9.57023
lie	-9.5705
point	-9.57071
pect	-9.57115
sib	-9.57115
▁proces	-9.5713
ron	-9.57195
▁financial	-9.57291
▁creat	-9.57291
roposal	-9.57326
▁thin	-9.57331
opera	-9.57356
ile	-9.57442
▁issue	-9.57489
ease	-9.57498
dr	-9.57508
▁see	-9.57512
cy	-9.57584
iat	-9.57599
▁fir	-9.5763
compa	-9.57634
▁consider	-9.57731
▁against	-9.57743
change	-9.57751
▁incl	-9.57821
proposa	-9.57825
nstituti	-9.57828
again	-9.5792
▁agai	-9.57924
first	-9.57952
▁respons	-9.57971
▁firs	-9.5798
ater	-9.58059
sec	-9.58064
ossible	-9.58163
ision	-9.58216
tru	-9.58222
hrough	-9.58236
thou	-9.58262
quest	-9.58272
onl	-9.58292
uction	-9.58353
therefor	-9.58398
▁offe	-9.58405
▁differ	-9.58426
▁require	-9.58443
uppo	-9.5851
▁those	-9.58572
pecial	-9.5866
rtan	-9.58662
spect	-9.58674
ving	-9.58682
arge	-9.58695
efo	-9.58707
ific	-9.58713
lopmen	-9.58795
opment	-9.58796
llow	-9.58801
velopm	-9.58813
▁where	-9.58816
entio	-9.58826
▁gro	-9.5897
tia	-9.59041
ontr	-9.59049
different	-9.59121
upp	-9.59272
ounc	-9.59274
▁years	-9.59296
atin	-9.59331
inclu	-9.59333
program	-9.59346
cce	-9.59369
make	-9.59469
sol	-9.59499
▁institution	-9.59575
rst	-9.59621
▁agre	-9.5965
ener	-9.59672
ntion	-9.59696
▁progra	-9.59808
▁agr	-9.59811
pment	-9.59891
lement	-9.59941
them	-9.60007
rmati	-9.60024
▁prog	-9.60202
ita	-9.60217
progr	-9.6022
▁publi	-9.6029
questio	-9.60343
cle	-9.60343
place	-9.60348
most	-9.60365
respon	-9.60375
mmissione	-9.60377
ovi	-9.60414
oint	-9.60448
clu	-9.60453
peop	-9.6048
oll	-9.60574
af	-9.6059
▁dec	-9.6059
▁available	-9.60593
ft	-9.60623
struct	-9.60672
▁most	-9.60696
▁great	-9.60723
▁peo	-9.60792
estion	-9.60833
essi	-9.60836
ifferen	-9.60863
stem	-9.60879
ulat	-9.60983
what	-9.60986
rke	-9.61023
▁questi	-9.61103
vide	-9.61177
ernment	-9.61237
▁know	-9.61263
roblem	-9.61288
cono	-9.61326
overnme	-9.61391
▁national	-9.61414
nv	-9.61424
▁financ	-9.61496
▁fina	-9.61541
▁just	-9.61623
onomi	-9.61634
▁eff	-9.61648
how	-9.61676
▁being	-9.61678
cond	-9.61722
direc	-9.61755
▁place	-9.61765
St	-9.61786
ega	-9.61788
yste	-9.6185
perati	-9.61884
etwee	-9.61942
tween	-9.61947
proble	-9.61977
stitut	-9.61985
differe	-9.61991
ommit	-9.61996
▁probl	-9.62053
▁believe	-9.62065
nk	-9.62065
public	-9.62088
offer	-9.62099
thr	-9.62124
tec	-9.62149
ctions	-9.62211
rticul	-9.62273
ropo	-9.62302
suc	-9.62357
institution	-9.62361
concern	-9.62421
dat	-9.62468
rde	-9.62494
missioner	-9.62559
articu	-9.62582
ticula	-9.6263
publi	-9.62688
ights	-9.6276
nstitu	-9.62781
stand	-9.62791
becau	-9.62809
ures	-9.6282
▁hea	-9.62825
aus	-9.62841
▁fe	-9.62924
▁services	-9.6297
throug	-9.63034
▁br	-9.63053
▁car	-9.63054
roce	-9.63255
irst	-9.63285
many	-9.63295
▁acco	-9.63338
betwe	-9.6334
▁betw	-9.63351
owever	-9.63373
vent	-9.63375
where	-9.63482
tent	-9.63523
inf	-9.63551
internat	-9.63613
▁responsib	-9.63713
▁wha	-9.63716
▁every	-9.6382
icular	-9.63885
mmuni	-9.63926
positi	-9.63978
specia	-9.63986
mak	-9.64032
▁regi	-9.64033
ossib	-9.64041
▁ove	-9.64058
proc	-9.64123
gain	-9.64233
into	-9.64264
20	-9.64319
vic	-9.64328
tter	-9.64338
itt	-9.64372
▁present	-9.64381
wel	-9.64392
reement	-9.64439
ssible	-9.6445
possi	-9.64503
rogram	-9.64518
▁throu	-9.64528
ommun	-9.64557
eo	-9.64562
▁eco	-9.64565
compl	-9.64608
▁ever	-9.64618
oss	-9.64679
sibl	-9.64884
ncil	-9.64893
position	-9.64895
▁public	-9.64895
ntin	-9.649
yea	-9.64936
ular	-9.65036
vironmen	-9.6505
ironment	-9.65058
nvironme	-9.6506
ono	-9.65121
table	-9.65137
environme	-9.65152
▁environm	-9.65183
rna	-9.65186
cts	-9.65222
▁financi	-9.65228
ements	-9.65533
pera	-9.65586
▁many	-9.65591
▁implement	-9.65596
sis	-9.65623
Mr	-9.65665
unit	-9.65685
▁dire	-9.65704
gn	-9.65736
nda	-9.65743
stra	-9.65801
olicy	-9.65817
▁order	-9.65874
▁real	-9.65965
posit	-9.65997
fect	-9.66106
mme	-9.66149
oliti	-9.66281
▁presen	-9.66319
▁state	-9.66387
mitte	-9.66448
200	-9.66464
▁appro	-9.66517
bec	-9.66535
▁agreeme	-9.66576
▁effect	-9.66654
country	-9.66741
ced	-9.66772
rnatio	-9.66795
▁cooperation	-9.66805
sign	-9.66913
▁requ	-9.66993
dev	-9.67016
▁region	-9.67018
increas	-9.67061
▁increa	-9.67078
cie	-9.67092
rvic	-9.67139
situation	-9.67278
irec	-9.67379
rio	-9.67419
eth	-9.67435
▁hotel	-9.67447
world	-9.67484
soluti	-9.67492
refore	-9.675
rela	-9.67537
erefor	-9.67556
▁prob	-9.6758
▁rights	-9.67587
protect	-9.67602
ood	-9.67625
ality	-9.67625
consider	-9.67648
▁situat	-9.67686
financial	-9.67698
reate	-9.67714
ings	-9.67745
▁financia	-9.67818
epo	-9.67819
▁sit	-9.67834
stru	-9.67842
rder	-9.67867
br	-9.67907
arke	-9.6791
▁continu	-9.67923
▁compan	-9.67951
▁protec	-9.67953
▁disc	-9.67994
eac	-9.67995
arg	-9.68029
▁poss	-9.68075
polit	-9.68155
ossibl	-9.68192
iam	-9.68227
esen	-9.68258
stituti	-9.68268
▁institutio	-9.68274
▁sub	-9.68335
▁worl	-9.68342
solut	-9.68359
ik	-9.68361
action	-9.68364
clud	-9.68443
▁ter	-9.68458
som	-9.68558
ela	-9.68649
rocess	-9.68651
litica	-9.68698
uestio	-9.68719
chang	-9.68729
cil	-9.68736
vin	-9.68739
ains	-9.68775
ovide	-9.68792
▁ref	-9.68825
nterest	-9.68827
nds	-9.68831
▁measure	-9.68871
ernat	-9.68914
llo	-9.68946
respons	-9.69
▁contin	-9.69031
acce	-9.69092
▁requir	-9.69098
▁programme	-9.69138
▁prese	-9.69168
▁curren	-9.69191
litic	-9.69201
▁positi	-9.69235
asi	-9.69238
▁nation	-9.69269
ara	-9.6928
itte	-9.6929
▁change	-9.69357
▁business	-9.69363
itution	-9.69395
titutio	-9.69402
orde	-9.69488
nto	-9.69496
▁conside	-9.69506
xp	-9.69532
sts	-9.69533
hea	-9.69543
ifferent	-9.69568
jec	-9.6958
stri	-9.69581
rnati	-9.69589
gin	-9.69605
mmittee	-9.69633
▁gen	-9.69645
such	-9.698
interes	-9.69857
mes	-9.69942
▁intere	-9.70006
▁without	-9.7001
▁soci	-9.70103
soci	-9.70124
ublic	-9.70145
orld	-9.70147
itic	-9.70182
Coun	-9.70214
well	-9.70283
unci	-9.7039
lop	-9.70401
▁cre	-9.7042
ibl	-9.70446
irs	-9.70491
each	-9.70495
nfo	-9.705
concer	-9.70548
available	-9.70555
▁consi	-9.70599
leme	-9.7064
▁give	-9.70657
ffi	-9.70777
wn	-9.70783
mmit	-9.70809
just	-9.70813
syst	-9.70909
inancial	-9.70913
ommitt	-9.7094
▁comple	-9.71019
▁chan	-9.71046
▁condition	-9.71078
▁agains	-9.71081
▁availabl	-9.71089
against	-9.71097
▁availab	-9.71133
info	-9.71152
ctor	-9.71175
ffect	-9.7125
▁cent	-9.71268
responsib	-9.71273
ente	-9.71285
hose	-9.71429
▁Committee	-9.71445
▁particularly	-9.71457
rmat	-9.71508
ract	-9.71524
▁respo	-9.71525
icu	-9.7158
mea	-9.71583
read	-9.71628
▁theref	-9.71637
press	-9.71639
▁programm	-9.71655
proces	-9.71681
ram	-9.71681
require	-9.71787
▁q	-9.71875
institutio	-9.7189
mpa	-9.71972
vers	-9.71976
relat	-9.72031
ubli	-9.72038
▁appr	-9.7206
mmitte	-9.72066
missione	-9.72112
sions	-9.72225
creat	-9.72232
urs	-9.723
▁governme	-9.72313
ompa	-9.72317
ete	-9.72325
strat	-9.72339
differ	-9.72377
lac	-9.72377
state	-9.72392
ulatio	-9.72437
rre	-9.72545
▁nat	-9.72563
▁j	-9.72608
nomic	-9.72657
▁There	-9.72705
lli	-9.72725
roposa	-9.72736
oposal	-9.72741
▁her	-9.72743
long	-9.72749
ours	-9.72759
fir	-9.72773
oluti	-9.72846
compan	-9.72996
▁result	-9.73004
ques	-9.73102
hr	-9.73108
hem	-9.73116
▁responsi	-9.73163
▁access	-9.73167
hange	-9.73174
rogr	-9.73176
▁nationa	-9.73182
It	-9.73219
cular	-9.73261
ndin	-9.73291
▁person	-9.73368
cri	-9.73373
trat	-9.73373
▁sys	-9.73396
opos	-9.73455
roc	-9.73517
▁crea	-9.73543
condition	-9.73648
rvi	-9.73717
▁products	-9.73734
ability	-9.7375
refo	-9.73751
adi	-9.7377
lear	-9.7379
cit	-9.73804
▁diffe	-9.73829
truct	-9.73857
issue	-9.73859
▁poin	-9.73933
diff	-9.73988
main	-9.74027
iou	-9.74041
▁quest	-9.74057
▁issu	-9.74084
▁prote	-9.741
▁govern	-9.74101
▁current	-9.74189
▁inv	-9.74295
offe	-9.74313
issioner	-9.74335
questi	-9.74343
ors	-9.74412
bet	-9.74419
▁believ	-9.74426
round	-9.74427
alit	-9.7447
overn	-9.74481
▁within	-9.74504
financ	-9.74511
lace	-9.74516
▁number	-9.7457
were	-9.74597
services	-9.74608
know	-9.74677
progra	-9.74738
Mem	-9.74777
itica	-9.7478
fact	-9.74805
▁bas	-9.74855
clear	-9.74935
nom	-9.74941
cces	-9.7495
▁social	-9.75004
nsu	-9.75075
believe	-9.7509
try	-9.75094
▁reco	-9.75105
▁already	-9.75151
gro	-9.75192
▁including	-9.75213
ize	-9.75232
▁form	-9.75237
ann	-9.75332
siti	-9.75369
governme	-9.75389
▁dif	-9.75391
cooperation	-9.75483
lon	-9.75486
▁add	-9.7555
▁regard	-9.75614
entr	-9.75638
ession	-9.75727
line	-9.75853
atte	-9.7595
cau	-9.75969
ices	-9.7597
implement	-9.75978
uring	-9.75997
area	-9.76035
iffere	-9.76091
oa	-9.76096
beca	-9.76126
▁implemen	-9.76127
stitu	-9.76142
view	-9.7616
▁made	-9.76161
xt	-9.76211
rotect	-9.76227
fferen	-9.76252
oncern	-9.76271
mos	-9.76272
ecau	-9.7635
car	-9.76359
entl	-9.7642
▁ope	-9.76437
hroug	-9.76438
rket	-9.76485
▁chang	-9.76498
rnment	-9.76502
▁environ	-9.76518
abilit	-9.76519
high	-9.76521
roug	-9.76521
eate	-9.76525
pecia	-9.76571
uctio	-9.76573
mendment	-9.76653
▁hig	-9.76667
expe	-9.76672
financi	-9.76737
agr	-9.76752
those	-9.76782
vernme	-9.76792
▁thos	-9.76795
overnm	-9.76802
ervices	-9.76806
struc	-9.76823
▁finan	-9.7683
▁experience	-9.76846
ecial	-9.76884
pan	-9.7689
hos	-9.76891
▁opportunit	-9.76917
environm	-9.76926
▁thro	-9.77014
opmen	-9.77026
▁ci	-9.77029
nme	-9.77038
▁wher	-9.7704
elopm	-9.77044
mplement	-9.77179
▁loca	-9.77181
eti	-9.77265
espon	-9.77279
eq	-9.77289
ieve	-9.77289
▁plac	-9.7729
Un	-9.77293
osition	-9.77297
socia	-9.77305
▁instituti	-9.77364
ute	-9.77412
lec	-9.77416
sition	-9.77423
years	-9.77494
stion	-9.77542
cult	-9.77595
Ma	-9.77635
ffere	-9.77649
requ	-9.77699
ssib	-9.77717
tmen	-9.77728
ssibl	-9.77734
▁clear	-9.77741
med	-9.77829
▁clea	-9.77848
when	-9.7785
cor	-9.77865
▁incre	-9.77868
respo	-9.77914
ooperation	-9.77926
agreeme	-9.77931
▁fre	-9.77954
agre	-9.78059
▁measur	-9.78078
▁free	-9.78089
equi	-9.78097
ption	-9.78105
▁wer	-9.78133
cate	-9.78214
ituation	-9.78225
esse	-9.78229
positio	-9.78244
ovid	-9.78285
land	-9.78379
▁protection	-9.7839
▁application	-9.78396
vironme	-9.784
ironmen	-9.78402
ronment	-9.78403
nvironm	-9.78409
leas	-9.78436
▁publ	-9.78513
iz	-9.78526
impl	-9.78595
▁grea	-9.78599
▁appl	-9.78606
onsider	-9.78628
eop	-9.78641
posi	-9.78709
being	-9.78733
▁represent	-9.78766
tance	-9.78781
▁cooperati	-9.78806
ars	-9.78882
great	-9.78942
ticul	-9.78956
▁example	-9.78999
renc	-9.79003
▁situati	-9.79016
▁reso	-9.79018
nomi	-9.79025
estio	-9.79055
▁decision	-9.79064
Me	-9.79084
plac	-9.79096
pon	-9.79341
ucti	-9.79349
poin	-9.7937
oblem	-9.79376
particularly	-9.79413
ogra	-9.79426
programme	-9.79465
financia	-9.79468
mai	-9.79492
roble	-9.795
▁now	-9.79508
▁citizens	-9.79515
▁include	-9.79577
olut	-9.79634
▁conf	-9.79729
▁cooperat	-9.79739
qua	-9.79746
cula	-9.79797
reemen	-9.79846
eement	-9.7985
greeme	-9.79852
see	-9.79867
▁rece	-9.7987
▁bein	-9.79883
ossi	-9.79932
incl	-9.79958
▁va	-9.80002
▁fun	-9.80005
eca	-9.80019
continu	-9.80033
icula	-9.80045
ountry	-9.80071
effect	-9.80082
agai	-9.80115
▁aga	-9.80148
▁establish	-9.80164
probl	-9.80166
titut	-9.80187
firs	-9.80235
▁project	-9.80243
tua	-9.80246
plement	-9.80283
duction	-9.80287
rad	-9.80317
isio	-9.80336
vailable	-9.80428
rogramme	-9.80435
rticu	-9.80489
alle	-9.80566
acco	-9.80588
ncreas	-9.80595
tural	-9.80626
tand	-9.80629
ulati	-9.80639
▁exc	-9.8064
ntio	-9.80818
usin	-9.80901
▁experienc	-9.8091
▁relati	-9.80923
business	-9.80937
ondition	-9.80937
nstit	-9.80997
conside	-9.80997
bject	-9.80999
ositi	-9.81052
ncl	-9.81055
ient	-9.81086
▁busines	-9.81117
throu	-9.81258
opl	-9.81265
pli	-9.81343
lations	-9.81376
unity	-9.81439
amp	-9.8145
riti	-9.81467
ether	-9.81473
▁position	-9.81491
ein	-9.81494
ngs	-9.81508
roduction	-9.81521
region	-9.81524
rth	-9.81531
▁giv	-9.81565
▁conditio	-9.8157
▁mos	-9.81593
oweve	-9.81604
wever	-9.81605
sation	-9.81635
▁certain	-9.81658
▁Re	-9.81672
ogram	-9.81695
fina	-9.81723
atu	-9.81727
appro	-9.81736
esponsib	-9.81739
cultur	-9.8177
ctu	-9.8182
ommunity	-9.81826
▁want	-9.81843
▁Committe	-9.81882
log	-9.81885
responsi	-9.81929
isation	-9.81953
curren	-9.81959
Committee	-9.81979
hotel	-9.81983
ommunit	-9.8199
muni	-9.81999
instituti	-9.82006
measure	-9.82007
every	-9.82011
▁effec	-9.82049
clea	-9.8205
ibilit	-9.82067
▁increase	-9.82087
▁ea	-9.82115
oci	-9.82118
prog	-9.82118
▁kno	-9.82149
pmen	-9.82199
rights	-9.82206
rogra	-9.8226
wee	-9.82264
availabl	-9.82294
▁gre	-9.82368
▁institut	-9.82384
▁regio	-9.82405
▁how	-9.82429
govern	-9.82465
increa	-9.8247
▁techn	-9.82501
▁pers	-9.82593
▁ext	-9.82598
ogr	-9.82699
▁citizen	-9.8275
▁industr	-9.8275
contin	-9.82801
▁consid	-9.8283
poss	-9.82851
vis	-9.82862
inanc	-9.8289
▁situa	-9.82902
fferent	-9.82903
programm	-9.8292
ghts	-9.82932
protec	-9.82972
espons	-9.82985
mental	-9.83033
mmun	-9.83051
ntl	-9.83058
situat	-9.8308
▁measures	-9.83117
▁good	-9.83124
ourse	-9.83131
dire	-9.83235
Cou	-9.83259
elect	-9.83265
without	-9.83348
▁withou	-9.83348
▁dem	-9.8336
usiness	-9.83365
▁protecti	-9.83402
ental	-9.83408
leg	-9.83434
▁prot	-9.83531
▁requi	-9.83673
shi	-9.83676
tituti	-9.83677
▁responsibilit	-9.83695
nteres	-9.83724
atur	-9.83778
opo	-9.8383
rce	-9.83843
▁orde	-9.83843
▁jus	-9.83849
availab	-9.83859
posal	-9.83912
espec	-9.83927
dec	-9.83928
▁belie	-9.8394
ears	-9.83966
▁fact	-9.83986
olit	-9.83986
ph	-9.84029
twee	-9.84038
ween	-9.8404
▁governm	-9.84087
▁course	-9.8409
ompan	-9.84095
▁conti	-9.84116
hang	-9.84131
etwe	-9.84199
terest	-9.84217
▁after	-9.8425
inancia	-9.84254
nancial	-9.84264
ompl	-9.84308
real	-9.84363
gainst	-9.84373
inanci	-9.84439
▁communi	-9.8445
▁availa	-9.84471
▁posit	-9.84476
easure	-9.84481
requir	-9.84505
mic	-9.84516
mitt	-9.84527
▁sy	-9.84593
▁curre	-9.84594
ubl	-9.84598
comple	-9.8463
eb	-9.84678
▁natio	-9.84679
tution	-9.84795
itutio	-9.84804
eing	-9.84893
air	-9.849
ocia	-9.84922
ctur	-9.84976
decision	-9.84993
publ	-9.84993
mittee	-9.85005
intere	-9.85044
▁special	-9.85045
thro	-9.85074
len	-9.85139
yst	-9.85141
regi	-9.85153
conditio	-9.85385
products	-9.85392
▁debate	-9.85451
issione	-9.85457
rch	-9.85535
win	-9.85558
rogramm	-9.85594
uesti	-9.85611
▁opportuni	-9.85615
osit	-9.85616
consi	-9.85621
betw	-9.8564
▁hote	-9.85643
certain	-9.85648
aking	-9.85656
including	-9.85669
heref	-9.85707
ntly	-9.85733
▁includin	-9.85744
quality	-9.85755
wher	-9.85783
experience	-9.85811
▁necessary	-9.85814
▁could	-9.85861
▁regula	-9.85885
mil	-9.85935
ze	-9.85937
▁amendment	-9.85968
sig	-9.85971
ders	-9.86026
▁directi	-9.86032
ume	-9.86091
▁future	-9.86123
rse	-9.86167
articularly	-9.86222
▁dir	-9.86283
ference	-9.86289
oncer	-9.86298
emp	-9.86322
▁EU	-9.86335
large	-9.86358
ommu	-9.86368
ertain	-9.86379
etw	-9.86402
titu	-9.86439
opportunit	-9.8644
ural	-9.86449
current	-9.86483
agains	-9.86496
equire	-9.86501
actio	-9.8651
▁genera	-9.86517
▁level	-9.8653
▁cit	-9.86666
loca	-9.86708
ket	-9.8671
roces	-9.86779
ibility	-9.86803
person	-9.86849
uation	-9.86877
ocess	-9.86884
application	-9.86913
▁sha	-9.86951
▁if	-9.86962
▁compe	-9.8697
eff	-9.87005
nic	-9.87016
cted	-9.87031
theref	-9.87052
▁compet	-9.87075
▁applicatio	-9.87094
▁ju	-9.87097
ana	-9.87129
▁mon	-9.8716
abili	-9.87181
nclude	-9.87272
▁long	-9.87303
▁mean	-9.87352
cour	-9.8736
pers	-9.87384
▁ass	-9.87397
ppl	-9.87436
ook	-9.87437
▁solution	-9.87681
ssioner	-9.87687
▁rapporteur	-9.87702
implemen	-9.87752
disc	-9.87788
protection	-9.8784
▁impleme	-9.87896
access	-9.87898
ssu	-9.87899
▁technolog	-9.88034
oce	-9.88089
licy	-9.88096
ecia	-9.8816
▁min	-9.88167
▁acces	-9.8821
ved	-9.88234
▁transp	-9.88288
ech	-9.88289
stin	-9.88317
▁individual	-9.88323
regard	-9.88366
sm	-9.88382
result	-9.88403
▁resul	-9.88414
roup	-9.8845
institut	-9.88475
already	-9.88494
▁alread	-9.88502
ently	-9.88504
represent	-9.88509
rotection	-9.88536
▁es	-9.88551
believ	-9.886
elieve	-9.88609
▁human	-9.88677
▁way	-9.88691
▁perso	-9.88732
cto	-9.88735
governm	-9.88738
▁necessar	-9.88791
nanc	-9.888
sl	-9.88897
▁Ther	-9.88934
lication	-9.88946
ocial	-9.88963
wha	-9.89045
iffer	-9.89049
iati	-9.8906
ected	-9.89081
▁ent	-9.89125
ima	-9.8917
mmitt	-9.89171
peo	-9.89172
▁att	-9.89184
cus	-9.89212
cooperati	-9.89223
luti	-9.89248
▁req	-9.89296
▁represen	-9.89297
term	-9.8931
plication	-9.89356
ks	-9.89427
▁gover	-9.89488
prob	-9.895
roducti	-9.89598
tuation	-9.8961
▁deci	-9.89692
environ	-9.89718
▁enviro	-9.89718
number	-9.89743
worl	-9.8977
bas	-9.89812
dif	-9.89825
nity	-9.89859
▁em	-9.89898
within	-9.8991
▁withi	-9.89917
Ho	-9.89927
▁numbe	-9.89978
necessary	-9.9
rte	-9.90004
endment	-9.90004
mendmen	-9.90004
▁specific	-9.90078
social	-9.90088
▁quality	-9.901
▁continue	-9.90126
▁respect	-9.90126
solu	-9.90183
fte	-9.90184
emo	-9.90191
▁ef	-9.90223
▁socia	-9.9023
establish	-9.90265
▁dr	-9.90312
responsibilit	-9.90324
▁soc	-9.90377
elat	-9.9042
rnat	-9.90423
▁Ch	-9.90423
rant	-9.9043
osi	-9.90441
▁German	-9.90442
▁commit	-9.90509
▁sc	-9.90509
mplemen	-9.90528
diffe	-9.90597
ecision	-9.90603
ifica	-9.90603
..	-9.90656
▁resolution	-9.9067
▁ec	-9.9068
▁establis	-9.90681
There	-9.9076
▁decisio	-9.90837
▁production	-9.90851
hil	-9.90854
▁grou	-9.90879
cept	-9.90889
▁view	-9.90901
experienc	-9.90908
met	-9.90918
las	-9.90932
oposa	-9.9096
▁appli	-9.90964
gement	-9.90975
▁competiti	-9.90981
sy	-9.91009
egion	-9.91015
▁regar	-9.91026
▁complete	-9.91029
▁responsibili	-9.91078
dem	-9.91158
▁cen	-9.91168
citizens	-9.91291
▁Se	-9.91293
communi	-9.91308
▁bel	-9.9135
▁experien	-9.91359
cooperat	-9.91407
vie	-9.91441
blic	-9.91496
▁coopera	-9.91501
appr	-9.91502
xperience	-9.91516
sibilit	-9.91521
ically	-9.91558
onment	-9.91632
oca	-9.91685
give	-9.91806
▁ov	-9.91813
event	-9.91853
truc	-9.91861
prote	-9.91881
stor	-9.91913
▁cri	-9.91939
pplication	-9.91978
visi	-9.91996
omic	-9.9208
▁trad	-9.92084
pti	-9.92095
olu	-9.92173
egulation	-9.92194
rvices	-9.92219
ultur	-9.92233
example	-9.92237
utions	-9.92246
▁organi	-9.92258
▁ques	-9.92263
▁stand	-9.92288
arch	-9.92292
mmunity	-9.92294
▁large	-9.92316
▁exampl	-9.92345
situati	-9.92358
▁exper	-9.92425
▁cour	-9.92444
ithout	-9.92485
ntere	-9.92537
peri	-9.92564
ination	-9.92582
hal	-9.92617
finan	-9.92638
gai	-9.92643
rai	-9.92681
▁democra	-9.92699
ositio	-9.92705
ncer	-9.92737
echnolog	-9.92751
alt	-9.92778
▁specifi	-9.92875
technolog	-9.92896
include	-9.92898
ency	-9.92902
cture	-9.92903
ione	-9.92972
sal	-9.92974
rts	-9.9299
isc	-9.93024
▁leg	-9.93024
epresent	-9.93027
▁conte	-9.9307
measur	-9.93079
olo	-9.93083
▁effective	-9.93096
nsider	-9.93101
loc	-9.93104
room	-9.93126
project	-9.93194
▁think	-9.93217
oduction	-9.93289
roductio	-9.93292
nviron	-9.93292
cte	-9.93319
▁conditi	-9.93331
▁follow	-9.93346
▁producti	-9.93387
▁complet	-9.93388
ters	-9.93389
ontinu	-9.93401
▁vo	-9.93433
▁measu	-9.9349
ffec	-9.93546
ower	-9.93557
tee	-9.93562
necessar	-9.93567
tribut	-9.93582
▁projec	-9.93592
ogramme	-9.93618
▁Committ	-9.93639
Committe	-9.93658
▁principle	-9.93667
▁cannot	-9.93669
ailable	-9.93678
irecti	-9.93682
vailabl	-9.9374
ooperati	-9.93752
ndition	-9.9376
rman	-9.93795
ronmen	-9.93807
vironm	-9.93811
ironme	-9.93813
mmunit	-9.93839
iation	-9.93843
increase	-9.93846
she	-9.93858
▁operat	-9.9389
essio	-9.9392
rds	-9.93941
esponsi	-9.93963
urren	-9.93987
activ	-9.93995
rotec	-9.93998
▁institu	-9.94004
▁institutions	-9.94004
onside	-9.94022
issu	-9.94059
uality	-9.941
qualit	-9.94147
onditio	-9.94251
curre	-9.94254
busines	-9.94266
reco	-9.94275
creas	-9.94284
▁before	-9.94314
regula	-9.94329
spon	-9.94331
fec	-9.94377
ncluding	-9.94385
ntra	-9.94385
structur	-9.94393
▁control	-9.944
ole	-9.94424
inat	-9.94442
otect	-9.94444
▁busine	-9.94462
▁security	-9.94496
ncern	-9.94503
rog	-9.94581
production	-9.94596
▁poi	-9.946
▁gener	-9.94629
▁quali	-9.94655
measures	-9.94684
▁decisi	-9.94712
▁problems	-9.94754
▁commun	-9.94758
fter	-9.94761
iev	-9.94761
irective	-9.94791
qual	-9.94874
ernme	-9.94881
teri	-9.94917
mend	-9.94944
▁regulat	-9.94953
relati	-9.94993
rece	-9.95012
vernm	-9.9502
ives	-9.95023
hot	-9.95038
protecti	-9.95065
ank	-9.95067
sponsib	-9.95092
▁loc	-9.951
pportunit	-9.95111
rev	-9.95111
nan	-9.95146
vern	-9.9515
▁rem	-9.9516
del	-9.95161
▁regulation	-9.95242
▁relation	-9.95265
ok	-9.95267
tect	-9.95337
▁De	-9.95379
course	-9.95382
ems	-9.95387
▁opportun	-9.9542
iff	-9.9545
sitio	-9.95463
iver	-9.95463
quali	-9.95466
▁create	-9.95537
▁sol	-9.95548
▁addition	-9.95556
tere	-9.95592
▁Community	-9.95621
ssue	-9.95643
cco	-9.95644
ept	-9.95646
ductio	-9.95691
plemen	-9.95693
entati	-9.95723
industr	-9.95746
articularl	-9.95747
rticularly	-9.95753
lud	-9.95765
stic	-9.95794
▁legislati	-9.95819
orit	-9.95839
roducts	-9.95874
ema	-9.95896
til	-9.9595
▁incr	-9.9595
▁debat	-9.95957
techn	-9.95969
arly	-9.95977
enera	-9.96022
▁competit	-9.96043
itions	-9.96054
ruct	-9.96056
incre	-9.96071
hu	-9.96074
producti	-9.96075
▁indust	-9.96083
citizen	-9.96094
▁standard	-9.96126
opportuni	-9.96143
sub	-9.96179
▁iss	-9.96357
consid	-9.96384
▁environmental	-9.96389
onst	-9.964
applicatio	-9.96441
ferent	-9.96448
aga	-9.96453
ituat	-9.96489
▁amendmen	-9.96501
amendment	-9.96504
ntain	-9.9655
quire	-9.96565
▁Con	-9.96565
▁conta	-9.96574
▁applicati	-9.96609
pose	-9.96619
roun	-9.96623
grou	-9.96661
clude	-9.96665
urin	-9.96681
▁too	-9.96687
easur	-9.96733
esponsibilit	-9.96825
spons	-9.96832
made	-9.96872
▁mad	-9.96908
soc	-9.96942
ards	-9.96963
▁call	-9.97008
hor	-9.97025
less	-9.97026
ontin	-9.97064
stit	-9.97079
ende	-9.97094
▁my	-9.97131
orl	-9.97151
▁term	-9.97183
ath	-9.972
erence	-9.97223
rapporteur	-9.97227
ecurity	-9.9723
▁conditions	-9.97276
iste	-9.97359
vailab	-9.97397
includin	-9.97443
ducti	-9.97493
aut	-9.97499
ied	-9.97509
▁includi	-9.97514
▁activ	-9.97522
tle	-9.97643
old	-9.97707
then	-9.97732
urrent	-9.97755
▁individua	-9.97761
espo	-9.97794
▁qualit	-9.97799
genera	-9.9783
individual	-9.97832
two	-9.97833
ett	-9.97862
je	-9.97882
▁cas	-9.97931
gram	-9.97981
▁applica	-9.97981
ector	-9.97997
reeme	-9.98015
ethe	-9.98023
xperienc	-9.98051
erson	-9.98063
eemen	-9.98074
hrou	-9.98126
sk	-9.98127
ooperat	-9.9813
▁group	-9.98137
list	-9.98172
▁cle	-9.98207
siness	-9.98228
▁commi	-9.9826
isti	-9.98261
sati	-9.98262
effec	-9.98295
untry	-9.98297
responsibili	-9.98301
tanc	-9.98328
decisio	-9.98342
▁specia	-9.98349
▁tech	-9.98361
▁room	-9.98397
thos	-9.98411
lut	-9.98415
▁No	-9.98417
emocra	-9.98423
▁el	-9.98481
roo	-9.98524
esta	-9.98527
▁mod	-9.98534
▁action	-9.98546
▁technolo	-9.98565
aw	-9.98567
tructur	-9.98577
ward	-9.98624
nted	-9.98631
ncrea	-9.98638
usines	-9.9866
rious	-9.9868
conditi	-9.98718
withou	-9.98747
oom	-9.98754
▁witho	-9.98757
▁legislat	-9.98775
directi	-9.98795
▁avail	-9.98796
▁here	-9.98829
oble	-9.98836
lish	-9.98865
fl	-9.98893
rld	-9.98896
erest	-9.98907
add	-9.98923
sys	-9.98928
▁nati	-9.98952
gl	-9.98962
requi	-9.98967
edu	-9.98969
fort	-9.99012
▁responsibil	-9.99012
▁gi	-9.99025
tura	-9.99051
▁pub	-9.99056
val	-9.99081
▁...	-9.99216
availa	-9.99258
ainst	-9.99279
err	-9.99286
jus	-9.99325
opme	-9.99334
lopm	-9.99338
▁cal	-9.9936
▁responsibility	-9.99371
rotecti	-9.99394
▁hot	-9.99396
▁cours	-9.99397
dea	-9.99408
ink	-9.99415
regio	-9.99431
ntro	-9.9945
nside	-9.99495
gains	-9.99522
arc	-9.99597
respect	-9.99611
▁vote	-9.99619
nancia	-9.99624
inan	-9.99632
ays	-9.9965
free	-9.99654
ancial	-9.99666
egula	-9.99689
ying	-9.99718
▁col	-9.99762
hel	-9.99771
▁case	-9.99794
stio	-9.9981
ered	-9.99828
ger	-9.99857
satio	-9.99863
reso	-9.99879
▁discuss	-9.99954
cultu	-9.99984
ibili	-10.0001
embers	-10.0001
▁main	-10.0003
complete	-10.0008
omple	-10.0009
▁resu	-10.0012
conf	-10.0012
▁effe	-10.0012
▁mat	-10.0013
resolution	-10.0015
rdin	-10.0015
itizens	-10.0016
appl	-10.0022
represen	-10.0028
bel	-10.0029
otection	-10.0031
ptio	-10.0033
▁mai	-10.0034
hol	-10.0037
▁productio	-10.0037
after	-10.0039
effective	-10.004
▁difficult	-10.0042
mal	-10.0045
▁directive	-10.0046
ssione	-10.0047
elec	-10.005
stablish	-10.005
gover	-10.0054
▁situ	-10.0054
conti	-10.0056
▁necessa	-10.0056
vices	-10.006
▁ord	-10.006
urse	-10.0061
continue	-10.0062
blem	-10.0064
sioner	-10.0065
▁bei	-10.0065
stance	-10.0069
nne	-10.0071
cas	-10.0075
grea	-10.0076
belie	-10.0077
ogramm	-10.0081
imi	-10.0082
rote	-10.0082
debate	-10.0085
ming	-10.0085
▁specif	-10.0085
alis	-10.0088
ferenc	-10.0092
▁account	-10.0092
competiti	-10.0093
ticu	-10.0094
bein	-10.0095
nse	-10.0103
▁futur	-10.0103
▁represe	-10.0106
impleme	-10.011
▁manage	-10.011
situa	-10.0111
plicatio	-10.0113
rien	-10.0113
ndustr	-10.0115
▁Al	-10.0118
▁improv	-10.012
regulation	-10.0123
pin	-10.0124
▁implem	-10.0124
compet	-10.0125
▁regul	-10.0128
▁cond	-10.0132
niti	-10.0132
▁ob	-10.0134
prove	-10.0134
ince	-10.0134
nsti	-10.0136
evi	-10.0139
▁sin	-10.0142
▁contro	-10.0147
▁So	-10.0149
▁Communi	-10.0149
ntal	-10.015
future	-10.0151
isa	-10.0152
iew	-10.0154
▁leve	-10.0155
sult	-10.0156
▁securit	-10.0156
oni	-10.0159
▁allow	-10.0162
▁curr	-10.0162
ecessary	-10.0163
robl	-10.0165
nces	-10.0166
specific	-10.0166
institu	-10.0168
kno	-10.017
▁posi	-10.0171
sea	-10.0177
oti	-10.0181
teres	-10.0183
▁two	-10.0184
▁achiev	-10.0185
inv	-10.0187
ensi	-10.0187
fre	-10.0189
ituti	-10.0189
xpe	-10.019
▁For	-10.0191
hro	-10.0191
ict	-10.0194
▁especially	-10.0196
▁demo	-10.0197
institutions	-10.02
equir	-10.02
▁star	-10.0201
▁beli	-10.0202
establis	-10.0202
ppro	-10.0205
rly	-10.0205
lready	-10.0207
inal	-10.0218
▁contribut	-10.0227
sting	-10.0227
rol	-10.0229
licatio	-10.0229
nten	-10.023
nanci	-10.0239
ased	-10.0241
espe	-10.0242
▁establi	-10.0245
itut	-10.0245
▁ensur	-10.0246
▁hel	-10.0247
▁afte	-10.0248
pplicatio	-10.0251
nera	-10.0252
member	-10.0255
ithin	-10.0255
los	-10.0257
asure	-10.0258
experien	-10.026
▁same	-10.0263
▁reason	-10.0268
jo	-10.0271
riv	-10.0273
▁still	-10.0274
▁wan	-10.0275
▁find	-10.0288
▁organ	-10.0292
gar	-10.0295
trate	-10.0295
▁further	-10.0298
roject	-10.03
egard	-10.0302
tutio	-10.0302
ument	-10.031
rtain	-10.0312
▁experie	-10.0312
erman	-10.0317
tors	-10.0318
perience	-10.032
ining	-10.0321
ittee	-10.0324
net	-10.0327
want	-10.0328
▁secur	-10.033
bjec	-10.0331
erg	-10.0336
centr	-10.0343
▁respec	-10.0345
▁Communit	-10.0347
employ	-10.0348
security	-10.0348
transp	-10.0349
▁achieve	-10.0353
▁effectiv	-10.0355
▁que	-10.0356
full	-10.0359
ential	-10.0361
recti	-10.0363
environmental	-10.0374
▁custom	-10.0377
gulation	-10.0377
▁Fo	-10.0379
commun	-10.0381
fun	-10.0384
lay	-10.0389
alread	-10.0391
▁alrea	-10.0391
anci	-10.0392
weve	-10.0392
compe	-10.0392
▁coul	-10.0394
entation	-10.0398
twe	-10.0402
regulat	-10.0403
lig	-10.0407
egulat	-10.0408
could	-10.0408
let	-10.0411
urther	-10.0412
▁transport	-10.0412
mbers	-10.0414
principle	-10.0414
▁gene	-10.0415
hote	-10.0418
▁principl	-10.042
complet	-10.042
ndment	-10.0421
▁ensure	-10.0423
level	-10.0426
easures	-10.043
sibility	-10.0437
nve	-10.0447
human	-10.0448
▁allo	-10.045
▁Wh	-10.0455
▁customer	-10.0456
ertai	-10.0459
▁af	-10.0459
democra	-10.0459
▁does	-10.046
hig	-10.0461
umber	-10.0462
eliev	-10.0464
decisi	-10.0465
technolo	-10.0467
ustr	-10.0468
olog	-10.0471
coopera	-10.0474
control	-10.0475
▁goo	-10.048
poi	-10.0481
mpan	-10.0482
▁cooper	-10.0483
organi	-10.0484
ready	-10.0485
commit	-10.0487
conditions	-10.0489
mod	-10.049
▁rest	-10.0491
▁competi	-10.0497
enviro	-10.0498
erve	-10.0499
cluding	-10.05
oducti	-10.05
mun	-10.0501
perso	-10.0501
▁success	-10.0511
productio	-10.0512
▁envir	-10.0512
relation	-10.0514
▁Bu	-10.0516
▁close	-10.0517
mate	-10.0517
▁Germa	-10.0518
▁centr	-10.0528
responsibility	-10.053
ualit	-10.0532
▁exam	-10.0534
prot	-10.0534
good	-10.0537
▁consu	-10.0537
ora	-10.0537
▁power	-10.0539
endmen	-10.0542
echn	-10.0547
esponsibili	-10.055
▁Ca	-10.0552
sponsibilit	-10.0553
ocat	-10.0555
▁const	-10.0557
cision	-10.056
search	-10.056
locat	-10.0561
serve	-10.0561
my	-10.0561
posa	-10.0563
▁19	-10.0567
bs	-10.057
▁locat	-10.0574
acces	-10.0575
achi	-10.0577
xample	-10.0579
sive	-10.0581
ndividual	-10.0581
German	-10.0582
specifi	-10.0583
ncrease	-10.0584
site	-10.0585
esult	-10.0587
mpleme	-10.0593
though	-10.0596
▁dat	-10.0596
arr	-10.0597
osal	-10.0599
▁set	-10.0601
ecisio	-10.0601
▁democr	-10.0605
pportuni	-10.0605
Community	-10.0605
▁today	-10.0607
echnolo	-10.0609
chnolog	-10.061
tme	-10.0612
▁ele	-10.0613
▁opera	-10.0614
▁author	-10.0615
▁ai	-10.0616
bat	-10.0617
used	-10.0618
uali	-10.0621
dd	-10.0624
rot	-10.0626
apporteur	-10.0627
legislati	-10.0628
rticularl	-10.0628
ticularly	-10.0629
trad	-10.0631
epresen	-10.0635
req	-10.0636
▁kn	-10.0637
erent	-10.0648
cally	-10.0648
▁stan	-10.0649
vat	-10.0649
problems	-10.0653
regar	-10.0654
ncre	-10.0658
ruc	-10.0659
resul	-10.0663
▁Commit	-10.0663
imple	-10.0663
oductio	-10.0663
▁condit	-10.0665
nvironmental	-10.0673
oup	-10.0674
sibili	-10.0675
▁invest	-10.0677
ecessar	-10.0678
gion	-10.0678
ited	-10.0679
▁roo	-10.068
▁fund	-10.0681
portunit	-10.0681
lieve	-10.0681
▁rega	-10.0681
▁huma	-10.0684
gs	-10.0687
▁applicat	-10.0691
necessa	-10.0692
nstr	-10.0693
responsibil	-10.0693
ituati	-10.0694
esolution	-10.0694
applicati	-10.0696
pac	-10.0697
Committ	-10.0699
itizen	-10.0699
▁relatio	-10.0704
▁mode	-10.0706
opportun	-10.0709
strate	-10.071
ification	-10.0711
ects	-10.0712
▁experi	-10.0713
ditional	-10.0713
icult	-10.0714
▁improve	-10.0714
nstitutions	-10.0716
▁necess	-10.0718
▁aut	-10.0721
▁design	-10.0722
rective	-10.0724
rob	-10.0726
competit	-10.0727
tial	-10.0727
commo	-10.0727
▁member	-10.0729
ppli	-10.0731
ode	-10.0731
indi	-10.0732
addition	-10.0732
▁instit	-10.0735
akin	-10.0746
standard	-10.0749
▁indi	-10.0752
▁common	-10.0753
▁princip	-10.0754
col	-10.0754
▁objective	-10.0756
▁help	-10.0756
ages	-10.0763
erie	-10.0764
exampl	-10.0765
munity	-10.0768
porte	-10.0768
▁standar	-10.0768
lease	-10.0769
ecurit	-10.077
▁responsibi	-10.0771
▁gove	-10.0772
structu	-10.0773
ncludin	-10.0773
ature	-10.0773
deci	-10.0774
▁rapporte	-10.0774
▁examp	-10.0776
dia	-10.0781
iness	-10.0781
light	-10.0781
▁oppo	-10.0783
eref	-10.0785
▁vot	-10.0791
uat	-10.0791
ntial	-10.0796
numbe	-10.0797
▁repres	-10.0797
inatio	-10.0798
▁individu	-10.0802
roduce	-10.0805
larg	-10.0808
tely	-10.081
▁matter	-10.081
▁numb	-10.0812
▁impr	-10.0812
irectiv	-10.0812
withi	-10.0812
▁au	-10.0813
ecom	-10.0817
erta	-10.0821
▁proje	-10.0821
obl	-10.0822
individua	-10.0827
racti	-10.0827
amendmen	-10.0828
ering	-10.0832
hout	-10.0833
urre	-10.0836
elati	-10.0836
rne	-10.0851
▁own	-10.0851
ompetiti	-10.0853
eta	-10.0855
gard	-10.0857
giv	-10.0859
projec	-10.086
abil	-10.0863
sha	-10.0864
follow	-10.0865
▁canno	-10.0866
▁exa	-10.0869
oces	-10.0873
▁follo	-10.0874
▁guarantee	-10.0875
ontrol	-10.0875
rther	-10.0876
eng	-10.0877
appli	-10.0878
inu	-10.0879
ilable	-10.0881
gener	-10.0882
duce	-10.0883
rence	-10.0883
gramme	-10.0885
▁lon	-10.0893
ommunication	-10.0896
quir	-10.0899
ntry	-10.0901
▁Ba	-10.0903
ailabl	-10.0905
cannot	-10.0908
ju	-10.0908
nditio	-10.0914
▁may	-10.0915
▁then	-10.0915
gemen	-10.0918
exc	-10.0919
mean	-10.0921
▁opportunity	-10.0923
ider	-10.0927
dge	-10.0931
▁commu	-10.0932
sponsi	-10.0938
pons	-10.0939
▁bi	-10.0939
think	-10.0947
ret	-10.0952
▁object	-10.0956
onditi	-10.0964
busine	-10.0967
▁companies	-10.0968
before	-10.097
▁befor	-10.0971
onditions	-10.0972
employment	-10.0973
icall	-10.0977
dir	-10.0978
rica	-10.0978
▁authori	-10.0983
illion	-10.0983
onmen	-10.0985
▁busin	-10.0986
tection	-10.099
▁thre	-10.0992
▁both	-10.0992
ntati	-10.0998
iffe	-10.1001
▁elect	-10.1003
▁decis	-10.1005
legislat	-10.1008
set	-10.1009
communication	-10.101
create	-10.1014
▁manag	-10.1016
ienc	-10.1022
exper	-10.1024
▁technol	-10.1028
conte	-10.1029
tribu	-10.1036
teg	-10.1038
hts	-10.1041
▁certa	-10.1041
▁larg	-10.1045
sider	-10.1047
ponsib	-10.1049
▁sector	-10.1049
ffective	-10.105
ience	-10.1051
▁legisla	-10.1054
ishe	-10.1057
▁cur	-10.1066
ithou	-10.1069
thout	-10.1071
rdi	-10.1074
ecte	-10.1077
includi	-10.1079
▁much	-10.1079
▁Inter	-10.1081
▁Hotel	-10.1084
pme	-10.1088
▁hu	-10.1088
cis	-10.1088
esponsibility	-10.1094
▁An	-10.1094
difficult	-10.1095
▁difficul	-10.1095
▁directiv	-10.1098
directive	-10.11
▁had	-10.1101
▁plan	-10.1103
Ther	-10.1104
▁Fr	-10.1104
applica	-10.1105
mmu	-10.1108
illi	-10.111
indust	-10.1112
ude	-10.1113
▁qua	-10.112
comme	-10.112
▁budget	-10.112
omplete	-10.1122
rgani	-10.1126
oducts	-10.1128
measu	-10.1131
xperien	-10.1131
▁applic	-10.1131
perienc	-10.1132
nviro	-10.1134
▁securi	-10.1141
especially	-10.1145
aft	-10.1146
▁indus	-10.1149
uth	-10.1149
viron	-10.115
▁citiz	-10.1152
▁&#9	-10.1152
munit	-10.1152
rap	-10.1152
▁meas	-10.1154
▁start	-10.1155
▁regulati	-10.1158
ntinu	-10.116
specially	-10.116
ribut	-10.1166
ntation	-10.1166
nm	-10.1169
source	-10.1174
fici	-10.1181
mployment	-10.1182
curity	-10.1183
▁energy	-10.1184
mpr	-10.1188
entat	-10.1193
▁strateg	-10.1193
fica	-10.1195
▁vie	-10.1198
▁implementation	-10.1199
▁J	-10.1199
ironm	-10.1202
ronme	-10.1203
itional	-10.1204
iatio	-10.1207
effectiv	-10.121
pub	-10.1212
onti	-10.1214
▁say	-10.1216
securit	-10.1217
ortun	-10.1217
inati	-10.1219
▁understand	-10.1221
onsid	-10.1222
▁however	-10.1225
ild	-10.1227
▁show	-10.1229
cien	-10.123
pporte	-10.1231
rren	-10.1232
▁employ	-10.1233
pecific	-10.1237
ila	-10.124
too	-10.1243
elation	-10.1253
▁qual	-10.1253
regul	-10.1253
ontinue	-10.1258
▁sur	-10.126
otec	-10.1261
sat	-10.1261
atter	-10.1262
ined	-10.1264
▁&#	-10.1266
▁contribu	-10.1271
▁You	-10.1273
egio	-10.1277
contribut	-10.1279
▁soluti	-10.1281
ordin	-10.1281
wing	-10.1281
owing	-10.1283
▁cert	-10.1286
urr	-10.1287
curr	-10.1294
cated	-10.1295
orts	-10.1296
cultural	-10.1303
▁rat	-10.131
gramm	-10.1311
▁management	-10.1318
tom	-10.1319
▁discus	-10.1322
lab	-10.1323
ransp	-10.1323
▁offers	-10.1323
ddition	-10.1324
▁As	-10.1324
erma	-10.1327
discuss	-10.1329
eem	-10.1331
cours	-10.1335
▁Be	-10.1335
rrent	-10.1335
▁Ge	-10.1339
lev	-10.1342
▁lead	-10.1347
icy	-10.135
oopera	-10.1353
ouse	-10.1354
anagement	-10.1356
onf	-10.1361
represe	-10.1363
contro	-10.1366
plicati	-10.1368
▁deba	-10.1372
group	-10.1373
account	-10.1373
eeme	-10.1379
stablis	-10.1382
urt	-10.1383
tablish	-10.1385
▁deb	-10.1387
rthe	-10.1389
tandard	-10.1389
pleme	-10.1391
▁V	-10.1393
commi	-10.1395
tructu	-10.1398
▁Mo	-10.1398
ructur	-10.1399
▁du	-10.1399
itua	-10.1404
▁coo	-10.1406
elie	-10.1409
condit	-10.141
espect	-10.1414
ortu	-10.1415
egulati	-10.1416
debat	-10.1417
conta	-10.1425
pplicati	-10.1426
▁accoun	-10.1427
ample	-10.143
▁Commun	-10.1433
lities	-10.1435
▁together	-10.1438
▁desi	-10.1439
ultu	-10.1441
tech	-10.1442
ltur	-10.1442
erenc	-10.1446
reme	-10.1447
ffici	-10.1449
▁research	-10.1452
transport	-10.1452
uman	-10.1457
rove	-10.1462
▁transpor	-10.1465
onte	-10.1465
▁num	-10.1473
Communi	-10.1474
cations	-10.1476
blish	-10.1476
ppr	-10.1478
play	-10.1479
ransport	-10.1479
▁ga	-10.1479
▁citi	-10.148
ecu	-10.148
cern	-10.1481
otecti	-10.1481
cessary	-10.1481
▁impro	-10.1485
manage	-10.1485
const	-10.1487
erio	-10.1496
esponsibil	-10.1496
▁del	-10.1498
respec	-10.1499
ory	-10.1503
sponsibili	-10.1503
▁ru	-10.1505
ponsibilit	-10.1505
ntai	-10.1506
ications	-10.1507
sione	-10.151
▁effecti	-10.1514
Communit	-10.1515
rinciple	-10.1521
tuat	-10.1523
ioner	-10.1524
ull	-10.1526
▁nu	-10.153
abi	-10.153
establi	-10.1536
ship	-10.1539
aid	-10.154
▁procedure	-10.154
vironmental	-10.1541
▁Gr	-10.1541
▁fl	-10.1544
ailab	-10.1554
tizens	-10.1554
isati	-10.1556
vaila	-10.1561
crease	-10.1568
ecisi	-10.1571
lve	-10.1572
▁establ	-10.1573
ompet	-10.1576
egislati	-10.158
▁legislation	-10.1581
mploy	-10.1584
vote	-10.1585
▁last	-10.1587
▁furthe	-10.1588
specif	-10.1589
principl	-10.1592
experie	-10.1593
▁sign	-10.1596
ncy	-10.1596
sines	-10.1602
necess	-10.1604
ncial	-10.1605
▁becom	-10.1611
▁play	-10.1618
▁impl	-10.1618
▁K	-10.1618
avail	-10.1619
reason	-10.1619
▁clos	-10.162
eres	-10.1623
lf	-10.1624
customer	-10.1632
▁custome	-10.1632
further	-10.1633
versi	-10.1633
tary	-10.1636
allo	-10.1638
atic	-10.1639
plicat	-10.164
▁def	-10.1644
responsibi	-10.1646
vision	-10.1649
usine	-10.165
implem	-10.165
erience	-10.1653
stitutions	-10.1653
medi	-10.1654
▁since	-10.1656
ppe	-10.1656
improv	-10.1658
nstru	-10.1659
ompetit	-10.166
emocr	-10.1662
mocra	-10.1663
▁imple	-10.1663
anage	-10.1665
▁tw	-10.1665
▁communication	-10.1666
sue	-10.1668
ernm	-10.1673
pend	-10.1673
plica	-10.1683
achieve	-10.1684
▁avai	-10.1688
▁function	-10.169
stab	-10.1694
▁gentlemen	-10.1696
▁objectiv	-10.1696
witho	-10.1697
licati	-10.1698
ancia	-10.1699
organ	-10.17
▁small	-10.17
uture	-10.17
rnme	-10.1702
tting	-10.1706
success	-10.1707
▁rese	-10.1707
instit	-10.1708
allow	-10.1709
omplet	-10.1711
plan	-10.1712
▁succe	-10.1713
achiev	-10.1713
understand	-10.1714
entatio	-10.1717
els	-10.1717
still	-10.172
▁achie	-10.1726
▁full	-10.1729
entia	-10.1731
▁additi	-10.1738
nno	-10.174
▁commo	-10.1741
ollow	-10.1744
ecis	-10.1744
eason	-10.1747
▁envi	-10.1748
ndividua	-10.1748
▁personal	-10.1752
▁Tha	-10.1753
▁partner	-10.1756
▁dist	-10.1756
▁custo	-10.1756
▁come	-10.1757
dividual	-10.1759
mmunication	-10.1766
ommunicatio	-10.1766
▁used	-10.1767
...	-10.1767
▁sect	-10.177
lica	-10.1773
ebate	-10.1775
lude	-10.1776
competi	-10.1778
hed	-10.1778
ensure	-10.1785
cert	-10.1791
sla	-10.1792
plo	-10.1792
opportunity	-10.1793
technol	-10.1796
▁sam	-10.1799
rve	-10.18
custom	-10.1801
icularly	-10.1804
asur	-10.1804
pporteur	-10.1805
ticularl	-10.1806
▁succes	-10.1808
udi	-10.1809
objective	-10.1809
▁reaso	-10.1809
communicatio	-10.181
▁negotiat	-10.182
secur	-10.182
incr	-10.182
mpe	-10.1821
▁transpo	-10.1827
iate	-10.1829
presentati	-10.1833
power	-10.1834
▁gu	-10.1835
stanc	-10.1835
▁lin	-10.1841
sport	-10.1845
grat	-10.1849
applicat	-10.1849
lection	-10.1849
relatio	-10.1849
▁end	-10.185
row	-10.1851
ensur	-10.1852
afte	-10.1856
pportun	-10.1857
nction	-10.186
pecifi	-10.1861
tives	-10.1861
▁company	-10.1864
eso	-10.1864
▁sti	-10.1866
communicat	-10.1866
uire	-10.1867
companie	-10.1867
cep	-10.1873
▁become	-10.1874
▁secu	-10.1879
▁ensu	-10.188
▁respe	-10.1881
▁general	-10.1881
fication	-10.1885
implementation	-10.1886
uss	-10.1889
sponsibility	-10.1894
structure	-10.1894
fficien	-10.1895
author	-10.1896
ployment	-10.1897
▁data	-10.1899
▁requirement	-10.1902
easu	-10.1904
resu	-10.1904
▁stre	-10.1904
▁children	-10.1905
mina	-10.1908
tory	-10.1908
roblems	-10.1911
educ	-10.1912
eneral	-10.1912
companies	-10.1913
erso	-10.1913
ps	-10.1915
▁America	-10.1916
▁rapport	-10.1917
anis	-10.1917
leve	-10.1917
certa	-10.1918
portuni	-10.192
ecto	-10.192
▁guarante	-10.1921
futur	-10.1921
guarantee	-10.1923
▁futu	-10.1925
orte	-10.1926
arm	-10.1927
star	-10.1933
close	-10.1934
ndust	-10.1934
▁relations	-10.1935
case	-10.1936
dustr	-10.1936
▁regu	-10.1942
▁activit	-10.1943
▁practic	-10.1945
rapporte	-10.1952
▁something	-10.1952
ator	-10.1952
ale	-10.1955
▁Intern	-10.1955
▁whether	-10.1955
reem	-10.1968
▁resolut	-10.1968
asures	-10.1969
effe	-10.1972
earch	-10.1974
regulati	-10.1974
gan	-10.1974
rson	-10.1976
individu	-10.1977
▁individ	-10.1977
▁amend	-10.1983
gula	-10.1991
nable	-10.1994
democr	-10.2
gene	-10.2002
luding	-10.2004
licat	-10.2006
nvi	-10.2009
▁insti	-10.2009
enter	-10.201
▁Inte	-10.2012
▁industry	-10.2013
cooper	-10.2013
authori	-10.2016
ortunit	-10.2016
▁companie	-10.2017
▁coope	-10.2022
employmen	-10.2027
▁tec	-10.2027
lread	-10.2029
▁standa	-10.203
ami	-10.2031
▁authorit	-10.2031
istr	-10.2034
ditiona	-10.2037
cludin	-10.2041
▁means	-10.2043
accept	-10.2045
lega	-10.2046
improve	-10.2047
dre	-10.2048
nist	-10.2049
ustomer	-10.205
design	-10.2053
▁bot	-10.2054
▁opport	-10.2055
sses	-10.2056
hall	-10.2058
standar	-10.206
▁adopt	-10.2064
▁procedur	-10.2064
ditions	-10.2067
riou	-10.2067
▁million	-10.2068
▁stil	-10.2068
management	-10.207
▁initiative	-10.2074
membe	-10.2075
erin	-10.2075
lla	-10.2075
mad	-10.2079
▁orga	-10.2081
▁communicat	-10.2082
princip	-10.2084
▁princi	-10.2089
ommunicat	-10.2095
▁ide	-10.2097
ontro	-10.2099
gio	-10.2102
eque	-10.2105
dy	-10.2107
▁base	-10.211
▁amendments	-10.211
▁char	-10.2112
▁major	-10.2115
onta	-10.212
▁..	-10.2121
commu	-10.2122
hnolog	-10.2122
oject	-10.2122
rojec	-10.2122
ecur	-10.2122
egislat	-10.2122
tenti	-10.2127
▁objecti	-10.2132
nditions	-10.2132
ilities	-10.2132
▁health	-10.2133
Re	-10.2136
rding	-10.2136
hough	-10.2139
▁resol	-10.214
uar	-10.2141
▁especial	-10.2143
echnol	-10.2145
▁democ	-10.2145
▁sen	-10.2147
tut	-10.2149
chnolo	-10.215
▁clo	-10.2151
emplo	-10.2153
invest	-10.2153
▁accept	-10.2154
dic	-10.2154
▁autho	-10.2155
nsid	-10.2156
▁energ	-10.2157
esearch	-10.2162
tif	-10.2168
▁second	-10.2168
▁condi	-10.2171
▁techno	-10.2174
eprese	-10.2176
▁produce	-10.2185
mpetiti	-10.2188
▁global	-10.2191
urthe	-10.2193
ibil	-10.2194
egul	-10.2195
▁emp	-10.22
▁lev	-10.22
cessar	-10.2202
Commit	-10.2204
experi	-10.2204
pplica	-10.2205
gulat	-10.2209
▁alre	-10.221
tiati	-10.2212
dment	-10.2213
alrea	-10.2214
▁inves	-10.2218
ecessa	-10.2219
together	-10.222
▁exte	-10.2221
▁neces	-10.2222
beli	-10.2225
▁approach	-10.2226
ompe	-10.2227
common	-10.2228
wan	-10.223
fective	-10.2231
org	-10.2232
ifficult	-10.2236
econd	-10.2237
▁coll	-10.2239
repres	-10.2239
ndmen	-10.2243
▁working	-10.2245
sul	-10.2245
ibi	-10.2252
gue	-10.2252
▁histor	-10.2254
sou	-10.2257
ultural	-10.2258
▁desig	-10.2261
rega	-10.2262
situ	-10.2264
rectiv	-10.2264
▁prin	-10.2265
▁membe	-10.2266
▁uni	-10.2267
tuati	-10.2268
alth	-10.2269
▁managemen	-10.2269
▁difficu	-10.2273
difficul	-10.2273
▁open	-10.2275
directiv	-10.2276
ws	-10.228
decis	-10.2281
demo	-10.2281
gove	-10.2282
▁repre	-10.2283
aci	-10.2285
ecuri	-10.2286
▁significan	-10.2288
rtu	-10.2293
pecially	-10.2295
communicati	-10.2297
loo	-10.2298
▁mil	-10.2299
bers	-10.2299
▁initia	-10.2305
▁operati	-10.2308
ncludi	-10.2314
envir	-10.232
fie	-10.2321
ially	-10.2322
▁day	-10.2322
▁Germ	-10.2322
▁integrat	-10.2326
▁matte	-10.2326
matter	-10.2327
▁fundamental	-10.2331
ommo	-10.2332
speciall	-10.2336
Germa	-10.2337
consu	-10.234
legisla	-10.2342
ually	-10.2347
ommunicati	-10.235
▁simpl	-10.2354
bjective	-10.2356
aki	-10.2358
mploymen	-10.236
▁powe	-10.2362
▁sto	-10.2366
▁hum	-10.2366
tis	-10.237
ithi	-10.2373
ffectiv	-10.2375
eni	-10.2378
icie	-10.2381
Con	-10.2382
cisio	-10.2383
ntia	-10.2383
searc	-10.2383
▁ful	-10.2386
▁negotiation	-10.2389
rocedure	-10.239
nsur	-10.2391
ontribut	-10.2392
yment	-10.2392
xampl	-10.2401
▁toda	-10.2402
function	-10.2402
▁av	-10.2407
▁communicatio	-10.2407
itize	-10.2411
egar	-10.2413
mplementation	-10.2413
mplem	-10.2414
tuti	-10.2415
lable	-10.2415
securi	-10.2417
thoug	-10.2417
▁oper	-10.2419
anno	-10.2419
denc	-10.2421
find	-10.2421
uati	-10.2424
ecess	-10.2424
▁contrib	-10.2427
today	-10.2428
rtai	-10.2431
put	-10.2432
rib	-10.2433
bei	-10.2439
fund	-10.2441
ping	-10.2444
umen	-10.2445
contribu	-10.2448
legislation	-10.2449
same	-10.245
esign	-10.2462
strateg	-10.2462
opt	-10.2464
▁indu	-10.2465
last	-10.2467
▁resource	-10.2469
▁aft	-10.2471
inin	-10.2472
sibil	-10.2472
inis	-10.2475
company	-10.2475
prom	-10.2482
object	-10.2484
lecti	-10.2485
mini	-10.2486
▁exce	-10.2488
ccount	-10.249
inist	-10.2492
ironmental	-10.2494
▁fou	-10.2494
▁following	-10.2495
cra	-10.2496
▁objec	-10.2498
▁That	-10.2501
eady	-10.2501
▁receive	-10.2502
bal	-10.2503
curit	-10.2507
urn	-10.2507
tizen	-10.2517
▁involv	-10.2518
rial	-10.2522
▁bus	-10.2522
effecti	-10.2526
▁strate	-10.2526
▁subject	-10.2529
nagement	-10.253
sures	-10.2531
refer	-10.2532
anagemen	-10.2532
▁down	-10.2534
ttee	-10.2534
erne	-10.2536
▁hand	-10.2539
▁prev	-10.2547
esponsibi	-10.2549
sponsibil	-10.255
umbe	-10.2551
▁activities	-10.2552
ponsibili	-10.2556
onsibilit	-10.2558
mendments	-10.2559
▁howeve	-10.256
however	-10.256
nec	-10.2561
sector	-10.2561
ealth	-10.2567
tiat	-10.2568
▁cann	-10.2569
▁committe	-10.2571
▁involve	-10.2573
▁sig	-10.2577
ros	-10.2581
self	-10.2583
tribution	-10.2584
examp	-10.2588
▁secto	-10.259
EU	-10.2591
procedure	-10.2592
proje	-10.2594
vention	-10.2595
ustom	-10.2597
▁agricultur	-10.2599
▁express	-10.26
cultura	-10.2604
lose	-10.2605
nderstand	-10.2607
▁togethe	-10.2614
▁practi	-10.2615
prin	-10.2616
unction	-10.2623
coul	-10.2623
ssa	-10.2623
research	-10.2624
char	-10.2624
idenc	-10.2625
▁foll	-10.2627
oduce	-10.2628
transpor	-10.2629
tm	-10.2631
efe	-10.2633
▁participa	-10.2634
huma	-10.2636
trateg	-10.264
▁proj	-10.2643
citi	-10.2643
stabl	-10.2644
applic	-10.2645
essa	-10.2646
▁budge	-10.2648
during	-10.2653
llion	-10.2655
budget	-10.2655
ramme	-10.2657
▁back	-10.2657
aining	-10.2659
▁To	-10.266
perien	-10.266
base	-10.266
aste	-10.2661
mplete	-10.2663
lling	-10.2664
▁doe	-10.2665
erienc	-10.267
xperie	-10.2671
does	-10.2673
manag	-10.2678
▁cer	-10.2678
mpro	-10.2679
▁activi	-10.268
omme	-10.2683
annot	-10.2683
liev	-10.2684
follo	-10.2684
▁authorities	-10.2684
▁structur	-10.2685
canno	-10.2686
iron	-10.2686
nica	-10.2689
ntatio	-10.2692
energy	-10.2694
▁resources	-10.2694
▁welcome	-10.2696
ntrol	-10.2698
▁negotiati	-10.2699
ilabl	-10.27
nger	-10.2703
titutions	-10.2707
ensu	-10.2708
munication	-10.2711
pportunity	-10.2712
▁framework	-10.2714
secu	-10.2714
start	-10.2715
mmunicatio	-10.2718
rgan	-10.2722
▁mana	-10.2723
▁opp	-10.2724
itiona	-10.2729
pplicat	-10.2733
nded	-10.2734
nditi	-10.2734
▁vari	-10.2737
ource	-10.2737
exam	-10.2741
▁buil	-10.2741
commen	-10.2742
residenc	-10.2742
cip	-10.2743
plic	-10.2743
busin	-10.2746
xper	-10.2746
rain	-10.2747
gentlemen	-10.275
oday	-10.2758
ponsi	-10.2759
urity	-10.276
sine	-10.2762
ponsibility	-10.2763
▁busi	-10.2764
▁durin	-10.2765
▁another	-10.2766
iscuss	-10.2768
oner	-10.2768
uthori	-10.2768
resentati	-10.2769
requirement	-10.277
▁communicati	-10.2771
▁emplo	-10.2772
▁requiremen	-10.2772
oda	-10.2774
mode	-10.2775
eet	-10.2776
ata	-10.2776
ersi	-10.2777
▁reduc	-10.2777
ecific	-10.2778
ondit	-10.2779
▁Tr	-10.2784
▁natur	-10.2785
▁adv	-10.2788
dur	-10.279
erf	-10.279
befor	-10.2791
▁befo	-10.2792
▁cultur	-10.2792
sourc	-10.2792
elatio	-10.2794
▁United	-10.2795
opm	-10.2799
ntinue	-10.2799
illio	-10.2803
osa	-10.2803
▁based	-10.2807
Hotel	-10.2809
offers	-10.281
esul	-10.281
ompanies	-10.281
▁persona	-10.2811
die	-10.2811
▁receiv	-10.2811
ranspor	-10.2813
ansport	-10.2813
▁Wi	-10.2815
gy	-10.2817
oy	-10.2818
▁solut	-10.2819
▁far	-10.282
custome	-10.2821
ick	-10.2821
▁consum	-10.2821
▁elec	-10.2823
communica	-10.2825
▁discu	-10.2827
yin	-10.2829
▁price	-10.2829
llowing	-10.2834
personal	-10.2839
▁integra	-10.2849
ets	-10.2852
negotiat	-10.2853
rincipl	-10.2855
▁investment	-10.2856
inciple	-10.2856
discus	-10.2862
roa	-10.2864
ducts	-10.2866
▁functio	-10.2867
▁pas	-10.2868
onsib	-10.2871
tecti	-10.2873
▁repr	-10.2873
had	-10.2874
objectiv	-10.2874
sum	-10.2875
presentat	-10.2879
Inter	-10.288
uarantee	-10.288
▁connect	-10.2883
▁prom	-10.2884
ogether	-10.2888
ordi	-10.289
epres	-10.2894
▁Hote	-10.2897
ised	-10.2898
ompany	-10.2902
live	-10.2903
undamental	-10.2904
gricultur	-10.2905
tandar	-10.2906
indus	-10.2907
▁document	-10.2909
▁progress	-10.2912
compani	-10.2913
tablis	-10.2913
gislati	-10.2914
accoun	-10.2914
pat	-10.2915
▁inve	-10.2915
rning	-10.2916
▁sim	-10.2917
relations	-10.2918
ompeti	-10.2919
cient	-10.2919
stabli	-10.292
dam	-10.292
▁address	-10.2922
▁negotiations	-10.2923
▁negotia	-10.2923
▁child	-10.2925
ablish	-10.2926
▁significant	-10.2928
andard	-10.2931
gulati	-10.2936
omen	-10.2937
children	-10.294
ism	-10.294
▁underst	-10.2941
terr	-10.2941
help	-10.2942
▁communica	-10.2942
▁look	-10.2942
▁basi	-10.2944
oes	-10.2946
▁dea	-10.2948
▁guarant	-10.2949
▁compani	-10.2949
ateg	-10.2951
ternal	-10.2952
ompanie	-10.2952
appe	-10.2956
tual	-10.296
uthor	-10.2962
▁accou	-10.2962
▁propose	-10.2963
cover	-10.2964
Commun	-10.2964
ficien	-10.2965
▁remain	-10.2969
▁Commu	-10.297
citiz	-10.2974
tructure	-10.2978
agement	-10.298
vot	-10.2983
▁technology	-10.2985
▁proposals	-10.2986
oppo	-10.2986
ands	-10.299
For	-10.2994
ligh	-10.2998
▁gov	-10.3001
something	-10.3002
▁able	-10.3002
▁somethin	-10.3004
mou	-10.3007
▁Fi	-10.3007
itive	-10.3007
petiti	-10.3009
udget	-10.3009
opp	-10.3009
ntat	-10.3011
rag	-10.3011
trib	-10.3016
rities	-10.3016
initiative	-10.3017
numb	-10.3018
hink	-10.3018
Ch	-10.3019
significan	-10.3021
echnology	-10.3022
essary	-10.3022
ndu	-10.3024
impr	-10.3025
lled	-10.3026
▁initiativ	-10.3027
ato	-10.3027
▁La	-10.3039
asse	-10.3039
establ	-10.3041
▁contain	-10.3047
nally	-10.3048
ndividu	-10.3054
partner	-10.3056
Se	-10.3057
thre	-10.3059
rri	-10.306
amendments	-10.3064
▁thing	-10.3073
geme	-10.3076
uccess	-10.3077
▁tradition	-10.3078
▁childre	-10.3078
working	-10.308
anda	-10.308
▁reas	-10.3083
dividua	-10.3083
produce	-10.3088
ctivit	-10.3088
cularly	-10.3091
▁estab	-10.3092
ribu	-10.3093
guarante	-10.3093
ividual	-10.3094
▁thank	-10.3095
integrat	-10.3097
chn	-10.3097
▁areas	-10.3099
stre	-10.3104
ooper	-10.3108
standa	-10.3111
▁stra	-10.3114
orities	-10.3117
▁systems	-10.3118
vail	-10.312
managemen	-10.3122
activit	-10.3123
furthe	-10.3129
▁furth	-10.313
▁taken	-10.3131
▁colle	-10.3133
pecif	-10.3134
apporte	-10.3135
▁better	-10.3136
porteur	-10.3137
▁trade	-10.3138
icularl	-10.3139
ploy	-10.3142
▁understa	-10.3145
legal	-10.3146
▁competition	-10.3149
transpo	-10.3149
ncr	-10.3152
techno	-10.3157
practic	-10.3159
ffecti	-10.316
▁introduc	-10.316
depend	-10.3164
tori	-10.3169
empl	-10.3172
iven	-10.3172
ngl	-10.3173
▁importance	-10.3175
anag	-10.3177
ommunica	-10.3179
▁las	-10.3179
bje	-10.318
rience	-10.3181
negotiation	-10.3181
till	-10.3182
etter	-10.3182
neral	-10.3185
rp	-10.3185
ests	-10.3186
industry	-10.3186
chieve	-10.3188
condi	-10.3188
ization	-10.3189
plementation	-10.319
trac	-10.319
▁If	-10.3194
▁3	-10.3196
clos	-10.3199
▁significa	-10.3199
▁fundamenta	-10.32
▁He	-10.3201
fundamental	-10.3201
mpetit	-10.3201
dow	-10.3205
authorit	-10.3208
▁esta	-10.3208
onme	-10.3208
▁bea	-10.3208
tention	-10.3209
succes	-10.3211
ificati	-10.3212
▁recent	-10.3212
much	-10.3213
general	-10.3213
nvest	-10.3215
radi	-10.3216
ructu	-10.3217
both	-10.3218
ncia	-10.3218
entra	-10.3219
▁Yo	-10.3219
uctur	-10.3219
liv	-10.3219
▁lar	-10.3221
goo	-10.3222
repre	-10.3222
lead	-10.3227
▁amen	-10.3228
▁appropriat	-10.3231
ploymen	-10.3232
loyment	-10.3232
mprov	-10.3236
technology	-10.3237
▁indivi	-10.3238
exa	-10.3238
itho	-10.3239
procedur	-10.324
America	-10.3245
▁Americ	-10.3247
nergy	-10.3249
rapport	-10.325
rocedur	-10.3253
litie	-10.3256
▁representati	-10.3256
ussi	-10.3257
nsure	-10.3258
▁instrument	-10.3259
cin	-10.326
nabl	-10.326
▁increasing	-10.326
▁ow	-10.3261
▁requirements	-10.3263
▁welcom	-10.3265
▁muc	-10.3265
wev	-10.3268
gani	-10.3271
mmunicat	-10.3272
insti	-10.3274
▁addit	-10.3274
ommon	-10.3274
▁professional	-10.3276
eu	-10.3277
additi	-10.3278
kn	-10.3282
ports	-10.3283
▁auth	-10.3283
▁organis	-10.3284
whether	-10.3285
egislation	-10.3286
estaurant	-10.3287
ware	-10.3289
ican	-10.3291
▁contra	-10.3293
resolut	-10.3294
force	-10.3295
tinu	-10.3296
▁resolu	-10.3302
impro	-10.3302
ersonal	-10.3304
individ	-10.3309
rease	-10.3311
artner	-10.3314
respe	-10.3316
especial	-10.3316
▁especia	-10.332
▁found	-10.3321
▁manageme	-10.3322
▁pleas	-10.3327
sources	-10.3331
uit	-10.3332
show	-10.3334
meas	-10.3344
tures	-10.3347
▁gra	-10.3348
ampl	-10.3349
mentation	-10.3352
siv	-10.3353
rking	-10.3355
epresentati	-10.3358
viro	-10.3358
city	-10.3362
nvir	-10.3362
▁always	-10.3364
pare	-10.3365
izens	-10.337
mprove	-10.337
cially	-10.3373
bus	-10.3373
desi	-10.3373
▁building	-10.3374
portun	-10.3375
sist	-10.3375
▁International	-10.3376
rms	-10.3377
rganisation	-10.3379
uce	-10.3381
lectio	-10.3384
million	-10.3386
▁succ	-10.3386
neces	-10.3391
ibut	-10.3392
pportu	-10.3398
approach	-10.3398
▁three	-10.3399
eak	-10.3399
▁millio	-10.3401
▁consumer	-10.3402
mmunicati	-10.3403
▁ke	-10.3409
initi	-10.3409
egis	-10.341
ocra	-10.3415
become	-10.3416
rincip	-10.3416
▁grow	-10.3416
succe	-10.3418
imate	-10.3418
ivers	-10.3418
ronm	-10.3424
fil	-10.3425
implementati	-10.3427
rtun	-10.3427
▁implementat	-10.3429
ately	-10.343
fficie	-10.343
becom	-10.3431
▁beco	-10.3432
num	-10.3437
ava	-10.3439
reaso	-10.3442
bjectiv	-10.3443
▁restaurant	-10.3443
itor	-10.3444
chiev	-10.3446
regu	-10.3447
since	-10.3448
ramm	-10.3451
ollowing	-10.3452
▁princ	-10.3452
oblems	-10.3452
ading	-10.3454
residency	-10.3456
elations	-10.3457
ustome	-10.3458
mpet	-10.3459
objecti	-10.346
efi	-10.346
ortuni	-10.3461
▁integr	-10.3461
urc	-10.3461
visio	-10.3463
custo	-10.3464
De	-10.347
date	-10.347
▁members	-10.3471
▁refer	-10.3471
egu	-10.3475
Intern	-10.3476
▁sinc	-10.3477
aila	-10.3478
iva	-10.3482
▁committ	-10.3482
appropriat	-10.3489
urth	-10.349
nage	-10.349
ularly	-10.3491
open	-10.3496
cisi	-10.3498
▁How	-10.3498
onsu	-10.3498
activities	-10.3501
▁located	-10.3502
owin	-10.3502
▁activitie	-10.3505
ners	-10.3506
ebat	-10.3513
small	-10.3514
▁various	-10.3515
▁smal	-10.3517
nolog	-10.3524
hildren	-10.353
mplet	-10.353
dist	-10.3533
achie	-10.3533
▁achi	-10.3533
connect	-10.3535
stomer	-10.3536
fully	-10.3537
ansp	-10.3537
cla	-10.3543
stil	-10.3543
deba	-10.3543
▁exten	-10.3546
ronmental	-10.3547
following	-10.3547
dation	-10.3548
agricultur	-10.355
▁agricultu	-10.3551
esidenc	-10.3552
rtunit	-10.3553
xperi	-10.3553
togethe	-10.3554
authorities	-10.3554
ndit	-10.3557
▁organisation	-10.3558
▁essential	-10.3558
cord	-10.3559
partment	-10.3565
▁Ro	-10.3567
▁cust	-10.3569
significant	-10.357
ifficul	-10.3571
fficult	-10.3571
▁vis	-10.3572
▁conv	-10.3574
nitiative	-10.3574
▁Pro	-10.3575
hip	-10.3578
llen	-10.3578
▁workin	-10.3578
opport	-10.3585
health	-10.3587
▁event	-10.3589
ramework	-10.3591
emocrat	-10.3593
▁oppor	-10.3594
equirement	-10.3595
▁diffic	-10.3598
▁prevent	-10.3602
vit	-10.3602
committe	-10.3603
▁medi	-10.3604
difficu	-10.3608
ocated	-10.3609
ranspo	-10.3613
located	-10.3614
plem	-10.362
princi	-10.3625
peciall	-10.3628
lim	-10.3628
ecially	-10.3629
▁page	-10.363
▁perf	-10.3631
nsibilit	-10.3633
blis	-10.3634
▁initiat	-10.3635
ificat	-10.3636
▁resourc	-10.3638
▁ens	-10.364
jective	-10.3642
▁est	-10.3642
bate	-10.3642
ason	-10.3642
resource	-10.3643
▁ava	-10.3649
second	-10.365
epar	-10.3651
uthorit	-10.3652
amend	-10.3655
ealt	-10.3658
egisla	-10.3661
gislat	-10.3662
▁Mi	-10.3665
ndustry	-10.3666
uir	-10.3666
negotiati	-10.3666
olle	-10.3666
▁fol	-10.3668
deal	-10.3669
▁healt	-10.3671
ilitie	-10.3672
▁particip	-10.3675
▁issues	-10.3676
histor	-10.3677
▁env	-10.3679
▁val	-10.3679
nctio	-10.3682
▁list	-10.3682
▁Sa	-10.3683
uma	-10.3684
ecifi	-10.3684
▁said	-10.3684
participa	-10.3684
may	-10.3686
sect	-10.3687
dl	-10.3688
lth	-10.3689
▁responsible	-10.369
▁accep	-10.3695
global	-10.3697
▁equ	-10.3698
ging	-10.3699
▁operation	-10.3705
▁secon	-10.3709
▁confi	-10.3711
ontribu	-10.3712
negotiations	-10.3713
ttin	-10.3714
onsibility	-10.3716
▁contri	-10.3716
autho	-10.3718
requiremen	-10.3723
mplo	-10.3723
▁visi	-10.3724
▁requireme	-10.3724
ocedure	-10.3725
ponsibil	-10.3726
sponsibi	-10.3727
ntribut	-10.3727
▁Li	-10.3728
nmental	-10.3731
▁globa	-10.3732
onsibili	-10.3733
tivit	-10.3733
functio	-10.3736
endments	-10.3737
▁legal	-10.3737
ilab	-10.3738
▁employment	-10.374
anti	-10.374
mot	-10.3741
resources	-10.3744
ultura	-10.3745
▁histo	-10.3748
hop	-10.3751
ette	-10.3751
fectiv	-10.3753
uding	-10.3753
▁red	-10.3753
▁det	-10.3754
cing	-10.3754
▁awa	-10.3754
echno	-10.3755
portunity	-10.3756
vement	-10.3757
▁profession	-10.3757
test	-10.3758
contrib	-10.3761
ribution	-10.3762
municatio	-10.3764
investment	-10.3764
unication	-10.3765
framework	-10.3765
underst	-10.3766
isat	-10.3768
▁value	-10.3771
derstand	-10.3774
resol	-10.3775
rro	-10.3775
ollo	-10.3776
istor	-10.3782
▁Po	-10.3787
nvestment	-10.3787
ccept	-10.3788
▁administrat	-10.3794
hether	-10.3796
rni	-10.3796
ltural	-10.3798
integra	-10.3801
▁initiati	-10.3803
slation	-10.3804
ondi	-10.3808
gent	-10.3809
▁investmen	-10.3809
▁gentlem	-10.3813
init	-10.3813
natur	-10.3814
▁meet	-10.3814
▁legi	-10.3816
▁On	-10.3816
back	-10.3817
▁fil	-10.3818
tradition	-10.3819
initia	-10.3822
rade	-10.3822
democ	-10.3822
ludin	-10.3827
avai	-10.3827
No	-10.3828
▁coop	-10.383
utur	-10.3831
coope	-10.3832
receive	-10.3836
▁initi	-10.3841
▁serious	-10.3845
▁cli	-10.3849
dust	-10.3853
▁rev	-10.3853
▁recei	-10.3857
subject	-10.3857
orga	-10.3858
▁cor	-10.3861
▁structu	-10.3861
cludi	-10.3863
nagemen	-10.3864
means	-10.3864
understa	-10.3866
urit	-10.3866
anageme	-10.3867
▁material	-10.3868
accep	-10.3868
desig	-10.3873
eces	-10.3879
▁discussi	-10.3881
itutions	-10.3884
emoc	-10.3885
adopt	-10.3885
look	-10.3887
entlemen	-10.3887
▁making	-10.3888
mocr	-10.3891
ented	-10.3896
involve	-10.3903
▁promot	-10.3904
oad	-10.3905
udge	-10.3906
assi	-10.3908
express	-10.391
▁memb	-10.3911
▁Y	-10.3912
▁sea	-10.3912
lowing	-10.3914
cessa	-10.3916
say	-10.3917
▁given	-10.392
nsta	-10.3921
ority	-10.3925
fecti	-10.3926
▁majo	-10.3926
▁legis	-10.3929
▁Int	-10.3929
major	-10.393
onstr	-10.393
▁expres	-10.3931
▁concerned	-10.3932
energ	-10.3932
taken	-10.3936
omething	-10.3936
vation	-10.3937
fficient	-10.3938
▁language	-10.3938
resentat	-10.394
xi	-10.394
ulti	-10.3941
hnolo	-10.3942
envi	-10.3944
▁strat	-10.3944
esentati	-10.3947
building	-10.3949
nor	-10.3951
ndamental	-10.3953
undamenta	-10.3957
nother	-10.3958
▁consume	-10.3959
ntegrat	-10.3959
nstruct	-10.396
▁build	-10.396
spor	-10.3962
cho	-10.3964
ignifican	-10.3964
▁resear	-10.3965
▁administrati	-10.3967
este	-10.3967
lv	-10.3967
chnol	-10.3968
▁jo	-10.3968
nsib	-10.3969
▁matt	-10.397
gua	-10.3973
▁ener	-10.3974
▁subs	-10.3974
dependen	-10.3975
welcome	-10.3975
inves	-10.3976
▁unders	-10.3976
easo	-10.3977
presenta	-10.3981
egotiation	-10.3982
▁sou	-10.3983
construct	-10.3983
slati	-10.3984
representati	-10.3985
ocation	-10.3987
▁cost	-10.3989
▁excellent	-10.399
ather	-10.399
valu	-10.3992
responsible	-10.3993
▁communic	-10.3993
▁democratic	-10.3994
ital	-10.3995
aff	-10.3995
ante	-10.3998
deb	-10.3998
communic	-10.4001
dep	-10.4005
▁cla	-10.4007
essar	-10.4008
▁shall	-10.4011
competition	-10.4016
▁invol	-10.4017
▁competitio	-10.4017
▁benefi	-10.4018
ena	-10.4021
trol	-10.4023
pplic	-10.4025
&#9	-10.4029
persona	-10.4032
professional	-10.4032
significa	-10.4034
document	-10.4035
systems	-10.4036
Al	-10.4036
proposals	-10.4036
data	-10.4038
nting	-10.404
rofessional	-10.4041
practi	-10.4042
epresentative	-10.4043
▁nece	-10.4045
▁benefit	-10.4046
vati	-10.4051
▁insta	-10.4053
mall	-10.4053
involv	-10.4054
text	-10.4055
▁representat	-10.4056
curi	-10.4057
tributi	-10.4057
lementation	-10.4059
matte	-10.406
structi	-10.4061
▁opinion	-10.4061
eans	-10.4062
requirements	-10.4062
egotiat	-10.4062
▁fut	-10.4063
powe	-10.4064
You	-10.4068
▁tow	-10.4068
initiativ	-10.407
cific	-10.407
ricultur	-10.4071
activi	-10.4074
▁professiona	-10.4075
down	-10.4079
oe	-10.408
▁Ger	-10.4082
gricultu	-10.4082
nstitutional	-10.4083
▁safe	-10.4083
mplementati	-10.4083
▁progres	-10.4084
iving	-10.4084
▁creati	-10.4085
▁documen	-10.4085
progress	-10.4087
ndus	-10.409
nisation	-10.409
coo	-10.4091
memb	-10.4095
vir	-10.4095
▁democrati	-10.4096
another	-10.4097
▁terr	-10.4097
So	-10.4098
▁redu	-10.4098
▁Internationa	-10.41
▁anothe	-10.4101
howeve	-10.4102
nsp	-10.4102
International	-10.4113
negotia	-10.4113
para	-10.4116
▁partners	-10.4118
▁importanc	-10.4119
ler	-10.4119
ants	-10.4125
importance	-10.4126
▁appropriate	-10.4126
ffers	-10.4127
▁extr	-10.4128
▁traditio	-10.4131
▁addi	-10.4131
introduc	-10.4131
venti	-10.4132
thor	-10.4134
ventio	-10.4135
▁fundament	-10.4136
ocate	-10.4139
umb	-10.4141
mpanies	-10.4146
eting	-10.4149
▁somet	-10.4149
▁reac	-10.4151
futu	-10.4151
fundamenta	-10.4153
petit	-10.4153
organisation	-10.4154
▁pract	-10.4155
simpl	-10.4159
def	-10.4162
using	-10.4162
▁simp	-10.4162
dar	-10.4162
unctio	-10.4163
osed	-10.4168
entre	-10.417
▁hope	-10.4173
hand	-10.4175
tract	-10.4176
orking	-10.4177
▁var	-10.4177
bot	-10.4179
somethin	-10.4179
ompani	-10.418
ply	-10.418
▁somethi	-10.4181
▁appropria	-10.4183
bjecti	-10.4185
atel	-10.4192
epre	-10.4192
amenta	-10.4197
earc	-10.4198
▁commitment	-10.4198
▁functi	-10.4199
chnology	-10.4199
arantee	-10.4201
instrument	-10.4203
rim	-10.4204
revi	-10.4206
uarante	-10.4206
roje	-10.421
increasing	-10.421
▁instrumen	-10.421
onse	-10.4212
ished	-10.4215
xc	-10.4216
▁connec	-10.4217
Inte	-10.4219
spa	-10.4219
ltu	-10.4222
hank	-10.4223
address	-10.4225
▁responsibl	-10.4226
▁attention	-10.4227
clo	-10.4232
appropriate	-10.4233
▁content	-10.4233
▁mem	-10.4234
▁atte	-10.4235
ule	-10.4237
asu	-10.4242
dg	-10.4242
istan	-10.4244
ista	-10.4245
word	-10.4248
▁mention	-10.4249
▁signific	-10.4252
slat	-10.4252
tanda	-10.4254
early	-10.4255
ommen	-10.4256
▁addres	-10.4256
▁request	-10.4256
efer	-10.4256
▁centre	-10.4257
▁negoti	-10.4257
Ca	-10.4258
lrea	-10.426
lif	-10.4261
repr	-10.4265
19	-10.4265
▁implementa	-10.4267
buil	-10.4269
▁education	-10.4269
childre	-10.4271
▁Russia	-10.4274
▁org	-10.4276
guarant	-10.4279
▁guaran	-10.4282
cann	-10.4283
implementat	-10.4295
▁obje	-10.4295
▁Mar	-10.4296
propose	-10.4297
▁get	-10.4298
▁han	-10.4298
manageme	-10.4299
▁tre	-10.4305
▁rema	-10.4306
objec	-10.4307
▁effort	-10.4307
epresentat	-10.431
▁forward	-10.4311
ccoun	-10.4312
ructure	-10.4313
Fo	-10.4314
lobal	-10.4315
ctivi	-10.4316
elf	-10.4316
▁Unite	-10.4317
esu	-10.4319
▁Howe	-10.4321
▁loo	-10.4323
tart	-10.4325
amo	-10.4326
▁exist	-10.4326
▁met	-10.4326
▁pric	-10.4326
▁valu	-10.433
▁cultu	-10.4332
ganisation	-10.4333
United	-10.4333
▁introdu	-10.4333
▁discussion	-10.4337
gislation	-10.4338
olve	-10.4339
▁comme	-10.434
plete	-10.4342
▁efficien	-10.4345
llin	-10.4345
nsport	-10.4345
amme	-10.4348
sam	-10.4349
nate	-10.4349
receiv	-10.4351
consum	-10.4352
ojec	-10.4353
anspor	-10.4354
organis	-10.4356
fai	-10.4356
▁perform	-10.4358
ences	-10.436
▁excellen	-10.4361
dministrat	-10.4362
dditi	-10.4365
houg	-10.4367
▁pow	-10.4369
struction	-10.4374
llowin	-10.4374
contain	-10.4376
▁recommend	-10.4377
exte	-10.4378
secto	-10.4378
▁participat	-10.4379
ctivities	-10.438
restaurant	-10.4381
▁contai	-10.4381
▁challenge	-10.4382
found	-10.4382
ified	-10.4383
ban	-10.4386
tize	-10.4389
▁restauran	-10.4392
rf	-10.4392
far	-10.4394
▁cap	-10.4394
pet	-10.4395
incipl	-10.4396
tric	-10.4397
ignificant	-10.4398
nciple	-10.4398
▁policies	-10.4401
coll	-10.4403
ening	-10.4404
▁famil	-10.4404
▁idea	-10.4408
uthorities	-10.441
▁proper	-10.4419
▁inten	-10.4419
avi	-10.442
▁needs	-10.4422
▁alr	-10.4426
elcome	-10.4426
gether	-10.4427
nternet	-10.4427
ogethe	-10.4428
vari	-10.4429
eria	-10.4429
rated	-10.443
erien	-10.443
egotiations	-10.4431
ompetition	-10.4433
tun	-10.4435
dmen	-10.4436
alre	-10.4438
divid	-10.4439
egal	-10.4443
dministrati	-10.4446
elle	-10.4447
etiti	-10.4454
islati	-10.4456
nstrument	-10.4456
ppropriat	-10.4456
ractic	-10.4458
rme	-10.4458
ier	-10.4459
estauran	-10.446
staurant	-10.4462
rateg	-10.4462
budge	-10.4465
esolut	-10.4467
▁budg	-10.4468
▁name	-10.447
perie	-10.4471
ndme	-10.4473
▁offic	-10.4473
Wh	-10.4474
durin	-10.4475
tac	-10.4475
▁representative	-10.4475
hum	-10.4476
ainin	-10.4479
rienc	-10.4479
rso	-10.448
▁software	-10.4488
cessi	-10.4489
▁qui	-10.4492
iall	-10.4493
mpanie	-10.4494
earl	-10.4494
tage	-10.4494
▁strength	-10.4499
▁managem	-10.45
xpress	-10.45
tabli	-10.4503
oking	-10.4504
Bu	-10.4505
▁recogni	-10.4508
articipa	-10.4508
▁remai	-10.4509
ommunic	-10.4509
remain	-10.451
▁rule	-10.4511
election	-10.4511
▁force	-10.4513
location	-10.4514
mmunica	-10.4514
jecti	-10.4516
▁best	-10.4516
agemen	-10.452
▁facilit	-10.4522
▁men	-10.4523
administrat	-10.4524
indu	-10.4524
locate	-10.4524
▁ste	-10.4525
inten	-10.4526
mentatio	-10.453
rnm	-10.453
merica	-10.4531
lion	-10.4532
oyment	-10.4532
▁tod	-10.4534
tti	-10.4536
▁id	-10.4537
uall	-10.4539
appropria	-10.4542
larly	-10.4545
mana	-10.4546
Germ	-10.455
▁buildin	-10.4551
▁meeting	-10.4551
▁manufactur	-10.4552
activitie	-10.4554
▁chil	-10.4554
usto	-10.4557
▁activiti	-10.4557
vest	-10.4559
ymen	-10.456
iscus	-10.4561
isla	-10.4563
essential	-10.4563
apport	-10.4564
ndivid	-10.4564
estab	-10.4566
▁proced	-10.4567
itiz	-10.4568
municati	-10.4569
▁empl	-10.4569
ccording	-10.457
child	-10.4573
▁independen	-10.4578
consumer	-10.4578
radition	-10.4578
▁fur	-10.4579
responsibl	-10.458
endm	-10.458
▁customers	-10.4582
reduc	-10.4583
based	-10.4584
▁duri	-10.4584
thori	-10.4586
tentio	-10.4588
eig	-10.4588
▁while	-10.459
scuss	-10.459
ged	-10.4591
pas	-10.4591
▁solu	-10.4591
municat	-10.4592
▁locate	-10.4593
dividu	-10.4596
minat	-10.4596
partne	-10.4597
price	-10.4598
ker	-10.4599
solutions	-10.4602
reati	-10.4602
agricultu	-10.4602
sear	-10.4603
▁natu	-10.4603
▁agricult	-10.4605
emi	-10.4606
Tha	-10.4611
entral	-10.4612
administrati	-10.4614
▁popula	-10.4617
oma	-10.4618
tinue	-10.4618
▁bac	-10.4618
ubject	-10.4619
workin	-10.4619
andar	-10.462
xamp	-10.4621
▁network	-10.4621
ividua	-10.4625
toda	-10.4626
nerg	-10.4628
div	-10.4628
esidency	-10.4629
stom	-10.4629
contra	-10.463
cularl	-10.4631
democratic	-10.4632
epend	-10.4632
▁partn	-10.4632
esig	-10.4632
labl	-10.4633
▁towards	-10.4633
vidual	-10.4633
dies	-10.4633
mers	-10.4635
▁administra	-10.4636
▁crisis	-10.4636
cli	-10.4636
onsumer	-10.4637
vera	-10.4637
noth	-10.4638
mmo	-10.4641
rance	-10.4642
quirement	-10.4643
▁milli	-10.4645
integr	-10.4645
culture	-10.4647
eati	-10.4647
cording	-10.4647
▁especi	-10.4647
equiremen	-10.4648
discu	-10.4648
gul	-10.465
especia	-10.465
constructi	-10.4658
committ	-10.4659
refe	-10.466
onnect	-10.4661
▁favour	-10.4661
▁questions	-10.4662
▁challeng	-10.4663
ister	-10.4664
pproach	-10.4666
nstructi	-10.4666
profession	-10.4667
▁seri	-10.4671
▁Group	-10.4671
athe	-10.4673
eh	-10.4675
better	-10.4675
orteur	-10.4677
▁bette	-10.4677
▁accord	-10.468
vol	-10.468
gal	-10.4684
esource	-10.4687
▁technical	-10.4688
sibi	-10.4688
▁prof	-10.4688
nsibility	-10.4688
aint	-10.4689
tlemen	-10.4693
egotiati	-10.4698
nders	-10.4699
cel	-10.4701
emocratic	-10.4701
▁themselves	-10.4702
members	-10.4705
lti	-10.4705
▁demand	-10.4705
izen	-10.4706
ersona	-10.4707
ists	-10.4707
esources	-10.4709
exce	-10.4711
▁But	-10.4712
imat	-10.4717
▁contribution	-10.4717
ystems	-10.4717
▁democrat	-10.4718
▁dep	-10.4719
mpany	-10.4721
ranc	-10.4723
ronmenta	-10.4724
onmental	-10.4724
That	-10.4725
▁around	-10.4725
rsi	-10.4725
zation	-10.4725
▁followi	-10.4726
▁pur	-10.4727
izatio	-10.4729
accou	-10.4731
ourc	-10.4731
▁strong	-10.4732
▁Ameri	-10.4732
▁Germany	-10.4733
ablis	-10.4733
rations	-10.4734
iro	-10.4736
mpeti	-10.4737
epa	-10.4738
ernal	-10.4741
inde	-10.4744
▁standards	-10.4747
recent	-10.4749
▁dow	-10.4749
ficati	-10.475
ndard	-10.475
itiative	-10.4751
nitiativ	-10.4751
▁recen	-10.4751
cap	-10.4751
hre	-10.4752
welcom	-10.4753
ken	-10.4753
range	-10.4755
▁toward	-10.4756
ows	-10.4757
prev	-10.477
ficie	-10.4771
nnot	-10.4773
loymen	-10.4774
icien	-10.4774
indivi	-10.4776
requireme	-10.4776
▁indiv	-10.4776
▁gentle	-10.4776
ssary	-10.4777
▁requirem	-10.4777
pm	-10.4778
ways	-10.4782
Americ	-10.4783
Commu	-10.4783
titi	-10.4783
▁har	-10.4784
equirements	-10.4786
ollowin	-10.4787
posed	-10.4787
Ba	-10.4788
rappor	-10.4791
unders	-10.4794
ocedur	-10.4795
ocument	-10.4795
fers	-10.4797
rganis	-10.4801
▁Members	-10.4803
llio	-10.4804
▁welco	-10.4805
▁With	-10.481
teria	-10.4814
onstruct	-10.4816
uilding	-10.4816
investmen	-10.4818
▁visit	-10.4818
tici	-10.482
proj	-10.4823
scr	-10.4823
turn	-10.4826
▁prepar	-10.4826
ask	-10.4826
opi	-10.4829
material	-10.4829
itiv	-10.4832
don	-10.4833
resolu	-10.4833
▁economy	-10.4833
epresentativ	-10.4835
ources	-10.4836
esponsible	-10.4838
ritie	-10.4838
ked	-10.4841
foll	-10.4841
presentative	-10.4842
chie	-10.4844
▁provided	-10.4844
rsonal	-10.4845
▁enter	-10.4845
fou	-10.4847
gration	-10.4848
particip	-10.4849
busi	-10.4849
various	-10.485
▁partici	-10.485
▁cos	-10.4853
representat	-10.4854
▁considera	-10.4858
democrati	-10.4858
▁Am	-10.4859
ucces	-10.4862
▁Hot	-10.4863
rmi	-10.4865
sour	-10.4865
ntegra	-10.4867
▁reach	-10.4867
gni	-10.487
ndar	-10.487
rga	-10.487
orr	-10.4871
estin	-10.4872
rise	-10.4872
nning	-10.4875
▁integ	-10.4875
stro	-10.4878
gov	-10.4879
ida	-10.4882
orce	-10.4887
Internationa	-10.489
▁reform	-10.489
creati	-10.489
▁plea	-10.4893
▁representa	-10.4894
▁Internation	-10.4895
partmen	-10.4896
▁fam	-10.4897
colle	-10.4897
artment	-10.4898
trade	-10.49
professiona	-10.4901
divi	-10.4902
▁alway	-10.4903
always	-10.4905
tifi	-10.4905
hap	-10.4909
▁sai	-10.4914
thank	-10.4915
areas	-10.4916
oft	-10.4916
▁several	-10.4917
▁hear	-10.4918
rofession	-10.4919
▁developing	-10.492
▁foun	-10.492
ool	-10.4921
vestment	-10.4924
millio	-10.4925
▁bef	-10.4925
eur	-10.4926
tically	-10.4926
amework	-10.4926
ndments	-10.4927
gis	-10.4928
prevent	-10.4931
nication	-10.4931
▁possibilit	-10.4932
▁preven	-10.4932
cove	-10.4933
ortunity	-10.4934
jectiv	-10.4934
inci	-10.4936
unicatio	-10.4942
ressi	-10.4942
▁construct	-10.4943
▁furt	-10.4944
tend	-10.4944
▁framewo	-10.4945
furth	-10.4945
ede	-10.4946
ooking	-10.4948
▁bui	-10.4949
▁ple	-10.495
initiat	-10.495
stitutional	-10.4952
pleas	-10.4952
rogress	-10.4952
omin	-10.4953
ily	-10.4953
▁hou	-10.4955
▁dra	-10.4957
forc	-10.4958
▁relate	-10.4958
urce	-10.4959
sch	-10.4959
nsibili	-10.4961
hieve	-10.4962
▁lan	-10.4963
nvestmen	-10.4965
concerned	-10.4966
competitio	-10.4967
hn	-10.4967
initiati	-10.497
resourc	-10.4971
efficien	-10.4971
▁resour	-10.4972
▁connection	-10.4976
▁invo	-10.4976
▁concerne	-10.498
▁Presidency	-10.4981
ecent	-10.4981
depen	-10.4985
▁interests	-10.4986
▁terms	-10.4991
rofessiona	-10.4991
ofessional	-10.4993
ingl	-10.4994
traditio	-10.4996
trai	-10.4996
rooms	-10.4998
▁heal	-10.5002
inve	-10.5004
▁Ar	-10.5006
▁win	-10.5008
aine	-10.5009
making	-10.5009
ementation	-10.501
▁water	-10.5011
plementati	-10.5013
amm	-10.5015
rmin	-10.5016
build	-10.5019
▁fore	-10.5019
befo	-10.502
sted	-10.502
sidenc	-10.5023
dget	-10.5025
ady	-10.5026
Hote	-10.5028
▁successful	-10.503
name	-10.5032
exi	-10.5032
▁materia	-10.5034
mplementat	-10.5035
▁democracy	-10.5035
gotiation	-10.5036
▁House	-10.5038
ndersta	-10.5039
excellent	-10.504
ncreasing	-10.5043
ucts	-10.5045
onference	-10.5045
An	-10.5049
▁chi	-10.505
icultur	-10.5055
utu	-10.5056
hile	-10.5058
discussi	-10.5059
dra	-10.506
artne	-10.506
ponsibi	-10.5061
onsibil	-10.5061
▁each	-10.5063
hildre	-10.5067
issues	-10.5071
ildren	-10.5072
▁thou	-10.5073
connec	-10.5075
adv	-10.5076
aving	-10.5081
▁short	-10.5081
knowledge	-10.5083
olutions	-10.5089
▁modern	-10.5092
mag	-10.5093
addit	-10.5095
language	-10.5096
ibution	-10.5097
ppropriate	-10.5098
alo	-10.5098
erstand	-10.51
basi	-10.51
ignifica	-10.5101
rnin	-10.5102
Fr	-10.5105
rtner	-10.5106
▁strategy	-10.5106
ficult	-10.5106
ficient	-10.5108
▁sma	-10.5108
iting	-10.5109
emocrati	-10.5109
ifficu	-10.5112
fficul	-10.5112
mount	-10.5114
adin	-10.5115
ndamenta	-10.5116
▁languag	-10.5116
undament	-10.5117
ulture	-10.5118
▁worki	-10.5119
nitia	-10.512
aken	-10.5125
mem	-10.5127
▁inde	-10.5127
commitment	-10.5129
▁diffi	-10.513
mocrat	-10.513
damental	-10.5131
reve	-10.5131
gnifican	-10.5134
▁contributi	-10.5136
nab	-10.5136
▁liv	-10.5136
oor	-10.5137
diffic	-10.5139
construc	-10.5139
ecome	-10.5141
representative	-10.5144
gentlem	-10.5147
eba	-10.5151
ducation	-10.5153
eceive	-10.5153
nderst	-10.5154
▁representativ	-10.5154
tivi	-10.5155
tten	-10.5158
roposals	-10.5159
hy	-10.516
oftware	-10.5161
ala	-10.5162
▁conve	-10.5162
▁next	-10.5163
▁location	-10.5165
eciall	-10.5169
mportance	-10.5169
eld	-10.5169
importanc	-10.517
nall	-10.5172
oing	-10.5172
portu	-10.5174
ntent	-10.5174
onsum	-10.5177
▁provision	-10.5177
serious	-10.5178
onve	-10.5179
▁Ame	-10.5182
▁character	-10.5184
shed	-10.5184
utho	-10.5185
ano	-10.5186
▁bri	-10.5187
fundament	-10.5189
▁struct	-10.5189
eading	-10.519
opin	-10.519
ciall	-10.5193
thorit	-10.5194
▁greate	-10.5195
resenta	-10.5196
lete	-10.5198
▁glob	-10.5198
▁lega	-10.5199
▁abl	-10.5199
▁whil	-10.5199
ooms	-10.5202
isto	-10.5206
dustry	-10.5207
signific	-10.5211
eter	-10.5212
nited	-10.5213
incip	-10.5214
ntlemen	-10.5215
implementa	-10.5216
page	-10.5216
anisation	-10.5217
▁deal	-10.5217
tutions	-10.5218
▁committee	-10.5219
nite	-10.522
three	-10.522
▁read	-10.5222
mention	-10.5222
ively	-10.5223
▁growth	-10.5223
As	-10.5224
stome	-10.5224
▁organisati	-10.5225
uctu	-10.5229
nam	-10.5229
mplementa	-10.523
ontrib	-10.523
▁treat	-10.5231
▁pi	-10.5232
depende	-10.5234
▁eas	-10.5234
lding	-10.5235
ssed	-10.5235
▁appropri	-10.5235
ntroduc	-10.5236
rinci	-10.5238
mmon	-10.5238
onstitut	-10.5244
ito	-10.5247
sim	-10.5251
contri	-10.5253
ntribu	-10.5254
instrumen	-10.5254
blems	-10.5255
auth	-10.5255
▁rooms	-10.5259
sentati	-10.5259
uil	-10.526
strati	-10.526
forward	-10.5261
▁instrume	-10.5263
cedure	-10.5265
▁increasi	-10.5266
princ	-10.5268
nstruction	-10.527
omethin	-10.527
mething	-10.5271
erl	-10.5271
nmenta	-10.5272
attention	-10.5272
▁train	-10.5273
▁strengthen	-10.5273
esentat	-10.5274
functi	-10.5274
apa	-10.5275
tivities	-10.5276
ependen	-10.5276
▁please	-10.5277
partners	-10.5278
rtuni	-10.5278
pani	-10.528
buildin	-10.5283
reac	-10.5283
▁conten	-10.5285
▁refe	-10.5285
consume	-10.5288
hous	-10.5289
▁discussio	-10.529
discussion	-10.529
deli	-10.5295
bac	-10.5297
ergy	-10.5303
▁signifi	-10.5303
tice	-10.5304
▁sm	-10.5305
cies	-10.5306
▁traditi	-10.5307
education	-10.5308
▁called	-10.5311
train	-10.5312
ularl	-10.5313
▁develope	-10.5316
Mo	-10.532
&#	-10.5321
▁Br	-10.5321
Be	-10.5322
iliti	-10.5322
oope	-10.5324
participat	-10.5328
▁cult	-10.5329
▁practice	-10.5329
confi	-10.533
epresenta	-10.5333
van	-10.5333
▁itself	-10.5335
▁projects	-10.5339
▁democrac	-10.5339
ecif	-10.5339
plementa	-10.5339
cifi	-10.5341
▁private	-10.5341
slatio	-10.5344
tomer	-10.5345
erc	-10.5346
Ge	-10.5347
exten	-10.5348
ndo	-10.5348
meth	-10.5349
▁pass	-10.5351
onstructi	-10.5352
reach	-10.5352
artners	-10.5357
▁promo	-10.5358
ections	-10.5361
▁agricultural	-10.5364
ety	-10.5365
documen	-10.5369
▁ame	-10.5369
tunit	-10.5369
datio	-10.5369
ovement	-10.537
media	-10.5371
▁period	-10.5371
ising	-10.5372
▁though	-10.5373
▁sel	-10.5373
▁techni	-10.5373
ifie	-10.5376
insta	-10.5376
benefit	-10.5379
mand	-10.5379
zens	-10.5379
challenge	-10.538
ssing	-10.538
▁ph	-10.5383
rganisati	-10.5383
gotiations	-10.5384
dministra	-10.5384
erate	-10.5389
ministrati	-10.5389
ado	-10.5393
onstitu	-10.5395
while	-10.5395
opinion	-10.5396
▁opinio	-10.5396
▁restaura	-10.5396
▁instru	-10.5398
epe	-10.5398
▁recommen	-10.5399
plet	-10.5399
rement	-10.5399
ttle	-10.5399
trati	-10.5402
▁subje	-10.5403
nageme	-10.5404
ricultu	-10.5405
ministrat	-10.5405
oppor	-10.5406
▁transparen	-10.5406
fra	-10.5407
healt	-10.5407
anagem	-10.5408
value	-10.5413
▁law	-10.5414
gricult	-10.5416
elp	-10.5417
progres	-10.5417
▁progre	-10.5417
nvolve	-10.5419
▁competitive	-10.5419
▁docume	-10.542
ending	-10.542
istic	-10.542
xam	-10.5422
▁amo	-10.5426
content	-10.5427
▁makin	-10.5427
recommend	-10.5429
▁whole	-10.5429
restauran	-10.543
▁conse	-10.5431
▁really	-10.5432
▁compr	-10.5434
anspo	-10.5435
histo	-10.5436
▁contact	-10.5436
promot	-10.5439
gnificant	-10.5441
▁currently	-10.5442
nves	-10.5443
expres	-10.5447
administra	-10.5448
perf	-10.5449
tration	-10.545
awa	-10.5452
omet	-10.5454
ficat	-10.5454
version	-10.5456
ording	-10.5459
introdu	-10.5461
sia	-10.5463
thorities	-10.5464
▁additional	-10.5464
▁life	-10.5465
▁put	-10.5467
rkin	-10.547
▁expre	-10.5472
secon	-10.5472
nstruc	-10.5477
rnal	-10.5478
onstitution	-10.5479
vio	-10.5479
manufactur	-10.5481
▁Chi	-10.5482
gisla	-10.5483
egisl	-10.5484
logi	-10.5484
ompetitio	-10.5485
epr	-10.5485
islat	-10.5486
mpetition	-10.5487
riva	-10.5489
petition	-10.5489
▁toget	-10.549
iet	-10.5491
loy	-10.5492
▁single	-10.5492
conv	-10.5492
minist	-10.5495
ssential	-10.5496
dm	-10.5497
ucce	-10.5497
▁resea	-10.5498
fol	-10.5499
resear	-10.55
succ	-10.55
tegrat	-10.5501
nag	-10.5501
doe	-10.5501
▁manufactu	-10.5503
gress	-10.5504
▁excelle	-10.5511
somethi	-10.5513
uarant	-10.5514
sic	-10.5514
ddress	-10.5515
islation	-10.5516
▁someth	-10.5516
contribution	-10.5517
globa	-10.5518
hnology	-10.5518
▁efficie	-10.5522
▁med	-10.5522
▁seco	-10.5523
▁suppl	-10.5523
esear	-10.5524
independen	-10.5527
ocatio	-10.5527
esponsibl	-10.5527
▁independe	-10.5527
▁ene	-10.5529
egotia	-10.5529
actu	-10.5529
▁using	-10.5529
▁internal	-10.5529
eserv	-10.553
▁women	-10.5531
propriat	-10.5534
excellen	-10.5534
Gr	-10.5535
wis	-10.5537
elcom	-10.5538
▁benef	-10.554
ology	-10.5541
connection	-10.5543
gem	-10.5543
esol	-10.5543
truction	-10.5545
tron	-10.5546
▁hist	-10.5547
ncti	-10.5548
▁version	-10.555
grow	-10.555
lue	-10.5551
structio	-10.5551
onv	-10.5552
rante	-10.5552
iations	-10.5554
▁conclu	-10.5554
benefi	-10.5555
bea	-10.5555
ctivitie	-10.5557
ltura	-10.5558
orat	-10.5559
▁init	-10.5565
ontain	-10.5571
▁policie	-10.5577
vemen	-10.5578
policies	-10.5578
ully	-10.558
olv	-10.5582
rage	-10.5582
request	-10.5583
▁website	-10.5587
▁administr	-10.5587
▁reques	-10.5591
olida	-10.5592
▁popul	-10.5592
▁distribut	-10.5596
tructi	-10.5596
▁communit	-10.5596
appo	-10.5597
alu	-10.5599
ributi	-10.5599
▁performance	-10.5602
▁perfor	-10.5602
gotiat	-10.5603
lus	-10.5604
▁natural	-10.5604
perform	-10.5605
nece	-10.5613
rist	-10.5615
democrat	-10.5616
hethe	-10.5618
onsume	-10.5619
coming	-10.562
inn	-10.5621
strument	-10.5627
opti	-10.563
hiev	-10.563
given	-10.5632
nstrumen	-10.5632
ppropria	-10.5633
managem	-10.5634
customers	-10.5635
anothe	-10.5638
software	-10.5639
▁anoth	-10.5642
▁forwar	-10.5645
▁Ne	-10.5648
istance	-10.5649
negoti	-10.5653
▁themselve	-10.5653
themselves	-10.5654
easi	-10.5655
beco	-10.5656
actic	-10.5657
▁moder	-10.5658
igi	-10.5661
cust	-10.5663
arious	-10.5663
sinc	-10.5664
nco	-10.5665
▁softwar	-10.5665
centra	-10.5666
▁constructi	-10.5667
▁introd	-10.5668
▁deli	-10.567
strength	-10.5672
clusi	-10.5672
smal	-10.5672
▁cus	-10.5673
▁fai	-10.5674
▁strengt	-10.5677
▁population	-10.5677
recei	-10.5678
▁install	-10.5681
singl	-10.5681
technical	-10.5683
ajor	-10.5683
possibilit	-10.5686
panies	-10.5687
successful	-10.5687
fied	-10.569
pte	-10.5691
▁shal	-10.5692
ccord	-10.5692
ologi	-10.5692
trategy	-10.5693
lated	-10.5701
ibu	-10.5702
shall	-10.5702
presentativ	-10.5703
legis	-10.5705
▁according	-10.5708
sma	-10.5709
resentative	-10.5711
unda	-10.5712
arante	-10.5713
questions	-10.5714
▁Treaty	-10.5715
▁ach	-10.5718
appropri	-10.5719
▁Presidenc	-10.572
menti	-10.5723
nolo	-10.5724
rantee	-10.573
activiti	-10.5731
proper	-10.5733
lowin	-10.5733
centre	-10.5734
ane	-10.5735
var	-10.5736
▁funct	-10.5737
▁Af	-10.5738
quirements	-10.5738
▁bro	-10.5739
▁technica	-10.5739
▁conne	-10.574
essentia	-10.5741
isin	-10.5744
▁mill	-10.5744
estaura	-10.5744
▁beh	-10.575
oms	-10.575
▁local	-10.575
gation	-10.5751
shing	-10.5753
Internation	-10.5754
▁professi	-10.5754
anguage	-10.5755
legi	-10.5755
vatio	-10.5756
▁pag	-10.5761
nothe	-10.5763
▁Internatio	-10.5764
addres	-10.5766
▁prope	-10.5768
▁origin	-10.5769
gat	-10.5769
▁seve	-10.5769
representa	-10.5774
▁third	-10.5777
matic	-10.5778
▁priva	-10.5779
▁dur	-10.5779
agricult	-10.5779
▁privat	-10.5781
▁agricul	-10.5781
bri	-10.5784
▁essenti	-10.5784
▁solutions	-10.5785
▁tradi	-10.5788
challeng	-10.5789
▁shar	-10.579
recogni	-10.579
taurant	-10.579
xcellent	-10.5791
stauran	-10.5793
ped	-10.5794
standards	-10.5795
▁Russi	-10.5795
▁line	-10.5796
▁addre	-10.5797
▁negot	-10.5797
▁field	-10.5798
▁structure	-10.58
veral	-10.5802
aterial	-10.5806
exist	-10.5807
▁These	-10.5807
asis	-10.5808
equen	-10.5808
nitiati	-10.5809
ivit	-10.581
Russia	-10.581
▁Unit	-10.5812
ton	-10.5813
ropose	-10.5816
guaran	-10.5819
uirement	-10.5819
quiremen	-10.582
vai	-10.582
▁All	-10.5821
▁guara	-10.5822
ided	-10.5824
equireme	-10.5825
move	-10.5826
▁trai	-10.5826
articip	-10.583
invol	-10.5831
mpani	-10.5831
▁expl	-10.5835
considera	-10.5835
▁gl	-10.584
egr	-10.5841
▁challen	-10.5841
▁recogn	-10.5842
nterne	-10.5843
rticipa	-10.5844
nvolv	-10.5844
▁facili	-10.5845
ndependen	-10.5845
▁ado	-10.5845
electio	-10.5846
effort	-10.5847
locatio	-10.5847
mentati	-10.5848
▁effor	-10.5848
mov	-10.5849
ucture	-10.5851
facilit	-10.5852
▁don	-10.5854
pract	-10.5859
aster	-10.5859
abli	-10.586
▁mov	-10.5861
▁bes	-10.5862
trea	-10.5864
developing	-10.5866
said	-10.5871
representativ	-10.5874
tag	-10.5875
ocr	-10.5875
▁administ	-10.5875
oba	-10.5876
onvention	-10.5876
▁connecti	-10.5877
efu	-10.5878
meeting	-10.5879
mocratic	-10.5879
strict	-10.588
isions	-10.588
▁possibili	-10.5881
▁basis	-10.5884
rang	-10.5885
▁site	-10.5886
▁buildi	-10.5886
▁meetin	-10.5886
▁lis	-10.589
sponsible	-10.5891
selves	-10.5891
▁distri	-10.5893
ock	-10.5895
ontra	-10.5898
unicati	-10.5904
stitutiona	-10.5904
ccordin	-10.5904
titutional	-10.5905
popula	-10.5906
nowledge	-10.5907
hild	-10.5908
adition	-10.591
raditio	-10.5912
udin	-10.5912
▁rap	-10.5914
hori	-10.5915
howe	-10.5915
contai	-10.5917
vert	-10.5917
▁freedom	-10.5919
▁maj	-10.5919
network	-10.5923
orc	-10.5924
eceiv	-10.5925
▁provides	-10.5926
▁connectio	-10.5929
Presidency	-10.5934
etit	-10.5934
dly	-10.5941
▁attenti	-10.5941
ceive	-10.5944
sor	-10.5946
▁fra	-10.5947
knowledg	-10.5948
▁nec	-10.5951
reque	-10.5952
requirem	-10.5953
mmen	-10.5954
▁beautiful	-10.5955
somet	-10.5955
▁networ	-10.5955
▁Government	-10.5956
dditional	-10.5962
chno	-10.5963
uncti	-10.5963
sidency	-10.5964
▁prac	-10.5966
ternet	-10.5967
ntre	-10.5967
towards	-10.5968
▁forc	-10.5969
▁construc	-10.5973
creasing	-10.5974
organisati	-10.5974
matt	-10.5975
rice	-10.5977
▁hop	-10.5978
▁feature	-10.5981
rema	-10.5983
▁innovati	-10.5988
ntegr	-10.5992
scri	-10.5993
orkin	-10.5996
distribut	-10.5998
rces	-10.6001
nced	-10.6002
munica	-10.6003
▁mee	-10.6003
water	-10.6005
lways	-10.6006
ludi	-10.6006
▁ask	-10.6007
fessional	-10.6007
▁air	-10.6009
▁Treat	-10.6012
coop	-10.6016
ccep	-10.6019
provided	-10.602
akes	-10.6023
natu	-10.6023
▁sever	-10.6023
▁context	-10.6025
mination	-10.6027
muc	-10.603
peti	-10.6031
gotiati	-10.6033
dopt	-10.6036
meet	-10.6038
xa	-10.6038
onm	-10.6039
interests	-10.6039
nitiat	-10.6042
▁war	-10.6042
ofessiona	-10.6044
▁defi	-10.6044
stment	-10.6047
acilit	-10.6048
▁friend	-10.6049
mmunic	-10.605
▁ris	-10.6053
graph	-10.6054
ssar	-10.6054
lio	-10.6057
subs	-10.6057
onmenta	-10.6059
followi	-10.606
▁traditional	-10.6063
tall	-10.6063
gues	-10.6064
plementat	-10.6065
lementati	-10.6065
Germany	-10.6066
▁fami	-10.6069
owi	-10.607
▁atten	-10.6071
▁governments	-10.6071
favour	-10.6074
arri	-10.6075
echnical	-10.6077
proach	-10.6078
▁minute	-10.6079
committee	-10.608
fur	-10.6081
tradi	-10.6081
ivate	-10.6081
▁speak	-10.6083
itiativ	-10.6085
tiative	-10.6085
democracy	-10.6086
contributi	-10.6088
ustri	-10.6092
ivin	-10.6094
ofession	-10.6096
enin	-10.6096
rofessio	-10.6096
andi	-10.6098
▁priorit	-10.6099
▁societ	-10.6102
bor	-10.6104
propriate	-10.6104
adop	-10.6105
proced	-10.6106
▁bring	-10.611
alled	-10.6112
udg	-10.6113
ivat	-10.6113
▁late	-10.6114
onferenc	-10.6115
ommitment	-10.6116
▁positive	-10.6117
ciple	-10.6117
eeting	-10.6119
▁rul	-10.6122
furt	-10.6124
onstruc	-10.6126
around	-10.6127
cro	-10.6127
aso	-10.6127
inister	-10.6128
oncerned	-10.6129
oriti	-10.6129
unicat	-10.6131
Unite	-10.6131
articipat	-10.6132
stration	-10.6133
rive	-10.6133
▁gentl	-10.6135
Members	-10.6136
▁wish	-10.6137
famil	-10.6137
concerne	-10.6139
▁collect	-10.614
▁espec	-10.6143
▁exis	-10.6144
key	-10.6148
majo	-10.6149
materia	-10.6151
▁move	-10.6154
offic	-10.6155
rtment	-10.6156
uen	-10.6158
▁agricultura	-10.6158
competitive	-10.6161
cost	-10.6161
sona	-10.6161
safe	-10.6162
economy	-10.6162
agricultural	-10.6163
iscussion	-10.6163
revent	-10.6164
nspor	-10.6166
hnol	-10.6168
meric	-10.6169
▁struc	-10.6172
▁art	-10.6173
▁organisat	-10.6174
▁crisi	-10.6174
crisis	-10.6175
▁month	-10.6176
nsumer	-10.6178
especi	-10.6181
avo	-10.6181
partici	-10.6182
ought	-10.6182
etin	-10.6183
llowi	-10.6183
anufactur	-10.6185
ously	-10.6186
cordin	-10.6187
strong	-10.6188
nference	-10.6189
▁opportunities	-10.6192
▁developed	-10.6194
▁shor	-10.6199
dica	-10.6199
etition	-10.62
accord	-10.6201
▁extreme	-10.6201
▁favou	-10.6202
character	-10.6211
otiation	-10.6212
erica	-10.6214
▁severa	-10.6215
▁share	-10.6215
▁accor	-10.6217
▁prepa	-10.6217
addi	-10.6218
▁frame	-10.6218
ncipl	-10.6219
▁saf	-10.622
esourc	-10.6221
▁lif	-10.6222
strengthen	-10.6225
▁strengthe	-10.6225
ustria	-10.6227
provision	-10.6227
▁Bo	-10.6227
lcome	-10.6235
demand	-10.6235
yi	-10.6235
▁characte	-10.6237
▁priv	-10.6237
hallenge	-10.6239
tability	-10.6239
det	-10.6242
pass	-10.6242
▁deman	-10.6244
needs	-10.6244
ension	-10.6245
iscussi	-10.6246
epen	-10.6246
▁stron	-10.6247
relate	-10.6247
hie	-10.6248
gethe	-10.6249
rable	-10.6249
sary	-10.6249
dress	-10.625
several	-10.6251
▁parliament	-10.6256
estment	-10.6258
vestmen	-10.6259
▁Si	-10.6262
extr	-10.6262
tow	-10.6262
▁competitiv	-10.6263
▁aroun	-10.6263
rtunity	-10.6264
reserv	-10.6266
nicatio	-10.6266
emain	-10.6266
redu	-10.6266
▁offi	-10.6267
ticipa	-10.6268
ttention	-10.627
▁opti	-10.627
cuss	-10.6272
ecommend	-10.6273
▁bett	-10.6273
orth	-10.6273
ssions	-10.6273
tments	-10.6276
istrati	-10.6276
framewo	-10.6278
tc	-10.6281
strategy	-10.6281
omo	-10.6284
▁trea	-10.6287
esolu	-10.6287
▁profess	-10.6288
toward	-10.6289
▁che	-10.6291
aini	-10.6291
estions	-10.6292
▁towar	-10.6297
onne	-10.63
ides	-10.6302
ndivi	-10.6303
panie	-10.6306
efficie	-10.6306
▁advan	-10.6307
chin	-10.6308
develope	-10.631
emai	-10.6311
ontribution	-10.6312
prepar	-10.6315
xpres	-10.6315
ensive	-10.6316
▁greater	-10.6317
gentle	-10.6317
idual	-10.6317
tition	-10.6318
▁city	-10.6318
construction	-10.6319
ontent	-10.6319
avour	-10.6319
nvention	-10.6321
traditi	-10.6322
nstructio	-10.6323
▁statement	-10.6324
electi	-10.6325
Pro	-10.6326
hope	-10.6326
▁training	-10.6326
endi	-10.6327
mework	-10.6328
ollowi	-10.6328
transparen	-10.6328
dom	-10.6329
remai	-10.6331
xcellen	-10.6331
▁Grou	-10.6332
▁limit	-10.6332
▁serve	-10.6332
ocumen	-10.6334
cument	-10.6335
sonal	-10.6336
mportanc	-10.6337
amental	-10.6339
constru	-10.634
▁locatio	-10.6341
lementa	-10.6342
lid	-10.6342
ageme	-10.6342
discussio	-10.6343
▁aw	-10.6343
integ	-10.6345
▁Su	-10.6345
portance	-10.6346
ilding	-10.6346
icate	-10.6347
ada	-10.6349
▁materi	-10.635
▁Le	-10.6352
▁comfort	-10.6355
▁programmes	-10.6355
▁prior	-10.6355
oymen	-10.6355
ocrat	-10.6357
uildin	-10.6357
▁expect	-10.6358
▁transpare	-10.6358
▁educati	-10.6361
taking	-10.6363
ishing	-10.6364
stems	-10.6365
How	-10.6365
erious	-10.6365
etwork	-10.6367
reform	-10.6367
chil	-10.6368
isit	-10.6369
▁refor	-10.6372
ught	-10.6372
simp	-10.6372
wards	-10.6373
rei	-10.6374
▁ban	-10.6374
edia	-10.6376
▁vario	-10.6378
appor	-10.6382
uestions	-10.6383
gnifica	-10.6384
▁resou	-10.6389
gratio	-10.6389
▁detail	-10.639
rship	-10.6397
▁stru	-10.6401
ersion	-10.6402
zen	-10.6403
pric	-10.6405
foun	-10.6406
nch	-10.6408
▁What	-10.641
▁appropr	-10.6412
dus	-10.6414
tch	-10.6415
lutions	-10.6416
additional	-10.6416
▁society	-10.6418
ividu	-10.6418
currently	-10.6419
▁technic	-10.6419
partn	-10.642
nni	-10.642
onnection	-10.6422
signifi	-10.6422
ntral	-10.6425
▁10	-10.6425
ustomers	-10.6425
env	-10.6427
▁established	-10.6429
ndament	-10.643
languag	-10.6431
onstitutio	-10.6431
esses	-10.6432
remen	-10.6432
instrume	-10.6432
artmen	-10.6435
ignific	-10.6436
partme	-10.6436
otiations	-10.6437
mocrati	-10.6439
lications	-10.644
ffice	-10.6441
increasi	-10.6441
performance	-10.6442
worki	-10.6442
inistrati	-10.6442
10	-10.6443
edit	-10.6444
▁199	-10.6444
▁deliver	-10.6444
milli	-10.6444
practice	-10.6444
vidua	-10.6445
reven	-10.6448
dments	-10.6449
damenta	-10.6451
▁rapp	-10.6461
▁agreements	-10.6462
Group	-10.6462
▁things	-10.6462
amewor	-10.6462
reed	-10.6465
▁Chin	-10.6466
nifican	-10.6466
ticall	-10.6466
▁preve	-10.6466
preven	-10.6467
ramewo	-10.6467
rivate	-10.6469
icia	-10.647
▁performanc	-10.647
ivid	-10.6471
irement	-10.6473
istin	-10.6473
dati	-10.6475
▁And	-10.6477
obal	-10.6477
bette	-10.6477
ym	-10.6479
onnec	-10.6481
nnect	-10.6482
rogres	-10.6482
▁ki	-10.6485
▁featur	-10.6486
projects	-10.6488
ucation	-10.6488
road	-10.6488
population	-10.6489
anding	-10.649
xte	-10.6491
ogress	-10.6493
▁currentl	-10.6494
nsibil	-10.6494
oposals	-10.6494
▁independ	-10.6498
active	-10.6498
administr	-10.65
rteur	-10.65
▁everything	-10.6507
nia	-10.6508
obje	-10.6509
visit	-10.651
resour	-10.651
ung	-10.6514
▁obj	-10.6515
democrac	-10.6515
▁pra	-10.6515
tleme	-10.6516
▁required	-10.6517
▁select	-10.6519
▁signif	-10.6519
▁manufact	-10.652
nsion	-10.6521
▁extrem	-10.6523
whil	-10.6523
rsona	-10.6524
ained	-10.6525
identi	-10.6525
ccou	-10.6527
modern	-10.6528
▁Amer	-10.6529
gricultural	-10.6532
manufactu	-10.6532
loba	-10.6537
▁results	-10.6537
recen	-10.6538
ocu	-10.6541
▁establishe	-10.6541
hist	-10.6542
ministra	-10.6543
treat	-10.6547
zatio	-10.6547
Howe	-10.6549
Ameri	-10.6549
▁restaur	-10.6549
izati	-10.6551
▁historic	-10.6552
▁bud	-10.6554
To	-10.6554
techni	-10.6555
plications	-10.6556
rganisat	-10.6556
dministr	-10.6557
lway	-10.6557
restaura	-10.6558
▁industri	-10.6559
moc	-10.6561
ganisati	-10.6561
dersta	-10.6562
▁nam	-10.6562
tex	-10.6565
▁!	-10.6567
▁fee	-10.6568
ganis	-10.6568
▁eq	-10.6571
risi	-10.6572
▁recomme	-10.6574
recommen	-10.6575
welco	-10.6575
▁faci	-10.6576
independe	-10.6577
ermi	-10.6577
minis	-10.6578
ddit	-10.6579
▁welc	-10.6583
inistrat	-10.6583
▁press	-10.6584
▁cultural	-10.6587
eno	-10.6588
idea	-10.6588
uccessful	-10.6594
indiv	-10.6595
ocati	-10.6595
icultu	-10.6596
connectio	-10.6596
conve	-10.6596
rior	-10.6598
▁brea	-10.6599
hear	-10.6599
▁glo	-10.6599
tually	-10.6601
onsibi	-10.6602
volve	-10.6604
ivities	-10.6605
roced	-10.6606
iple	-10.6606
best	-10.6607
▁equi	-10.6609
tivitie	-10.6611
rappo	-10.6613
cedur	-10.6616
nificant	-10.6617
vely	-10.6617
▁happ	-10.662
eek	-10.6621
▁guar	-10.6622
▁maintain	-10.6622
▁age	-10.6624
emocracy	-10.6625
gnific	-10.6626
▁Internet	-10.6626
▁neg	-10.6627
▁distribu	-10.6628
connecti	-10.6631
uild	-10.6631
rstand	-10.6632
▁less	-10.6633
▁concerning	-10.6634
▁tradit	-10.6634
▁whet	-10.6635
called	-10.6636
seri	-10.6636
bution	-10.6638
pow	-10.6638
dence	-10.6639
erstan	-10.664
▁favo	-10.664
entlem	-10.6641
▁applications	-10.6641
horities	-10.6642
ossibilit	-10.6646
alway	-10.6646
fair	-10.6647
icient	-10.6647
▁ente	-10.6648
rule	-10.6651
life	-10.6653
Tr	-10.6654
resentativ	-10.6654
urces	-10.6656
tral	-10.6658
▁behalf	-10.6659
nology	-10.666
▁distr	-10.6661
mpetitio	-10.6663
esentative	-10.6664
pted	-10.6666
iscu	-10.6668
tea	-10.6668
uments	-10.6669
okin	-10.667
▁involved	-10.6671
private	-10.6671
rpo	-10.6672
orward	-10.6677
install	-10.6677
▁user	-10.6677
eveloping	-10.6681
tandards	-10.6682
ssen	-10.6683
una	-10.6683
olid	-10.6687
tegra	-10.6687
rab	-10.6688
commend	-10.6688
conten	-10.6689
budg	-10.6693
▁objectives	-10.6696
lthough	-10.6697
duri	-10.6698
▁Go	-10.67
ftware	-10.6701
▁reali	-10.6701
internal	-10.6702
oftwar	-10.6702
hemselves	-10.6704
sponsibl	-10.6705
▁appea	-10.6706
themselve	-10.6706
▁themselv	-10.6706
Internatio	-10.6707
guar	-10.6708
gest	-10.6714
▁Internati	-10.6715
▁polici	-10.6715
eali	-10.6715
▁serio	-10.6717
▁congratulat	-10.6721
▁apartment	-10.6722
▁alwa	-10.6724
aria	-10.6725
ego	-10.6725
▁revi	-10.6727
growth	-10.6729
inally	-10.6733
scus	-10.6733
onstruction	-10.6734
possibili	-10.6734
epende	-10.6735
ological	-10.6735
greate	-10.6735
esenta	-10.6736
Wi	-10.6737
etting	-10.6737
▁comb	-10.674
eeds	-10.6742
nie	-10.6742
pressi	-10.6744
contact	-10.6745
▁calle	-10.6745
rty	-10.6746
ances	-10.6749
▁Hous	-10.6749
erform	-10.6753
communit	-10.6756
Int	-10.6758
according	-10.6759
logical	-10.6759
▁accordin	-10.676
eadin	-10.6761
enefit	-10.6762
terial	-10.6763
▁contac	-10.6768
ookin	-10.6769
larl	-10.677
ntrodu	-10.677
ership	-10.6774
Presidenc	-10.6774
option	-10.6774
roper	-10.6775
isting	-10.6777
troduc	-10.6777
penden	-10.6782
ething	-10.6783
▁cul	-10.6785
lent	-10.6788
cos	-10.6789
▁actual	-10.6789
uirements	-10.679
sentat	-10.6792
ipl	-10.6795
compr	-10.6796
olicies	-10.6797
urrently	-10.68
▁defin	-10.68
▁ladies	-10.68
please	-10.6801
forwar	-10.6801
umer	-10.6801
▁integration	-10.6802
prof	-10.6803
terms	-10.6803
ssues	-10.6805
rinc	-10.6808
omethi	-10.6809
lisation	-10.681
methin	-10.681
halleng	-10.681
ics	-10.6813
▁sustainab	-10.6814
gentl	-10.6815
▁crit	-10.6815
tiz	-10.6817
pinion	-10.6818
makin	-10.6819
petitio	-10.6819
▁cho	-10.682
roj	-10.6821
natural	-10.6822
stric	-10.6822
▁disp	-10.6822
buildi	-10.6825
▁stu	-10.6825
▁manufacture	-10.6826
fri	-10.6827
▁excell	-10.6828
▁packag	-10.6829
ssentia	-10.683
sential	-10.6831
▁wate	-10.6834
Fi	-10.6835
▁hol	-10.6835
▁reall	-10.6837
▁Whe	-10.6838
equest	-10.6839
rted	-10.6839
oming	-10.684
excelle	-10.684
inue	-10.6842
House	-10.6843
▁demonstrat	-10.6844
ompetitive	-10.6844
omes	-10.6845
dual	-10.6845
▁facilities	-10.6846
technica	-10.6849
▁enjoy	-10.6851
ndm	-10.6853
▁effici	-10.6853
fut	-10.6855
constr	-10.6855
propria	-10.6858
tems	-10.6858
nternal	-10.6859
rra	-10.6859
▁clearly	-10.6859
lp	-10.686
▁American	-10.6861
▁live	-10.6862
▁rules	-10.6862
ocratic	-10.6863
trength	-10.6864
isl	-10.6867
ground	-10.6867
ropriat	-10.6869
hree	-10.687
Government	-10.6873
▁stud	-10.6873
conne	-10.6874
▁Wit	-10.6874
itself	-10.6875
▁itsel	-10.6876
▁innovat	-10.6877
ruction	-10.6877
house	-10.6878
munic	-10.6878
blished	-10.6879
▁adopte	-10.6879
tructio	-10.688
▁instal	-10.6883
acilities	-10.6884
▁thir	-10.6884
▁versio	-10.6884
ctiviti	-10.6885
▁cris	-10.6887
ildre	-10.6888
▁whol	-10.6888
istribut	-10.6888
hildr	-10.6889
professi	-10.6889
ldren	-10.6891
onsidera	-10.6892
short	-10.6893
omer	-10.6894
▁possibil	-10.6897
rtners	-10.6897
▁final	-10.6902
▁perio	-10.6904
▁stay	-10.6905
actions	-10.6905
ense	-10.6905
period	-10.6906
▁educat	-10.6906
▁among	-10.6908
istrat	-10.6909
docume	-10.6909
pany	-10.691
▁thoug	-10.6911
policie	-10.6912
ache	-10.6912
traditional	-10.6914
vate	-10.6916
toget	-10.6917
website	-10.6917
erformance	-10.6919
plea	-10.6921
administ	-10.6922
iffic	-10.6922
▁natura	-10.6923
instru	-10.6926
ficul	-10.6928
field	-10.6931
▁traditiona	-10.6931
erial	-10.6932
sequen	-10.6932
▁opini	-10.6932
opportunities	-10.6933
xce	-10.6934
fficu	-10.6935
onstit	-10.6935
rivat	-10.6937
opinio	-10.6937
erti	-10.6938
▁instr	-10.6939
lture	-10.694
governments	-10.694
nowledg	-10.6941
▁disa	-10.6942
sume	-10.6943
ricult	-10.6945
Ger	-10.6946
icipa	-10.6946
derst	-10.6947
▁lat	-10.6949
distri	-10.695
diffi	-10.6953
spi	-10.6953
dard	-10.6953
itutional	-10.6955
ctual	-10.6955
progre	-10.6956
▁throughout	-10.6956
gricul	-10.6957
titutiona	-10.6958
trument	-10.696
▁docum	-10.696
sar	-10.696
strumen	-10.6961
▁role	-10.6961
nisati	-10.6964
▁consequence	-10.6966
nstrume	-10.6967
ppropri	-10.6967
▁mone	-10.6967
nnin	-10.6968
ulate	-10.6969
▁border	-10.6971
really	-10.6972
softwar	-10.6974
▁constitu	-10.6974
La	-10.6974
▁technologi	-10.6974
essional	-10.6975
romot	-10.6975
▁streng	-10.6976
estr	-10.6976
ceiv	-10.6981
grati	-10.6982
▁consequen	-10.6984
▁writ	-10.6986
tratio	-10.6989
tabili	-10.699
cell	-10.699
With	-10.6991
rki	-10.6992
ssibilit	-10.6992
everal	-10.6993
locati	-10.6993
versio	-10.6996
▁bl	-10.6997
▁constru	-10.6998
ontri	-10.6999
introd	-10.7002
eased	-10.7004
▁singl	-10.7005
lusi	-10.7005
▁beautifu	-10.7006
beautiful	-10.7007
strengt	-10.7007
▁happen	-10.701
▁wat	-10.7013
horit	-10.7015
▁tru	-10.7015
ndepende	-10.7018
oje	-10.7019
▁regional	-10.7019
ransparen	-10.7021
▁package	-10.7023
organisat	-10.7023
▁They	-10.7024
▁little	-10.7026
agricultura	-10.7027
parliament	-10.7029
ustry	-10.703
developed	-10.7031
single	-10.7031
eser	-10.7032
top	-10.7033
▁immediate	-10.7034
advan	-10.7041
▁bene	-10.7043
bro	-10.7044
gati	-10.7044
stria	-10.7044
ivel	-10.7046
▁adminis	-10.7051
alk	-10.7053
appropr	-10.7053
ntrib	-10.7053
perfor	-10.7053
▁potential	-10.7054
someth	-10.7054
ontributi	-10.7056
itia	-10.7057
itin	-10.706
▁exi	-10.7061
funct	-10.7061
dependent	-10.7064
essenti	-10.7065
tribute	-10.7066
ponsible	-10.7066
lida	-10.7067
oop	-10.7067
stron	-10.7068
▁peace	-10.7069
conclu	-10.7071
▁central	-10.7071
▁tou	-10.7071
▁histori	-10.7073
▁few	-10.7075
blishe	-10.7077
tively	-10.7078
▁conclusion	-10.7078
▁concl	-10.7085
edure	-10.7086
competitiv	-10.7088
▁safety	-10.7093
▁directly	-10.7097
pit	-10.7097
Mar	-10.7098
▁reque	-10.7099
▁colleague	-10.7101
bui	-10.7102
provides	-10.7103
lre	-10.7103
▁key	-10.7106
fice	-10.7108
reign	-10.7108
ecen	-10.7111
▁constr	-10.7112
nfortunately	-10.7112
agricul	-10.7113
integration	-10.7113
atural	-10.7113
eds	-10.7115
▁Di	-10.7116
▁sustain	-10.7117
cellent	-10.7118
challen	-10.7119
▁essent	-10.7119
ngin	-10.7122
▁Gro	-10.7123
reques	-10.7124
▁least	-10.7124
▁menti	-10.7124
▁step	-10.7125
▁intro	-10.7126
rabl	-10.7126
istanc	-10.7129
▁perfo	-10.7131
mitted	-10.7133
▁capital	-10.7134
nifica	-10.7135
tria	-10.7136
trengthen	-10.7136
limi	-10.7138
heal	-10.7138
ectives	-10.7138
ized	-10.7141
▁family	-10.7142
avin	-10.7143
appea	-10.7143
yme	-10.7145
ssin	-10.7146
rsion	-10.7147
onfi	-10.7149
pur	-10.715
tod	-10.7151
▁subj	-10.7153
charge	-10.7154
uiremen	-10.7154
distribu	-10.7155
quireme	-10.7155
tiation	-10.716
presented	-10.716
equirem	-10.716
innovati	-10.716
kes	-10.7165
promo	-10.7169
rame	-10.717
ended	-10.7171
tner	-10.7172
ecogni	-10.7174
▁challe	-10.7175
alr	-10.7175
popul	-10.7176
bj	-10.7178
going	-10.7178
mage	-10.7179
ape	-10.718
▁stro	-10.718
fessiona	-10.7181
ctly	-10.7182
▁beha	-10.7182
agreements	-10.7184
cipl	-10.7185
▁forwa	-10.7185
afe	-10.7187
If	-10.7187
times	-10.7187
constructio	-10.7187
▁word	-10.7188
depe	-10.7189
amil	-10.719
imes	-10.719
arant	-10.7192
Yo	-10.7195
emocrac	-10.7195
ticipat	-10.7197
nterests	-10.7198
invo	-10.7199
atten	-10.7199
He	-10.7204
dminist	-10.7205
actual	-10.721
haracter	-10.7215
origin	-10.7215
▁expr	-10.7217
▁review	-10.7218
subje	-10.7219
conse	-10.722
privat	-10.7221
endin	-10.7223
▁organisa	-10.7223
▁taking	-10.7224
rovision	-10.7225
▁carr	-10.7225
crat	-10.7225
▁equip	-10.7226
nagem	-10.7227
enefi	-10.723
rtne	-10.7231
rategy	-10.7235
mentat	-10.7235
▁worke	-10.7237
statement	-10.7237
training	-10.7239
▁corr	-10.7239
▁reduce	-10.7239
ementati	-10.7241
owledge	-10.7241
lementat	-10.7241
▁signi	-10.7244
ctic	-10.7248
whole	-10.7248
stu	-10.7249
▁maki	-10.7249
▁Sp	-10.7249
freedom	-10.725
pportunities	-10.7252
▁freedo	-10.7253
▁begin	-10.7254
onstituti	-10.7256
▁positiv	-10.7257
clusion	-10.7257
Treaty	-10.7257
▁ret	-10.7257
evelope	-10.726
rovided	-10.726
attenti	-10.726
bes	-10.7261
▁cause	-10.7263
▁treatment	-10.7264
estaur	-10.7264
▁attent	-10.7264
ntribution	-10.7265
▁When	-10.7266
▁Madam	-10.7266
expre	-10.727
established	-10.727
positive	-10.727
▁enti	-10.7276
lished	-10.7278
strengthe	-10.7278
ything	-10.7279
bit	-10.728
dme	-10.728
sitive	-10.7281
▁extremel	-10.7281
artn	-10.7281
staura	-10.7281
knowled	-10.7282
ropriate	-10.7282
tuni	-10.7287
▁eac	-10.7289
▁accommodation	-10.7291
reasing	-10.7293
volv	-10.7293
mmitment	-10.7294
eric	-10.7294
anguag	-10.7296
next	-10.7297
nguage	-10.7297
east	-10.7301
friend	-10.7302
programmes	-10.7304
onten	-10.7304
moun	-10.7304
rned	-10.7308
▁toge	-10.7308
▁going	-10.7309
▁origi	-10.7309
fession	-10.731
rticipat	-10.731
feature	-10.7311
overnments	-10.7312
rian	-10.7313
resea	-10.7314
oto	-10.7315
▁Vi	-10.7315
tome	-10.7316
eries	-10.7316
egoti	-10.7317
uaran	-10.7318
women	-10.7318
ncip	-10.7319
egrat	-10.7319
fit	-10.732
pag	-10.7322
suppl	-10.7322
xten	-10.7323
ateria	-10.7323
aurant	-10.7323
▁facil	-10.7325
Ro	-10.7326
tauran	-10.7326
vious	-10.7328
▁rate	-10.7329
▁web	-10.733
recogn	-10.733
▁popu	-10.7331
nstall	-10.7335
cide	-10.7336
ddres	-10.7336
▁guest	-10.7337
▁bre	-10.7338
wide	-10.7339
iscussio	-10.734
scussion	-10.734
shin	-10.7342
▁priori	-10.7344
raditional	-10.7344
ussia	-10.7345
itiati	-10.7348
▁usin	-10.7351
gotia	-10.7352
context	-10.7354
ife	-10.7356
eform	-10.7357
prope	-10.7357
benef	-10.7358
owards	-10.7359
ontai	-10.7359
anufactu	-10.736
▁coordinat	-10.7362
▁knowledge	-10.7362
minatio	-10.7362
▁wis	-10.7362
nufactur	-10.7362
balance	-10.7363
glob	-10.7365
artici	-10.7367
▁decisions	-10.737
rticip	-10.7371
▁nex	-10.7371
▁Thes	-10.7372
▁conn	-10.7373
▁statemen	-10.7376
▁4	-10.7376
▁recog	-10.7378
moder	-10.7379
meri	-10.7379
ero	-10.738
facili	-10.7381
transpare	-10.7381
ddi	-10.7382
▁independent	-10.7383
▁stati	-10.7384
tne	-10.7388
comfort	-10.7389
characte	-10.7389
sens	-10.7389
collect	-10.739
▁election	-10.739
aran	-10.7391
stati	-10.7392
performanc	-10.7393
echnica	-10.7395
▁generat	-10.7398
ax	-10.7401
ior	-10.7401
nsum	-10.7403
ccordi	-10.7404
sai	-10.7406
onferen	-10.7407
▁transpar	-10.7407
▁performan	-10.7407
stry	-10.7407
▁having	-10.7407
sustainab	-10.741
rong	-10.741
▁detai	-10.7411
conomy	-10.7411
▁cam	-10.7412
chnical	-10.7412
▁charact	-10.7412
icle	-10.7412
▁foo	-10.7414
ructi	-10.7415
servation	-10.7416
nferenc	-10.7418
expect	-10.7418
uran	-10.7419
priorit	-10.742
meetin	-10.742
Po	-10.7421
ibuti	-10.7422
rofessi	-10.7422
▁Interna	-10.7423
otiat	-10.7426
applications	-10.7426
▁pay	-10.7426
ldin	-10.7428
ordina	-10.743
ofessio	-10.7431
opulation	-10.7431
▁mentioned	-10.7432
alist	-10.7433
nicati	-10.7434
▁care	-10.7436
raditi	-10.7436
ariou	-10.7437
comin	-10.7438
eful	-10.744
nspo	-10.744
ernet	-10.744
reaty	-10.7441
nsume	-10.7442
inute	-10.7445
ministr	-10.7447
▁regions	-10.7448
aditio	-10.745
▁contract	-10.7451
advantage	-10.7451
alue	-10.7454
lems	-10.7457
nish	-10.7457
ases	-10.7457
everything	-10.7457
▁everythin	-10.7458
oncerne	-10.7459
anoth	-10.7461
networ	-10.7462
▁multi	-10.7463
▁mater	-10.7464
ncerned	-10.7464
stratio	-10.7464
▁anot	-10.7464
standing	-10.7464
▁Russ	-10.7465
establishe	-10.7466
iative	-10.7467
rb	-10.7469
▁suggest	-10.7473
pai	-10.7473
nct	-10.7475
terne	-10.7475
negot	-10.7475
▁previous	-10.7476
limit	-10.7478
promise	-10.7478
directly	-10.7478
elves	-10.7479
gricultura	-10.7479
ricultural	-10.7481
clus	-10.7482
eature	-10.7485
fortunately	-10.7489
nue	-10.749
anies	-10.749
sca	-10.7491
ontact	-10.7492
ews	-10.7493
onstru	-10.7493
lici	-10.7493
▁enlargement	-10.7495
opula	-10.7496
rticle	-10.7497
law	-10.7497
▁encourag	-10.7498
▁balance	-10.7501
verything	-10.7501
▁func	-10.7501
▁trainin	-10.7503
vil	-10.7504
idency	-10.7504
cting	-10.751
antee	-10.7511
▁completely	-10.7512
local	-10.7513
priva	-10.7513
▁accommodat	-10.7514
▁Trea	-10.7518
nges	-10.7522
onsequen	-10.7522
▁join	-10.7525
cratic	-10.7527
rul	-10.7529
perio	-10.7531
temp	-10.7532
resse	-10.7532
extreme	-10.7534
▁ini	-10.7535
▁spa	-10.7536
pplie	-10.7537
ared	-10.7539
fam	-10.754
echnologi	-10.7544
▁efforts	-10.7546
ractice	-10.7546
tabilit	-10.7547
urg	-10.7551
proac	-10.7551
ermany	-10.7553
ncreasi	-10.7556
historic	-10.7556
uite	-10.7558
stal	-10.7561
denti	-10.7561
enden	-10.7561
cif	-10.7562
imina	-10.7562
Li	-10.7563
technologi	-10.7563
▁minut	-10.7564
▁transf	-10.7564
▁Ha	-10.7566
▁often	-10.7568
▁profes	-10.7569
central	-10.7571
allenge	-10.7573
gatio	-10.7573
But	-10.7573
otiati	-10.7574
ecommen	-10.7576
profess	-10.7578
minute	-10.758
▁locati	-10.758
▁sens	-10.7583
ffort	-10.7584
concerning	-10.7586
addre	-10.7588
▁frien	-10.7589
▁nego	-10.759
congratulat	-10.7591
▁congratula	-10.7591
lai	-10.7591
unic	-10.7592
senti	-10.7593
ortunately	-10.7593
currentl	-10.7595
rently	-10.7595
tiations	-10.7595
nnovati	-10.7596
ebsite	-10.7597
third	-10.7597
nnection	-10.7598
onnectio	-10.7599
▁integrati	-10.76
gres	-10.76
echni	-10.7601
evera	-10.7602
atives	-10.7604
▁terroris	-10.7607
ulations	-10.7607
rojects	-10.7608
technic	-10.7611
▁socie	-10.7611
ecei	-10.7612
Russi	-10.7613
▁fiel	-10.7614
These	-10.7616
▁addr	-10.7617
nistrati	-10.762
logy	-10.762
ntegration	-10.762
▁Ru	-10.7622
Mi	-10.7622
nou	-10.7622
tiativ	-10.7626
▁infrastructure	-10.763
▁rol	-10.7633
ubs	-10.7633
trict	-10.7633
forme	-10.7634
pende	-10.7636
opose	-10.7639
▁peri	-10.7639
severa	-10.7639
guara	-10.764
Hot	-10.7641
societ	-10.7642
iniste	-10.7642
▁demonstra	-10.7642
raining	-10.7646
nister	-10.7646
half	-10.7648
objectives	-10.7649
dera	-10.7651
greater	-10.7651
industri	-10.7653
ocrati	-10.7653
nfortunate	-10.7654
nventio	-10.7654
▁5	-10.7655
tud	-10.7655
generat	-10.7658
▁Mediterranean	-10.7658
iter	-10.766
▁fis	-10.766
odern	-10.7661
▁asse	-10.7665
ignifi	-10.7665
▁manufac	-10.7667
sever	-10.7667
tail	-10.7668
▁populati	-10.7669
Sa	-10.7669
sco	-10.7669
effor	-10.767
cross	-10.767
▁sing	-10.767
independ	-10.7671
manufacture	-10.7671
materi	-10.7671
portanc	-10.7672
manufact	-10.7673
▁indepen	-10.7673
istri	-10.7674
▁fish	-10.7676
pic	-10.7681
prec	-10.7681
onven	-10.7681
ortance	-10.7682
educati	-10.7682
ield	-10.7682
▁comfor	-10.7684
seco	-10.7685
onstructio	-10.7686
sso	-10.7688
▁Our	-10.7692
required	-10.7695
ek	-10.7698
onnecti	-10.7698
basis	-10.7699
▁others	-10.7699
shal	-10.7701
jects	-10.7704
▁enable	-10.7704
esentativ	-10.7708
selve	-10.7708
▁introduce	-10.7709
minati	-10.7709
▁opt	-10.771
eated	-10.7711
nsible	-10.7711
ingle	-10.7713
sentative	-10.7713
▁constitut	-10.7713
gisl	-10.7714
rowth	-10.7715
ssociat	-10.7716
cov	-10.7716
wish	-10.7718
enge	-10.7719
quen	-10.7722
elco	-10.7723
defi	-10.7724
▁intr	-10.7725
stomers	-10.7725
anisati	-10.7727
ibe	-10.7727
▁opportuniti	-10.773
ras	-10.7731
esea	-10.7732
ength	-10.7732
istration	-10.7733
repar	-10.7733
speak	-10.7736
etitio	-10.7737
▁approp	-10.7738
lcom	-10.7738
▁cultura	-10.7738
iversit	-10.774
cordi	-10.7741
rofess	-10.7745
nclusion	-10.7746
▁dri	-10.7746
nific	-10.7747
shar	-10.7749
signed	-10.775
mill	-10.7751
▁brin	-10.7751
▁gent	-10.7751
society	-10.7752
cam	-10.7752
roach	-10.7753
tific	-10.7755
deliver	-10.7756
ementa	-10.7757
frame	-10.7757
eautiful	-10.7757
Internati	-10.7758
▁majority	-10.7758
essed	-10.7759
▁foreign	-10.7761
tradit	-10.7762
erst	-10.7762
apartment	-10.7763
ndustri	-10.7764
▁Internat	-10.7765
seve	-10.7769
▁apartmen	-10.777
ccessful	-10.7771
oward	-10.7772
▁ment	-10.7772
▁recommendation	-10.7773
▁En	-10.7775
▁dema	-10.7777
▁spea	-10.7777
▁delive	-10.7778
hers	-10.7778
ova	-10.7779
nivers	-10.778
outh	-10.778
unica	-10.778
On	-10.7782
▁admi	-10.7783
egional	-10.7786
scussi	-10.7787
achin	-10.7787
▁text	-10.7789
maintain	-10.7789
▁parties	-10.7789
scu	-10.779
bef	-10.779
demonstrat	-10.7794
eally	-10.7794
ules	-10.7794
Internet	-10.7795
facilities	-10.7796
tunity	-10.7796
eep	-10.7796
▁markets	-10.7797
▁facilitie	-10.7797
▁Interne	-10.7798
estmen	-10.7799
grap	-10.78
▁why	-10.78
▁imm	-10.7801
▁China	-10.7802
stions	-10.7802
▁distrib	-10.7803
veme	-10.7805
▁enabl	-10.7805
unct	-10.7806
propri	-10.7809
▁cat	-10.781
ucc	-10.7811
unding	-10.7812
▁purpose	-10.7817
easing	-10.7817
▁points	-10.7817
▁entire	-10.7818
ossibili	-10.7818
▁essen	-10.7818
▁rai	-10.7821
rward	-10.7829
pulation	-10.7829
rating	-10.7831
twork	-10.7832
Treat	-10.7834
consequence	-10.7834
▁consequenc	-10.7835
referen	-10.7836
heth	-10.7836
veloping	-10.7836
greements	-10.7836
pplications	-10.7837
involved	-10.784
▁house	-10.7842
effici	-10.7843
ogi	-10.7845
xcelle	-10.7845
lishe	-10.7845
priv	-10.7846
signif	-10.7847
▁mont	-10.7849
itiat	-10.785
ework	-10.7851
ka	-10.7852
risis	-10.7854
acili	-10.7855
trong	-10.7855
nnec	-10.7857
emand	-10.7858
cellen	-10.7859
andin	-10.7859
▁arou	-10.786
bring	-10.7861
stmen	-10.7861
appear	-10.7861
ches	-10.7864
traditiona	-10.7866
cilit	-10.7866
▁risk	-10.7867
restaur	-10.7869
▁themsel	-10.7869
inistra	-10.7869
nsive	-10.7869
results	-10.7871
ompetitiv	-10.7873
▁prep	-10.7873
▁recomm	-10.7874
possibil	-10.7874
xist	-10.7876
plie	-10.7878
imit	-10.7879
hemselve	-10.788
▁restau	-10.7881
emselves	-10.7882
▁expec	-10.7882
arte	-10.7882
mentioned	-10.7883
themselv	-10.7883
rganisa	-10.7886
ception	-10.7887
▁accordi	-10.7888
aren	-10.7889
rapp	-10.7889
▁leader	-10.789
ccor	-10.789
reedom	-10.789
ganisat	-10.7892
ducati	-10.7892
imin	-10.7893
tatement	-10.7893
nical	-10.7893
▁beg	-10.7896
favou	-10.7897
mpetitive	-10.7898
repa	-10.79
lves	-10.7902
oreign	-10.7904
▁fea	-10.7905
entle	-10.7905
▁langu	-10.7906
▁money	-10.7907
cussion	-10.7907
recomme	-10.7907
▁principles	-10.7908
▁throughou	-10.7909
throughout	-10.791
ovem	-10.791
▁range	-10.7914
lob	-10.7917
nistrat	-10.7918
elate	-10.7918
▁industrial	-10.7918
▁espe	-10.7923
detail	-10.7925
▁capita	-10.7925
fortunate	-10.7925
expl	-10.7927
pens	-10.7928
▁decide	-10.7933
defin	-10.7933
imm	-10.7933
select	-10.7935
deman	-10.7935
accordin	-10.7936
▁community	-10.7936
lowi	-10.7937
ificant	-10.7938
ermin	-10.7939
▁rele	-10.7939
nicat	-10.7941
eetin	-10.7942
▁fram	-10.7942
aroun	-10.7943
dament	-10.7947
pris	-10.795
▁compromise	-10.7951
irements	-10.7955
enda	-10.7957
▁wide	-10.796
mocracy	-10.7961
▁file	-10.7963
anie	-10.7967
erformanc	-10.7969
▁week	-10.797
langua	-10.7971
lusion	-10.7971
exis	-10.7971
bilities	-10.7971
▁caus	-10.7972
rtmen	-10.7973
rformance	-10.7973
nfortunatel	-10.7976
share	-10.7976
things	-10.7977
aim	-10.7978
▁simply	-10.7981
equa	-10.7982
▁tour	-10.7983
month	-10.7986
▁sev	-10.7986
nvol	-10.7987
iremen	-10.7988
prepa	-10.7988
ustainab	-10.7989
▁electr	-10.7989
bre	-10.799
rgy	-10.799
ifican	-10.7992
crisi	-10.7994
sumer	-10.7994
▁boo	-10.7995
▁ben	-10.7995
▁pat	-10.7995
▁alon	-10.7996
raph	-10.7996
ttl	-10.7996
ooki	-10.7997
onn	-10.7998
prac	-10.7998
mul	-10.7999
ndation	-10.8001
▁Minister	-10.8001
constitu	-10.8003
regional	-10.8004
comes	-10.8005
sional	-10.8007
▁appe	-10.8007
Unit	-10.8007
ched	-10.8008
titio	-10.8009
consequen	-10.801
fee	-10.8015
inistr	-10.8016
gle	-10.8016
rather	-10.8017
andards	-10.8017
accor	-10.8019
posals	-10.802
featur	-10.8022
ersta	-10.8023
shor	-10.8024
▁accom	-10.8024
▁featu	-10.8024
het	-10.8026
▁highl	-10.8026
▁possibility	-10.8026
accommodation	-10.8029
nol	-10.8029
conclusion	-10.803
promis	-10.8031
▁accommodatio	-10.8031
hird	-10.8032
ensio	-10.8032
distr	-10.8033
American	-10.8035
▁selec	-10.8036
utes	-10.8036
▁conseque	-10.8037
stablished	-10.8038
moti	-10.8038
ponsibl	-10.8038
redi	-10.8038
esour	-10.8041
asin	-10.8043
cros	-10.8043
nterpr	-10.8043
stant	-10.8046
ama	-10.8047
Ame	-10.8048
extrem	-10.8056
ologica	-10.8057
cipa	-10.8059
rting	-10.8059
acilitie	-10.806
cilities	-10.8061
▁extre	-10.8062
▁immediat	-10.8064
▁sustainabl	-10.8065
▁cover	-10.8066
▁possibi	-10.8072
lian	-10.8073
▁done	-10.8073
sustain	-10.8073
nteg	-10.8074
oncerning	-10.8077
ticip	-10.8078
▁groups	-10.8079
integrati	-10.8079
reser	-10.808
▁determin	-10.808
face	-10.8081
instal	-10.8081
ario	-10.8081
tell	-10.8081
etail	-10.8082
iversi	-10.8083
#9	-10.8083
eveloped	-10.8085
immediate	-10.8086
000	-10.8086
cumen	-10.8087
ectly	-10.8087
llect	-10.8087
icultural	-10.8088
others	-10.8089
kers	-10.8089
hole	-10.809
▁refo	-10.809
▁related	-10.8091
▁ear	-10.8091
servati	-10.8092
▁les	-10.8093
certainly	-10.8096
▁potentia	-10.8097
gnifi	-10.81
ffor	-10.8101
vities	-10.8102
potential	-10.8104
▁total	-10.8104
cili	-10.8108
towar	-10.8108
mewor	-10.8108
▁mini	-10.811
▁official	-10.8111
nar	-10.8111
▁origina	-10.8112
mmer	-10.8113
▁towa	-10.8117
portunities	-10.8117
rof	-10.8119
itted	-10.8121
▁maint	-10.8121
ensiv	-10.8122
amou	-10.8125
pul	-10.8127
dri	-10.8127
▁adva	-10.8129
onomy	-10.8131
pho	-10.8131
tutional	-10.8131
▁appear	-10.8132
itutiona	-10.8132
eva	-10.8133
reali	-10.8133
urrentl	-10.8133
rrently	-10.8135
▁perfect	-10.8135
riend	-10.814
instr	-10.814
▁prio	-10.8142
tiviti	-10.8145
ivitie	-10.8145
signe	-10.8147
▁beautif	-10.815
▁limi	-10.815
▁constit	-10.8151
rus	-10.8153
colleague	-10.8154
ocume	-10.8155
▁actua	-10.8155
▁comfortabl	-10.8159
eive	-10.8161
non	-10.8162
▁infrastructur	-10.8163
ross	-10.8163
prior	-10.8165
ildin	-10.8169
usion	-10.8171
▁contribute	-10.8171
▁wr	-10.8173
ogical	-10.8174
ees	-10.8175
▁effic	-10.8175
ateri	-10.8176
ishin	-10.8177
asing	-10.8178
▁home	-10.8178
uildi	-10.818
beautifu	-10.8182
eriou	-10.8183
etwor	-10.8183
ommend	-10.8184
▁organiz	-10.8185
▁comfortable	-10.8186
clearly	-10.819
ongratulat	-10.8191
▁clearl	-10.8194
treatment	-10.8194
vario	-10.8194
istribu	-10.8195
nden	-10.8195
▁behal	-10.8196
organisa	-10.8196
rogrammes	-10.8198
ota	-10.8198
ranspare	-10.8198
ansparen	-10.8199
▁excel	-10.8199
paren	-10.82
▁corre	-10.82
▁monitor	-10.82
behalf	-10.82
innovat	-10.8201
isten	-10.8202
▁innova	-10.8205
fami	-10.8206
▁spo	-10.8207
resou	-10.8208
istra	-10.8209
▁Hou	-10.8212
lies	-10.8213
tegr	-10.8218
ependent	-10.8218
orki	-10.8219
brea	-10.8219
partm	-10.8219
lines	-10.822
ocal	-10.8221
stribut	-10.8221
presente	-10.8224
teur	-10.8224
ersio	-10.8224
nsidera	-10.8228
▁option	-10.8228
ollect	-10.8228
▁Pe	-10.8229
wate	-10.8231
histori	-10.8232
ntributi	-10.8234
▁employe	-10.8236
lthoug	-10.8236
review	-10.8237
dan	-10.8237
essiona	-10.8239
▁original	-10.8241
▁categor	-10.8241
▁aff	-10.8242
file	-10.8242
spective	-10.8244
mig	-10.8244
lowe	-10.8247
independent	-10.8248
▁identi	-10.825
laye	-10.8251
hoo	-10.8252
▁minutes	-10.8253
ccommodation	-10.8254
artme	-10.8255
polici	-10.8255
bett	-10.8255
adminis	-10.8255
▁construction	-10.8258
oder	-10.8259
egra	-10.8262
ndepend	-10.8263
signi	-10.8267
▁tri	-10.8268
specti	-10.8268
pra	-10.8269
▁reserv	-10.8273
▁directl	-10.8273
illa	-10.8275
hold	-10.8278
pula	-10.8281
contac	-10.8282
▁populat	-10.8282
lco	-10.8283
preve	-10.8283
genc	-10.8283
resented	-10.8284
amewo	-10.8285
▁difference	-10.8285
etai	-10.8286
offi	-10.8286
alisation	-10.8286
logica	-10.8286
either	-10.8291
▁presiden	-10.8292
omot	-10.8294
ssional	-10.8296
ogres	-10.8297
▁might	-10.8297
dv	-10.83
▁conference	-10.8302
hir	-10.8302
rogre	-10.8303
entur	-10.8304
eserve	-10.8308
ctors	-10.8309
package	-10.831
▁Tre	-10.831
Chi	-10.831
▁hous	-10.8311
pati	-10.8311
trengthe	-10.8313
ssenti	-10.8314
packag	-10.8314
rengthen	-10.8314
ssibili	-10.8315
▁treatmen	-10.8316
nsibi	-10.8316
disp	-10.8316
contract	-10.8318
infrastructure	-10.8319
erms	-10.832
▁designe	-10.8322
nven	-10.8324
vem	-10.8326
hallen	-10.8329
ladies	-10.8334
olicie	-10.8337
licies	-10.8337
atura	-10.8337
▁conflict	-10.8338
natura	-10.8338
rectly	-10.8338
▁charge	-10.8338
sentia	-10.8341
capital	-10.8345
stablishe	-10.8346
coordinat	-10.8346
calle	-10.8348
▁awar	-10.8349
alleng	-10.8349
▁changes	-10.8352
dministration	-10.8352
rovides	-10.8359
hroughout	-10.8361
▁contrac	-10.8361
excell	-10.8363
enlargement	-10.8364
anufacture	-10.8365
ortunate	-10.8365
jor	-10.8365
ethin	-10.8365
vernments	-10.8366
echnic	-10.8366
▁packa	-10.837
pital	-10.8371
Mediterranean	-10.8372
viou	-10.8372
▁relationship	-10.8375
dres	-10.8376
▁return	-10.8377
▁Mediterranea	-10.8383
crimina	-10.8384
▁admini	-10.8384
ajo	-10.8384
▁centra	-10.8387
onventi	-10.8387
▁performa	-10.8389
omfort	-10.839
▁beaut	-10.839
▁transparency	-10.839
aditional	-10.8393
duced	-10.8394
erfor	-10.8395
care	-10.8396
oki	-10.8396
pert	-10.8396
raditiona	-10.8396
ropria	-10.8397
▁knowledg	-10.8399
did	-10.8399
onsible	-10.8401
trengt	-10.8405
rength	-10.8405
▁versi	-10.8406
▁coordina	-10.8406
educat	-10.8408
istoric	-10.841
ngle	-10.841
opriat	-10.841
iversity	-10.8411
statemen	-10.8412
mpli	-10.8413
▁stren	-10.8413
usly	-10.8415
decisions	-10.8416
rele	-10.8416
adopte	-10.8417
ousl	-10.8417
ructio	-10.8417
nth	-10.8419
tuall	-10.8421
▁accommodati	-10.8421
ociety	-10.8426
▁representatives	-10.8426
sitiv	-10.8426
unds	-10.8429
performan	-10.843
▁educa	-10.843
fortunatel	-10.8436
cke	-10.8438
dency	-10.8439
station	-10.8442
adies	-10.8443
▁direction	-10.8445
balanc	-10.8447
rstan	-10.8447
geth	-10.845
▁distribution	-10.845
▁sustai	-10.8451
completely	-10.8452
▁existing	-10.8452
inion	-10.8452
▁websi	-10.8453
border	-10.8454
oget	-10.8455
ntlem	-10.8456
extremel	-10.8458
employe	-10.846
recommendation	-10.8461
▁recommendatio	-10.8461
accommodat	-10.8462
▁completel	-10.8462
entu	-10.8462
crati	-10.8463
▁accommoda	-10.8464
▁pack	-10.8467
sustainabl	-10.8468
works	-10.8468
eadi	-10.8472
▁regulations	-10.8473
bour	-10.8474
▁climate	-10.8474
velope	-10.8474
▁balanc	-10.8478
eatur	-10.8478
ricul	-10.848
nowled	-10.8481
owledg	-10.8481
views	-10.8482
ettin	-10.8483
▁mentione	-10.8484
cluded	-10.8486
▁regarding	-10.8486
distrib	-10.8487
▁Amendment	-10.8488
▁soft	-10.8492
ired	-10.8492
user	-10.8495
rpor	-10.8496
orwar	-10.8496
vour	-10.8496
ometh	-10.8497
ndependent	-10.8498
rument	-10.8499
senta	-10.8499
trumen	-10.85
▁borde	-10.85
eques	-10.85
entative	-10.85
stall	-10.85
aracter	-10.85
strume	-10.8502
▁light	-10.8503
▁associat	-10.8503
ctua	-10.8504
▁centur	-10.8505
nstrum	-10.8506
streng	-10.8506
gic	-10.8507
rigin	-10.8507
ppropr	-10.8508
idence	-10.8509
everythin	-10.8509
▁everythi	-10.8509
tware	-10.8512
dvantage	-10.8513
▁prepare	-10.8514
ositive	-10.8518
agem	-10.852
ftwar	-10.8521
Grou	-10.8524
▁wom	-10.8524
oftwa	-10.8525
ndiv	-10.8525
unities	-10.8525
avou	-10.8527
alwa	-10.8527
▁typ	-10.8527
ricultura	-10.8528
▁leas	-10.853
▁advantage	-10.8532
terests	-10.8534
▁organisations	-10.8534
idua	-10.8535
ilita	-10.8536
▁softw	-10.8536
serio	-10.8537
ovision	-10.8538
▁Fra	-10.8538
uate	-10.8541
▁ran	-10.8542
congratula	-10.8543
introduce	-10.8544
▁congratulate	-10.8544
▁military	-10.8544
little	-10.8546
xpre	-10.8546
happen	-10.8548
charg	-10.8549
haracte	-10.855
▁happe	-10.8551
inall	-10.8552
▁Wha	-10.8553
transpar	-10.8553
agen	-10.8555
positiv	-10.8555
▁freed	-10.8555
reig	-10.8557
rtin	-10.8559
lance	-10.856
bjectives	-10.8561
inutes	-10.8561
▁Ja	-10.8562
▁littl	-10.8566
▁0	-10.8571
ellent	-10.8572
ribute	-10.8572
rform	-10.8572
trainin	-10.8573
ementat	-10.8573
dicat	-10.8574
ershi	-10.8579
ntrod	-10.8579
▁transpa	-10.858
ncluded	-10.8581
▁exchange	-10.8583
beh	-10.8583
reference	-10.8583
▁administration	-10.8583
nefit	-10.8584
approp	-10.8585
▁Au	-10.8585
oyme	-10.8586
hort	-10.859
ervation	-10.8591
▁rang	-10.8591
constitut	-10.8591
rshi	-10.8592
eriod	-10.8593
trodu	-10.8593
servatio	-10.8593
uf	-10.8595
optio	-10.8597
role	-10.8597
arat	-10.8599
changes	-10.86
▁amount	-10.86
opportuniti	-10.86
safety	-10.86
novati	-10.8602
essent	-10.8603
ertainly	-10.8603
tanding	-10.8603
rements	-10.8604
afety	-10.8605
▁transfer	-10.8605
idi	-10.8605
actor	-10.8606
etary	-10.8607
All	-10.8608
institutional	-10.861
ttenti	-10.8611
possibility	-10.8612
igation	-10.8614
▁Ju	-10.8615
▁comprehensive	-10.8615
advantag	-10.8617
opriate	-10.8617
dop	-10.8621
forwa	-10.8623
methi	-10.8623
eigh	-10.8623
▁compromis	-10.8625
What	-10.8626
mitment	-10.8628
bud	-10.8629
▁imag	-10.8631
cei	-10.8632
▁safet	-10.8633
nies	-10.8634
tlem	-10.8634
ndustrial	-10.8635
▁break	-10.8635
termin	-10.8638
▁bor	-10.8639
▁Mrs	-10.8639
▁concerni	-10.8639
distribution	-10.864
pinio	-10.8641
ortunatel	-10.8641
ecomme	-10.8641
challe	-10.8643
vidu	-10.8646
writ	-10.8646
nect	-10.8646
rtunately	-10.8646
▁until	-10.8647
▁commercial	-10.8648
riorit	-10.8649
▁enjo	-10.8649
▁substan	-10.8649
▁agric	-10.8649
▁promote	-10.865
neg	-10.865
happ	-10.8651
▁agen	-10.8652
anufact	-10.8652
seque	-10.8652
previous	-10.8653
▁workers	-10.8654
essing	-10.8656
▁provis	-10.8656
reall	-10.8657
▁Lo	-10.8659
▁answer	-10.866
nfrastructure	-10.8662
ociet	-10.8662
▁Fin	-10.8663
ctives	-10.8663
family	-10.8665
ubje	-10.8667
nex	-10.8667
mone	-10.8668
▁non	-10.8669
▁Cha	-10.8671
enjoy	-10.8673
tegration	-10.8674
encourag	-10.8674
▁encoura	-10.8675
scussio	-10.8675
verythin	-10.8676
▁class	-10.8676
▁collecti	-10.8677
▁link	-10.8677
erything	-10.8678
aye	-10.8678
rules	-10.8679
rates	-10.8682
hno	-10.8682
groun	-10.8685
tations	-10.8686
za	-10.8687
eman	-10.8688
▁fully	-10.8688
Chin	-10.8688
ille	-10.8689
tself	-10.869
▁included	-10.869
irectly	-10.8691
eating	-10.8692
nfortunat	-10.8692
demonstra	-10.8693
▁demonstr	-10.8693
nufactu	-10.8694
ufactur	-10.8694
uireme	-10.8695
quirem	-10.8696
final	-10.8696
itsel	-10.8697
populati	-10.8698
▁history	-10.8698
▁itse	-10.8699
ficial	-10.87
essen	-10.87
▁Fran	-10.87
alance	-10.8701
comfortable	-10.8702
xtr	-10.8704
tners	-10.8704
uence	-10.8704
igni	-10.8705
▁chall	-10.8706
terroris	-10.8713
crit	-10.8716
rteu	-10.8718
nsio	-10.872
charact	-10.8721
▁assist	-10.8721
▁costs	-10.8721
chnologi	-10.8722
novat	-10.8722
iety	-10.8723
▁referen	-10.8725
provisi	-10.8726
▁majorit	-10.8727
among	-10.8727
▁amon	-10.8727
Interna	-10.8727
favo	-10.8728
aro	-10.8729
onsti	-10.8729
faci	-10.873
nities	-10.8731
docum	-10.8731
oveme	-10.8732
▁consumers	-10.8733
icial	-10.8734
icipat	-10.8737
mocrac	-10.8737
nks	-10.8738
▁travel	-10.8738
intro	-10.8739
▁combin	-10.8739
nea	-10.874
▁charac	-10.8741
raf	-10.8741
cogni	-10.8742
▁opin	-10.8744
dminis	-10.8745
enerat	-10.8745
onsequence	-10.8747
emonstrat	-10.8748
▁terrori	-10.875
reci	-10.8751
Amer	-10.8751
worke	-10.8752
welc	-10.8752
▁accessi	-10.8752
▁revie	-10.8753
▁commen	-10.8755
opini	-10.8755
pression	-10.8756
maj	-10.8758
regions	-10.8758
efin	-10.8761
having	-10.8762
zati	-10.8763
comfortabl	-10.8765
▁machine	-10.8765
mee	-10.8767
markets	-10.8768
iel	-10.8769
izat	-10.877
ecommendation	-10.8771
▁efficient	-10.8772
ompr	-10.8773
tabil	-10.8774
▁docu	-10.8774
lass	-10.8774
nterp	-10.8776
rall	-10.8776
reduce	-10.8777
ntegrati	-10.8778
celle	-10.878
gricu	-10.878
done	-10.8781
nisat	-10.8782
wledge	-10.8783
▁quite	-10.8783
consequenc	-10.8786
peak	-10.8786
attent	-10.8787
freedo	-10.8789
▁Convention	-10.8793
onclu	-10.8793
▁turn	-10.8793
▁hap	-10.8795
clusio	-10.8797
standin	-10.8799
ovided	-10.8801
thers	-10.8801
dvan	-10.8801
▁table	-10.8803
error	-10.8804
industrial	-10.8804
suggest	-10.8804
▁focus	-10.8806
▁decid	-10.8808
bra	-10.8809
knowle	-10.8812
directl	-10.8812
iously	-10.8813
xtreme	-10.8816
elve	-10.8816
▁Cent	-10.8817
dema	-10.8818
lls	-10.8821
▁peac	-10.8821
ndl	-10.8821
▁flo	-10.8822
orie	-10.8825
ontext	-10.8825
▁resta	-10.8826
tou	-10.8827
accommodatio	-10.8828
▁gua	-10.8828
cris	-10.8831
lk	-10.8832
rganization	-10.8833
reasin	-10.8834
▁traini	-10.8834
▁consist	-10.8835
corr	-10.8837
oced	-10.8837
courag	-10.8839
peace	-10.8839
▁holiday	-10.884
▁aspect	-10.8841
edur	-10.8842
▁gues	-10.8842
mili	-10.8844
hings	-10.8845
cedu	-10.8845
nnovat	-10.8845
▁faciliti	-10.8847
facilitie	-10.8847
fessio	-10.8848
Am	-10.885
creasi	-10.885
▁longer	-10.8852
▁Mad	-10.8852
learly	-10.8853
▁fav	-10.8856
onseque	-10.8856
nsequen	-10.8857
harge	-10.8859
principles	-10.886
▁industria	-10.886
whet	-10.8861
perfo	-10.8862
enable	-10.8865
difference	-10.8866
▁alt	-10.8867
priori	-10.8868
comb	-10.8868
▁highe	-10.887
▁vers	-10.887
▁improvement	-10.8871
▁conclusi	-10.8873
actua	-10.8874
anne	-10.8875
conn	-10.8877
efforts	-10.888
reater	-10.8881
sentativ	-10.8881
gical	-10.8881
concl	-10.8883
cussi	-10.8883
hnical	-10.8883
compromise	-10.8883
▁cau	-10.8885
▁affect	-10.8887
nlargement	-10.8887
nent	-10.8888
rdina	-10.8892
contex	-10.8895
points	-10.8895
tivel	-10.8896
omb	-10.8896
disa	-10.8897
▁method	-10.8897
saf	-10.8898
step	-10.8899
ecomm	-10.8899
▁playe	-10.89
▁arr	-10.8901
nstal	-10.8902
infrastructur	-10.8903
soft	-10.8907
istratio	-10.8909
roduced	-10.8911
▁pop	-10.8913
nferen	-10.8915
nection	-10.8916
▁ano	-10.8918
▁century	-10.8918
nen	-10.8921
entioned	-10.8921
editerranean	-10.8922
comfor	-10.8924
majority	-10.8925
sues	-10.8925
nance	-10.8925
eliver	-10.8926
ngi	-10.8926
▁Mada	-10.8928
siona	-10.893
Internat	-10.8932
nnectio	-10.8932
onclusion	-10.8933
Ar	-10.8933
sten	-10.8933
mous	-10.8934
apartmen	-10.8935
chnica	-10.8936
playe	-10.8938
▁Ind	-10.8938
eader	-10.894
least	-10.8941
▁increased	-10.8942
▁did	-10.8943
vided	-10.8944
xe	-10.8944
▁actuall	-10.8945
▁apartme	-10.8946
onfere	-10.8946
▁havin	-10.8948
▁computer	-10.8948
▁critic	-10.895
wat	-10.8951
dua	-10.8952
▁deta	-10.8954
romo	-10.8954
ustainabl	-10.8955
▁alw	-10.8955
aintain	-10.8957
eferen	-10.8957
▁doc	-10.8958
logic	-10.896
▁througho	-10.8961
▁ori	-10.8962
Hous	-10.8962
▁inco	-10.8962
throughou	-10.8962
ofessi	-10.8963
ola	-10.8964
romise	-10.8964
▁movement	-10.8965
community	-10.8967
nventi	-10.8967
petitive	-10.8969
ducat	-10.8974
▁near	-10.8974
ntee	-10.8976
manufac	-10.8978
ression	-10.8978
▁integrate	-10.8981
cerned	-10.8982
▁element	-10.8986
arit	-10.8988
dren	-10.8989
equired	-10.899
▁encourage	-10.8991
urant	-10.8993
administration	-10.8994
▁manufa	-10.8995
ecogn	-10.8997
promi	-10.8997
ncerne	-10.9
ntact	-10.9001
angua	-10.9001
indepen	-10.9004
▁station	-10.9004
stud	-10.9005
▁indepe	-10.9006
▁forw	-10.9008
allen	-10.9008
equip	-10.9013
▁ren	-10.9013
reements	-10.9014
yer	-10.9017
servat	-10.9017
mmediate	-10.9017
determin	-10.9022
dure	-10.9027
eparat	-10.9028
maki	-10.903
comi	-10.9031
cum	-10.9035
▁indicat	-10.9035
opul	-10.9035
origi	-10.9037
▁consideration	-10.9037
ccommodat	-10.9037
stain	-10.9039
tres	-10.904
nsibl	-10.9041
official	-10.9043
tens	-10.9044
transf	-10.9045
ontract	-10.9046
lwa	-10.9047
stay	-10.905
mpetitiv	-10.905
▁wri	-10.9053
olved	-10.9057
▁constructio	-10.9057
ategy	-10.9058
ustain	-10.9058
▁prec	-10.9059
cid	-10.9059
formance	-10.9059
mentione	-10.9059
▁militar	-10.9059
ntle	-10.906
▁Africa	-10.9061
profes	-10.9065
thir	-10.9069
ortunities	-10.907
mater	-10.907
begin	-10.9071
representatives	-10.9071
pportuniti	-10.9072
▁begi	-10.9072
oordinat	-10.9072
▁designed	-10.9074
sistance	-10.9076
gg	-10.9077
oura	-10.9077
▁alternative	-10.9078
estau	-10.9079
nclusio	-10.908
rican	-10.908
▁dete	-10.908
cessful	-10.908
purpose	-10.9081
staur	-10.9083
glo	-10.9084
Madam	-10.9085
actice	-10.9086
mine	-10.9086
▁driv	-10.9087
fortunat	-10.9087
eautifu	-10.9089
▁unt	-10.9089
▁beginning	-10.909
tablished	-10.909
ader	-10.909
iffi	-10.909
autiful	-10.9091
ssiona	-10.9092
▁pac	-10.9092
▁foreig	-10.9093
▁partie	-10.9093
foreign	-10.9095
parties	-10.9095
taura	-10.9095
▁needed	-10.9095
nifi	-10.9096
▁comfortab	-10.9096
▁months	-10.9096
▁culture	-10.9098
ythin	-10.9098
related	-10.9098
oach	-10.9102
toge	-10.9105
hon	-10.9105
ldre	-10.9106
crim	-10.9106
▁profe	-10.9107
lita	-10.911
▁orig	-10.9111
llenge	-10.9111
▁auto	-10.9112
ildr	-10.9114
preci	-10.9114
yp	-10.9114
whol	-10.9114
ossibil	-10.9115
commodation	-10.9116
guage	-10.9117
nguag	-10.9118
▁organization	-10.9123
ccommodatio	-10.9123
▁response	-10.9124
▁mainta	-10.9124
relationship	-10.9124
▁Mediterrane	-10.9124
contribute	-10.9124
frien	-10.9124
Interne	-10.9124
tioned	-10.9124
guest	-10.9125
reen	-10.9128
vant	-10.9128
▁goin	-10.9129
▁mate	-10.9129
erforman	-10.913
auran	-10.9132
▁stor	-10.9133
apital	-10.9134
igned	-10.9135
▁food	-10.9135
▁Gre	-10.9136
radit	-10.9137
cepti	-10.9137
olleague	-10.9139
▁Governm	-10.914
facil	-10.9142
▁conferenc	-10.9142
▁source	-10.9142
▁purpos	-10.9143
icip	-10.9143
eel	-10.9144
▁transparenc	-10.9145
ministration	-10.9146
fiel	-10.9146
rformanc	-10.9147
▁Ministe	-10.9147
xpect	-10.9147
recog	-10.9148
ojects	-10.915
dministratio	-10.9151
ller	-10.9152
ficu	-10.9155
Mediterranea	-10.9155
mbi	-10.9156
aying	-10.916
icti	-10.9161
reatment	-10.9161
orti	-10.9162
stori	-10.9163
efficient	-10.9164
▁tu	-10.9164
atement	-10.9164
nvolved	-10.9165
▁tel	-10.9166
▁Nation	-10.9167
uenc	-10.9168
alon	-10.9169
▁Service	-10.9169
▁terror	-10.917
eloping	-10.917
arin	-10.9171
▁At	-10.9171
rtici	-10.9175
uppl	-10.9176
pay	-10.9178
Minister	-10.9178
▁Minist	-10.9179
boo	-10.9182
▁emphasi	-10.9182
got	-10.9183
bly	-10.9184
reated	-10.9184
rainin	-10.9185
transparency	-10.9185
conseque	-10.9187
rimina	-10.9187
otential	-10.9188
istribution	-10.9192
orwa	-10.9192
▁participati	-10.9194
▁minu	-10.9195
hine	-10.9195
conference	-10.9195
quired	-10.9196
▁dialogue	-10.9196
▁preside	-10.9196
perfect	-10.9196
recommendatio	-10.9202
▁themse	-10.9203
themsel	-10.9204
elli	-10.9205
▁recom	-10.9205
▁strategi	-10.9206
possibi	-10.9207
bene	-10.9208
▁created	-10.9209
ellen	-10.9209
▁immedia	-10.9212
ssocia	-10.9212
▁assistance	-10.9212
ortanc	-10.9214
▁consequ	-10.9214
hemselv	-10.9215
emselve	-10.9215
istori	-10.9216
mselves	-10.9216
often	-10.9217
versit	-10.9218
▁worker	-10.9219
▁instruments	-10.922
accordi	-10.922
refere	-10.922
▁comfo	-10.922
merican	-10.922
epresentatives	-10.9222
rtance	-10.9223
ressed	-10.9224
▁office	-10.9224
expec	-10.9224
▁mis	-10.9226
tatemen	-10.9226
ird	-10.9227
detai	-10.9227
san	-10.9227
ssia	-10.9227
organiz	-10.9228
▁differenc	-10.9228
▁funda	-10.923
bin	-10.9233
atically	-10.9234
func	-10.9234
ends	-10.9235
ither	-10.9237
nnecti	-10.9237
▁mig	-10.9237
They	-10.9238
igne	-10.9239
immediat	-10.9239
▁potenti	-10.9239
▁depend	-10.9243
ssociation	-10.9243
ongratula	-10.9244
tren	-10.9244
ratic	-10.9244
ngratulat	-10.9244
eign	-10.9249
aditi	-10.9249
▁Ou	-10.925
sociat	-10.9252
ested	-10.9253
ncerning	-10.9255
hom	-10.9255
organisations	-10.9255
199	-10.9256
▁nor	-10.9257
ocracy	-10.9257
icultura	-10.9259
potentia	-10.926
ppea	-10.926
nfi	-10.926
corre	-10.9261
ethi	-10.9263
anisat	-10.9264
tomers	-10.9264
eference	-10.9266
▁officia	-10.9267
eam	-10.9267
adva	-10.9269
tification	-10.927
▁mult	-10.9272
▁administratio	-10.9272
▁beauti	-10.9272
days	-10.9273
sons	-10.9274
utiona	-10.9277
Br	-10.9277
esults	-10.9277
▁equipment	-10.9277
moni	-10.9279
multi	-10.9279
iativ	-10.9279
▁frie	-10.9279
dern	-10.9284
ainly	-10.9284
electr	-10.9285
accommodati	-10.9286
▁type	-10.9291
nclusi	-10.9291
▁arti	-10.9292
rks	-10.9293
enabl	-10.9294
ticle	-10.9295
ises	-10.9295
later	-10.9296
▁above	-10.9296
usti	-10.9296
delive	-10.9297
dustri	-10.9302
▁surround	-10.9302
wed	-10.9303
bilitie	-10.9304
itar	-10.9306
▁correct	-10.9306
egiona	-10.9308
minut	-10.9308
nfrastructur	-10.9308
ontac	-10.9309
omfortable	-10.931
fle	-10.931
gional	-10.931
▁deliv	-10.9315
original	-10.9315
ompletely	-10.9315
ssibility	-10.9316
rticl	-10.9316
▁netw	-10.9318
▁climat	-10.9319
And	-10.932
▁although	-10.932
▁categories	-10.9321
capita	-10.9322
orme	-10.9323
stainab	-10.9323
▁Te	-10.9324
nterprise	-10.9325
popu	-10.9325
stabili	-10.9327
nvent	-10.9329
▁colleag	-10.9329
ories	-10.9332
regulations	-10.9334
constit	-10.9338
regiona	-10.9338
sus	-10.934
admi	-10.9342
carr	-10.9342
ldi	-10.9344
congratulate	-10.9344
pply	-10.9346
▁drive	-10.9347
lor	-10.9347
ourt	-10.9351
▁capit	-10.9352
tog	-10.9352
comprehensive	-10.9353
courage	-10.9354
entire	-10.9355
origina	-10.9355
direction	-10.9356
▁entir	-10.9357
▁download	-10.9357
ecisions	-10.9359
▁talk	-10.9359
▁presented	-10.936
▁reli	-10.936
▁model	-10.9362
reakfast	-10.9364
choo	-10.9366
ignif	-10.9366
▁equal	-10.9367
▁Pl	-10.9369
treatmen	-10.937
obj	-10.937
ogrammes	-10.9371
regarding	-10.9374
subj	-10.9374
▁exchang	-10.9375
rmany	-10.9375
▁aro	-10.9376
rsio	-10.9376
ackage	-10.9377
eater	-10.9378
▁leade	-10.938
beha	-10.9381
leader	-10.9384
▁old	-10.9384
▁comprehensi	-10.9386
tative	-10.9388
▁attract	-10.9388
▁ofte	-10.9389
eption	-10.939
aciliti	-10.9391
ologic	-10.9392
lc	-10.9393
eache	-10.9393
ouri	-10.9393
cilitie	-10.9394
contrac	-10.9394
veloped	-10.9394
fish	-10.9394
bsite	-10.94
▁defe	-10.9403
goin	-10.9405
restau	-10.9406
▁cove	-10.9408
sufficient	-10.9409
resente	-10.9409
nistra	-10.9409
niste	-10.9411
▁US	-10.9412
recomm	-10.9412
hare	-10.9415
decide	-10.9415
tensi	-10.9416
rentl	-10.9416
nufacture	-10.9418
▁feel	-10.9419
utional	-10.9419
ardi	-10.942
expr	-10.9421
▁charg	-10.9425
nefi	-10.9426
ceptio	-10.9427
ganisa	-10.9427
gne	-10.9428
amily	-10.9429
enef	-10.9429
ussion	-10.943
▁legislative	-10.9431
populat	-10.9431
socie	-10.9432
anot	-10.9432
compromis	-10.9432
bar	-10.9436
▁Na	-10.9437
ben	-10.9437
▁parliam	-10.9439
▁apart	-10.944
acy	-10.944
njoy	-10.9442
▁wea	-10.9443
▁automat	-10.9444
▁test	-10.9446
▁states	-10.9447
cussio	-10.9448
designe	-10.9452
effic	-10.9454
ossibility	-10.9456
xchange	-10.9457
▁tog	-10.9459
unti	-10.946
▁wid	-10.946
presiden	-10.946
groups	-10.9462
frastructure	-10.9462
▁perfec	-10.9463
▁consti	-10.9464
tutiona	-10.9466
▁fig	-10.9467
oved	-10.9468
▁check	-10.9468
▁moment	-10.9468
▁times	-10.9469
monitor	-10.9469
matically	-10.9469
consist	-10.947
▁known	-10.9471
▁net	-10.9472
rties	-10.9473
▁Govern	-10.9474
equal	-10.9475
omfortabl	-10.9476
ficant	-10.9476
wid	-10.9477
When	-10.9477
▁hom	-10.9478
Ne	-10.9481
beautif	-10.9483
mediate	-10.9483
▁speciali	-10.9484
icant	-10.9484
▁enough	-10.9486
▁consult	-10.9486
▁Rus	-10.9488
comprehensi	-10.949
▁considerabl	-10.9491
▁makes	-10.9492
▁treatme	-10.9492
proved	-10.9495
join	-10.9496
egarding	-10.9497
ported	-10.9498
▁side	-10.9498
▁fie	-10.95
completel	-10.9501
▁image	-10.9504
rofes	-10.9504
▁doub	-10.9507
▁once	-10.9507
oge	-10.9508
▁distributi	-10.9512
▁para	-10.9512
accommoda	-10.9512
conflict	-10.9513
amount	-10.9513
coordina	-10.9515
uses	-10.9515
▁accommod	-10.9517
horiti	-10.9518
pendent	-10.9519
commendation	-10.9521
egot	-10.9521
tablishe	-10.9521
simply	-10.9522
uara	-10.9522
arn	-10.9523
arding	-10.9524
▁target	-10.9527
uto	-10.9528
ranspar	-10.9528
ciat	-10.953
roughout	-10.9531
anspare	-10.9534
nsparen	-10.9534
performa	-10.9535
goti	-10.9537
categor	-10.9537
hroughou	-10.9538
▁regardin	-10.9539
commercial	-10.954
▁hard	-10.954
ordinat	-10.954
Amendment	-10.9541
ndatio	-10.9542
ntains	-10.9542
▁situated	-10.9542
ernments	-10.9543
mont	-10.9543
▁release	-10.9543
ledge	-10.9544
otia	-10.9546
rum	-10.9546
▁comment	-10.9548
▁features	-10.9548
wome	-10.9548
etar	-10.9549
military	-10.9551
▁machin	-10.9552
lative	-10.9552
eview	-10.9555
engthen	-10.9555
correct	-10.9557
ndards	-10.9558
spectiv	-10.9559
zed	-10.9559
▁pea	-10.9559
minutes	-10.9562
ackag	-10.9564
roac	-10.9564
ddre	-10.9566
▁201	-10.9566
ofess	-10.9567
ratin	-10.9569
aditiona	-10.957
ecommendatio	-10.957
travel	-10.9574
▁knowled	-10.9575
lanc	-10.9575
ransparency	-10.9575
▁usi	-10.9576
pective	-10.9577
onsibl	-10.9578
fig	-10.9579
▁approv	-10.9579
uff	-10.958
▁tea	-10.9581
▁feat	-10.9581
inut	-10.9581
Thes	-10.9582
rnet	-10.9582
▁advantag	-10.9583
xtrem	-10.9585
tement	-10.959
▁esse	-10.9592
existing	-10.9592
▁lang	-10.9594
rganiz	-10.9594
niver	-10.9595
▁commercia	-10.9595
undin	-10.9597
nization	-10.9598
easin	-10.9601
ropri	-10.9607
rror	-10.9607
firm	-10.9608
propr	-10.9608
▁ed	-10.9608
▁Centr	-10.9609
sequence	-10.9609
taine	-10.9609
lm	-10.9612
China	-10.9613
associat	-10.9614
sustai	-10.9614
itment	-10.9615
▁Sc	-10.9616
ograph	-10.9618
esented	-10.9619
estme	-10.9619
presentation	-10.9621
▁automati	-10.9623
ggest	-10.9623
egulations	-10.9624
ervati	-10.9625
▁translat	-10.9626
▁enab	-10.9627
nature	-10.9628
▁never	-10.9628
▁Fu	-10.9629
▁existin	-10.9629
nif	-10.963
▁Cons	-10.963
anu	-10.9632
buti	-10.9634
▁kind	-10.9634
nute	-10.9637
olici	-10.9637
iali	-10.9638
uts	-10.9641
▁pressure	-10.9642
xcell	-10.9643
▁book	-10.9644
rengthe	-10.9648
ssent	-10.9649
ppear	-10.9649
revious	-10.965
nego	-10.9652
eaty	-10.9654
esting	-10.9655
ucati	-10.9655
▁Is	-10.9661
orporat	-10.9661
serva	-10.9661
▁assi	-10.9661
icl	-10.9661
tted	-10.9664
intr	-10.9664
ctin	-10.9665
▁Man	-10.9666
pecti	-10.9666
ntroduce	-10.9667
edge	-10.9668
ccommodati	-10.9674
motion	-10.9675
rrentl	-10.9675
organization	-10.9676
ortunat	-10.9677
nerat	-10.9677
▁associa	-10.9677
▁compromi	-10.9678
versity	-10.968
xtremel	-10.968
▁exclu	-10.9681
anta	-10.9684
everythi	-10.9684
▁stabili	-10.9684
referenc	-10.9685
erroris	-10.9685
lisati	-10.9685
▁everyth	-10.9686
Whe	-10.9688
rict	-10.9689
consideration	-10.9689
fficial	-10.9689
tivity	-10.9689
Russ	-10.9691
ester	-10.9692
break	-10.9692
langu	-10.9693
▁nature	-10.9693
onvent	-10.9694
eedom	-10.9696
Wit	-10.97
rtunate	-10.97
ravel	-10.9702
jectives	-10.9702
▁infrastruct	-10.9703
transfer	-10.9706
reedo	-10.9707
ctually	-10.9708
▁concept	-10.9709
tione	-10.971
nistr	-10.9711
ique	-10.9712
▁enlarge	-10.9712
▁admin	-10.9713
terpr	-10.9715
climate	-10.9715
▁regist	-10.9717
▁along	-10.9717
rests	-10.972
money	-10.9722
ites	-10.9723
nali	-10.9724
▁tax	-10.9724
innova	-10.9724
oreig	-10.9725
ints	-10.9726
▁supporte	-10.9726
▁mountain	-10.9728
clearl	-10.973
istrib	-10.9731
chni	-10.9731
▁joi	-10.9731
selec	-10.9733
administratio	-10.9734
inate	-10.9734
stribu	-10.9734
▁procedures	-10.9736
spea	-10.9736
improvement	-10.9737
distributi	-10.9737
▁installation	-10.9738
Convention	-10.9742
forms	-10.9744
nvo	-10.9745
Trea	-10.9745
▁innov	-10.9745
proa	-10.9745
mploye	-10.9746
tour	-10.9748
rvation	-10.9749
tas	-10.975
exchange	-10.9751
sidera	-10.9753
▁heart	-10.9755
mong	-10.9756
▁Gree	-10.9757
rave	-10.9759
stability	-10.9759
artnership	-10.9761
Af	-10.9762
vantage	-10.9762
ewor	-10.9764
prepare	-10.9764
▁criti	-10.9766
damen	-10.9767
dee	-10.9768
emonstra	-10.9768
▁optio	-10.9769
pora	-10.9769
editerranea	-10.9769
▁longe	-10.977
collecti	-10.9772
accom	-10.9773
ficia	-10.9773
▁esp	-10.9774
rinciples	-10.9774
▁electi	-10.9777
▁Development	-10.9777
ndustria	-10.9778
cut	-10.9779
▁suff	-10.9779
▁tur	-10.978
▁innovation	-10.978
undam	-10.978
▁ident	-10.978
▁transfe	-10.9782
oted	-10.9783
brin	-10.9783
consumers	-10.9784
fis	-10.9784
ganization	-10.9785
rganizatio	-10.9785
▁Wo	-10.9787
▁After	-10.9787
twor	-10.9788
romis	-10.979
diterranean	-10.9791
porti	-10.9792
lusio	-10.9792
credi	-10.9793
admini	-10.9793
egions	-10.9793
ndame	-10.9795
onsequenc	-10.98
nsequence	-10.9801
refu	-10.9801
ndepen	-10.9802
comfortab	-10.9802
▁setting	-10.9803
▁lit	-10.9806
omprehensive	-10.9809
ireme	-10.981
dustrial	-10.981
▁reser	-10.981
arou	-10.9812
fican	-10.9812
parat	-10.9813
ifference	-10.9813
addr	-10.9814
▁lim	-10.9815
concerni	-10.9816
creation	-10.9816
▁sele	-10.9817
ssibil	-10.9818
rtunatel	-10.9818
eiv	-10.9819
▁demonstrate	-10.9819
entativ	-10.9822
integrate	-10.9822
tunately	-10.9823
sf	-10.9828
▁fight	-10.9829
ntative	-10.9829
▁div	-10.9831
rathe	-10.9832
dvantag	-10.9836
industria	-10.9837
entif	-10.9838
▁payment	-10.9842
featu	-10.9843
osals	-10.9843
▁rath	-10.9844
highl	-10.9847
elationship	-10.985
egration	-10.9851
▁Tra	-10.9853
▁Sec	-10.9858
fram	-10.9859
nfortuna	-10.9861
included	-10.9861
leng	-10.9863
looking	-10.9867
demonstr	-10.9867
treme	-10.9867
ompromise	-10.9867
▁demonst	-10.9869
workers	-10.987
pita	-10.9871
ngu	-10.9872
une	-10.9873
extre	-10.9877
vere	-10.9878
ittle	-10.9879
▁encou	-10.9881
rection	-10.9884
transpa	-10.9884
▁statem	-10.9887
▁sett	-10.9888
▁competitiveness	-10.9889
eall	-10.9891
nsist	-10.9891
timate	-10.9892
selv	-10.9894
accessi	-10.9895
ovides	-10.99
effo	-10.99
fast	-10.9906
crimin	-10.9907
▁reasons	-10.9907
▁touris	-10.9908
differenc	-10.9909
lternative	-10.9909
mel	-10.991
rganisations	-10.991
▁refere	-10.991
rmo	-10.9912
return	-10.9915
ncourag	-10.9915
▁sus	-10.9917
substan	-10.9917
total	-10.9918
tained	-10.992
monstrat	-10.9921
opulati	-10.9921
vitie	-10.9921
▁aim	-10.9922
▁organizatio	-10.9922
▁alternativ	-10.9923
few	-10.9924
rget	-10.9924
alanc	-10.9924
▁tota	-10.9924
▁disco	-10.9925
▁emphasis	-10.9925
ervatio	-10.9925
▁compute	-10.9925
hanges	-10.9926
rprise	-10.9926
storic	-10.9926
▁outs	-10.9926
ountain	-10.9926
▁events	-10.9926
alf	-10.9926
▁seem	-10.9928
lected	-10.993
prio	-10.993
lectr	-10.9932
maint	-10.9932
▁spac	-10.9934
otion	-10.9935
ioned	-10.9936
▁tal	-10.9937
largement	-10.9938
riginal	-10.9938
rtainly	-10.9938
risk	-10.9939
owth	-10.9941
halle	-10.9942
provis	-10.9943
respond	-10.9945
rowt	-10.9946
alternative	-10.9946
▁confiden	-10.9947
engt	-10.9947
advanta	-10.9951
▁words	-10.9951
▁Direct	-10.9954
▁leaders	-10.9955
iviti	-10.9955
Gro	-10.9956
ngth	-10.9957
▁substa	-10.9957
presentatives	-10.9961
▁credi	-10.9962
▁adm	-10.9964
ples	-10.9965
▁discriminat	-10.9966
Mediterrane	-10.9967
▁actu	-10.9967
▁Mediterran	-10.997
▁includes	-10.9971
▁tex	-10.9971
▁reflect	-10.9972
foo	-10.9974
▁effi	-10.9975
▁clas	-10.9975
▁milita	-10.9976
sly	-10.9978
rwar	-10.9979
statio	-10.9981
ogica	-10.9981
promote	-10.9982
owar	-10.9982
▁previo	-10.9983
history	-10.9984
nim	-10.9987
acil	-10.9989
▁susta	-10.999
mmend	-10.9991
ccessi	-10.9992
increased	-10.9995
centur	-10.9998
▁recommendat	-10.9998
orre	-10.9998
erned	-11
▁oppos	-11.0001
story	-11.0002
▁sch	-11.0003
▁Ir	-11.0004
behal	-11.0006
corporat	-11.0006
conclusi	-11.0007
erythin	-11.0007
▁encour	-11.0007
encoura	-11.0008
verythi	-11.0008
ositiv	-11.0008
hnologi	-11.0009
transparenc	-11.0009
fas	-11.001
▁bar	-11.0012
rything	-11.0012
terrori	-11.0013
ministratio	-11.0014
inistration	-11.0015
orks	-11.0015
▁balan	-11.0015
ctl	-11.0015
excel	-11.0015
▁implemented	-11.0017
▁stri	-11.0018
▁breakfast	-11.002
▁stability	-11.002
faciliti	-11.0021
▁Do	-11.0021
arkets	-11.0022
ehalf	-11.0023
▁manu	-11.0025
revie	-11.0025
rip	-11.0028
▁young	-11.0029
esc	-11.0033
rtn	-11.0037
sess	-11.0038
racter	-11.0038
ommercial	-11.004
designed	-11.004
▁carrie	-11.0041
aracte	-11.0041
answer	-11.0042
acceptable	-11.0043
isis	-11.0043
encourage	-11.0044
▁centu	-11.0045
▁conclus	-11.0047
machine	-11.0047
▁assistan	-11.0048
▁reference	-11.0049
ollec	-11.005
prep	-11.005
▁automatic	-11.005
▁outside	-11.005
majorit	-11.0051
▁Turk	-11.0051
▁majori	-11.0052
tics	-11.0054
▁interesting	-11.0055
militar	-11.0055
cs	-11.0055
Bo	-11.0056
▁webs	-11.0056
▁sof	-11.0056
▁wee	-11.0056
lthou	-11.0057
participati	-11.0057
tera	-11.0057
might	-11.0059
onth	-11.006
▁writing	-11.0062
▁Min	-11.0062
appen	-11.0063
▁enterprise	-11.0064
rime	-11.0064
fea	-11.0064
▁technologies	-11.0065
▁alo	-11.0066
arrie	-11.0067
computer	-11.0067
tainable	-11.0067
commodatio	-11.0068
ommodation	-11.0068
usl	-11.0068
edic	-11.007
▁trave	-11.007
▁Fre	-11.007
draw	-11.0073
erests	-11.0075
ovisio	-11.0079
nsiv	-11.0081
▁she	-11.0082
▁keep	-11.0082
rous	-11.0083
sistan	-11.0084
stme	-11.0084
▁deter	-11.0084
ntu	-11.0085
bsi	-11.0086
link	-11.0087
came	-11.0088
rovisi	-11.0088
critic	-11.0089
haract	-11.0089
▁received	-11.0089
nstruments	-11.009
instruments	-11.009
pressio	-11.0091
▁looking	-11.0091
mediat	-11.0093
▁run	-11.0094
api	-11.0096
conferenc	-11.0096
cracy	-11.0097
book	-11.01
▁Franc	-11.01
rigi	-11.0102
actuall	-11.0103
sufficien	-11.0103
reak	-11.0104
never	-11.0104
eithe	-11.0107
onclusio	-11.0109
oned	-11.011
traini	-11.011
web	-11.0113
itat	-11.0113
rely	-11.0114
tegrati	-11.0114
rtunities	-11.0119
12	-11.0119
▁migh	-11.012
▁enc	-11.012
portuniti	-11.0121
mas	-11.0121
mise	-11.0125
erations	-11.0128
▁chal	-11.0129
▁challenges	-11.0129
mely	-11.0131
tructural	-11.0131
stainabl	-11.0132
xis	-11.0132
resta	-11.0133
anks	-11.0136
packa	-11.0136
movement	-11.0137
▁amoun	-11.0137
througho	-11.0139
omprehensi	-11.014
ayer	-11.0142
▁beginnin	-11.0142
▁message	-11.0142
beginning	-11.0143
tandin	-11.0143
stribution	-11.0143
esou	-11.0143
▁creation	-11.0143
▁comforta	-11.0144
▁obligation	-11.0145
holiday	-11.0147
▁characteri	-11.0148
ladie	-11.0149
▁beau	-11.0149
iza	-11.015
riat	-11.015
▁impact	-11.0151
week	-11.0152
comprehensiv	-11.0152
icies	-11.0153
licie	-11.0153
igatio	-11.0154
ontribute	-11.0154
▁ladi	-11.0154
priate	-11.0155
hard	-11.0156
▁subst	-11.0158
rectl	-11.0158
eeti	-11.0161
assistance	-11.0163
lleng	-11.0163
dina	-11.0163
mitmen	-11.0163
ouris	-11.0164
tificat	-11.0164
anufac	-11.0164
onger	-11.0166
erning	-11.0166
gnif	-11.0166
▁consis	-11.0168
▁partnership	-11.0168
xpl	-11.0169
oints	-11.017
etti	-11.0171
▁applie	-11.0172
iend	-11.0173
▁holida	-11.0173
uests	-11.0174
gri	-11.0176
frastructur	-11.0178
▁attac	-11.0179
treng	-11.018
affect	-11.0181
chnic	-11.0182
▁Tu	-11.0183
▁circumstances	-11.0185
head	-11.0187
rsta	-11.019
esigne	-11.019
▁conferen	-11.019
resentation	-11.019
assist	-11.0191
nufact	-11.0193
▁aware	-11.0195
luded	-11.0195
rtme	-11.0198
▁tabl	-11.0199
▁answe	-11.0199
eeded	-11.02
rwa	-11.02
factur	-11.0201
▁prices	-11.0202
ntur	-11.0202
▁agri	-11.0203
▁dialog	-11.0203
▁contains	-11.0206
omfor	-11.0206
isp	-11.0207
▁keyword	-11.0207
harm	-11.0207
commodat	-11.0208
imply	-11.0208
odi	-11.0209
▁litt	-11.0211
ongratulate	-11.0211
stren	-11.0211
beaut	-11.0212
ccommoda	-11.0212
educa	-11.0212
mfort	-11.0213
amon	-11.0213
elc	-11.0213
Si	-11.0213
▁combi	-11.0216
▁supported	-11.0216
opria	-11.0219
ski	-11.0219
erni	-11.0221
strategi	-11.0222
prise	-11.0223
pack	-11.0225
indicat	-11.0225
▁autom	-11.0226
ajority	-11.0226
▁compo	-11.0226
rengt	-11.0226
dopte	-11.0227
▁los	-11.0228
priat	-11.0228
irectl	-11.023
volved	-11.0232
▁discrimination	-11.0232
combin	-11.0233
ufactu	-11.0233
▁exclusi	-11.0233
mply	-11.0234
▁mot	-11.0234
▁commerc	-11.0236
▁chara	-11.0236
onfer	-11.0237
etermin	-11.0237
century	-11.0239
arity	-11.024
strum	-11.0242
▁categorie	-11.0242
ciali	-11.0242
ciety	-11.0247
▁educ	-11.0247
▁post	-11.0247
rigina	-11.0248
entione	-11.0248
▁capa	-11.0249
liver	-11.025
ontex	-11.0251
categories	-11.0251
balan	-11.0252
entin	-11.0252
charac	-11.0253
rar	-11.0254
class	-11.0256
▁reduction	-11.0257
ntioned	-11.0257
arliamentar	-11.0257
borde	-11.0258
ituated	-11.0258
elope	-11.0259
home	-11.0259
▁assis	-11.026
fine	-11.026
nstallation	-11.026
▁presente	-11.0261
▁immediately	-11.0263
migration	-11.0265
▁apartm	-11.0266
ablished	-11.0267
apartme	-11.0268
llec	-11.027
websi	-11.0271
▁everyone	-11.0273
▁bal	-11.0273
mentary	-11.0274
raini	-11.0274
arde	-11.0275
atis	-11.0277
termi	-11.0278
petitiv	-11.0279
stern	-11.0279
▁external	-11.0279
havi	-11.028
▁spee	-11.028
erfect	-11.0281
▁considere	-11.0281
dest	-11.0282
ishi	-11.0282
legislative	-11.0283
uggest	-11.0283
mult	-11.0283
▁publish	-11.0285
▁France	-11.0285
oj	-11.0286
nowle	-11.0288
towa	-11.0288
griculture	-11.029
▁Ser	-11.0291
nfl	-11.0291
▁legislativ	-11.0291
layer	-11.0291
▁bord	-11.0292
sociation	-11.0292
owled	-11.0292
element	-11.0293
irm	-11.0294
▁nothing	-11.0294
ssociatio	-11.0296
response	-11.0296
▁Article	-11.0296
aph	-11.0297
aring	-11.0298
▁kin	-11.0299
ttent	-11.0299
doub	-11.0299
ransf	-11.0301
fforts	-11.0302
etitive	-11.0302
▁viol	-11.0302
awar	-11.0303
ownload	-11.0303
▁pho	-11.0303
wledg	-11.0304
considerabl	-11.0305
ectl	-11.0307
▁either	-11.0307
ocrac	-11.0308
discriminat	-11.031
Le	-11.0311
▁record	-11.0311
cume	-11.0312
▁fri	-11.0312
Su	-11.0312
erra	-11.0314
oot	-11.0315
▁Spa	-11.0316
educe	-11.0316
ndeed	-11.0316
▁practical	-11.0317
rumen	-11.0318
twar	-11.0319
ersh	-11.032
reserve	-11.032
trume	-11.032
equipment	-11.0321
sev	-11.0321
pprop	-11.0321
▁ligh	-11.0322
tential	-11.0324
ollecti	-11.0324
eit	-11.0325
▁indica	-11.0326
mmediat	-11.0327
▁bank	-11.0328
▁picture	-11.033
arties	-11.033
▁equipmen	-11.033
ardin	-11.0332
rastructure	-11.0332
softw	-11.0332
ontrac	-11.0333
ipa	-11.0334
mewo	-11.0335
standi	-11.0336
oliday	-11.0338
▁statio	-11.0338
mpt	-11.0339
▁World	-11.0339
riori	-11.0343
▁sugge	-11.0343
essin	-11.0344
ones	-11.0345
nomy	-11.0345
artm	-11.0345
orate	-11.0347
rsh	-11.0348
▁civil	-11.0348
eements	-11.0349
onsideration	-11.0349
llent	-11.0356
officia	-11.0357
▁sl	-11.0357
ildi	-11.0358
ium	-11.0358
▁considerab	-11.036
happe	-11.0361
littl	-11.0362
sibilities	-11.0362
mfortable	-11.0363
ngua	-11.0364
onitor	-11.0365
rator	-11.0365
orn	-11.0365
limate	-11.0367
irection	-11.0368
Service	-11.0369
amb	-11.0369
cipat	-11.0369
▁photo	-11.037
ogy	-11.0371
dialogue	-11.0372
▁dialogu	-11.0372
freed	-11.0373
ovati	-11.0375
▁enco	-11.0375
mprovement	-11.0375
▁potent	-11.0376
ocum	-11.0376
ssive	-11.0377
aspect	-11.0378
▁unti	-11.0379
known	-11.038
raft	-11.0381
▁aspec	-11.0381
nutes	-11.0382
ndat	-11.0384
orted	-11.0386
ommendation	-11.0386
erforma	-11.0386
▁fail	-11.0387
▁restrict	-11.0388
cerning	-11.039
longer	-11.039
commendatio	-11.039
taki	-11.039
usio	-11.0391
formanc	-11.0391
uris	-11.0392
▁advance	-11.0392
aration	-11.0392
▁land	-11.0393
anization	-11.0394
ormance	-11.0395
ibute	-11.0395
apita	-11.0395
oordina	-11.0395
erro	-11.0396
onsequ	-11.0396
chall	-11.0398
nseque	-11.0398
ney	-11.0399
pulat	-11.0399
onge	-11.0399
eace	-11.04
fortuna	-11.0404
factor	-11.0404
▁scien	-11.0405
obs	-11.0406
etwo	-11.0407
echnologies	-11.0409
sistanc	-11.0409
ufficient	-11.0413
▁highlight	-11.0413
▁quit	-11.0415
acto	-11.0418
elated	-11.0418
omise	-11.0419
▁presid	-11.042
ongratul	-11.0421
▁propert	-11.0421
omis	-11.0421
ngratula	-11.0421
run	-11.0422
gratulat	-11.0422
safet	-11.0422
nterpris	-11.0424
▁absolute	-11.0426
method	-11.0426
eade	-11.0427
▁affec	-11.0427
iorit	-11.0428
cession	-11.0429
ctivity	-11.043
ecting	-11.0432
▁metho	-11.0436
tn	-11.0436
oursel	-11.0438
Governm	-11.0439
▁promoti	-11.0439
▁leading	-11.044
cienc	-11.044
▁2009	-11.0441
installation	-11.0442
adie	-11.0443
rpris	-11.0447
▁draw	-11.045
rran	-11.0452
oduced	-11.0452
▁Turkey	-11.0452
eart	-11.0452
pulati	-11.0453
▁categori	-11.0453
nectio	-11.0456
▁participation	-11.0457
nstan	-11.0457
▁complex	-11.0458
until	-11.0461
▁consul	-11.0462
erfo	-11.0462
▁away	-11.0464
rforman	-11.0465
▁Therefor	-11.0466
agric	-11.0467
▁Da	-11.0467
▁emphas	-11.0468
ilitary	-11.0469
▁Servic	-11.0469
ransfer	-11.047
emphasi	-11.0471
lleague	-11.0474
istributi	-11.0475
tali	-11.0477
▁surroun	-11.0477
lack	-11.0478
ransparenc	-11.0479
created	-11.0479
surround	-11.048
Ministe	-11.0482
iber	-11.0484
focus	-11.0484
ffairs	-11.0487
orke	-11.0487
▁unemployment	-11.0489
ompletel	-11.0489
presentatio	-11.049
although	-11.0491
▁administrative	-11.0492
intain	-11.0492
mpletely	-11.0493
reatmen	-11.0495
eatment	-11.0496
lad	-11.0496
onsumers	-11.0497
▁althoug	-11.0497
reli	-11.0498
eatin	-11.0499
otentia	-11.0501
▁Ital	-11.0501
ntract	-11.0501
terprise	-11.0503
imag	-11.0503
terp	-11.0503
manufa	-11.0509
cerne	-11.051
iding	-11.051
▁ann	-11.051
amew	-11.0512
ogre	-11.0512
rmed	-11.0512
download	-11.0514
indepe	-11.0514
uirem	-11.0516
▁Constitution	-11.0517
▁active	-11.0518
rrie	-11.0518
eferenc	-11.0519
mentar	-11.0519
ressio	-11.0519
consequ	-11.0521
preside	-11.0522
▁compu	-11.0522
rw	-11.0525
▁purpo	-11.0527
▁sourc	-11.0527
▁institutional	-11.0528
ansparency	-11.0528
competitiveness	-11.0528
asses	-11.0532
Our	-11.0532
essful	-11.0532
▁compete	-11.0533
▁pages	-11.0534
▁downloa	-11.0534
▁manuf	-11.0535
nnovation	-11.0536
▁indep	-11.0537
ompromis	-11.0537
costs	-11.0538
▁attracti	-11.054
colo	-11.0541
▁Affairs	-11.0541
hnic	-11.0542
ctures	-11.0542
▁online	-11.0543
immedia	-11.0544
▁immedi	-11.0545
organizatio	-11.0545
arian	-11.0546
▁conseq	-11.0548
alogue	-11.0549
nitie	-11.055
ntegrate	-11.0551
regardin	-11.0551
urpose	-11.0553
▁summ	-11.0554
▁offici	-11.0557
isk	-11.0558
potenti	-11.0559
enting	-11.056
rgen	-11.0562
eau	-11.0562
99	-11.0563
dmini	-11.0563
ategor	-11.0564
epara	-11.0566
aticall	-11.0568
▁infrastruc	-11.0568
sw	-11.0569
tains	-11.057
▁job	-11.0571
decid	-11.0572
quite	-11.0572
infrastruct	-11.0572
erp	-11.0573
ened	-11.0574
▁considerati	-11.0577
vou	-11.0578
tact	-11.0578
etr	-11.0578
▁Ce	-11.058
▁alternati	-11.0582
ably	-11.0582
rfor	-11.0582
havin	-11.0583
ourag	-11.0583
▁taki	-11.0586
commercia	-11.0586
▁almost	-11.0587
▁releas	-11.0587
▁circumstance	-11.0588
▁Tur	-11.0589
oncerni	-11.0589
bur	-11.059
eautif	-11.0591
partie	-11.0591
quit	-11.0592
▁determ	-11.0592
load	-11.0593
ufacture	-11.0593
omputer	-11.0594
parliam	-11.0594
Africa	-11.0595
harg	-11.0597
lr	-11.0599
utiful	-11.0599
▁Afric	-11.06
migra	-11.0603
▁defen	-11.0605
lating	-11.0606
loping	-11.0606
racte	-11.0607
▁resi	-11.0609
compromi	-11.0609
purpos	-11.0612
nova	-11.0613
typ	-11.0613
efere	-11.0614
worker	-11.0615
needed	-11.0617
inio	-11.0618
cking	-11.0618
uced	-11.0619
igin	-11.0622
▁pressur	-11.0625
tainab	-11.0625
technologies	-11.0626
onflict	-11.0627
rav	-11.0628
autifu	-11.0629
▁focu	-11.0629
istory	-11.0629
speciali	-11.063
▁quick	-11.063
night	-11.0631
omfortab	-11.0631
knowl	-11.0632
▁influence	-11.0632
iews	-11.0633
foreig	-11.0633
▁forei	-11.0633
▁neede	-11.0633
▁sufficient	-11.0634
gge	-11.0635
months	-11.0635
iousl	-11.0636
ntext	-11.0637
events	-11.0637
mpos	-11.0639
▁correc	-11.0639
articipati	-11.0639
▁colleagues	-11.064
nnova	-11.0642
ried	-11.0642
terror	-11.0643
Development	-11.0643
▁materials	-11.0644
▁billion	-11.0644
fes	-11.0645
▁commerci	-11.0645
maticall	-11.0646
▁conven	-11.0646
flo	-11.0646
Go	-11.0648
▁Wor	-11.0648
mfortabl	-11.0652
▁equa	-11.0652
fessi	-11.0653
editerrane	-11.0653
ossibi	-11.0654
sente	-11.0654
mainta	-11.0655
reasi	-11.0655
coura	-11.0656
xchang	-11.0657
▁collea	-11.0663
colleag	-11.0663
angu	-11.0664
oncerns	-11.0665
onally	-11.0667
attract	-11.0668
grammes	-11.0668
cisions	-11.0669
▁capacit	-11.0669
spen	-11.067
▁reports	-11.067
rid	-11.0671
▁situate	-11.0671
trod	-11.0671
▁processe	-11.0672
▁occ	-11.0674
learl	-11.0674
why	-11.0675
gulations	-11.0676
nging	-11.0676
▁beach	-11.0677
▁poo	-11.0677
omprehensiv	-11.0678
ricu	-11.0679
mprehensive	-11.0679
▁terro	-11.0682
▁automa	-11.0682
▁ground	-11.0683
demonstrate	-11.0685
procedures	-11.0686
▁comput	-11.0686
hnica	-11.0687
ainl	-11.0687
elive	-11.0688
afet	-11.0688
accommod	-11.0689
▁Wa	-11.0692
▁accommo	-11.0692
highe	-11.0693
eakfast	-11.0693
▁low	-11.0694
reakfas	-11.0697
deration	-11.0698
omers	-11.0699
equenc	-11.07
anges	-11.0701
eatu	-11.0701
exchang	-11.0701
▁Minis	-11.0701
Nation	-11.0702
atemen	-11.0703
states	-11.0704
treatme	-11.0704
igat	-11.0707
▁Natio	-11.0708
▁exchan	-11.0709
▁threat	-11.0709
▁let	-11.071
▁historical	-11.0712
▁inno	-11.0715
▁regardi	-11.0715
▁attrac	-11.0716
situated	-11.0717
agi	-11.0718
office	-11.0718
efit	-11.0719
Minist	-11.072
stai	-11.072
commodati	-11.072
diterranea	-11.0721
features	-11.0722
innovation	-11.0723
▁enj	-11.0723
beg	-11.0726
near	-11.0726
climat	-11.0727
01	-11.0729
▁intend	-11.0729
perfec	-11.073
unta	-11.073
▁priority	-11.0731
bed	-11.0731
▁space	-11.0731
translat	-11.0732
ferences	-11.0733
ftwa	-11.0735
ovat	-11.0736
nfere	-11.0736
reservation	-11.0737
spects	-11.0738
▁integrated	-11.0739
esigned	-11.074
hemsel	-11.0741
comfo	-11.0742
oftw	-11.0742
themse	-11.0744
▁thems	-11.0744
iterranean	-11.0744
▁clima	-11.0746
▁music	-11.0746
type	-11.0747
automat	-11.075
liz	-11.075
gran	-11.0751
payment	-11.0752
ssistance	-11.0752
emselv	-11.0756
mselve	-11.0756
▁advanta	-11.0759
▁recommenda	-11.0759
ompetitiveness	-11.0759
▁compar	-11.0759
nique	-11.076
pressure	-11.0761
▁days	-11.0761
erican	-11.0761
racy	-11.0761
resentatives	-11.0761
▁establishment	-11.0763
▁stab	-11.0765
tima	-11.0767
ators	-11.0767
xisting	-11.0767
▁havi	-11.0768
▁congrat	-11.0771
▁Ga	-11.0771
▁past	-11.0773
automati	-11.0776
▁ni	-11.0778
ganisations	-11.078
▁ima	-11.0783
▁him	-11.0783
egislative	-11.0784
▁depen	-11.0784
atures	-11.0785
trave	-11.0788
consult	-11.079
▁organizati	-11.079
entifi	-11.0791
achine	-11.0793
▁nuclear	-11.0795
commerc	-11.0796
epti	-11.0796
alisati	-11.0798
aj	-11.0798
ffo	-11.0798
ourage	-11.08
lationship	-11.0802
▁transla	-11.0802
▁colo	-11.0804
▁sum	-11.0805
niversit	-11.0806
riod	-11.0806
▁living	-11.0809
pini	-11.081
setting	-11.0811
beauti	-11.0812
▁restr	-11.0813
artnershi	-11.0814
quip	-11.0814
ervat	-11.0814
rtnership	-11.0815
▁learn	-11.0815
atch	-11.0817
onsist	-11.082
▁opi	-11.0821
▁ten	-11.0822
▁discrimina	-11.0823
▁treatm	-11.0824
▁September	-11.0825
stabil	-11.0826
feat	-11.0826
orrect	-11.0826
▁Finally	-11.0826
release	-11.0828
egardin	-11.0832
garding	-11.0832
ocie	-11.0834
words	-11.0836
fety	-11.0836
▁capacity	-11.0836
rganizati	-11.0836
tsel	-11.0837
ganizatio	-11.0837
rite	-11.0838
heart	-11.084
biliti	-11.0841
▁enlarg	-11.0843
▁earl	-11.0844
cant	-11.0846
supporte	-11.0846
▁apply	-11.0847
▁confli	-11.0849
coordin	-11.085
sequ	-11.085
ffering	-11.0851
▁comprom	-11.0851
▁comprehen	-11.0852
▁technologie	-11.0852
funda	-11.0852
▁wal	-11.0853
comment	-11.0853
concept	-11.0853
sequenc	-11.0853
forw	-11.0853
alan	-11.0854
eservation	-11.0854
ablishe	-11.0856
consti	-11.0857
oughout	-11.0857
opulat	-11.0861
rtis	-11.0861
implemented	-11.0862
staina	-11.0863
roughou	-11.0866
recommendat	-11.0867
enjo	-11.0868
rnments	-11.0869
▁recognise	-11.087
alternativ	-11.0871
▁implemente	-11.0871
hrougho	-11.0872
sof	-11.0875
discrimination	-11.0876
▁Please	-11.0877
ustai	-11.088
profe	-11.0882
nut	-11.0883
▁gue	-11.0885
Cent	-11.0889
ciet	-11.089
endent	-11.0891
stances	-11.0893
▁lab	-11.0894
iqu	-11.0895
lex	-11.0895
▁knowle	-11.0895
itse	-11.0895
Mediterran	-11.0895
ching	-11.0896
mountain	-11.0896
novation	-11.0897
nisa	-11.09
equence	-11.0902
▁extra	-11.0903
▁mountai	-11.0904
interesting	-11.0904
ctice	-11.0905
egin	-11.0905
nments	-11.0905
▁ty	-11.0907
▁mechani	-11.0908
ogni	-11.0911
eness	-11.0912
▁enterpris	-11.0913
erva	-11.0914
stabilit	-11.0914
▁atmosphere	-11.0914
sage	-11.0916
▁French	-11.0916
ectr	-11.0917
▁coordi	-11.0918
▁Mediterra	-11.0919
lternativ	-11.0919
acceptabl	-11.092
Fran	-11.0922
▁Cen	-11.0923
▁interestin	-11.0924
fini	-11.0924
circumstances	-11.0926
lenge	-11.0926
existin	-11.0927
raw	-11.0927
cogn	-11.0928
mpre	-11.0928
▁works	-11.0928
ogic	-11.0928
approv	-11.0929
acte	-11.093
▁exclusive	-11.093
ncreased	-11.0931
ciliti	-11.0931
nizatio	-11.0932
▁super	-11.0933
eloped	-11.0934
osts	-11.0936
ciation	-11.0936
▁Austria	-11.0936
▁recognis	-11.0937
▁euro	-11.0938
ialogue	-11.0939
roups	-11.0939
▁previ	-11.0942
associa	-11.0942
inning	-11.0946
▁prepared	-11.0946
reation	-11.0946
esente	-11.0947
leading	-11.0948
lde	-11.095
▁existi	-11.095
docu	-11.0952
inciples	-11.0952
rimin	-11.0954
▁player	-11.0954
▁Republic	-11.0954
trum	-11.0955
gric	-11.0956
grant	-11.0958
undi	-11.0959
othing	-11.0959
toric	-11.096
ternative	-11.096
Di	-11.0961
peac	-11.0961
▁perfe	-11.0962
▁everyt	-11.0963
dmi	-11.0966
inistratio	-11.0966
▁comf	-11.0966
eless	-11.0967
nistration	-11.0968
romi	-11.0968
Govern	-11.0972
longe	-11.0975
comforta	-11.0975
ifferenc	-11.0977
oting	-11.0977
nsequenc	-11.0978
▁stabil	-11.0979
oice	-11.0979
idu	-11.0981
trem	-11.0982
sults	-11.0985
tabi	-11.0985
spac	-11.0986
lant	-11.0988
tep	-11.0988
fference	-11.0988
oncl	-11.0988
inco	-11.0989
ords	-11.099
suff	-11.099
teu	-11.0992
▁dia	-11.0994
aris	-11.0997
orkers	-11.0999
owa	-11.1
enterprise	-11.1001
troduce	-11.1001
recom	-11.1004
capit	-11.1005
model	-11.1007
▁associ	-11.1007
▁momen	-11.1007
▁monitoring	-11.1008
utomati	-11.1008
consis	-11.1009
moment	-11.1009
driv	-11.1011
oney	-11.1011
▁Gover	-11.1011
▁nea	-11.1011
image	-11.1012
▁referenc	-11.1012
drive	-11.1013
▁mechanism	-11.1014
▁equipped	-11.1014
lang	-11.1015
▁face	-11.1016
▁carri	-11.1016
uired	-11.1017
ssoci	-11.1017
everyth	-11.1019
ploye	-11.1019
ften	-11.1021
ediate	-11.1022
ntage	-11.1023
enough	-11.1024
▁enoug	-11.1025
Sp	-11.1025
lands	-11.1025
eck	-11.1025
partnership	-11.1027
▁four	-11.1027
▁quickly	-11.1028
frie	-11.103
xternal	-11.103
terra	-11.1031
check	-11.1031
understanding	-11.1032
ersit	-11.1033
quipment	-11.1035
▁impos	-11.1035
▁initiatives	-11.1035
partments	-11.1037
rtanc	-11.1037
▁partnershi	-11.1037
▁alternat	-11.1038
necti	-11.1039
machin	-11.104
transfe	-11.1041
dete	-11.1041
▁concep	-11.1042
aura	-11.1043
▁separat	-11.1043
minu	-11.1044
mpromise	-11.1044
enlarge	-11.1047
▁choice	-11.1047
gica	-11.1048
ranspa	-11.105
▁Bar	-11.1051
ndly	-11.1051
▁atta	-11.1054
target	-11.1056
orms	-11.1057
sparen	-11.1059
crac	-11.106
▁practica	-11.1061
breakfast	-11.1062
▁stabilit	-11.1063
niz	-11.1064
ociat	-11.1065
onstra	-11.1066
▁machi	-11.1066
characteri	-11.1067
sci	-11.1067
cceptable	-11.1068
anspar	-11.1069
▁extensi	-11.107
Hou	-11.107
hni	-11.107
broad	-11.107
emphasis	-11.107
▁breakfas	-11.1071
anisa	-11.1075
nspare	-11.1075
nclus	-11.1076
▁monit	-11.1076
voted	-11.1076
▁crim	-11.1076
ckage	-11.1077
rdinat	-11.1078
▁solidarit	-11.1078
▁ol	-11.1079
▁demons	-11.1079
iscriminat	-11.1079
ntil	-11.108
automatic	-11.1081
ntire	-11.1082
challenges	-11.1082
earn	-11.1085
eginning	-11.1085
ombin	-11.1085
food	-11.1086
trategi	-11.1087
monstra	-11.1089
aliz	-11.1092
▁parliamentar	-11.1092
sented	-11.1093
▁client	-11.1093
engthe	-11.1094
▁confide	-11.1094
tta	-11.1094
correc	-11.1095
obligation	-11.1095
ngthen	-11.1096
leade	-11.1096
lved	-11.1097
pectiv	-11.1099
yon	-11.1099
sett	-11.1099
emonstr	-11.1099
confiden	-11.1101
fet	-11.1102
▁assess	-11.1103
dustria	-11.1108
▁ourselves	-11.1108
argement	-11.1109
▁confirm	-11.1109
giona	-11.1109
ucat	-11.1109
▁capi	-11.1109
orpora	-11.1112
deliv	-11.1115
kets	-11.1115
above	-11.1116
accepta	-11.1117
▁categ	-11.1117
▁efficiency	-11.1118
▁exception	-11.1118
▁abov	-11.1119
writing	-11.1119
▁guests	-11.112
ommodatio	-11.1121
mmodation	-11.1122
▁unique	-11.1122
rency	-11.1122
▁Pol	-11.1124
Vi	-11.1125
ranslat	-11.1126
▁immediatel	-11.1127
▁manufacturer	-11.1127
nary	-11.1128
aces	-11.1128
space	-11.1129
nfrastruct	-11.113
rastructur	-11.113
▁analy	-11.1131
immediately	-11.1131
ilitar	-11.1134
▁messag	-11.1138
▁settin	-11.1138
struments	-11.114
▁clim	-11.114
igration	-11.1141
resentatio	-11.1142
ustrial	-11.1143
esentation	-11.1143
▁left	-11.1144
tende	-11.1145
ivil	-11.1146
lope	-11.1146
regist	-11.1146
includes	-11.1147
creatio	-11.1149
nologi	-11.1149
tunatel	-11.1153
▁elections	-11.1153
▁abs	-11.1154
Mada	-11.1155
evious	-11.1155
ntac	-11.1155
entir	-11.1157
onsiderabl	-11.1157
▁infl	-11.1157
deta	-11.1158
▁descri	-11.1158
wal	-11.1158
unately	-11.1159
eturn	-11.116
comprehen	-11.116
stau	-11.1161
▁constitution	-11.1161
duca	-11.1164
compli	-11.1164
ngratulate	-11.1164
ncourage	-11.1165
Tre	-11.1166
gui	-11.1167
uniti	-11.1167
▁milit	-11.1168
ods	-11.1171
ortuna	-11.1172
▁touri	-11.1172
oac	-11.1173
▁administrativ	-11.1173
aly	-11.1176
▁expert	-11.1177
llowed	-11.1177
tiveness	-11.1177
ssure	-11.1178
repare	-11.1179
▁automatically	-11.1179
administrative	-11.1182
generation	-11.1183
adam	-11.1184
nown	-11.1184
scien	-11.1185
tativ	-11.1187
errori	-11.1189
onclusi	-11.1191
milita	-11.1191
ecide	-11.1191
ythi	-11.1193
nfortun	-11.1193
mplemented	-11.1193
mprehensi	-11.1194
participation	-11.1194
restrict	-11.1195
apart	-11.1196
▁specifica	-11.1196
arie	-11.1197
compute	-11.1197
gions	-11.1198
equent	-11.1198
demonst	-11.12
iminat	-11.12
tainabl	-11.1201
rporat	-11.1202
supported	-11.1203
eha	-11.1203
considere	-11.1205
lativ	-11.1205
ategories	-11.1205
fficia	-11.1206
utomat	-11.1206
auto	-11.1206
criti	-11.1209
ommercia	-11.121
▁night	-11.121
rliamentar	-11.1211
stallation	-11.1211
eptio	-11.1211
echnologie	-11.1213
▁apar	-11.1214
ecog	-11.1216
ithe	-11.1216
mmercial	-11.1216
rtunat	-11.1216
nsideration	-11.122
ersity	-11.1221
tremel	-11.1221
assistan	-11.1223
▁First	-11.1224
orig	-11.1225
▁cases	-11.1225
legislativ	-11.1226
rroris	-11.1227
admin	-11.123
ufficien	-11.1231
dings	-11.1233
ash	-11.1237
tunate	-11.1241
ssociati	-11.1242
reasons	-11.1242
ctuall	-11.1246
▁except	-11.1247
▁scientific	-11.1247
▁extend	-11.1248
practical	-11.1248
taur	-11.1248
heck	-11.1249
▁sufficien	-11.125
discrimina	-11.1251
ussio	-11.1252
onstrat	-11.1254
elv	-11.1255
entury	-11.1255
cred	-11.1255
▁regis	-11.1255
▁forma	-11.1256
considerab	-11.1257
erous	-11.126
nov	-11.1261
▁hour	-11.1263
antage	-11.1264
leaders	-11.1264
eatures	-11.1265
ivity	-11.1266
received	-11.1266
ssage	-11.1266
onsult	-11.1267
conferen	-11.1268
astructure	-11.1268
mind	-11.1268
igati	-11.1269
▁port	-11.1269
categorie	-11.127
corpora	-11.127
pear	-11.1271
kind	-11.1271
oping	-11.1271
▁Israel	-11.1271
icated	-11.1272
tist	-11.1275
▁atmospher	-11.1281
tifica	-11.1282
opte	-11.1283
wom	-11.1284
statem	-11.1285
tructura	-11.1286
rmer	-11.1286
lte	-11.1286
unemployment	-11.1287
vantag	-11.1288
▁exe	-11.1288
▁unemploymen	-11.1288
reflect	-11.1288
tegy	-11.1289
▁chec	-11.1289
rvatio	-11.129
touris	-11.129
▁analys	-11.1291
▁factor	-11.1293
▁justi	-11.1293
via	-11.1294
▁threa	-11.1294
begi	-11.1295
iso	-11.1296
xcel	-11.1296
tunities	-11.1296
ortuniti	-11.1298
rvati	-11.1299
▁generation	-11.1306
makes	-11.1307
oung	-11.1307
reduction	-11.1307
▁reductio	-11.1307
wri	-11.1308
ructural	-11.1309
ounta	-11.131
ommerc	-11.1312
alw	-11.1312
uage	-11.1312
roved	-11.1313
▁ena	-11.1314
ibilities	-11.1314
▁beginni	-11.1314
Constitution	-11.1316
▁Constitutio	-11.1316
▁mul	-11.1316
ults	-11.1317
beginnin	-11.1319
▁creatio	-11.1319
urround	-11.1319
▁aid	-11.1319
▁influenc	-11.132
lections	-11.1321
riculture	-11.1323
amoun	-11.1323
lates	-11.1324
timat	-11.1324
nner	-11.1325
▁advanc	-11.1328
▁matters	-11.1328
fortable	-11.1329
edom	-11.1329
ntribute	-11.1332
▁Fina	-11.1335
▁defini	-11.1335
acter	-11.1335
adit	-11.1335
tire	-11.1336
dministrative	-11.1336
▁Mor	-11.1337
▁date	-11.1337
▁mount	-11.1338
ommendatio	-11.1338
conclus	-11.1338
oub	-11.1338
mmendation	-11.1339
ubstan	-11.134
ndati	-11.1341
commendati	-11.1342
guag	-11.1343
▁indic	-11.1344
▁game	-11.1344
xpr	-11.1345
▁sid	-11.1346
escri	-11.1348
▁Directive	-11.1349
pha	-11.135
▁raise	-11.1352
▁staff	-11.1352
Centr	-11.1354
dou	-11.1354
iction	-11.1356
ntativ	-11.1357
ofte	-11.1357
considerati	-11.1358
▁goi	-11.1358
gist	-11.136
gned	-11.136
▁influen	-11.136
chnologies	-11.1361
xpec	-11.1361
outs	-11.1362
▁town	-11.1362
nstitute	-11.1364
loa	-11.1364
▁confere	-11.1365
stitute	-11.1368
rative	-11.1369
▁considerat	-11.1369
dvanta	-11.1375
utomatic	-11.1375
ayin	-11.1377
▁discover	-11.1377
sele	-11.1378
fortun	-11.1378
fight	-11.1379
pace	-11.138
dards	-11.1381
contains	-11.1383
outside	-11.1383
▁belo	-11.1383
ainable	-11.1383
doc	-11.1383
iscrimination	-11.1386
▁circumstanc	-11.1387
▁assessment	-11.1387
circumstance	-11.1388
ecommendat	-11.1388
▁excl	-11.1389
▁Austr	-11.139
temen	-11.1391
Fra	-11.1391
▁bat	-11.1392
▁sure	-11.1392
hone	-11.1392
stl	-11.1394
dle	-11.1395
espond	-11.1396
ores	-11.1397
▁rais	-11.1398
ppos	-11.1398
▁broad	-11.1399
ledg	-11.1401
rpr	-11.1402
ncludes	-11.1403
lookin	-11.1406
ndicat	-11.1406
omatic	-11.1407
trial	-11.1407
▁installati	-11.1408
▁discriminati	-11.1408
ssist	-11.1409
keep	-11.1409
ales	-11.141
ganiz	-11.1411
▁cred	-11.1411
▁surrounding	-11.1412
▁competen	-11.1412
▁submit	-11.1413
restr	-11.1413
Wha	-11.1414
▁Lisbon	-11.1414
▁compli	-11.1415
sibilitie	-11.1415
avel	-11.1416
matical	-11.1419
cks	-11.1422
mpact	-11.1422
▁lookin	-11.1424
rtie	-11.1424
provement	-11.1425
erpr	-11.1426
▁head	-11.1426
technologie	-11.1428
▁suit	-11.1428
▁definit	-11.1429
forts	-11.143
▁reservation	-11.143
itmen	-11.1431
substa	-11.1431
▁cate	-11.1431
susta	-11.1432
ino	-11.1435
wea	-11.1437
▁top	-11.1439
▁funds	-11.1439
ograp	-11.144
▁creating	-11.1441
migratio	-11.1442
▁determine	-11.1442
Direct	-11.1442
ourselves	-11.1442
tay	-11.1443
▁neve	-11.1444
▁tab	-11.1445
▁Ri	-11.1446
iga	-11.1448
nderstanding	-11.1449
romote	-11.1449
everyone	-11.1449
agin	-11.145
▁damage	-11.145
▁externa	-11.1452
untain	-11.1453
▁across	-11.1455
ncoura	-11.1455
disco	-11.1456
establishment	-11.1456
mew	-11.1456
external	-11.1457
ociation	-11.1458
oym	-11.146
▁kee	-11.146
esponse	-11.146
nef	-11.1462
highlight	-11.1462
▁friendly	-11.1462
▁highligh	-11.1465
ountai	-11.1465
Cha	-11.1468
▁Sch	-11.1469
sociatio	-11.1469
nership	-11.1469
talk	-11.1469
Fin	-11.147
publish	-11.147
message	-11.1471
inly	-11.1471
ubj	-11.1472
pop	-11.1475
▁moveme	-11.1476
tainly	-11.1477
▁terrorism	-11.1479
iginal	-11.148
ntary	-11.1482
parent	-11.1482
▁absolut	-11.1482
fess	-11.1484
onfe	-11.1484
▁territor	-11.1485
rath	-11.1485
advant	-11.1485
▁Direc	-11.1486
conven	-11.149
exclu	-11.1492
lisat	-11.1493
tificati	-11.1493
atical	-11.1495
organizati	-11.1495
ibera	-11.1498
motio	-11.1498
equipmen	-11.1498
along	-11.15
ticl	-11.15
▁infrastru	-11.15
mpetitiveness	-11.15
ngt	-11.1501
▁tool	-11.1502
enab	-11.1503
veryone	-11.1506
hl	-11.1506
▁Mini	-11.1508
ialis	-11.1511
Mrs	-11.1512
netw	-11.1513
▁ski	-11.1514
▁Palestinian	-11.1515
▁Mon	-11.1517
eaders	-11.1517
▁empha	-11.1517
zat	-11.1518
▁scienti	-11.1519
ived	-11.152
infrastruc	-11.152
anced	-11.1521
evie	-11.1522
▁Sh	-11.1523
ians	-11.1524
previo	-11.1525
nteresting	-11.1526
vides	-11.1528
rter	-11.1528
▁inn	-11.1531
ansparenc	-11.1532
ntif	-11.1533
▁electronic	-11.1534
hance	-11.1534
post	-11.1534
encour	-11.1535
▁engine	-11.1535
▁school	-11.1535
keyword	-11.1536
▁keywor	-11.1538
Ha	-11.1539
commoda	-11.154
rand	-11.1542
ommodat	-11.1542
▁oft	-11.1544
wr	-11.1544
defe	-11.1544
innov	-11.1545
erythi	-11.1546
oard	-11.1546
ccommod	-11.1547
rythin	-11.1548
▁ess	-11.1549
veryth	-11.1549
▁December	-11.1551
parliamentar	-11.1552
strib	-11.1552
▁supplie	-11.1553
exclusi	-11.1553
▁commer	-11.1553
idera	-11.1556
compete	-11.1557
ajorit	-11.1558
viti	-11.1559
▁identif	-11.1559
▁restric	-11.1559
ssur	-11.1559
materials	-11.156
nise	-11.156
▁comes	-11.1561
isco	-11.1562
▁exclus	-11.1565
integrated	-11.1565
league	-11.1566
ngly	-11.1566
▁values	-11.157
anizatio	-11.1571
airs	-11.1572
pendi	-11.1572
plemented	-11.1574
carrie	-11.1574
prehensive	-11.1575
enes	-11.1576
arty	-11.1577
▁dou	-11.1579
▁tes	-11.1582
leased	-11.1582
nsparency	-11.1582
majori	-11.1583
▁specifically	-11.1583
commod	-11.1583
▁mobil	-11.1584
porting	-11.1584
lder	-11.1585
fav	-11.1586
▁farm	-11.1589
effi	-11.1589
categori	-11.159
rovis	-11.159
tuated	-11.1591
colleagues	-11.1591
After	-11.1594
dva	-11.1594
▁businesses	-11.1595
ndepe	-11.1595
▁Mu	-11.1596
▁iden	-11.1597
ais	-11.1599
absolute	-11.1599
▁guide	-11.16
ccom	-11.1601
▁register	-11.1601
ype	-11.1602
modation	-11.1602
rocedures	-11.1604
otal	-11.1606
emonstrate	-11.1607
articipation	-11.1607
▁Afte	-11.1609
▁relevant	-11.1609
▁Res	-11.1613
hina	-11.1614
▁component	-11.1615
urch	-11.1616
onde	-11.1616
mily	-11.1617
ritic	-11.1617
▁publis	-11.1618
▁purchas	-11.162
▁dest	-11.162
▁cov	-11.1621
peciali	-11.1624
rda	-11.1624
tings	-11.1625
En	-11.1625
ils	-11.1627
historical	-11.1627
centu	-11.1627
nothing	-11.1628
Article	-11.1629
spare	-11.1629
bsit	-11.163
limat	-11.1631
alternati	-11.1631
mprehensiv	-11.1631
esentatives	-11.1632
ortable	-11.1632
occ	-11.1634
nswer	-11.1635
ladi	-11.1635
feel	-11.1636
ague	-11.1637
Therefor	-11.1637
oris	-11.1638
ssibi	-11.1638
▁came	-11.1638
ebsi	-11.1639
▁employee	-11.164
Ru	-11.1644
solid	-11.1645
picture	-11.1645
▁animal	-11.1646
lot	-11.1647
attracti	-11.1648
▁violence	-11.165
▁figh	-11.1651
ecor	-11.1651
stributi	-11.1651
▁pictur	-11.1652
egrati	-11.1654
nua	-11.1654
lter	-11.1655
neration	-11.1657
▁Nat	-11.1658
acka	-11.1658
influence	-11.1659
▁una	-11.166
▁historica	-11.1662
ffair	-11.1664
ircumstances	-11.1665
▁interv	-11.1666
nive	-11.1666
script	-11.1666
▁preci	-11.1666
▁Fe	-11.1667
ror	-11.1668
ropr	-11.1671
rary	-11.1672
oke	-11.1672
editerran	-11.1676
assis	-11.1677
llation	-11.1678
oration	-11.168
▁onc	-11.1682
▁univers	-11.1682
aware	-11.1682
impact	-11.1682
oning	-11.1683
rato	-11.1683
nflict	-11.1684
tended	-11.1686
▁attempt	-11.1686
holida	-11.1687
opu	-11.1689
encou	-11.169
ckag	-11.169
rofe	-11.169
shop	-11.1692
▁impac	-11.1692
rticipati	-11.1693
▁basic	-11.1693
graphic	-11.1694
iles	-11.1699
▁size	-11.1699
applie	-11.17
▁refu	-11.1702
cript	-11.1704
deter	-11.1704
dialogu	-11.1705
▁characteris	-11.1706
diterrane	-11.1706
eneration	-11.1706
▁immigra	-11.1707
terranean	-11.1707
▁documents	-11.1708
▁holid	-11.1709
recommenda	-11.1711
Mad	-11.1715
ndam	-11.1715
libera	-11.1715
indica	-11.1716
asti	-11.1716
▁architect	-11.1721
facto	-11.1722
advance	-11.1723
anisations	-11.1724
cialis	-11.1725
ctivel	-11.1727
ighl	-11.1727
ofes	-11.1727
ront	-11.1727
nterpri	-11.1728
riate	-11.173
prices	-11.173
rovisions	-11.173
▁developments	-11.1731
joy	-11.1732
lecte	-11.1733
▁understanding	-11.1734
aract	-11.1734
capacit	-11.1734
dialog	-11.1736
▁retu	-11.1736
latin	-11.1736
retur	-11.1737
▁organizat	-11.1737
ediat	-11.1738
▁beginn	-11.1743
▁Ea	-11.1743
▁dialo	-11.1743
propert	-11.1743
ayment	-11.1744
estm	-11.1745
▁exclusiv	-11.1745
▁effects	-11.1746
record	-11.1747
eaut	-11.1749
▁eno	-11.1749
▁Cl	-11.175
inl	-11.175
▁Office	-11.1752
▁Pri	-11.1752
▁internet	-11.1754
ituate	-11.1754
ratulat	-11.1755
ngratul	-11.1756
commerci	-11.1757
gratula	-11.1757
dame	-11.1757
▁anima	-11.1758
terpris	-11.1759
nemployment	-11.1759
creased	-11.176
justi	-11.1764
promoti	-11.1764
factu	-11.1764
▁Further	-11.1766
jority	-11.1767
alog	-11.1768
essive	-11.1769
processe	-11.177
constitution	-11.1771
▁discrimin	-11.1774
iterranea	-11.1775
efficiency	-11.1776
▁aspects	-11.1777
nline	-11.1778
entary	-11.1778
etermi	-11.1778
implemente	-11.1781
orw	-11.1782
capacity	-11.1784
▁sust	-11.1784
complex	-11.1786
eded	-11.1787
opri	-11.1788
fortabl	-11.1788
Ind	-11.1789
ntione	-11.1789
▁trav	-11.1793
apartm	-11.1794
potent	-11.1794
chal	-11.1795
iveness	-11.1796
ovin	-11.1796
▁surrou	-11.1799
▁traffic	-11.1799
mobil	-11.1801
stm	-11.1801
▁relevan	-11.1803
▁simple	-11.1806
▁por	-11.1806
capa	-11.1808
▁poten	-11.1808
oppos	-11.181
mmediately	-11.181
xtre	-11.181
▁impa	-11.1811
▁bala	-11.1812
edo	-11.1812
surroun	-11.1813
▁Nor	-11.1814
tracti	-11.1816
lternati	-11.1817
etitiv	-11.1818
mmedia	-11.1818
▁lad	-11.1818
generati	-11.1819
spar	-11.1819
Cons	-11.1819
France	-11.182
▁eng	-11.1821
bod	-11.1823
tentia	-11.1824
erfe	-11.1825
mpletel	-11.1825
egislativ	-11.1825
althoug	-11.1825
▁rou	-11.1826
pletely	-11.1827
▁structural	-11.1828
fairs	-11.1829
▁Affair	-11.183
▁althou	-11.1831
nsumers	-11.1832
elemen	-11.1833
osp	-11.1833
omati	-11.1834
▁Du	-11.1835
adm	-11.1836
gislative	-11.1837
▁recor	-11.1838
erprise	-11.1838
titive	-11.1839
mail	-11.1842
ownloa	-11.1842
▁criteri	-11.1842
ntar	-11.1843
wnload	-11.1844
gges	-11.1844
labo	-11.1844
rkets	-11.1844
▁civi	-11.1847
eath	-11.1848
young	-11.1848
downloa	-11.1848
▁youn	-11.185
ssistan	-11.1851
offici	-11.1852
▁tas	-11.1852
egist	-11.1852
sals	-11.1853
forman	-11.1853
urge	-11.1855
ationship	-11.1856
elections	-11.1856
interestin	-11.1856
vents	-11.1858
ldr	-11.1859
▁Convent	-11.186
front	-11.1861
▁eleme	-11.1861
answe	-11.1862
ccu	-11.1863
llecti	-11.1863
nking	-11.1864
rlin	-11.1864
atmosphere	-11.1865
▁downlo	-11.1865
omment	-11.1869
ompromi	-11.1871
mpromis	-11.1872
▁hos	-11.1873
orei	-11.1873
September	-11.1873
Servic	-11.1875
▁interesti	-11.1876
Affairs	-11.1876
▁confer	-11.1877
▁Septembe	-11.1878
▁display	-11.1878
bsta	-11.1881
eduction	-11.1881
▁Part	-11.1882
mani	-11.1883
ovisi	-11.1884
sista	-11.1884
actur	-11.1884
regardi	-11.1885
tegrate	-11.1886
litary	-11.1886
▁spen	-11.1887
orporate	-11.1888
raise	-11.1888
▁displa	-11.1889
missions	-11.1889
recognise	-11.189
eedo	-11.1892
▁guid	-11.1892
bitio	-11.1893
auti	-11.1894
▁anal	-11.1894
▁funding	-11.1895
ommodati	-11.1897
pressur	-11.1898
determ	-11.1899
ernin	-11.19
race	-11.1901
harac	-11.1902
▁benefits	-11.1902
ppen	-11.1903
initiatives	-11.1903
▁comprehe	-11.1904
▁precis	-11.1904
monitoring	-11.1906
priority	-11.1906
▁Mediterr	-11.191
facture	-11.1911
▁Christ	-11.1911
ompute	-11.1912
Franc	-11.1913
administrativ	-11.1914
manufacturer	-11.1916
▁Servi	-11.1916
automatically	-11.1917
▁automaticall	-11.1917
subst	-11.192
ormanc	-11.1921
▁similar	-11.1921
eav	-11.1922
▁note	-11.1923
▁efficienc	-11.1925
irport	-11.1926
rforma	-11.1928
compo	-11.1928
ssistanc	-11.1929
corporate	-11.1929
▁accession	-11.193
oordin	-11.1931
rmance	-11.1934
tandi	-11.1934
phe	-11.1935
gina	-11.1936
▁Republi	-11.1936
▁East	-11.1937
clas	-11.1939
erty	-11.1939
comprom	-11.194
lau	-11.1942
ressure	-11.1943
Mediterra	-11.1945
▁damag	-11.1946
▁presi	-11.1946
ssess	-11.1946
aged	-11.1947
intend	-11.1947
▁amou	-11.1948
artie	-11.1949
rais	-11.1949
enterpris	-11.1951
presid	-11.1953
rally	-11.1953
mac	-11.1955
attac	-11.1955
mphasi	-11.1956
billion	-11.1957
figur	-11.1959
▁Turke	-11.196
omforta	-11.196
▁pressu	-11.196
▁criteria	-11.1962
consul	-11.1963
emphas	-11.1964
▁enterpri	-11.1964
nfer	-11.1964
mfortab	-11.1964
operate	-11.1964
exclusive	-11.1965
clusive	-11.1967
▁capaci	-11.1968
[...]
