▁	-4.51412
e	-4.70985
n	-5.15427
i	-5.38281
r	-5.50415
t	-5.67283
s	-5.71719
a	-5.87908
d	-5.96076
u	-6.10237
h	-6.13515
l	-6.27921
o	-6.431
g	-6.46413
c	-6.5198
m	-6.64573
b	-7.05199
f	-7.09724
w	-7.30381
,	-7.32386
k	-7.36492
z	-7.39586
.	-7.56427
v	-7.7898
p	-7.80248
ü	-7.89719
ä	-7.99168
S	-8.02141
A	-8.23705
E	-8.34312
D	-8.37546
B	-8.48408
M	-8.60215
P	-8.62588
@	-8.66368
I	-8.71235
K	-8.762
F	-8.77482
ö	-8.77606
-	-8.80656
W	-8.81123
G	-8.8543
R	-8.87685
V	-8.88852
H	-8.99789
T	-9.10973
ß	-9.14401
L	-9.17401
U	-9.1916
0	-9.23417
;	-9.41572
Z	-9.42309
N	-9.43129
&	-9.52462
1	-9.61469
y	-9.65368
q	-9.68774
C	-9.75363
2	-9.76108
j	-9.76794
O	-9.97156
J	-10.0312
9	-10.2005
(	-10.2355
)	-10.2431
x	-10.2653
:	-10.3682
3	-10.4616
5	-10.5891
4	-10.6849
8	-10.9484
6	-10.9989
!	-11.035
7	-11.0574
/	-11.1538
?	-11.1806
Ü	-11.2933
#	-11.3958
Ä	-11.6173
Q	-11.7167
%	-11.9645
é	-12.212
Ö	-12.2539
X	-12.4696
Y	-12.5845
en	-5.41303
er	-5.5561
ch	-5.93494
▁d	-5.97371
de	-6.10327
ie	-6.20171
ei	-6.29719
te	-6.32137
in	-6.33499
▁de	-6.3514
un	-6.39268
▁die	-6.4329
der	-6.5134
nd	-6.52332
ich	-6.54754
ge	-6.57115
▁,	-6.63744
▁der	-6.68506
die	-6.69414
▁di	-6.69585
es	-6.74585
ein	-6.75467
▁un	-6.75996
▁und	-6.76082
sch	-6.7692
st	-6.82872
ne	-6.84096
che	-6.85883
ic	-6.8683
re	-6.87679
he	-6.87876
ung	-6.87963
und	-6.88829
▁ein	-6.89283
ng	-6.90382
be	-6.91521
▁e	-6.9283
it	-6.9369
di	-6.94193
den	-6.95987
▁.	-7.01109
is	-7.02299
an	-7.0303
▁a	-7.03107
▁i	-7.03899
ten	-7.04745
▁u	-7.04878
se	-7.06148
eine	-7.07256
gen	-7.10827
▁s	-7.1152
on	-7.14216
▁ei	-7.14962
cht	-7.1652
sc	-7.16595
▁w	-7.16912
▁eine	-7.18309
le	-7.23356
ine	-7.2651
chen	-7.26963
nt	-7.27489
li	-7.27519
ti	-7.2866
▁da	-7.29647
nde	-7.30346
el	-7.31322
au	-7.3202
icht	-7.32972
hen	-7.33525
sche	-7.34202
eit	-7.38625
lich	-7.3972
▁S	-7.40375
ische	-7.41261
▁zu	-7.4381
al	-7.44542
ss	-7.44835
▁in	-7.45103
▁au	-7.46117
ht	-7.48225
me	-7.49413
si	-7.50249
▁v	-7.51343
isch	-7.5181
ere	-7.51892
ter	-7.52563
nen	-7.53853
ra	-7.53902
▁das	-7.54573
at	-7.54844
as	-7.55063
▁be	-7.55488
zu	-7.5611
da	-7.58813
or	-7.59622
ns	-7.60064
ste	-7.61017
ll	-7.61548
▁den	-7.61864
▁vo	-7.62067
ar	-7.6264
▁A	-7.62847
lic	-7.63142
▁z	-7.63606
▁wi	-7.6489
▁b	-7.65393
rt	-7.66136
ion	-7.67129
we	-7.67279
nge	-7.68383
▁g	-7.68747
▁m	-7.68845
▁ge	-7.69276
wi	-7.69449
ha	-7.69953
ri	-7.70219
ur	-7.715
em	-7.71823
schen	-7.7245
ig	-7.73046
us	-7.73247
▁D	-7.73356
et	-7.73432
ent	-7.7356
hr	-7.73974
▁E	-7.73998
ren	-7.74083
iche	-7.74858
▁von	-7.75772
▁diese	-7.76215
ist	-7.76498
ni	-7.77079
ischen	-7.7773
men	-7.7868
isc	-7.8012
ber	-7.81358
rd	-7.81751
▁wir	-7.82003
das	-7.82656
▁B	-7.82839
▁dies	-7.82933
▁si	-7.83508
▁werden	-7.84035
nte	-7.85599
tion	-7.865
▁n	-7.87222
▁we	-7.87713
rde	-7.87836
ers	-7.8902
vo	-7.89112
ngen	-7.89172
ier	-7.89422
▁nicht	-7.90037
nder	-7.90338
lle	-7.90607
▁ist	-7.90952
mi	-7.92402
▁auf	-7.9256
ver	-7.92875
▁für	-7.929
diese	-7.94333
ro	-7.94676
ungen	-7.95112
ese	-7.95902
▁werde	-7.96014
▁M	-7.96378
rs	-7.96695
▁Be	-7.96823
iese	-7.9718
ir	-7.98139
eh	-7.98249
werden	-7.98865
ern	-7.99152
▁ver	-7.99545
io	-7.99581
▁P	-8.00229
▁f	-8.00536
von	-8.01099
wir	-8.01135
auf	-8.01412
uropäische	-8.02168
▁h	-8.02252
liche	-8.0288
nn	-8.0333
and	-8.03553
▁mit	-8.03593
rei	-8.03613
nter	-8.0365
rung	-8.04358
dies	-8.04564
ige	-8.05808
ies	-8.0608
▁Ver	-8.06145
ts	-8.06326
sse	-8.06688
mit	-8.06925
lt	-8.07324
nicht	-8.07364
na	-8.07369
ert	-8.07487
sich	-8.07627
▁nich	-8.08255
end	-8.08402
rden	-8.08577
ve	-8.08599
ru	-8.08976
ach	-8.09165
sen	-8.09347
run	-8.09409
la	-8.09458
▁K	-8.09648
ben	-8.09719
▁des	-8.09888
erung	-8.10503
tr	-8.11645
uf	-8.11791
▁fü	-8.11799
▁F	-8.12053
unge	-8.12203
uropäisch	-8.12434
eg	-8.12652
ta	-8.12653
ropäische	-8.12703
▁I	-8.1316
ol	-8.13213
werde	-8.13421
für	-8.13567
▁werd	-8.14235
▁W	-8.14242
▁mi	-8.15017
tio	-8.15083
erden	-8.16052
▁an	-8.16489
ass	-8.16544
▁sich	-8.1685
▁is	-8.1704
▁Die	-8.17225
▁er	-8.17574
▁dass	-8.18405
eite	-8.18437
ür	-8.18763
len	-8.19661
des	-8.20434
fü	-8.20832
ind	-8.20897
hre	-8.20919
▁G	-8.21202
ke	-8.2197
ation	-8.22389
mm	-8.23769
▁V	-8.23865
ell	-8.24015
ropäisch	-8.24211
opäische	-8.24478
eich	-8.245
chte	-8.2548
am	-8.255
▁k	-8.26077
aus	-8.27252
▁Europäische	-8.27548
▁ve	-8.27635
rn	-8.27696
▁Di	-8.28027
erde	-8.28089
▁ha	-8.28258
so	-8.28372
ite	-8.28605
im	-8.28741
▁R	-8.28852
wer	-8.29047
uch	-8.2926
nich	-8.29492
her	-8.30178
▁nic	-8.30306
erun	-8.30654
ner	-8.31442
eren	-8.31447
ati	-8.31802
▁Ve	-8.32526
▁wer	-8.32676
ze	-8.32919
▁über	-8.33451
tz	-8.33855
▁al	-8.34329
il	-8.34402
Ver	-8.34803
ed	-8.34988
fe	-8.34989
bei	-8.35251
▁H	-8.35378
▁so	-8.35388
über	-8.35473
kt	-8.35484
est	-8.35499
sic	-8.35532
werd	-8.35707
ab	-8.3576
ser	-8.35916
▁Si	-8.36101
ssen	-8.36179
▁Europäisch	-8.36228
Europäische	-8.36247
ende	-8.36375
tlich	-8.36549
schaft	-8.36779
Be	-8.37244
uropäis	-8.37484
opäisch	-8.37561
nden	-8.37566
um	-8.37573
päische	-8.37827
▁Sie	-8.37953
ac	-8.38523
ichen	-8.3904
ag	-8.39115
tel	-8.39131
▁sic	-8.39133
uropäischen	-8.39379
▁se	-8.39591
dass	-8.39875
om	-8.40619
schaf	-8.41117
▁auch	-8.41449
ens	-8.41469
igen	-8.42029
abe	-8.42442
auch	-8.42633
tig	-8.42755
ges	-8.44165
tu	-8.44176
▁dem	-8.44385
atio	-8.44559
▁Pr	-8.45469
erd	-8.45473
Europäisch	-8.45757
Die	-8.45826
hl	-8.46521
▁Ge	-8.4661
ot	-8.46765
ut	-8.46909
▁Ko	-8.46994
ah	-8.47397
mme	-8.47451
einer	-8.47469
▁Kommission	-8.47647
▁Europ	-8.47909
ma	-8.48584
wei	-8.48618
eru	-8.48636
ropäischen	-8.48909
▁im	-8.4974
tung	-8.49963
▁sind	-8.50028
dem	-8.5005
▁ni	-8.5052
sta	-8.5058
▁Au	-8.50776
cher	-8.50935
quot	-8.50967
ft	-8.50976
eu	-8.51404
eb	-8.51795
rte	-8.5197
sa	-8.52168
▁aus	-8.52201
scha	-8.52252
ungs	-8.52363
ropäis	-8.52898
uropäi	-8.52899
päisch	-8.52972
hte	-8.53014
äische	-8.53098
eic	-8.53191
age	-8.53496
erst	-8.53859
▁Euro	-8.53936
▁wird	-8.54089
tt	-8.54103
ege	-8.54245
▁In	-8.54544
▁habe	-8.54658
lie	-8.5469
▁St	-8.54973
chaft	-8.54979
▁übe	-8.55456
▁T	-8.5547
▁Re	-8.55694
nic	-8.55972
▁Kommiss	-8.5619
▁Europäis	-8.56208
einen	-8.56443
ech	-8.56587
ande	-8.56791
▁haben	-8.56902
▁uns	-8.5692
urop	-8.57021
Kommission	-8.57167
▁Kommissio	-8.57177
▁L	-8.58676
tlic	-8.5886
all	-8.58969
opäischen	-8.59442
chaf	-8.59491
uc	-8.5962
llen	-8.59655
ngs	-8.60429
lichen	-8.60726
richt	-8.61085
egen	-8.61441
elle	-8.61491
cha	-8.62114
stell	-8.62138
tte	-8.6228
rsch	-8.62429
übe	-8.62926
ang	-8.63523
schl	-8.63565
▁auc	-8.63743
hi	-8.64049
▁Europäischen	-8.64242
iel	-8.64581
▁einer	-8.64914
chl	-8.64935
sten	-8.65017
rst	-8.65141
tun	-8.65458
omm	-8.65512
ene	-8.65554
oll	-8.65626
iner	-8.6568
Europ	-8.66053
ls	-8.66072
▁@	-8.66103
eis	-8.66235
lte	-8.66313
ommission	-8.66456
haft	-8.66584
Sie	-8.66681
tsch	-8.6729
Kommissio	-8.67702
▁Kommissi	-8.67711
▁unsere	-8.67878
Europäis	-8.67984
▁Europäi	-8.67986
inen	-8.68228
Di	-8.68298
ing	-8.68363
mmen	-8.68396
reich	-8.68672
uropä	-8.68685
▁sin	-8.69045
▁U	-8.69094
ien	-8.69257
nne	-8.69263
▁Sch	-8.69342
lung	-8.69442
ate	-8.69472
▁Kommis	-8.69522
Kommiss	-8.69532
sp	-8.6955
▁unter	-8.69858
ede	-8.70492
tra	-8.70518
▁sein	-8.70586
tell	-8.70759
rg	-8.70771
äisch	-8.71018
opäis	-8.71128
ropäi	-8.7113
päischen	-8.71215
auc	-8.71243
ger	-8.71337
rk	-8.71388
sind	-8.71701
eri	-8.71762
haben	-8.71941
▁unser	-8.72053
▁sei	-8.72219
habe	-8.7224
Europäischen	-8.72244
nnen	-8.72766
rb	-8.72836
Ve	-8.72935
ec	-8.73044
▁können	-8.73181
tliche	-8.7345
▁Da	-8.73502
▁Präsident	-8.7353
▁oder	-8.73544
wie	-8.73583
nz	-8.73641
unter	-8.73769
tli	-8.73773
fen	-8.7434
erei	-8.74376
hei	-8.74381
▁alle	-8.7445
▁vor	-8.7467
alt	-8.7499
▁Z	-8.75121
▁Eur	-8.75418
iert	-8.7546
uro	-8.75582
wa	-8.75635
▁We	-8.7571
eiten	-8.75795
kei	-8.75858
lei	-8.75957
▁bei	-8.76028
Euro	-8.76139
▁hab	-8.76311
wird	-8.76385
Si	-8.76532
haf	-8.76645
▁An	-8.76717
rbeit	-8.76815
vor	-8.76906
▁Mi	-8.77115
ck	-8.77299
uns	-8.77387
▁Europä	-8.77698
sie	-8.7803
mmission	-8.78179
ommissio	-8.78233
▁einen	-8.7824
eben	-8.78254
iss	-8.78456
ierung	-8.78593
bes	-8.78607
hren	-8.78874
uss	-8.78924
rop	-8.78933
uot	-8.79016
aben	-8.79038
esch	-8.79053
▁als	-8.79101
▁sch	-8.79373
Kommissi	-8.79479
sei	-8.79505
▁Parlament	-8.79547
quo	-8.79568
rich	-8.79571
du	-8.79654
iti	-8.79824
▁Pro	-8.80168
▁üb	-8.80292
ionen	-8.80315
▁Un	-8.80647
af	-8.80769
▁all	-8.80943
▁Mitgliedstaaten	-8.81029
tisch	-8.81079
alle	-8.81097
räsident	-8.81191
stel	-8.81285
Europäi	-8.81336
nsch	-8.81501
gs	-8.81577
gi	-8.81808
▁bes	-8.82206
▁es	-8.82746
tische	-8.82753
▁&	-8.83147
icher	-8.83183
unsere	-8.83286
▁wie	-8.83468
ommiss	-8.83575
ment	-8.83974
▁Präsiden	-8.84056
Präsident	-8.84057
aft	-8.84065
▁durch	-8.84085
▁Mitgliedstaat	-8.84148
rbe	-8.84175
▁könn	-8.84176
gr	-8.84178
onen	-8.84223
rl	-8.84431
äischen	-8.84436
ann	-8.84562
nst	-8.84623
oder	-8.8471
glich	-8.84803
mission	-8.84861
▁Kommi	-8.84901
Kommis	-8.84926
▁unte	-8.84953
sti	-8.85141
Pr	-8.85513
ahr	-8.85605
ied	-8.85954
sein	-8.8597
▁Mitgliedstaate	-8.86159
▁Ein	-8.86177
hn	-8.8635
lu	-8.86427
sin	-8.86553
ebe	-8.86636
gli	-8.86832
gl	-8.86883
pr	-8.87019
Ge	-8.87029
nis	-8.87116
hal	-8.87403
Ko	-8.87438
Mitgliedstaaten	-8.87459
▁ich	-8.87491
▁könne	-8.87567
ehen	-8.87658
tige	-8.88087
ieren	-8.88325
▁De	-8.88529
können	-8.88573
inde	-8.88893
tl	-8.88916
ehr	-8.89058
ione	-8.89187
bi	-8.89208
err	-8.89248
▁o	-8.8938
halt	-8.89947
ericht	-8.9005
Parlament	-8.90078
▁Wi	-8.90117
ete	-8.90122
keit	-8.90143
▁unse	-8.90156
enn	-8.90158
ndere	-8.90241
▁Mitglied	-8.90269
unser	-8.90273
▁wurde	-8.90428
tionen	-8.90707
tern	-8.90751
▁hat	-8.9083
reic	-8.90979
ropä	-8.90998
rsc	-8.91127
als	-8.91159
▁Aus	-8.91161
▁st	-8.91175
Au	-8.91206
och	-8.91263
ode	-8.91341
one	-8.91496
rau	-8.91527
mmissio	-8.91531
Mitgliedstaat	-8.91536
nk	-8.91542
iten	-8.91545
▁Mitgliedstaa	-8.91557
ommissi	-8.91583
durch	-8.91619
op	-8.91671
nsere	-8.92086
▁Fr	-8.92327
▁Komm	-8.9242
ange	-8.92429
itt	-8.92508
unte	-8.92698
hme	-8.92763
▁N	-8.92928
beit	-8.92994
zi	-8.93001
etz	-8.93014
Mitgliedstaate	-8.93034
nu	-8.93044
Europä	-8.9311
irtschaft	-8.93435
päis	-8.93438
opäi	-8.93441
enden	-8.93513
▁europäische	-8.93694
ess	-8.93794
In	-8.93886
echt	-8.94111
▁Ma	-8.94138
heit	-8.9424
itgliedstaaten	-8.9426
räsiden	-8.94535
äsident	-8.94538
ele	-8.94598
hmen	-8.94671
St	-8.94768
od	-8.94922
nser	-8.95089
▁l	-8.95165
rbei	-8.9518
nse	-8.95203
▁Sc	-8.95332
▁Kom	-8.95523
ins	-8.95786
Präsiden	-8.95825
▁Präside	-8.95834
▁ode	-8.95847
tsc	-8.95872
erh	-8.95918
Re	-8.95988
tione	-8.96082
dere	-8.96112
sion	-8.96116
▁Mit	-8.96396
▁nach	-8.96498
▁zur	-8.9661
europäische	-8.96641
ierun	-8.96672
tschaft	-8.96702
▁Ber	-8.96757
ort	-8.96855
▁um	-8.9715
▁dieser	-8.97167
lun	-8.97214
lten	-8.97313
▁andere	-8.97321
ko	-8.97342
▁Bericht	-8.9735
ff	-8.97705
▁ihre	-8.97706
ehe	-8.9772
Sch	-8.97984
ission	-8.98207
arlament	-8.98259
rge	-8.98264
ide	-8.9833
▁sie	-8.98471
ran	-8.98513
üb	-8.98529
rie	-8.98556
hab	-8.98645
urch	-8.98921
▁Her	-8.99016
ssion	-8.99077
itgliedstaat	-8.99159
ander	-8.99181
▁Mitgliedsta	-8.99494
Mitgliedstaa	-8.99539
mein	-8.99812
einem	-8.99982
missio	-9.00273
eil	-9.00285
itgliedstaate	-9.00313
iere	-9.0033
ichtig	-9.00566
id	-9.00568
qu	-9.00586
▁einem	-9.00626
erte	-9.00655
gung	-9.01043
os	-9.01321
tgliedstaaten	-9.01668
▁europäisch	-9.01721
itte	-9.01761
mmiss	-9.01763
rag	-9.01769
ommis	-9.01775
▁Parlame	-9.0186
Mitglied	-9.01996
ersch	-9.02054
ellen	-9.0209
▁durc	-9.02315
ue	-9.02425
nach	-9.02557
era	-9.0276
chtig	-9.0286
▁Eu	-9.02914
rf	-9.03003
wen	-9.03047
Kommi	-9.03123
ka	-9.03133
fo	-9.03195
ga	-9.03293
▁ihr	-9.03347
ird	-9.03364
tisc	-9.03372
gt	-9.03739
rm	-9.03802
▁Ei	-9.03884
Eur	-9.04075
rtschaft	-9.04081
ric	-9.04112
weit	-9.04288
▁Unter	-9.0434
zen	-9.04372
imm	-9.04429
▁Fra	-9.04478
rr	-9.04557
eiche	-9.0463
ommen	-9.05052
irtschaf	-9.0518
erb	-9.05264
än	-9.05281
enen	-9.05314
ef	-9.05403
▁Entwicklung	-9.05429
europäisch	-9.05447
önnen	-9.05475
▁ges	-9.05477
eme	-9.05545
fa	-9.05586
könne	-9.0576
▁Herr	-9.05799
ale	-9.05812
▁ander	-9.05931
rech	-9.06117
▁kön	-9.06228
aten	-9.06247
agen	-9.06339
könn	-9.06458
▁unt	-9.06492
esc	-9.06505
sere	-9.06561
eiter	-9.06684
weite	-9.06714
▁ent	-9.06777
mmissi	-9.06943
glic	-9.071
▁Mitglieds	-9.07256
nf	-9.0732
ame	-9.07361
▁sc	-9.07431
este	-9.07541
▁Präsid	-9.07769
ffe	-9.07842
tgliedstaat	-9.07858
itgliedstaa	-9.0786
hm	-9.0787
▁Pa	-9.07896
dern	-9.07988
▁Er	-9.08002
mer	-9.08003
erich	-9.08136
Mitgliedsta	-9.08172
tgliedstaate	-9.08315
iden	-9.08336
▁He	-9.08359
ssi	-9.08536
Pro	-9.08537
▁Wir	-9.08571
wurde	-9.08645
▁wurd	-9.0865
sident	-9.08795
for	-9.088
erf	-9.09001
Präside	-9.09178
▁na	-9.09245
▁Me	-9.09654
gliedstaaten	-9.09668
▁ih	-9.09889
äsiden	-9.09943
räside	-9.09949
nsc	-9.10016
ini	-9.10058
andere	-9.10088
itglied	-9.10117
lit	-9.10125
vers	-9.10182
▁Jahr	-9.10312
elt	-9.10423
Bericht	-9.10655
amen	-9.1067
▁Berich	-9.10697
lan	-9.10952
miss	-9.1098
rh	-9.1105
sonder	-9.11083
no	-9.11088
rch	-9.11382
ntern	-9.11403
rlament	-9.11611
▁seine	-9.11619
tschaf	-9.11759
ffen	-9.11787
to	-9.1194
▁me	-9.11965
geb	-9.12268
▁en	-9.1228
unse	-9.12328
tet	-9.12533
dieser	-9.12549
ichte	-9.12602
iede	-9.12834
derung	-9.12915
nehme	-9.13161
mei	-9.13517
ntwicklung	-9.13736
▁müssen	-9.13772
Da	-9.13796
igkeit	-9.13816
durc	-9.13931
öglich	-9.1395
hat	-9.14029
esse	-9.14048
Entwicklung	-9.1409
▁Entwicklun	-9.14121
ord	-9.14305
acht	-9.1442
ken	-9.14432
Komm	-9.14704
erne	-9.14737
Ein	-9.14838
kti	-9.15063
tei	-9.15132
▁möchte	-9.15175
änd	-9.15193
Parlame	-9.15208
▁Parlam	-9.15211
alte	-9.15331
▁Mitgli	-9.15396
oc	-9.15407
nehmen	-9.15638
We	-9.15969
sam	-9.15975
oliti	-9.16102
▁ic	-9.16142
ters	-9.16186
olle	-9.16212
inge	-9.16307
issio	-9.16433
omme	-9.16632
unt	-9.16804
hne	-9.16906
gliedstaate	-9.17012
An	-9.17102
itgliedsta	-9.17323
▁ab	-9.17376
gliedstaat	-9.17383
rtschaf	-9.17387
tgliedstaa	-9.17388
Mi	-9.17428
▁En	-9.17568
ba	-9.1764
Mitglieds	-9.17752
uo	-9.17913
rä	-9.1823
▁wa	-9.18276
liedstaaten	-9.18361
missi	-9.1838
ler	-9.18396
ik	-9.18397
irtscha	-9.18524
ichti	-9.18563
▁nac	-9.18581
▁wei	-9.18752
tze	-9.18878
ieru	-9.1895
tis	-9.18956
ieser	-9.19028
▁Par	-9.19215
tä	-9.19263
iter	-9.19387
opä	-9.19599
pa	-9.19748
▁Arbeit	-9.19754
erl	-9.19819
Aus	-9.19846
ihre	-9.2001
pe	-9.20419
▁ü	-9.20547
▁bi	-9.20673
lichkeit	-9.20675
zie	-9.20688
erg	-9.21019
ktion	-9.21073
Un	-9.21085
str	-9.21182
mis	-9.21183
zur	-9.21208
ssio	-9.21286
weiter	-9.21322
urc	-9.21384
▁Ich	-9.21388
arbeit	-9.21402
ek	-9.21405
eits	-9.21651
inem	-9.21686
▁europäis	-9.21721
gel	-9.21941
äis	-9.21947
▁Menschen	-9.22044
▁p	-9.22119
päi	-9.22203
▁Vor	-9.22343
▁Unte	-9.22374
lo	-9.22457
Unter	-9.22509
setz	-9.22558
nterstütz	-9.22714
ew	-9.22796
ommi	-9.22813
▁kann	-9.2308
kann	-9.23113
▁Sta	-9.2317
Präsid	-9.23173
▁Präsi	-9.23181
nts	-9.23187
art	-9.23266
erk	-9.23364
Entwicklun	-9.23611
▁t	-9.23626
▁Entwicklu	-9.23647
▁Das	-9.23788
ational	-9.23794
▁dur	-9.23816
mmis	-9.23873
onder	-9.23874
▁ande	-9.23942
eut	-9.24066
national	-9.2414
sio	-9.24168
ident	-9.24175
Kom	-9.24239
▁sol	-9.24246
ersc	-9.24254
▁od	-9.24261
ntwicklun	-9.24264
twicklung	-9.24265
leich	-9.24292
ensch	-9.24466
rungen	-9.24616
tw	-9.24644
chti	-9.2465
▁Vo	-9.24692
siden	-9.25019
Mit	-9.2504
rec	-9.25087
nationale	-9.25154
htig	-9.2517
halte	-9.25361
Ber	-9.25401
nehm	-9.2545
politi	-9.25484
tglied	-9.25517
itglie	-9.25531
rer	-9.25565
usammen	-9.25696
po	-9.2576
rste	-9.25918
nters	-9.25953
Berich	-9.26064
entlich	-9.26065
▁Beric	-9.26108
▁diesem	-9.26289
kommen	-9.26347
ndern	-9.26385
chten	-9.26422
liedstaate	-9.26534
▁and	-9.26633
önne	-9.26655
räsid	-9.2685
lament	-9.26925
arlame	-9.27025
chi	-9.27302
rage	-9.27306
gu	-9.27338
gun	-9.27476
▁vers	-9.2759
europäis	-9.27693
Her	-9.27711
ahre	-9.27779
rat	-9.27786
tgliedsta	-9.27857
iedstaaten	-9.27889
liedstaat	-9.2791
gliedstaa	-9.27918
reiche	-9.27996
eise	-9.28016
Herr	-9.28053
▁müsse	-9.28058
äside	-9.28175
▁dar	-9.28179
rten	-9.28245
spr	-9.28286
▁soll	-9.28337
itglieds	-9.28609
De	-9.28664
änder	-9.2871
kan	-9.28824
eric	-9.28983
tscha	-9.29017
ih	-9.29118
sonde	-9.29179
müssen	-9.29185
chu	-9.29254
▁C	-9.29271
▁Zu	-9.29459
▁ko	-9.29534
urde	-9.29644
nac	-9.29665
tlichen	-9.29694
seine	-9.29839
ntwick	-9.29961
▁Ha	-9.29976
▁wen	-9.29996
ät	-9.30062
ände	-9.30172
ant	-9.3022
leg	-9.30262
Wi	-9.30379
ise	-9.30435
ents	-9.30435
▁Entwickl	-9.30489
▁weiter	-9.305
▁Ent	-9.3051
▁möcht	-9.30564
möchte	-9.30581
▁Parla	-9.3061
Parlam	-9.30621
nung	-9.30651
Mitgli	-9.3076
▁Mitgl	-9.30804
▁wur	-9.30867
unde	-9.30913
wurd	-9.30935
derun	-9.31093
anz	-9.31226
nternational	-9.31563
tional	-9.31608
halten	-9.3171
▁Ar	-9.3178
alten	-9.32001
gkeit	-9.32024
igkei	-9.32045
ihr	-9.32057
öglic	-9.32164
dung	-9.32176
eser	-9.3218
berei	-9.32245
wo	-9.32306
dar	-9.3246
Jahr	-9.32479
rtscha	-9.32497
ehmen	-9.32509
stelle	-9.32517
llt	-9.32518
▁Jah	-9.3257
Fr	-9.32715
▁wichtig	-9.32795
stimm	-9.33057
Fra	-9.33163
▁-	-9.33199
ekt	-9.3325
iv	-9.33398
ional	-9.33416
▁je	-9.33445
▁europäi	-9.33499
vi	-9.33536
rtsch	-9.33538
▁kö	-9.33549
önn	-9.33571
rin	-9.33576
tzt	-9.336
▁Se	-9.33659
tzung	-9.33731
möglich	-9.33732
▁Mensche	-9.33799
Menschen	-9.33804
Ma	-9.33819
▁Information	-9.33822
ationale	-9.33838
wicklung	-9.33849
war	-9.33858
irtsch	-9.33928
asse	-9.34
ichkeit	-9.34011
lichkei	-9.34015
Entwicklu	-9.34143
fi	-9.34197
ehme	-9.34303
kl	-9.34403
nie	-9.3442
dent	-9.34466
nterstüt	-9.34486
terstütz	-9.34487
▁zwischen	-9.34531
schi	-9.3454
rne	-9.34542
▁sollte	-9.34627
▁ma	-9.34647
gan	-9.34703
kön	-9.3479
▁best	-9.34883
erw	-9.34927
Sc	-9.34971
Arbeit	-9.35153
▁Arbei	-9.35155
▁J	-9.35169
son	-9.35312
eichen	-9.35315
wic	-9.35349
res	-9.35412
telle	-9.35526
twicklun	-9.36035
ntwicklu	-9.36038
emein	-9.36093
imme	-9.36111
eder	-9.36121
komm	-9.36167
hu	-9.36388
▁Gr	-9.36394
ute	-9.36493
führ	-9.36519
liti	-9.36557
ug	-9.36569
wirtschaft	-9.36604
erste	-9.36659
ament	-9.3672
nten	-9.36814
rü	-9.36962
egi	-9.36993
▁Dies	-9.37012
iedstaate	-9.37068
Wir	-9.37147
olit	-9.37245
▁europäischen	-9.37317
rla	-9.37398
politische	-9.37406
rc	-9.37416
nationa	-9.37421
sicht	-9.37453
etzt	-9.37461
▁r	-9.37467
issi	-9.37524
▁viel	-9.37603
ität	-9.37633
▁Präs	-9.37639
teil	-9.37664
▁noch	-9.37712
taat	-9.37776
nternehmen	-9.37789
tigen	-9.37798
hin	-9.37914
tischen	-9.38023
▁1	-9.38046
▁Union	-9.38129
nun	-9.38171
recht	-9.38321
amm	-9.38348
edstaaten	-9.38425
europäischen	-9.3853
▁Ges	-9.38556
taaten	-9.38732
zei	-9.38747
▁du	-9.3882
komme	-9.38917
▁hi	-9.38979
ahme	-9.39055
ationa	-9.39116
▁international	-9.39233
▁Europa	-9.39262
ntlich	-9.39268
orde	-9.39436
arbei	-9.39467
▁Ja	-9.39475
nternationale	-9.39532
gliedsta	-9.39628
iedstaat	-9.39687
liedstaa	-9.39688
ationen	-9.39709
▁zum	-9.39818
zwischen	-9.39902
rz	-9.39947
tie	-9.40095
oli	-9.40149
nternationa	-9.40168
▁weit	-9.40256
ternational	-9.4026
chn	-9.40322
erungen	-9.40329
kom	-9.4034
nische	-9.40345
▁Mensch	-9.40373
ache	-9.40446
sol	-9.40494
hie	-9.40501
tre	-9.40518
mmer	-9.40651
nternehme	-9.40701
iste	-9.40739
politisch	-9.40897
dur	-9.40921
gege	-9.40987
sammen	-9.40993
▁internationale	-9.41026
europäi	-9.41045
usamme	-9.41055
eins	-9.41193
▁weite	-9.41244
ali	-9.41329
glied	-9.41391
Präsi	-9.41403
entlic	-9.41478
mu	-9.41514
▁ange	-9.4159
ße	-9.41617
diesem	-9.41664
▁Entwick	-9.41917
▁kein	-9.41923
tglieds	-9.41957
▁gegen	-9.41988
gesch	-9.4205
▁nu	-9.42085
Entwickl	-9.42196
▁müss	-9.4235
ick	-9.42431
Information	-9.4246
▁Informatio	-9.42511
bere	-9.42528
nation	-9.42646
▁Ab	-9.42671
besonder	-9.42707
runge	-9.42809
nterne	-9.42812
trag	-9.42821
tzen	-9.42859
reit	-9.42918
gegen	-9.43037
polit	-9.43046
stellen	-9.4316
rder	-9.43162
steh	-9.43269
chs	-9.43287
Eu	-9.43348
ktio	-9.43373
üssen	-9.43386
nformation	-9.43506
iele	-9.43552
orsch	-9.43633
je	-9.4371
terst	-9.43734
tglie	-9.43748
itgli	-9.43759
rit	-9.43839
wichtig	-9.43853
tionale	-9.44121
▁Beri	-9.44155
onde	-9.44205
▁kan	-9.44248
▁Unt	-9.44266
▁unters	-9.44276
üsse	-9.44288
Beric	-9.44292
su	-9.44308
Ei	-9.4432
rlich	-9.4449
▁Unternehmen	-9.44532
Unte	-9.44624
▁Zusammen	-9.44632
▁La	-9.44643
orm	-9.44706
zung	-9.44716
▁wenn	-9.44723
immer	-9.44755
nal	-9.44775
wischen	-9.44804
nem	-9.44851
mmi	-9.44878
lamen	-9.44895
chr	-9.45016
▁he	-9.4504
▁keine	-9.45065
arlam	-9.45213
rlame	-9.45253
▁Jahre	-9.45266
ionale	-9.4539
▁Ih	-9.45425
ntw	-9.45475
schaftlich	-9.45478
ntwickl	-9.45535
eue	-9.45585
▁mehr	-9.45615
side	-9.45634
eten	-9.45683
enschen	-9.45704
▁vie	-9.45711
▁neue	-9.4579
▁2	-9.45809
ho	-9.45895
schaftliche	-9.45944
onal	-9.46038
esonder	-9.46048
best	-9.46079
its	-9.46128
▁wichti	-9.4614
eist	-9.46186
timm	-9.46187
ris	-9.46251
müsse	-9.46286
▁zwische	-9.46303
tiv	-9.46538
leic	-9.46591
international	-9.46592
▁internationa	-9.46601
ensc	-9.46642
▁gege	-9.4676
▁europä	-9.46842
olitische	-9.4687
nschen	-9.46977
▁Unternehme	-9.46999
öchte	-9.47093
vie	-9.47097
wirtschaf	-9.47105
icklung	-9.47121
Mensche	-9.47133
set	-9.47167
wicklun	-9.47193
▁nur	-9.4724
▁aber	-9.4729
ntr	-9.47322
tät	-9.4733
nig	-9.47367
hten	-9.47398
ternationale	-9.47533
emeins	-9.47537
▁politische	-9.47544
geh	-9.47547
schr	-9.47688
Pa	-9.47705
esen	-9.47729
nterstü	-9.47744
ad	-9.47768
Par	-9.47814
erstütz	-9.47814
terstüt	-9.47834
internationale	-9.47907
▁Mitg	-9.47913
int	-9.47919
ob	-9.47922
gie	-9.47938
▁ne	-9.47993
twick	-9.48073
ons	-9.48096
ntwic	-9.48168
ön	-9.48189
ierte	-9.48301
ternehmen	-9.48319
ernehmen	-9.48405
Er	-9.48443
terne	-9.48507
ona	-9.48582
▁j	-9.48596
▁Ra	-9.48642
▁Parl	-9.48719
He	-9.48762
▁möch	-9.48783
möcht	-9.48787
Parla	-9.48837
edstaate	-9.48846
ina	-9.48946
Mitgl	-9.48985
inte	-9.49102
möglic	-9.4913
räsi	-9.49156
äsid	-9.49158
▁Te	-9.4917
nisch	-9.49217
twicklu	-9.49384
chkeit	-9.494
tiona	-9.49403
ichkei	-9.49413
lichke	-9.4942
▁Ic	-9.49536
chli	-9.49553
nternation	-9.49627
ernational	-9.49635
▁politisch	-9.49675
ternationa	-9.49694
▁gr	-9.49765
Me	-9.49797
▁Auf	-9.49835
▁sollt	-9.49836
rungs	-9.49839
rund	-9.4991
sollte	-9.50034
ühr	-9.50064
Ich	-9.50101
dstaaten	-9.50113
amme	-9.50178
▁Informati	-9.50204
isse	-9.50334
▁Kon	-9.50383
att	-9.50525
deru	-9.50527
ente	-9.50538
soll	-9.50599
▁Na	-9.50607
schließ	-9.50634
tellen	-9.50768
ia	-9.50776
ammen	-9.50782
ieder	-9.50799
pä	-9.50844
ereich	-9.50932
ittel	-9.51029
tri	-9.51056
Vor	-9.51062
Sta	-9.51143
tan	-9.51178
noch	-9.51204
▁re	-9.51213
ehm	-9.51246
▁Diese	-9.51258
sond	-9.51416
▁zw	-9.51465
olitisch	-9.51475
nahme	-9.51591
nternehm	-9.51647
sel	-9.51716
ond	-9.51747
meine	-9.51931
br	-9.51934
Informatio	-9.51978
eines	-9.52042
formation	-9.52048
seh	-9.52141
irtsc	-9.52159
▁Ihre	-9.52215
erschied	-9.52247
Das	-9.52339
▁dieses	-9.52373
ternehme	-9.52434
▁ste	-9.52451
taate	-9.52499
ahren	-9.52548
neh	-9.5255
kte	-9.52624
itische	-9.52633
bl	-9.52675
▁wu	-9.5271
üh	-9.52716
fr	-9.5272
rw	-9.52727
geg	-9.52856
▁meine	-9.52856
wur	-9.52864
staaten	-9.52866
arbe	-9.52912
liedsta	-9.52973
nderung	-9.53034
iedstaa	-9.53039
edstaat	-9.5304
hti	-9.53068
zun	-9.5313
Unternehmen	-9.53191
itä	-9.53235
zwische	-9.5325
ors	-9.53282
ul	-9.53339
▁Arbe	-9.53365
Arbei	-9.53372
▁Prä	-9.53386
forder	-9.53387
▁Hotel	-9.53391
bereit	-9.53393
ahmen	-9.53449
of	-9.53459
han	-9.5347
eig	-9.535
▁ausge	-9.53562
atione	-9.53563
ollte	-9.53626
samme	-9.53682
assen	-9.53783
ak	-9.53884
▁neu	-9.53885
▁Der	-9.53928
ntsch	-9.53946
stellt	-9.53977
nformatio	-9.54031
inter	-9.54118
▁ka	-9.54145
are	-9.5422
gkei	-9.54332
igke	-9.54351
ögli	-9.54466
nterst	-9.54489
▁internation	-9.54545
internationa	-9.54553
nsche	-9.54558
iona	-9.54577
stim	-9.54619
Europa	-9.54625
ernehme	-9.54722
man	-9.54745
icherheit	-9.54795
schei	-9.54818
mp	-9.5482
order	-9.54961
▁daß	-9.54966
legen	-9.55031
staat	-9.55097
bs	-9.55175
▁seh	-9.5519
reichen	-9.55193
Entwick	-9.55198
▁Reg	-9.55236
▁Recht	-9.55247
▁Entwic	-9.55265
tat	-9.55396
chaftliche	-9.55475
▁Ihr	-9.5551
rke	-9.55541
tzun	-9.55581
▁Unternehm	-9.5561
erunge	-9.55724
hung	-9.55754
Mensch	-9.5577
▁Mensc	-9.55787
dig	-9.55788
▁unterstütz	-9.5582
rtsc	-9.55838
viel	-9.55945
schaftlic	-9.56011
chaftlich	-9.56014
tim	-9.56054
besonde	-9.56057
ernationale	-9.56072
▁no	-9.56106
gend	-9.5614
chts	-9.56157
europä	-9.56222
if	-9.56222
chließ	-9.56238
▁Unio	-9.56355
Union	-9.56357
Zusammen	-9.56391
▁Zusamme	-9.56406
og	-9.56426
org	-9.5644
richte	-9.56466
Unternehme	-9.56488
inn	-9.56517
olitik	-9.56522
unters	-9.56578
ive	-9.56619
aaten	-9.56623
urd	-9.56627
füh	-9.56643
finde	-9.56788
äh	-9.56875
▁Rech	-9.56955
tier	-9.56986
rnehmen	-9.57005
ffentlich	-9.57032
nat	-9.57087
ines	-9.5717
schu	-9.57307
glieds	-9.57364
nschaft	-9.5738
gest	-9.5744
ndi	-9.57441
ntlic	-9.57498
▁sehr	-9.57751
akt	-9.57778
En	-9.57804
erha	-9.57805
erschie	-9.57868
ote	-9.57978
emei	-9.58051
wirtschaftlich	-9.58216
erz	-9.58219
lä	-9.58224
nze	-9.5823
▁Problem	-9.58231
gem	-9.58435
▁Bes	-9.58458
ku	-9.58508
▁le	-9.58523
nes	-9.58542
form	-9.58586
▁ber	-9.58589
litische	-9.58605
▁anderen	-9.58619
▁Wa	-9.5877
wirtscha	-9.58872
erungs	-9.58906
schied	-9.58975
pro	-9.59081
wirtschaftliche	-9.59152
Ent	-9.59187
Dies	-9.59199
wend	-9.59234
wichti	-9.5926
usamm	-9.59262
dun	-9.59331
iesem	-9.59378
▁europ	-9.59449
dlich	-9.59474
▁jed	-9.59481
▁Sicherheit	-9.59571
tere	-9.59588
entli	-9.59597
wische	-9.59616
mehr	-9.59634
▁zwisch	-9.59654
fer	-9.59776
Präs	-9.59933
▁mein	-9.59942
ensche	-9.59985
▁noc	-9.59994
schie	-9.6002
itisch	-9.60058
ernationa	-9.60073
alen	-9.60144
nternatio	-9.60146
ternation	-9.60149
rnational	-9.60168
sier	-9.60359
andel	-9.60448
gleich	-9.60453
▁war	-9.60453
▁bereit	-9.60468
llte	-9.60477
▁Inte	-9.60625
Informati	-9.60677
▁Informat	-9.60718
natio	-9.60858
▁mö	-9.60889
twickl	-9.60941
Jah	-9.6119
▁Wirtschaft	-9.61224
etr	-9.61235
hä	-9.61243
lag	-9.61399
ld	-9.61446
esonde	-9.61452
▁wicht	-9.61553
▁geg	-9.61566
neue	-9.61676
ausge	-9.61759
▁Informationen	-9.61837
▁ers	-9.61839
▁Ho	-9.61868
schli	-9.61921
▁ang	-9.61996
▁Inter	-9.62056
dstaate	-9.62105
poli	-9.62145
onale	-9.62159
▁eines	-9.62174
är	-9.62221
oh	-9.62265
▁20	-9.62289
ster	-9.62397
rts	-9.6244
äi	-9.62449
cklung	-9.62487
aß	-9.62491
icklun	-9.62527
wicklu	-9.62604
lied	-9.62774
ereit	-9.62774
nformati	-9.62814
schlie	-9.62824
terstü	-9.62845
tungen	-9.62849
▁mei	-9.62852
deren	-9.62874
schla	-9.62923
sicher	-9.63061
stehen	-9.63075
rstütz	-9.63134
irtschaftlich	-9.63155
internation	-9.63194
erstüt	-9.63223
▁internatio	-9.63233
ragen	-9.63256
keine	-9.63286
ormation	-9.63329
glie	-9.63412
00	-9.63426
Jahre	-9.63453
ahm	-9.63461
unkt	-9.63616
unterstütz	-9.63659
nnt	-9.63689
tellung	-9.63736
▁So	-9.63775
formatio	-9.63814
rli	-9.6385
zt	-9.63867
kein	-9.63927
nige	-9.63972
▁Regi	-9.6406
▁kei	-9.64114
gesc	-9.64151
aber	-9.64163
gemein	-9.64247
▁O	-9.6439
inne	-9.64459
▁Regierung	-9.64468
äs	-9.64615
▁müs	-9.64654
müss	-9.6466
wicht	-9.64766
litisch	-9.64786
öglichkeit	-9.64804
ternehm	-9.64955
nterneh	-9.6498
glichkeit	-9.6498
hrung	-9.65013
uropa	-9.65061
chtung	-9.65071
ib	-9.6509
Vo	-9.65124
ieses	-9.65135
▁Uni	-9.65308
ez	-9.65314
irtschaftliche	-9.65345
▁unterstüt	-9.65349
▁erst	-9.65391
▁Bereich	-9.65402
aat	-9.65482
▁verschieden	-9.65532
rnehme	-9.65548
▁verschiedene	-9.65579
rschied	-9.65596
rnationale	-9.65599
fin	-9.65605
enz	-9.65616
meins	-9.65629
folg	-9.65678
itgl	-9.65731
politis	-9.65744
besondere	-9.65916
orsc	-9.6594
staate	-9.65958
haftliche	-9.66011
stellung	-9.6604
tgli	-9.66045
europ	-9.66055
eid	-9.66084
Unternehm	-9.66104
▁Unterneh	-9.66126
igung	-9.6625
räs	-9.6625
taa	-9.66342
lame	-9.66375
lege	-9.66401
Beri	-9.66422
▁vi	-9.66443
zum	-9.66458
ea	-9.66558
icherhei	-9.66562
cherheit	-9.66564
eden	-9.66566
▁Le	-9.66582
ichtige	-9.66626
▁inte	-9.66672
atte	-9.66721
rlic	-9.66777
arla	-9.66827
tik	-9.66976
wick	-9.66981
üss	-9.67005
wenn	-9.6701
▁Fo	-9.67066
Ges	-9.67243
geme	-9.67315
mögli	-9.67355
rlam	-9.67483
▁abe	-9.67513
chkei	-9.67617
hkeit	-9.67628
ichke	-9.67632
lichk	-9.67635
dieses	-9.67664
chri	-9.67713
schaftli	-9.67779
chaftlic	-9.67789
haftlich	-9.67791
zw	-9.67844
ndl	-9.67846
ertr	-9.67874
isier	-9.67886
▁meh	-9.67888
▁Produkt	-9.68055
sollt	-9.68059
th	-9.68098
weis	-9.68225
eige	-9.68272
tand	-9.68319
dstaat	-9.68361
iedsta	-9.68386
nderun	-9.68386
edstaa	-9.68453
hnen	-9.6862
neu	-9.68634
zwisch	-9.68663
fentlich	-9.68789
ffentlic	-9.68806
ernehm	-9.68817
arbeite	-9.6887
nti	-9.68943
Sicherheit	-9.69063
▁beste	-9.69084
▁Sicherhei	-9.69099
gew	-9.69154
ereic	-9.69161
Informationen	-9.69208
nahm	-9.69208
▁Informatione	-9.69231
rogramm	-9.69311
▁wirtschaftlich	-9.69341
Diese	-9.69343
nformationen	-9.69358
öcht	-9.69375
▁einge	-9.69417
tes	-9.69425
hun	-9.69476
▁Länder	-9.69484
geben	-9.69543
usammenarbeit	-9.69615
schlag	-9.69732
ischer	-9.69735
▁Zusamm	-9.69739
Zusamme	-9.6974
einig	-9.69788
rha	-9.69889
ions	-9.69912
ust	-9.69925
Zu	-9.69937
samm	-9.69977
ternati	-9.70004
▁ausg	-9.70017
Mitg	-9.70177
ntwi	-9.70204
twic	-9.70241
▁Frage	-9.70246
▁Möglichkeit	-9.70314
sid	-9.7036
Ha	-9.70387
▁Ba	-9.70387
pi	-9.70432
piel	-9.70575
teh	-9.70588
Entwic	-9.70607
▁Entwi	-9.70654
▁200	-9.70659
sser	-9.70671
tzu	-9.70674
rach	-9.70707
chla	-9.70716
Wirtschaft	-9.70718
▁Wirtschaf	-9.70724
▁Zusammenarbeit	-9.70842
biete	-9.71002
nkt	-9.71024
Parl	-9.71029
ttel	-9.71078
möch	-9.71087
▁möc	-9.71097
kö	-9.71098
erschi	-9.7111
chlie	-9.71113
irtschaftlic	-9.71157
rtschaftlich	-9.71157
▁wirtschaftliche	-9.71168
Hotel	-9.7124
tive	-9.71282
biet	-9.71372
erichte	-9.71381
nisc	-9.71411
besond	-9.71466
ses	-9.71527
Problem	-9.71543
▁sowie	-9.71553
▁Hote	-9.71556
▁Proble	-9.71583
forde	-9.71591
roblem	-9.71597
lb	-9.71603
ernation	-9.71703
sge	-9.71726
emeinschaft	-9.71758
▁politis	-9.71777
rnationa	-9.71848
▁ents	-9.71857
ili	-9.71889
nternati	-9.71908
ternatio	-9.71908
pie	-9.71914
anderen	-9.71915
tellt	-9.71959
nationalen	-9.71968
wu	-9.71973
ück	-9.71978
öffentlich	-9.72015
▁gemeinsam	-9.72031
chei	-9.72087
Ar	-9.72121
find	-9.72157
chw	-9.72157
verschieden	-9.72181
▁Unterstützung	-9.72185
▁Zeit	-9.72209
wirtsch	-9.72209
nschaf	-9.7222
▁Informa	-9.72254
hand	-9.72304
▁wo	-9.72307
▁Änderung	-9.72326
rodukt	-9.7234
cke	-9.72394
nati	-9.72394
Informat	-9.72433
stä	-9.72438
chtige	-9.72514
▁Sp	-9.72547
hli	-9.72554
unden	-9.72574
rschie	-9.72594
internatio	-9.72712
▁Fa	-9.72713
▁internati	-9.72751
rtschaftliche	-9.72754
ank	-9.72803
▁inter	-9.72817
nion	-9.7283
utz	-9.72866
lin	-9.72874
rbeite	-9.72932
uche	-9.7295
Unt	-9.72964
ark	-9.73121
ftlich	-9.73153
formati	-9.73217
sprechen	-9.7328
▁Vorsch	-9.73409
weise	-9.7342
Recht	-9.73448
Se	-9.73471
verschiedene	-9.73486
arb	-9.73491
wirtschaftli	-9.73624
▁berei	-9.7373
▁Mens	-9.7384
irts	-9.7391
Mensc	-9.74001
tions	-9.74075
▁verschiede	-9.74162
unterstüt	-9.74192
arte	-9.74267
esondere	-9.74302
äsi	-9.74426
ollt	-9.74437
▁unterst	-9.7444
hließ	-9.74469
aate	-9.74482
Ihre	-9.74503
rati	-9.74559
gene	-9.74674
eigen	-9.7475
litik	-9.74752
mö	-9.74757
chst	-9.74761
hs	-9.74843
sun	-9.74869
tur	-9.74895
emeinsam	-9.74926
Regierung	-9.74966
▁Regierun	-9.74999
statt	-9.75018
entl	-9.75033
▁zwisc	-9.75067
schaftl	-9.75091
bar	-9.75118
ble	-9.75128
nur	-9.752
öglichkei	-9.75323
▁Arb	-9.75335
hrer	-9.75412
nderen	-9.75418
ds	-9.7544
scher	-9.7546
rheit	-9.75526
stütz	-9.75543
lieds	-9.7558
Arbe	-9.75664
nformat	-9.75673
▁versch	-9.75712
chie	-9.75775
▁unterstü	-9.75796
deut	-9.75832
ndig	-9.75836
del	-9.75878
fahr	-9.75967
ständ	-9.76009
chtli	-9.7617
ahl	-9.76193
ntsc	-9.76255
schiede	-9.76282
erer	-9.76283
rstell	-9.76342
▁sondern	-9.76346
gebe	-9.76361
▁Rec	-9.76425
▁Grund	-9.76426
chied	-9.76431
rze	-9.76523
rmation	-9.76561
ausg	-9.76571
Gr	-9.76655
esti	-9.76668
ormatio	-9.76669
eschäft	-9.76678
▁euro	-9.76735
glichkei	-9.76741
erschieden	-9.76766
mati	-9.7684
▁Ka	-9.7688
ystem	-9.76914
erschiede	-9.76947
echte	-9.76971
wickl	-9.77014
Informatione	-9.77196
erhal	-9.77269
formationen	-9.77289
staa	-9.77293
▁Ze	-9.77303
lage	-9.77349
stehe	-9.77369
wisch	-9.77428
▁unserer	-9.77506
sammenarbeit	-9.7761
▁Über	-9.77618
▁erste	-9.77629
▁man	-9.77629
igt	-9.77634
olg	-9.77645
lem	-9.77691
Zusammenarbeit	-9.7772
inig	-9.77724
▁Str	-9.77776
aftliche	-9.77789
Unterneh	-9.77862
▁Unterne	-9.77889
ritt	-9.77936
nformatione	-9.77979
gra	-9.78034
egierung	-9.78057
ntscheid	-9.78059
▁Gemeinschaft	-9.78062
▁insbesondere	-9.78195
eute	-9.78243
itisc	-9.78289
entliche	-9.78293
ndel	-9.78343
▁Änderungsantr	-9.78386
▁Vors	-9.78447
Auf	-9.78503
wis	-9.78506
net	-9.78563
Bereich	-9.78655
erm	-9.78661
Unio	-9.78666
nale	-9.78674
gleic	-9.7868
▁einige	-9.78697
▁Bereic	-9.78752
noc	-9.78824
ellung	-9.78871
Kon	-9.78958
Möglichkeit	-9.78993
▁Möglichkei	-9.78993
ara	-9.79043
tellun	-9.79132
Rech	-9.79228
itg	-9.79235
▁Entw	-9.79273
ntli	-9.79369
stellun	-9.79378
sehr	-9.79437
▁Vorschl	-9.79484
Unterstützung	-9.79538
▁For	-9.79583
schieden	-9.79587
▁Unterstützun	-9.79593
Sicherhei	-9.79595
ieg	-9.79628
▁Sicherhe	-9.79633
▁wich	-9.79643
esond	-9.79678
rnehm	-9.79738
olitis	-9.79739
erstü	-9.79752
▁Ta	-9.79769
tschaftlich	-9.79779
Ja	-9.79793
irtschaftli	-9.7985
rtschaftlic	-9.79856
ichtung	-9.79893
cherhei	-9.79906
icherhe	-9.79907
herheit	-9.7991
ationalen	-9.80056
ndung	-9.80059
tehen	-9.80086
erschiedene	-9.801
▁Frau	-9.80103
spreche	-9.80123
Inter	-9.80158
terneh	-9.80248
usge	-9.80294
▁Bei	-9.80373
usam	-9.80378
▁diesen	-9.80387
nh	-9.80432
nan	-9.80461
erwe	-9.80468
hle	-9.80516
▁Arbeits	-9.80518
einge	-9.80567
klung	-9.80577
hri	-9.80584
dene	-9.80594
angen	-9.80676
tschaftliche	-9.8068
cklun	-9.80709
ani	-9.80718
otel	-9.80726
icklu	-9.80752
▁Auss	-9.80808
aßnahmen	-9.8092
▁Int	-9.8098
orge	-9.80986
eht	-9.8101
siche	-9.8101
tunge	-9.81057
▁sow	-9.8106
ndlich	-9.81098
chaftli	-9.81132
haftlic	-9.81141
mo	-9.81142
aftlich	-9.81144
Wirtschaf	-9.81223
Produkt	-9.81238
stat	-9.81238
▁Wirtscha	-9.81254
emeinschaf	-9.81267
meinschaft	-9.81279
pol	-9.81294
▁ke	-9.81324
lungen	-9.8135
▁Produk	-9.81359
rstüt	-9.81361
esellschaft	-9.8143
▁Al	-9.81496
kon	-9.81515
esem	-9.81586
verschiede	-9.81643
ftliche	-9.81654
erein	-9.81663
▁Men	-9.81669
stan	-9.81695
iger	-9.81713
spiel	-9.81755
dlic	-9.81776
mat	-9.81793
▁Berei	-9.81809
▁Es	-9.81869
erheit	-9.81878
sg	-9.81886
sung	-9.81917
ill	-9.81992
wor	-9.82075
▁große	-9.82098
Prä	-9.82128
▁Maßnahmen	-9.82131
unk	-9.82132
fentlic	-9.82138
ffentli	-9.82158
ena	-9.82164
▁viele	-9.8218
gemei	-9.82182
akti	-9.82256
wirtschaftl	-9.82262
▁hin	-9.82395
erichterstatter	-9.82414
Der	-9.82497
▁Zei	-9.82547
öffentlic	-9.82549
gemeinsam	-9.82564
tal	-9.82564
▁gemeinsa	-9.82564
do	-9.82578
▁hier	-9.82621
▁bere	-9.82631
achte	-9.82654
land	-9.8267
lg	-9.827
Inte	-9.82818
hts	-9.82896
gke	-9.82934
öch	-9.82998
chtun	-9.83006
igk	-9.83029
Ab	-9.83102
versch	-9.83119
▁Berichterstatte	-9.83127
Berichterstatter	-9.83131
nah	-9.8316
ögl	-9.83211
htung	-9.83223
internati	-9.83235
▁internat	-9.83254
essen	-9.83367
rogram	-9.83381
iesen	-9.83392
dl	-9.83392
chung	-9.83425
rma	-9.8343
▁Maßnahme	-9.83522
tsche	-9.83523
ogramm	-9.83638
▁verschied	-9.83639
▁wirtschaftli	-9.83648
▁bis	-9.83679
daß	-9.8369
▁möglich	-9.8372
rschl	-9.83751
▁bereits	-9.83786
uen	-9.8381
Reg	-9.83845
erten	-9.83949
rti	-9.83956
ans	-9.84031
Änderung	-9.84082
tg	-9.84084
rhe	-9.84089
ün	-9.84101
anis	-9.84171
beste	-9.84222
Ihr	-9.84249
estimm	-9.84269
schri	-9.84304
chlag	-9.84329
usg	-9.84422
▁gemeins	-9.84486
▁Inform	-9.84593
▁politi	-9.84654
nscha	-9.84683
lis	-9.84747
La	-9.84802
Länder	-9.84828
orschl	-9.8484
▁Lände	-9.8488
rnation	-9.84881
nternat	-9.84939
ähr	-9.84954
format	-9.85023
ernatio	-9.85037
lam	-9.8509
ternat	-9.8509
Zusamm	-9.85135
▁Zusam	-9.85137
▁Zusammenarbe	-9.85144
rechen	-9.85153
was	-9.85215
▁eing	-9.85218
ernati	-9.85221
nterstützung	-9.85233
▁Hau	-9.85352
stand	-9.85358
arl	-9.85426
ller	-9.85455
eide	-9.85483
iet	-9.85505
▁groß	-9.8554
Informa	-9.85545
ropa	-9.85557
aßnahme	-9.85593
ieden	-9.85646
stimmung	-9.85716
tten	-9.85718
schafts	-9.85766
Änderungsantr	-9.85783
▁Änderungsant	-9.85794
tor	-9.85803
▁wieder	-9.85834
▁Berichterstatt	-9.85844
unterstü	-9.85868
▁int	-9.85874
prechen	-9.85881
dr	-9.85916
Ih	-9.85949
▁Zus	-9.86004
Gemeinschaft	-9.86048
▁Gemeinschaf	-9.86048
▁wurden	-9.86094
▁insbesonder	-9.86097
wich	-9.86104
nsbesondere	-9.86165
sst	-9.86169
insbesondere	-9.86187
unterst	-9.86192
Regi	-9.86287
ammenarbeit	-9.86304
usammenarbe	-9.86313
▁muss	-9.86402
ormationen	-9.8644
▁zwei	-9.86472
mus	-9.86505
nderu	-9.86519
besser	-9.86525
eses	-9.86549
euro	-9.86558
edsta	-9.86584
dstaa	-9.86591
iedst	-9.86606
denen	-9.86625
▁Li	-9.86675
Regierun	-9.86739
formatione	-9.86741
gende	-9.86769
uer	-9.86781
rwe	-9.86788
iete	-9.86854
ring	-9.86877
zwisc	-9.86893
erneh	-9.86936
Proble	-9.86957
ßen	-9.86975
▁geh	-9.86987
▁Probl	-9.86992
aa	-9.87026
mitt	-9.87027
▁Parlaments	-9.87031
öglichke	-9.87094
kr	-9.87095
inz	-9.87108
Bes	-9.87151
▁Frag	-9.87164
mation	-9.87176
hrun	-9.87232
▁mü	-9.87237
rderung	-9.87291
rschieden	-9.87302
ormati	-9.87363
estell	-9.87484
rend	-9.87488
mittel	-9.87516
Unterstützun	-9.8754
lität	-9.87548
▁Unterstützu	-9.87592
wirtsc	-9.87623
sondere	-9.87631
fte	-9.87645
inden	-9.87737
meh	-9.87821
bie	-9.87857
inie	-9.87892
gestellt	-9.87903
nischen	-9.87938
rische	-9.87977
jed	-9.88081
▁Land	-9.88126
kun	-9.88141
per	-9.88148
ließ	-9.88206
rschi	-9.88215
▁Vert	-9.88237
las	-9.88262
wä	-9.88264
emeinsa	-9.88267
meinsam	-9.88272
▁Bürger	-9.88377
Frage	-9.88456
issen	-9.88489
mt	-9.88493
Möglichkei	-9.88503
▁Möglichke	-9.88516
igun	-9.88532
Te	-9.88689
▁sonder	-9.88695
chke	-9.88722
rschiede	-9.88726
achen	-9.88737
nnte	-9.88744
Vorsch	-9.88785
hend	-9.8881
Entwi	-9.88813
▁Nach	-9.88864
▁einig	-9.88886
Ra	-9.889
nform	-9.88915
▁Programm	-9.88925
▁Rat	-9.8898
echen	-9.89034
▁gew	-9.89051
▁Entsch	-9.89134
▁Gru	-9.8925
lang	-9.89262
irtschaftl	-9.89268
zeit	-9.89281
erichterstatte	-9.89285
sprech	-9.89299
tschaftlic	-9.89308
richterstatter	-9.89313
itik	-9.89315
▁pr	-9.89344
ichk	-9.8935
isi	-9.89359
rtschaftli	-9.89379
beson	-9.894
ont	-9.8942
▁Vertr	-9.89438
mitte	-9.8945
bet	-9.8952
sondern	-9.89578
Berichterstatte	-9.89581
▁Mo	-9.89593
rschiedene	-9.89631
mögl	-9.89654
tionalen	-9.89683
sowie	-9.89753
▁sowi	-9.89782
det	-9.89789
roble	-9.89806
oblem	-9.89816
▁kom	-9.8984
hkei	-9.89926
llung	-9.89927
isie	-9.89957
Ic	-9.90004
glichke	-9.90088
rac	-9.90089
nderungsantr	-9.90128
▁jede	-9.90159
einige	-9.90178
▁la	-9.90205
nahmen	-9.90257
▁gen	-9.90334
zus	-9.9044
gemeins	-9.90456
chaftl	-9.90504
▁verschie	-9.90515
roduk	-9.90516
finden	-9.90546
nforma	-9.90554
odukt	-9.90566
üc	-9.9058
twi	-9.90611
eur	-9.90615
▁Ihnen	-9.9066
nheit	-9.90683
▁Fi	-9.90698
htige	-9.90738
eini	-9.90741
rtr	-9.9076
tem	-9.90834
ndu	-9.90843
Na	-9.90853
unserer	-9.90853
ntliche	-9.9091
esellschaf	-9.90941
sellschaft	-9.90945
fol	-9.91008
brauch	-9.91017
▁Kommissar	-9.91024
ichtli	-9.9107
ition	-9.9107
beite	-9.91107
▁versc	-9.91119
▁Untern	-9.91191
Unterne	-9.91199
▁Verb	-9.91207
gierung	-9.91246
ntschei	-9.91317
▁Po	-9.91371
Sicherhe	-9.91372
▁Unters	-9.91373
glei	-9.91377
ftlic	-9.91383
tscheid	-9.91388
inder	-9.91391
egierun	-9.91406
nke	-9.91408
▁Sicherh	-9.9141
erhe	-9.91417
▁dan	-9.9147
rre	-9.91502
hst	-9.91519
rein	-9.91527
▁bet	-9.91539
chiede	-9.91612
ionalen	-9.91613
enst	-9.91619
müs	-9.91745
▁Produ	-9.91767
eln	-9.91776
meinschaf	-9.91793
emeinsame	-9.91797
emeinscha	-9.91799
einschaft	-9.91813
ford	-9.91868
nternationalen	-9.91917
rmatio	-9.91963
▁Sicher	-9.91981
schäft	-9.92043
gliche	-9.92054
eschäf	-9.92061
scheid	-9.92089
verschied	-9.92125
eicht	-9.92154
▁Hot	-9.92367
erichterstatt	-9.92553
▁was	-9.92556
Maßnahmen	-9.92595
20	-9.92636
erreich	-9.92644
irt	-9.92717
▁Berichterstat	-9.92737
Berichterstatt	-9.9274
Vorschl	-9.92813
▁gemein	-9.92858
chieden	-9.92935
ub	-9.92955
üs	-9.92963
Wirtscha	-9.92996
erna	-9.93004
▁Wirtsch	-9.93029
mach	-9.9303
isten	-9.93042
rhal	-9.93097
▁Menschenrecht	-9.93118
Zusammenarbe	-9.93126
▁Zusammenarb	-9.93146
ami	-9.93173
ellt	-9.93233
▁zwis	-9.93293
preche	-9.93347
mal	-9.93356
hlie	-9.93382
trie	-9.93426
▁gemeinsame	-9.93474
Hote	-9.93487
eistung	-9.93492
▁sollten	-9.93504
▁gibt	-9.93507
▁immer	-9.93587
nfor	-9.9359
litä	-9.93612
enti	-9.93628
altung	-9.93643
schä	-9.93657
reche	-9.93725
▁Unterstütz	-9.93753
▁Änderungsan	-9.93762
Änderungsant	-9.93784
lau	-9.93806
ukt	-9.93812
risch	-9.93826
Arbeits	-9.9385
nterstützun	-9.93931
terstützung	-9.93931
Uni	-9.93969
tgl	-9.93996
▁jedoch	-9.94017
Bereic	-9.94067
els	-9.94093
▁erf	-9.94112
▁Gesch	-9.94113
tatt	-9.94132
gese	-9.94155
▁gem	-9.94226
eres	-9.9425
ßnahmen	-9.94264
off	-9.94271
▁mu	-9.94278
ormat	-9.94303
sit	-9.94318
öffentli	-9.94325
äch	-9.94329
gemeinsa	-9.94336
derungen	-9.94359
▁sta	-9.94367
leist	-9.94378
rstel	-9.94445
Zeit	-9.94462
itis	-9.94475
▁interna	-9.945
inan	-9.94512
ntwort	-9.94517
▁wichtige	-9.94524
▁Grun	-9.94533
▁intern	-9.94601
Grund	-9.94642
keiten	-9.94652
eschl	-9.94679
lli	-9.94681
tro	-9.94696
▁weitere	-9.94714
bereits	-9.94725
Gemeinschaf	-9.94731
nl	-9.94742
▁Gemeinscha	-9.94747
stellu	-9.94758
usa	-9.94767
insbesonder	-9.94785
gef	-9.94797
▁besonder	-9.94833
ewe	-9.94922
internat	-9.94942
ollen	-9.95036
lge	-9.95045
licher	-9.95052
▁wirtschaft	-9.95073
▁kon	-9.95096
edi	-9.95113
ichtun	-9.95169
▁Bere	-9.95201
ow	-9.95221
▁sp	-9.95223
Maßnahme	-9.95234
ial	-9.95243
stem	-9.95264
esetz	-9.95288
cherhe	-9.95294
▁Maßnahm	-9.95298
icherh	-9.95305
orma	-9.95309
herhei	-9.95314
▁Zusa	-9.95363
200	-9.95392
eing	-9.95454
▁einz	-9.95505
nsbesonder	-9.95574
▁biete	-9.95608
politik	-9.95625
offe	-9.95633
rhei	-9.95654
erre	-9.95656
diesen	-9.9567
sbesondere	-9.95693
nb	-9.95752
▁Entscheidung	-9.9576
uk	-9.95797
dliche	-9.95812
mmenarbeit	-9.95825
sammenarbe	-9.95835
usammenarb	-9.95842
seit	-9.95974
echn	-9.96053
ress	-9.96073
▁eur	-9.96083
Mens	-9.96132
such	-9.96178
Unterstützu	-9.96236
chtl	-9.96245
rück	-9.96284
▁damit	-9.96332
ereits	-9.9634
timmung	-9.96384
forma	-9.96473
ari	-9.96481
tütz	-9.96503
ndet	-9.96519
haftli	-9.96546
Parlaments	-9.96554
aftlic	-9.96556
ntl	-9.96565
ap	-9.96581
itu	-9.96582
Produk	-9.96604
richterstatte	-9.96696
ichterstatter	-9.96724
ieds	-9.96814
chne	-9.96896
ormatione	-9.96896
▁gesch	-9.96939
rmationen	-9.96961
wel	-9.96961
ellun	-9.97006
gramm	-9.97041
spie	-9.97048
▁möglic	-9.97069
▁gro	-9.9707
erhalten	-9.97206
tänd	-9.97236
tellu	-9.97305
ändern	-9.97413
▁finde	-9.97464
schiedene	-9.97525
ffentl	-9.97543
fentli	-9.97551
▁unterstütze	-9.97556
stüt	-9.97692
eiste	-9.977
etzung	-9.97721
yste	-9.97741
litis	-9.97746
inige	-9.97793
▁Kr	-9.97863
estellt	-9.97871
gang	-9.97894
einsch	-9.97986
gestell	-9.98021
rodu	-9.98034
erhei	-9.98038
tsp	-9.98103
tehe	-9.9811
fahren	-9.98133
pf	-9.98193
▁Um	-9.98193
stän	-9.98208
▁betr	-9.98218
▁am	-9.98258
ickl	-9.9829
setzung	-9.98311
htli	-9.98351
erfahren	-9.98366
▁besteh	-9.98442
gehen	-9.98445
politischen	-9.98469
hla	-9.98524
lass	-9.98585
eleg	-9.98598
nterna	-9.98617
ntscheidung	-9.98632
dert	-9.98645
▁Übe	-9.98688
hied	-9.98729
▁öffentlich	-9.98755
orschlag	-9.98783
nio	-9.98791
derungsantr	-9.98816
ee	-9.98816
nderungsant	-9.98827
esser	-9.9889
renz	-9.98923
Wa	-9.98935
bil	-9.98955
Möglichke	-9.9903
▁Regier	-9.99031
lls	-9.99039
▁Möglichk	-9.99049
stimmun	-9.99059
tens	-9.99061
▁Mitte	-9.99152
große	-9.99198
stung	-9.99288
▁Lan	-9.99293
ternationalen	-9.99322
ndlic	-9.99327
lche	-9.99436
egie	-9.99465
doch	-9.99471
lunge	-9.99494
▁Program	-9.99538
verschie	-9.99646
viele	-9.99653
wisc	-9.9974
▁her	-9.99766
rtschaftl	-9.99802
tschaftli	-9.99835
Über	-9.99841
möc	-9.99853
ütz	-9.9986
▁polit	-9.99876
Inform	-9.99942
Berei	-9.99943
▁sicher	-9.99944
▁Infor	-9.9996
▁Zi	-10.0001
▁Hi	-10.0004
Programm	-10.0011
inanz	-10.0011
Berichterstat	-10.0014
▁Berichtersta	-10.0014
▁verschi	-10.0023
rnatio	-10.0028
eche	-10.0032
wieder	-10.0034
rauch	-10.0037
rreich	-10.0038
erze	-10.0039
terna	-10.0043
öglichk	-10.0044
ogram	-10.0048
Menschenrecht	-10.005
▁Menschenrech	-10.0052
isierung	-10.0053
erichterstat	-10.0055
▁Vorschlag	-10.0056
richterstatt	-10.0056
ussch	-10.0058
▁Gemeins	-10.0061
stu	-10.0061
genommen	-10.0065
aren	-10.0072
Vors	-10.0072
eson	-10.0072
▁Kolleg	-10.0075
▁Haus	-10.008
▁hie	-10.0082
ßnahme	-10.0084
dan	-10.0089
eschä	-10.009
chter	-10.0094
handel	-10.0097
aßnahm	-10.0101
▁öffentliche	-10.0108
▁gleich	-10.0115
chafts	-10.0117
eso	-10.012
▁wiede	-10.0124
versc	-10.0134
rogra	-10.0136
hande	-10.0142
eni	-10.0144
sellschaf	-10.0146
ellschaft	-10.0146
esellscha	-10.0147
ieß	-10.0148
wurden	-10.015
Entw	-10.0152
Kommissar	-10.0155
▁Kommissa	-10.0156
▁Vers	-10.0157
hier	-10.0165
sh	-10.0172
rstü	-10.0176
▁Gemein	-10.0177
▁wic	-10.0178
Zusammenarb	-10.0182
▁Zusammenar	-10.0184
erv	-10.0188
rneh	-10.019
tü	-10.0193
Ho	-10.0193
betr	-10.0197
hrt	-10.0199
▁fin	-10.0208
lig	-10.0211
lassen	-10.0211
▁Richtlinie	-10.0212
erge	-10.0213
ör	-10.0215
▁Prob	-10.0216
ndun	-10.022
estim	-10.0229
ielle	-10.023
Frau	-10.0236
▁Änderungsa	-10.0242
zier	-10.0243
sehen	-10.0244
Änderungsan	-10.0245
chtu	-10.0245
▁verb	-10.0247
verb	-10.0251
▁erreich	-10.0253
iz	-10.0254
zwei	-10.0257
sem	-10.0259
öffentliche	-10.0262
wort	-10.0263
▁Tr	-10.0263
ast	-10.0266
ondere	-10.0266
rderun	-10.0268
stü	-10.0273
cklu	-10.0274
ernat	-10.0278
ständig	-10.0281
deu	-10.0282
klun	-10.0287
eitere	-10.029
einsam	-10.0291
ichts	-10.0294
rbeits	-10.0296
gemeinsame	-10.03
▁Länd	-10.0301
Auss	-10.0303
Lände	-10.0304
gele	-10.0305
ertra	-10.0307
rnati	-10.0312
ogra	-10.0314
rif	-10.032
ingen	-10.032
Unterstütz	-10.0323
▁Unterstüt	-10.0327
Zusam	-10.0335
rtei	-10.0343
esta	-10.0344
erstützung	-10.0344
nterstützu	-10.0346
terstützun	-10.0346
meinscha	-10.0355
emeinsch	-10.0357
aue	-10.0357
einschaf	-10.0357
meinsame	-10.0357
sb	-10.0358
inschaft	-10.0359
Bürger	-10.0362
wichtige	-10.0364
meinsa	-10.0367
▁Bürge	-10.0369
▁mus	-10.037
Entscheidung	-10.0372
So	-10.0375
▁eigen	-10.0376
tieren	-10.0376
ssch	-10.0377
erbe	-10.0396
▁ganz	-10.0402
ichtlinie	-10.0404
nserer	-10.0405
▁selbst	-10.0407
Arb	-10.0409
▁sonde	-10.0409
insch	-10.0413
▁Verf	-10.0413
fah	-10.0415
estimmt	-10.0417
ziel	-10.0421
Gemeinscha	-10.0426
▁Gemeinsch	-10.0427
ett	-10.0429
▁insbesond	-10.0432
inf	-10.0435
bis	-10.0445
Entsch	-10.0451
▁wirtschaf	-10.0457
ringe	-10.0458
schlossen	-10.046
fl	-10.0462
ichterstatte	-10.047
Sicherh	-10.0472
chterstatter	-10.0473
besse	-10.0473
tschei	-10.0479
ondern	-10.0479
rant	-10.0482
nzi	-10.0496
Rec	-10.05
prech	-10.0501
emen	-10.0504
nteress	-10.0509
Probl	-10.0518
chun	-10.0519
htun	-10.0523
erfü	-10.0523
schw	-10.0529
rmati	-10.0532
matio	-10.0539
shal	-10.0539
▁fr	-10.0547
glichk	-10.0549
gungen	-10.0551
estel	-10.0557
gier	-10.0557
hende	-10.0563
wirts	-10.0576
nhei	-10.0577
erfo	-10.0583
onalen	-10.0584
ori	-10.0597
rfahr	-10.0599
sbesonder	-10.061
los	-10.0611
unterstütze	-10.0612
sbe	-10.0613
führen	-10.0613
nsa	-10.0617
iell	-10.0623
Str	-10.0624
▁zwe	-10.0627
entsch	-10.0628
schaftlichen	-10.063
menarbeit	-10.0634
Wirtsch	-10.0635
ammenarbe	-10.0636
sammenarb	-10.0637
usammenar	-10.0637
rfolg	-10.0637
bst	-10.0645
licht	-10.0651
▁dara	-10.0651
▁Änderungs	-10.0654
Untern	-10.0656
▁Prod	-10.0656
ration	-10.0659
▁besonde	-10.066
hlag	-10.0661
ntsche	-10.0661
groß	-10.0663
gierun	-10.0665
erke	-10.0666
▁Bi	-10.0667
nken	-10.0667
ckl	-10.067
▁Möglich	-10.0673
Unters	-10.0673
hö	-10.0674
arlaments	-10.0674
▁Wirtschafts	-10.068
beso	-10.0681
Le	-10.0683
sollten	-10.0685
leis	-10.0685
▁Jahren	-10.0693
mü	-10.0695
Fo	-10.0695
chließlich	-10.0696
eispiel	-10.0706
▁eini	-10.0709
alis	-10.0716
weitere	-10.0721
ernationalen	-10.0722
igu	-10.0727
pl	-10.0728
mationen	-10.0729
▁Siche	-10.0729
enheit	-10.0733
rhalten	-10.0735
▁entsprechen	-10.0735
Sicher	-10.0736
olitischen	-10.0739
olge	-10.0745
ieb	-10.0748
sprec	-10.0753
Vertr	-10.0762
öffentl	-10.0764
dsta	-10.0765
atisch	-10.0765
▁Haushalt	-10.0769
derunge	-10.077
nisse	-10.0773
interna	-10.0773
erli	-10.0775
rfo	-10.0779
▁gemei	-10.0785
For	-10.0788
▁Sich	-10.0792
istung	-10.0792
▁Fe	-10.0794
▁Ents	-10.0799
anische	-10.0799
ltung	-10.0801
halb	-10.0801
▁Mitt	-10.0801
▁Berichterst	-10.0804
erreic	-10.0806
stimmt	-10.0811
erungsantr	-10.0813
Berichtersta	-10.0815
rgan	-10.0815
tscheidung	-10.0816
enschenrecht	-10.0817
muss	-10.0819
enh	-10.0827
nderungsan	-10.0827
▁würde	-10.0827
▁öffentlic	-10.0828
..	-10.0832
dli	-10.0833
▁Welt	-10.0833
derungsant	-10.0834
hieden	-10.0834
einfach	-10.0835
▁Schl	-10.0838
▁Berichte	-10.0838
▁unterstützen	-10.084
ktiv	-10.0843
rschlag	-10.0849
Menschenrech	-10.0849
mmun	-10.0854
ffentliche	-10.0855
Maßnahm	-10.0859
erhalte	-10.0859
wirk	-10.086
intern	-10.0863
▁Maßnah	-10.0864
rmatione	-10.0866
nger	-10.087
haftl	-10.0873
sow	-10.0874
ichtl	-10.0882
edst	-10.0884
tru	-10.0886
▁Ihne	-10.0887
irtschafts	-10.0887
eistun	-10.0887
Ihnen	-10.0889
uß	-10.0893
lieg	-10.0895
nommen	-10.09
chk	-10.09
▁Staat	-10.0901
Bei	-10.0905
pre	-10.0909
itischen	-10.0912
fre	-10.0912
zwis	-10.0915
ürger	-10.0923
▁Stra	-10.0923
rfahren	-10.0924
erichtersta	-10.0925
ichterstatt	-10.0925
brauc	-10.0925
richterstat	-10.0925
▁heut	-10.0927
chiedene	-10.093
gibt	-10.0933
cheid	-10.0934
steht	-10.0939
jedoch	-10.0943
erhalt	-10.0944
Frag	-10.0945
Int	-10.0953
emokrati	-10.0961
lasse	-10.0968
Produ	-10.0977
▁einfach	-10.0979
▁imme	-10.0979
hiede	-10.0984
mög	-10.0994
ep	-10.0996
Ba	-10.1001
ollten	-10.1002
ichtu	-10.1005
▁Mittel	-10.1005
bra	-10.1006
gle	-10.101
uge	-10.1013
schäf	-10.1023
chäft	-10.1024
Men	-10.1031
Land	-10.1033
ntwor	-10.1036
emokrat	-10.1036
echts	-10.1039
orderung	-10.1046
▁Nac	-10.1047
Vert	-10.105
▁Wenn	-10.1052
ativ	-10.1054
fahre	-10.1054
▁zwi	-10.1058
erfahre	-10.1059
elbst	-10.1062
bt	-10.1065
▁vom	-10.1068
ln	-10.1068
▁Sa	-10.1069
lisier	-10.107
▁ins	-10.1071
▁politischen	-10.1079
Möglichk	-10.1081
alität	-10.1085
dukt	-10.1086
▁Date	-10.1089
bu	-10.1091
lichkeiten	-10.1091
verschi	-10.1097
oble	-10.1099
chtlich	-10.1104
wäh	-10.1106
Nach	-10.1106
Vorschlag	-10.1107
▁Vorschla	-10.1108
odu	-10.1108
erantwort	-10.1111
Zei	-10.1118
eiden	-10.1119
▁ger	-10.1121
llun	-10.1123
▁zusammen	-10.1126
nste	-10.1128
▁Richt	-10.1129
ungsantr	-10.113
voll	-10.1132
Zusammenar	-10.1135
▁Zusammena	-10.1136
hw	-10.1142
▁ga	-10.1143
antwort	-10.1146
tschaftl	-10.115
Richtlinie	-10.115
ommissar	-10.1151
owie	-10.1158
entsprechen	-10.1161
blem	-10.1164
▁Wel	-10.1166
ften	-10.1168
gehe	-10.1175
ög	-10.1175
altun	-10.1176
immung	-10.1177
timmun	-10.1178
▁Ins	-10.1185
▁Seit	-10.1193
Änderungsa	-10.1194
llten	-10.1196
robl	-10.1198
ou	-10.1204
sowi	-10.1205
äng	-10.1205
ßer	-10.1207
rle	-10.1209
nfo	-10.121
orschla	-10.1211
▁Änder	-10.1213
sierung	-10.1217
pt	-10.1217
Sp	-10.1219
▁po	-10.1221
reis	-10.1222
zwe	-10.1225
opa	-10.1225
▁verschiedenen	-10.1226
Gesch	-10.1229
▁mach	-10.123
Program	-10.123
▁heute	-10.123
▁Gesc	-10.1233
▁vorge	-10.1237
erlich	-10.1238
chwe	-10.1241
▁Info	-10.1243
jede	-10.1245
ema	-10.1246
▁Entscheidu	-10.1246
▁mögli	-10.1248
führe	-10.1249
▁gi	-10.1252
▁Mar	-10.1257
▁Finanz	-10.126
besteh	-10.1262
twort	-10.1262
ftli	-10.1263
pos	-10.1264
Fa	-10.1264
entr	-10.1265
▁Ste	-10.1271
ühren	-10.1275
atürlich	-10.1281
oduk	-10.1282
uchen	-10.1284
erfüg	-10.1285
▁Kolle	-10.1286
keite	-10.1286
▁Progra	-10.1288
sag	-10.1289
ltu	-10.1294
▁aufg	-10.1295
aktion	-10.1299
cherh	-10.1303
▁welche	-10.1305
lat	-10.1312
itio	-10.1314
chä	-10.1319
ellschaf	-10.1322
sellscha	-10.1323
llschaft	-10.1323
esellsch	-10.1324
▁gest	-10.1325
▁komm	-10.1328
Kommissa	-10.1332
offen	-10.1338
▁System	-10.1338
gestel	-10.1339
chterstatte	-10.134
▁beg	-10.134
hterstatter	-10.1343
Verb	-10.1346
▁Regie	-10.1347
herhe	-10.1351
▁gl	-10.1353
rakti	-10.1356
rüc	-10.1359
setzun	-10.1372
▁Unterstü	-10.1374
Unterstüt	-10.1375
zeichn	-10.1379
führt	-10.138
nterstütze	-10.1382
▁biet	-10.1382
enommen	-10.1383
isierun	-10.1387
reits	-10.1388
alisier	-10.1389
roß	-10.1389
Gemeins	-10.1394
rstützung	-10.1395
andlung	-10.1395
otwendig	-10.1396
verst	-10.1396
erstützun	-10.1398
terstützu	-10.1399
genomme	-10.1399
ile	-10.1402
ungsa	-10.1404
Hau	-10.1405
edeut	-10.1409
▁stell	-10.1417
racht	-10.1419
nsi	-10.1422
innen	-10.1422
rna	-10.1424
▁steh	-10.1424
elb	-10.1429
Regier	-10.1441
stimmu	-10.1447
damit	-10.1456
▁Politik	-10.1456
▁dami	-10.1456
▁find	-10.1472
Zus	-10.1473
scheidung	-10.1474
▁Inf	-10.1475
rkt	-10.1476
▁natürlich	-10.1476
aftli	-10.1476
rmat	-10.1476
hru	-10.1476
Gemeinsch	-10.1479
folge	-10.1482
stun	-10.1482
insbesond	-10.1484
▁gesc	-10.1485
▁insbeson	-10.1485
geste	-10.1491
▁dann	-10.1492
chaftlichen	-10.15
ibt	-10.1502
▁lie	-10.1508
▁wirtscha	-10.151
einz	-10.1515
▁Seite	-10.1516
▁li	-10.1522
bli	-10.1528
▁siche	-10.1532
ative	-10.1536
nstitution	-10.1542
Wirtschafts	-10.1545
▁poli	-10.1546
mac	-10.1547
erfa	-10.1548
▁gib	-10.155
ffent	-10.155
zusammen	-10.1556
tiere	-10.1558
ständi	-10.1559
gte	-10.1564
mmt	-10.1567
▁Fraktion	-10.1567
chtlinie	-10.1569
fentl	-10.1574
rfa	-10.1577
enten	-10.1583
enarbeit	-10.1586
▁erreic	-10.1588
▁Entwicklungs	-10.1588
etzun	-10.159
rnationalen	-10.1592
▁entspreche	-10.1593
risc	-10.1599
schrift	-10.1612
Kolleg	-10.1615
einsc	-10.1618
▁erh	-10.162
ms	-10.162
einsame	-10.1623
einscha	-10.1623
uti	-10.1624
schlosse	-10.1624
unterstützen	-10.1628
▁nationale	-10.163
ost	-10.1633
ild	-10.1636
chlossen	-10.1638
▁ihrer	-10.164
nfa	-10.164
geleg	-10.1641
irk	-10.1645
allen	-10.1655
▁gleic	-10.1656
▁gel	-10.1656
handlung	-10.1659
isti	-10.166
roße	-10.1669
leistung	-10.1671
eschlossen	-10.1671
▁Berichters	-10.1673
Berichterst	-10.1673
sw	-10.1676
sehe	-10.1678
eset	-10.1682
Grun	-10.1683
enschenrech	-10.1686
nschenrecht	-10.1687
spi	-10.1688
meinsch	-10.1689
ations	-10.1691
inschaf	-10.1692
▁erfo	-10.1692
ven	-10.1703
▁letzte	-10.1703
Änderungs	-10.1706
min	-10.1709
tändig	-10.1715
Gemein	-10.1716
▁Gemei	-10.1717
atz	-10.1717
Ka	-10.1718
▁Menschenre	-10.1722
urden	-10.1724
rhalt	-10.1725
nderungs	-10.1725
Mitte	-10.1731
egier	-10.1733
ce	-10.1737
Bere	-10.1741
hke	-10.1745
▁Bed	-10.1749
chließlic	-10.1749
hließlich	-10.1749
▁entsprechend	-10.1753
anisch	-10.1753
ika	-10.1754
Zusa	-10.1766
Ze	-10.1768
Rat	-10.177
sat	-10.1771
par	-10.1772
gram	-10.1777
▁Interesse	-10.1781
litischen	-10.1787
nsbesond	-10.1788
sm	-10.1793
rger	-10.1793
Gru	-10.1794
ntsprechen	-10.1794
ramm	-10.1798
▁eu	-10.1799
erfolg	-10.1808
ertrag	-10.1808
rate	-10.181
usammena	-10.1812
Infor	-10.1813
mmenarbe	-10.1813
sammenar	-10.1814
ammenarb	-10.1814
einsa	-10.1817
▁Sei	-10.1821
▁wenig	-10.1823
ringen	-10.1823
rem	-10.1826
nsicht	-10.1831
erungsant	-10.1831
ndes	-10.1838
statte	-10.184
atis	-10.1842
alb	-10.1846
▁Entscheid	-10.1848
ienstleistung	-10.1849
insa	-10.1852
klu	-10.1852
rlaments	-10.1852
wiede	-10.1855
ellu	-10.1856
▁tr	-10.1857
tungs	-10.1859
orte	-10.1859
üt	-10.1859
rreic	-10.186
tiert	-10.186
hrend	-10.1861
rungsantr	-10.1866
erichterst	-10.1867
nderungsa	-10.1867
ühre	-10.1868
derungsan	-10.1869
ntscheidu	-10.187
fass	-10.1871
ichterstat	-10.1876
chterstatt	-10.1877
richtersta	-10.1877
zug	-10.1878
verf	-10.1879
▁Entschließung	-10.1881
▁öffentli	-10.1882
nier	-10.1886
erbesser	-10.1889
let	-10.1891
rum	-10.1894
selbst	-10.19
wirt	-10.19
egt	-10.1901
tar	-10.1903
nteres	-10.1905
fentliche	-10.1907
ßnahm	-10.1907
setze	-10.1907
ders	-10.1914
klich	-10.1917
aßnah	-10.1923
schließlich	-10.1926
nges	-10.1932
rtschafts	-10.1934
hlen	-10.1936
hafts	-10.1937
kung	-10.1941
Haushalt	-10.1943
▁Haushal	-10.1945
▁selbs	-10.1946
▁wied	-10.1946
▁machen	-10.1947
ai	-10.1955
zial	-10.1956
▁könnte	-10.1958
▁darauf	-10.196
verschiedenen	-10.1961
rakt	-10.1961
▁finden	-10.1962
zeich	-10.1963
ohn	-10.1968
▁fi	-10.1969
Ta	-10.1975
vorge	-10.1976
▁Vertra	-10.1981
nanz	-10.1985
▁Dienstleistung	-10.1985
ua	-10.1986
fun	-10.1995
▁besond	-10.1995
infach	-10.1998
aushalt	-10.1999
lch	-10.1999
fent	-10.2
gre	-10.2003
Möglich	-10.2006
▁Möglic	-10.2006
Berichte	-10.2015
amit	-10.202
entsprechend	-10.2024
rig	-10.2028
▁Rechts	-10.2029
gk	-10.2033
ok	-10.2034
ndli	-10.2035
sk	-10.2037
wert	-10.2043
elegenheit	-10.2043
▁geb	-10.2043
teress	-10.2047
▁Vi	-10.2049
rga	-10.2056
matione	-10.2056
unktion	-10.2058
nzen	-10.2059
chrift	-10.2059
serer	-10.206
▁eigene	-10.2062
ordnung	-10.2065
▁national	-10.2066
gro	-10.2069
chaff	-10.2072
rhalte	-10.2074
Hot	-10.2075
usschuss	-10.2075
▁Ziel	-10.2077
insam	-10.2077
▁Verein	-10.2081
erstell	-10.2086
rderu	-10.2091
ieh	-10.2093
setzt	-10.2095
esi	-10.2097
▁neuen	-10.2102
entspreche	-10.2103
ntra	-10.2103
gesetz	-10.2104
▁Rahmen	-10.2105
itere	-10.2106
▁geme	-10.211
beits	-10.2119
sl	-10.2119
rtra	-10.2123
nds	-10.2124
rogr	-10.2125
nalen	-10.2128
iege	-10.2128
wendung	-10.213
fts	-10.2131
bew	-10.2134
dst	-10.2135
ierten	-10.2135
rod	-10.2135
ielen	-10.2141
lichkeite	-10.2142
ichkeiten	-10.2143
eran	-10.2145
nha	-10.2147
▁Wirts	-10.2147
eitung	-10.215
Al	-10.2151
tigung	-10.2152
nsti	-10.2152
▁Län	-10.2153
brauche	-10.2159
▁Bürg	-10.2162
erfahr	-10.2165
ker	-10.2166
öc	-10.2174
Bürge	-10.2175
ram	-10.2181
▁verw	-10.2185
nlich	-10.2186
Zusammena	-10.2187
rliche	-10.2189
chritt	-10.2194
Entscheidu	-10.2194
▁eige	-10.2195
würd	-10.2195
rtig	-10.2196
▁entwickel	-10.2205
nzu	-10.2207
ußer	-10.2213
nstitutione	-10.2213
▁Richtlin	-10.2213
Es	-10.2214
▁sond	-10.2215
▁ho	-10.2217
sha	-10.2218
cken	-10.2218
hter	-10.2223
ding	-10.2223
Jahren	-10.223
din	-10.2239
ispiel	-10.2239
wirtschaftlichen	-10.224
▁Ku	-10.2243
stitution	-10.2245
eispie	-10.2247
▁Energie	-10.225
▁Besch	-10.2254
entwickel	-10.2258
▁Üb	-10.2263
hiedene	-10.2264
immt	-10.2266
rauc	-10.2267
geführt	-10.2272
ersta	-10.2272
ührung	-10.2275
tin	-10.2282
Vorschla	-10.2283
erantwor	-10.2285
ussc	-10.2287
mokrati	-10.2288
rantwort	-10.2288
hterstatte	-10.2293
terstatter	-10.2295
rschla	-10.2298
▁zusamme	-10.2302
Haus	-10.2303
öffent	-10.2303
uße	-10.231
letzt	-10.2313
etzte	-10.2313
▁einfac	-10.2314
rob	-10.2329
▁würd	-10.2332
eds	-10.2337
▁Wei	-10.2343
enhei	-10.2347
▁Leben	-10.2348
bin	-10.2349
rfahre	-10.2349
▁Ch	-10.2352
eib	-10.2355
▁Bedeutung	-10.2355
setzen	-10.2356
▁Aussch	-10.2358
annt	-10.2359
fas	-10.2359
htl	-10.2361
▁Probleme	-10.2364
nktion	-10.2366
grund	-10.2367
ersuch	-10.2369
usschu	-10.237
Vers	-10.2371
▁zus	-10.2371
nta	-10.2372
▁letzt	-10.2373
gunge	-10.2374
nsp	-10.2374
ral	-10.2375
einfac	-10.2376
▁Wo	-10.2376
ezi	-10.2378
orderun	-10.238
erin	-10.238
Entwicklungs	-10.2384
besch	-10.2386
bed	-10.2387
▁Hand	-10.2391
ks	-10.2391
ozial	-10.2393
▁...	-10.2394
welche	-10.2394
eile	-10.2397
Maßnah	-10.2399
edoch	-10.24
siert	-10.2403
▁Maßna	-10.2403
egion	-10.2405
▁Interess	-10.2416
ade	-10.242
entwick	-10.242
▁seiner	-10.2421
mun	-10.2423
ungsant	-10.2424
ganz	-10.2426
rganisation	-10.2429
ordn	-10.243
▁Unterst	-10.243
▁EU	-10.2431
errei	-10.2432
terstütze	-10.2435
nner	-10.2437
▁wel	-10.2439
yst	-10.2441
Prob	-10.2442
nterstützen	-10.2442
rme	-10.2442
lungs	-10.2443
endung	-10.2444
▁Zusammenhang	-10.2448
ichten	-10.245
entsc	-10.2451
öglichkeiten	-10.2453
haftlichen	-10.2453
▁Menschenrechte	-10.2454
sor	-10.2454
rnat	-10.2456
genen	-10.2458
entlichen	-10.2459
▁unterschiedlich	-10.246
▁darau	-10.246
suc	-10.246
rken	-10.2461
nterschied	-10.2462
natürlich	-10.2462
ratio	-10.2464
ngsantr	-10.2465
ret	-10.2471
▁The	-10.2477
▁Ans	-10.2481
ommissa	-10.2484
spre	-10.2486
mmissar	-10.2486
gieru	-10.2488
▁denen	-10.249
ntere	-10.2493
tän	-10.2496
tüt	-10.2499
▁Politi	-10.2499
rdnung	-10.2501
chtet	-10.2502
mmung	-10.2503
stri	-10.2504
prach	-10.2508
izi	-10.251
▁Daten	-10.251
euer	-10.2513
würde	-10.2522
etze	-10.2523
▁erhalten	-10.2523
spe	-10.2525
ndert	-10.2525
Länd	-10.2525
machen	-10.2526
stützung	-10.2532
rauche	-10.2532
ntsprechend	-10.2535
schloss	-10.2539
Mittel	-10.2539
▁entsprech	-10.2543
▁Intern	-10.2546
Unterstü	-10.2546
tschafts	-10.2547
Siche	-10.2549
▁Teil	-10.2552
ssa	-10.2554
wirklich	-10.2555
▁Geschäft	-10.2559
▁gan	-10.2565
▁Finan	-10.2565
cheidung	-10.2569
mokrat	-10.257
▁Abs	-10.2572
rstützun	-10.2573
up	-10.2575
erstützu	-10.2575
emokra	-10.2577
lus	-10.2577
achten	-10.2583
atisc	-10.2588
istun	-10.259
ichter	-10.2592
Änderungsanträge	-10.2594
nstitutio	-10.2594
timmt	-10.2594
▁besch	-10.2595
ments	-10.2596
hafte	-10.2596
esteh	-10.2597
üg	-10.2601
ufg	-10.2604
▁Zusammenha	-10.2613
▁Gesellschaft	-10.2614
Li	-10.2614
▁fo	-10.2615
türlich	-10.2616
atürlic	-10.2616
derungs	-10.2617
ex	-10.2618
▁erforderlich	-10.2618
Entschließung	-10.2619
teres	-10.262
okrati	-10.2621
▁Entschließun	-10.2622
bri	-10.2622
▁Berichter	-10.2623
Berichters	-10.2626
Verf	-10.2628
zahl	-10.2628
fall	-10.2629
insc	-10.263
nschenrech	-10.2639
schenrecht	-10.2639
ienst	-10.264
ungsan	-10.2641
lschaft	-10.2641
ches	-10.2641
nsich	-10.2642
htlich	-10.2642
ienstleistun	-10.2648
enstleistung	-10.2649
▁Dat	-10.2653
Dienstleistung	-10.2655
ellscha	-10.2656
genheit	-10.2656
llschaf	-10.2656
sellsch	-10.2657
esellsc	-10.2659
vol	-10.266
raus	-10.2661
insbeson	-10.2662
▁Schu	-10.2662
▁kl	-10.2663
narbeit	-10.2663
ngsa	-10.2665
▁bietet	-10.2667
Menschenre	-10.2671
▁Menschenr	-10.2671
▁son	-10.2672
▁Dienstleistun	-10.2673
▁Rich	-10.2677
prec	-10.2677
eistu	-10.2678
atische	-10.2678
erla	-10.2681
antwor	-10.2684
▁wirtsch	-10.2688
erle	-10.269
doc	-10.269
▁unseren	-10.2691
zlich	-10.2692
bess	-10.2692
▁Progr	-10.2694
enk	-10.2702
▁welch	-10.2704
inanzie	-10.2706
nell	-10.2707
nomme	-10.2708
dien	-10.2714
Staat	-10.2718
edingungen	-10.272
eschlosse	-10.2721
▁Staa	-10.2721
rechte	-10.2721
Fraktion	-10.2727
▁Wen	-10.2727
otwendi	-10.2729
▁Haushalts	-10.273
nw	-10.273
twendig	-10.2731
tzte	-10.2731
apos	-10.2732
Übe	-10.2737
nhe	-10.2738
System	-10.2739
schaff	-10.2745
▁Do	-10.2747
▁dam	-10.2749
erschiedenen	-10.2753
sierun	-10.2757
egr	-10.2759
chste	-10.2764
iens	-10.2765
Progra	-10.2771
alitä	-10.2775
eichn	-10.278
Politik	-10.278
ats	-10.2781
▁aufge	-10.2787
Lan	-10.279
▁gut	-10.2797
irklich	-10.2798
▁br	-10.2798
Finanz	-10.2798
▁Ri	-10.2799
tter	-10.28
▁Schw	-10.2802
nve	-10.2807
währ	-10.281
erungsan	-10.2814
chtlin	-10.2814
eng	-10.2817
niss	-10.2823
▁während	-10.2825
rfah	-10.2826
rfol	-10.2832
san	-10.2833
Interesse	-10.2834
ntspreche	-10.2836
tsprechen	-10.2842
chlosse	-10.2843
nderungsanträge	-10.2844
▁verf	-10.2845
dara	-10.2857
system	-10.2862
Prod	-10.2865
raktion	-10.2869
▁Person	-10.287
enig	-10.2872
ndustrie	-10.2872
rfü	-10.2873
umen	-10.2874
▁Syste	-10.2875
assung	-10.2876
▁Inst	-10.2876
zusamme	-10.2876
irtschaftlichen	-10.2876
schließlic	-10.2879
ita	-10.288
chterstat	-10.2882
▁selb	-10.2882
ntwicklungs	-10.2889
ichtlin	-10.2891
lisie	-10.2892
lier	-10.2893
Entscheid	-10.2896
▁Entschei	-10.2901
▁Wettbewerb	-10.2901
htlinie	-10.2904
enomme	-10.2907
selb	-10.2911
▁Koll	-10.2917
ument	-10.2919
erichters	-10.292
äu	-10.292
richterst	-10.292
immun	-10.2925
ichtersta	-10.2926
Mo	-10.2926
chließli	-10.2926
hließlic	-10.2927
ließlich	-10.2927
isieru	-10.2929
alisie	-10.2929
▁vorg	-10.2929
hterstatt	-10.2931
▁Kollege	-10.2935
andlun	-10.2935
ndlung	-10.2936
egel	-10.2939
genomm	-10.294
Richt	-10.2942
log	-10.2945
ogr	-10.295
twor	-10.2951
legenheit	-10.2951
letz	-10.2951
aufg	-10.2956
laub	-10.2957
chutz	-10.2961
chluss	-10.2963
chlich	-10.2966
rans	-10.2966
▁verwende	-10.2968
glichkeiten	-10.2969
klic	-10.297
zeug	-10.2973
hlossen	-10.2973
brau	-10.2974
▁Beispiel	-10.2974
enschaft	-10.2976
▁könnt	-10.2976
ssc	-10.298
fal	-10.2982
derungsa	-10.2984
ährend	-10.2985
the	-10.299
handlun	-10.2993
ltun	-10.2993
eck	-10.2994
▁Sic	-10.2996
▁imm	-10.2996
timmu	-10.3
lagen	-10.3
Po	-10.3001
▁Region	-10.3003
leistun	-10.3004
wissen	-10.3004
▁lieg	-10.3006
Fi	-10.3007
rungsant	-10.3009
erbr	-10.3009
...	-10.3011
ement	-10.3014
elche	-10.3015
äc	-10.3019
Sich	-10.3019
rbeiten	-10.302
▁befinde	-10.3021
Mitt	-10.3023
oste	-10.3024
letzte	-10.3025
Ents	-10.3026
ührt	-10.3029
aub	-10.3031
Änder	-10.3034
bestimm	-10.3035
mpf	-10.3038
▁heu	-10.3038
ürge	-10.3039
heute	-10.3041
führung	-10.3043
schein	-10.3044
tscheidu	-10.3047
▁Co	-10.3053
Welt	-10.3053
fu	-10.3053
ntersch	-10.3053
▁öffentl	-10.3055
▁Fre	-10.3059
▁notwendig	-10.3059
erlic	-10.306
Schl	-10.3062
▁Ausschu	-10.3064
olleg	-10.3064
ettbewerb	-10.3066
▁mögl	-10.307
fizie	-10.3077
heid	-10.3085
welt	-10.3086
▁Ihn	-10.3086
inscha	-10.3088
iff	-10.3088
hlu	-10.3089
chend	-10.3089
sische	-10.3092
▁wirklich	-10.3092
aftl	-10.3093
htu	-10.3093
▁nat	-10.3094
elegenhei	-10.3095
tlinie	-10.3096
▁Bür	-10.3097
▁Kollegen	-10.3103
unterschiedlich	-10.3104
▁unterschiedlic	-10.3104
Kolle	-10.3107
eitig	-10.3108
heut	-10.3109
zwi	-10.311
rak	-10.3114
Ihne	-10.3118
▁Ne	-10.3119
sbesond	-10.3123
nsbeson	-10.3123
zieh	-10.3125
izie	-10.3127
▁errei	-10.3129
les	-10.3129
okrat	-10.3133
örde	-10.3134
wisse	-10.3137
Stra	-10.3142
olgen	-10.3143
Menschenrechte	-10.3143
ziell	-10.3144
menarbe	-10.3146
sammena	-10.3147
▁Abgeordnete	-10.3147
nstitut	-10.3148
ammenar	-10.3148
mmenarb	-10.3148
teht	-10.3149
schrif	-10.3151
entsprech	-10.3151
▁pol	-10.3154
zeichne	-10.3154
▁Dienst	-10.3159
insame	-10.316
verl	-10.3161
▁Ang	-10.3162
stitutione	-10.3162
lf	-10.3163
eigene	-10.3163
weil	-10.3165
erwend	-10.3165
rwei	-10.3166
Regie	-10.3166
omp	-10.3168
beg	-10.317
▁Ländern	-10.3171
punkt	-10.3178
arkt	-10.3179
▁bestimmt	-10.3182
laments	-10.3186
▁Th	-10.3189
setzu	-10.3194
rtrag	-10.3196
▁Projekt	-10.3199
rier	-10.3206
▁bed	-10.3207
▁bestimm	-10.3211
▁gef	-10.3212
äl	-10.3214
chäf	-10.3217
prache	-10.3219
hem	-10.3221
erbesse	-10.3223
rbesser	-10.3224
nutz	-10.3225
rtung	-10.3227
schaffen	-10.3229
▁stel	-10.3237
use	-10.3238
▁nationa	-10.3241
▁mache	-10.3242
▁Zusammenhan	-10.3247
Zusammenhang	-10.3249
▁etwa	-10.3249
häft	-10.325
▁entwicke	-10.3257
▁pro	-10.3259
port	-10.3259
esundheit	-10.3261
ntwo	-10.3262
arbeiten	-10.3263
▁Im	-10.3265
lbst	-10.3266
Wenn	-10.3267
verw	-10.3269
tschl	-10.3269
erwa	-10.327
▁erforder	-10.3274
Haushal	-10.3277
▁gegenüber	-10.3277
tändi	-10.3278
▁Hausha	-10.328
esa	-10.328
ntschließung	-10.3282
▁&#9	-10.3282
Date	-10.3283
ftig	-10.3283
auche	-10.3285
wende	-10.3287
elbs	-10.3288
leicht	-10.3288
stisch	-10.3295
▁Zusammenh	-10.33
schaften	-10.3301
ändig	-10.3305
trategi	-10.3308
▁Ausschuss	-10.331
nteresse	-10.3311
Seite	-10.3313
chloss	-10.3315
chkeiten	-10.3317
ichkeite	-10.3318
öglichkeite	-10.3321
▁zurück	-10.3324
erungsa	-10.3329
resse	-10.3332
sschu	-10.3335
schließen	-10.3338
geschl	-10.334
erstatter	-10.3343
terstatte	-10.3346
forderung	-10.3347
▁ermöglich	-10.3355
gesetzt	-10.3356
ys	-10.3356
ntwickel	-10.3357
ehör	-10.3358
erantwortung	-10.3359
eschäftig	-10.3362
gabe	-10.3363
uell	-10.3368
Richtlin	-10.3376
ndliche	-10.3377
ganisation	-10.338
rganisatio	-10.338
altu	-10.3383
ener	-10.3386
▁Richtli	-10.3391
terstützen	-10.3395
Dienstleistun	-10.3395
nut	-10.3398
Seit	-10.34
mung	-10.34
Gesellschaft	-10.3407
ushalt	-10.3407
Bedeutung	-10.3409
▁bie	-10.3409
sschuss	-10.3409
usschus	-10.3409
äft	-10.3409
nächst	-10.341
llu	-10.341
▁Gesellschaf	-10.3412
▁Dienstleistu	-10.3413
ewer	-10.3414
erforderlich	-10.3418
▁!	-10.3419
Entschließun	-10.3419
truktur	-10.3421
▁bef	-10.3421
stitutio	-10.3421
titution	-10.3421
▁Entschließu	-10.3422
lein	-10.3422
dam	-10.3423
▁Verfügung	-10.3425
etzen	-10.3425
▁glei	-10.3428
auen	-10.3429
▁mac	-10.3433
entwicke	-10.3435
äre	-10.3443
obl	-10.3447
iegen	-10.3448
Info	-10.3454
Gesc	-10.346
ihrer	-10.3462
inst	-10.3467
herh	-10.347
geschlossen	-10.3473
nergie	-10.3478
▁letzten	-10.3478
▁&#	-10.348
ontroll	-10.3482
tsprechend	-10.3484
▁Geme	-10.3485
aff	-10.3489
▁beson	-10.3491
sf	-10.3493
wenig	-10.3494
könnte	-10.3499
▁fest	-10.3499
elegen	-10.35
darauf	-10.35
erso	-10.3504
rteil	-10.3505
gn	-10.3506
aftlichen	-10.3507
oz	-10.3507
alit	-10.351
etzu	-10.3511
ologi	-10.3511
nterschie	-10.3513
terschied	-10.3515
rfüg	-10.3516
ienstleistu	-10.3517
Vertra	-10.3518
enstleistun	-10.3518
nstleistung	-10.3518
orderungen	-10.3519
usse	-10.352
ure	-10.3523
bun	-10.3523
mögliche	-10.3525
träg	-10.3527
rv	-10.3527
esten	-10.3528
derungsanträge	-10.3532
Energie	-10.3534
twe	-10.3537
Gemei	-10.3537
aushal	-10.3538
▁aller	-10.354
Probleme	-10.3541
Möglic	-10.3545
▁Mögli	-10.3546
lisierung	-10.3547
ohne	-10.3547
pp	-10.3547
uelle	-10.3548
▁mich	-10.3549
ufe	-10.3551
nsta	-10.3555
rsta	-10.3555
▁schw	-10.3556
▁erhalte	-10.3561
▁Energi	-10.3562
▁Interes	-10.3563
rtschaftlichen	-10.3566
anisc	-10.3566
Zusammenha	-10.3566
▁Ro	-10.3567
Rechts	-10.3567
kra	-10.3569
afts	-10.357
ierungs	-10.3574
ändi	-10.3574
ntlichen	-10.3575
▁Verbraucher	-10.3579
▁wollen	-10.3582
stische	-10.3583
▁Vertrag	-10.3584
rete	-10.3584
▁Zimmer	-10.3589
Interess	-10.3593
auss	-10.3593
istisch	-10.3593
nterschiedlich	-10.3597
enige	-10.3597
inanzi	-10.3598
unktio	-10.3599
▁entspr	-10.3599
luss	-10.3599
▁Kont	-10.3599
▁allen	-10.3601
▁Verei	-10.3606
rog	-10.3607
erstütze	-10.3609
vorg	-10.3609
nders	-10.361
erfol	-10.361
ume	-10.3613
Verein	-10.3614
elen	-10.3618
erantwo	-10.3619
rantwor	-10.362
rschiedenen	-10.3623
▁jetzt	-10.3623
erstel	-10.3625
eress	-10.3628
ftl	-10.3629
tst	-10.3629
gesa	-10.3631
▁zusamm	-10.3634
send	-10.3634
edeu	-10.3638
owi	-10.3639
lleg	-10.364
lde	-10.3641
▁entsch	-10.3642
▁of	-10.3642
tragen	-10.3642
Rahmen	-10.3643
tersch	-10.3643
linie	-10.3644
▁weni	-10.3645
▁Rahme	-10.3646
tatte	-10.3649
▁soziale	-10.3653
dann	-10.3654
▁Art	-10.3655
chenrecht	-10.3662
ienstleistungen	-10.3662
mmu	-10.3664
zielle	-10.3667
sprechend	-10.3667
schenrech	-10.367
echnologi	-10.367
wendun	-10.367
▁Dienstleist	-10.3673
äg	-10.3674
dami	-10.3674
Berichter	-10.3676
iedene	-10.3678
▁19	-10.3682
satz	-10.3682
eschloss	-10.369
▁Mein	-10.369
▁fe	-10.369
enschenre	-10.3691
▁Ergebnis	-10.3698
tspr	-10.37
▁natürli	-10.3707
rzeug	-10.3709
teri	-10.3716
nli	-10.3716
bietet	-10.3719
robleme	-10.372
eutsch	-10.372
selbs	-10.372
Menschenr	-10.3722
rrei	-10.3725
▁Fl	-10.3725
▁einfa	-10.3726
Geschäft	-10.3732
▁Geschäf	-10.3733
eß	-10.3734
▁Gesundheit	-10.3735
rien	-10.3736
erson	-10.3737
ienstleist	-10.3739
nstituti	-10.374
nfach	-10.3744
tützung	-10.3746
erwei	-10.3747
trä	-10.3752
▁Präsidentin	-10.3753
ritte	-10.3755
gib	-10.3756
Unterst	-10.376
▁Anwendung	-10.3762
tigkeit	-10.3763
▁sozial	-10.3763
▁ohne	-10.3765
istische	-10.3769
ohl	-10.3769
dingungen	-10.377
isen	-10.3776
oße	-10.3779
Haushalts	-10.378
chni	-10.3782
▁Han	-10.3784
Kr	-10.3788
ngungen	-10.3789
osten	-10.379
▁entsp	-10.379
▁Pe	-10.3791
▁unterschiedli	-10.3793
unterschiedlic	-10.3794
eführt	-10.3795
▁wä	-10.3796
erse	-10.38
▁sa	-10.38
tspreche	-10.3807
geführ	-10.3811
schafte	-10.3813
▁Sicherheits	-10.3814
bringen	-10.3815
infac	-10.3821
trete	-10.3821
woh	-10.3825
mache	-10.3827
äge	-10.3831
twa	-10.3841
twicklungs	-10.3841
ürlich	-10.3843
eitet	-10.3845
riff	-10.3849
Wettbewerb	-10.385
▁führ	-10.3851
ssung	-10.3852
▁Wettbewer	-10.3853
utze	-10.3854
▁Wer	-10.3858
gion	-10.386
▁eig	-10.3865
▁kleine	-10.3866
Um	-10.3867
stützun	-10.3867
icke	-10.3869
wohl	-10.3873
▁sel	-10.3873
chrif	-10.388
hrift	-10.3881
ndustri	-10.3883
enschenrechte	-10.3884
neuen	-10.3887
einf	-10.3888
wirklic	-10.389
▁Wirt	-10.3891
Aussch	-10.3894
eshalb	-10.3895
▁Aussc	-10.3899
heidung	-10.3904
rischen	-10.3905
▁Situation	-10.3905
träge	-10.3906
rstützu	-10.3908
itz	-10.3908
Nac	-10.3912
inner	-10.3913
rganis	-10.3915
bo	-10.3917
glichkeite	-10.3919
orderu	-10.3921
geset	-10.3921
während	-10.3924
öffentlichen	-10.3927
▁befind	-10.3928
▁verl	-10.3928
vom	-10.3928
schließli	-10.3931
hör	-10.3936
ntsprech	-10.3936
rges	-10.3943
duk	-10.3944
sisch	-10.3944
▁Polit	-10.3949
iebe	-10.3952
eitun	-10.3953
schließe	-10.3955
ezie	-10.3956
entwic	-10.3956
bring	-10.3957
blic	-10.3958
ähren	-10.3959
seiner	-10.3962
befinde	-10.3963
ngsant	-10.3963
▁Verantwortung	-10.3963
▁wissen	-10.3965
itung	-10.3966
ktionen	-10.3967
Wirts	-10.3967
tzlich	-10.397
▁Herrn	-10.3971
tigun	-10.3974
ruc	-10.3981
ebens	-10.3984
erfah	-10.3984
scheidu	-10.3987
erstatte	-10.399
▁insbes	-10.3996
reite	-10.3997
▁unterstützt	-10.3997
▁Zie	-10.3998
ware	-10.3999
ürde	-10.3999
▁Tag	-10.3999
rojekt	-10.4004
▁Lebe	-10.4005
gsantr	-10.4006
notwendig	-10.401
gegeben	-10.401
eidung	-10.4011
chrit	-10.4012
Ins	-10.4016
Abgeordnete	-10.4016
▁Abgeordnet	-10.4016
hritt	-10.4017
Zi	-10.4019
missar	-10.4025
unseren	-10.4025
mmissa	-10.4025
Wel	-10.4027
hungen	-10.4027
einfa	-10.4027
sto	-10.4028
dlung	-10.4029
Politi	-10.4029
usammenhang	-10.4029
eistungen	-10.4032
▁Pol	-10.4036
ätz	-10.4037
nom	-10.4037
folgen	-10.404
Hi	-10.4044
verwende	-10.4045
▁Mark	-10.4045
▁besteht	-10.4047
chtersta	-10.4049
hwe	-10.4051
same	-10.4051
bewe	-10.4054
▁verwend	-10.4057
fach	-10.4059
hterstat	-10.406
ispie	-10.4061
▁Poli	-10.4062
rsuch	-10.4063
schlos	-10.4064
tigt	-10.4067
eispi	-10.4067
Intern	-10.4068
genhei	-10.4068
terstatt	-10.4072
Besch	-10.4073
Entschei	-10.4073
▁Lösung	-10.4074
ichterst	-10.4074
richters	-10.4074
wendig	-10.4077
▁Besc	-10.4077
▁Entsche	-10.4078
▁Frakti	-10.408
welch	-10.4081
wied	-10.4081
oni	-10.4082
aushalts	-10.4083
Mar	-10.4083
▁solche	-10.4084
egenheit	-10.409
bestimmt	-10.4093
erp	-10.4094
erichter	-10.4094
ucht	-10.4097
ührun	-10.4098
rgen	-10.4103
igkeiten	-10.4104
▁bedeute	-10.4108
▁Stand	-10.4108
▁notwendi	-10.411
rklich	-10.4111
rungsan	-10.4111
teg	-10.4112
▁entscheiden	-10.4116
Zusammenhan	-10.4117
▁Internet	-10.4118
esamt	-10.4119
öffen	-10.412
▁dafür	-10.412
Ste	-10.4123
rkl	-10.4124
▁verst	-10.4125
▁schnell	-10.4126
legenhei	-10.4127
rsi	-10.4129
ßnah	-10.4132
▁letz	-10.4135
ftlichen	-10.4137
edingung	-10.4137
▁erreichen	-10.4139
hlich	-10.4143
bieten	-10.4143
▁währen	-10.4144
▁denn	-10.4145
rforderlich	-10.4147
tschließung	-10.4147
Beispiel	-10.4149
aßna	-10.415
füg	-10.415
ntschließun	-10.4151
orden	-10.4152
ellsch	-10.4153
▁Fina	-10.4154
türlic	-10.4157
atürli	-10.4157
ktu	-10.4157
dige	-10.416
euen	-10.4161
arten	-10.4162
▁gesa	-10.4163
rp	-10.4163
eisen	-10.4164
Leben	-10.4168
sende	-10.4171
gab	-10.4171
nsam	-10.4172
▁beispielsweise	-10.4175
lsch	-10.4176
digkeit	-10.4179
lschaf	-10.4179
ike	-10.4181
esu	-10.4188
alisierung	-10.4188
nktio	-10.4189
llscha	-10.419
ersuc	-10.4192
glichen	-10.4192
Dienstleistu	-10.4194
zeic	-10.4194
▁Geschäfts	-10.4195
sellsc	-10.4198
erücksichtig	-10.4199
Tr	-10.42
esells	-10.42
fizi	-10.4201
ender	-10.4202
dustrie	-10.4206
lar	-10.4207
titutione	-10.4215
Maßna	-10.422
▁wenige	-10.4222
▁Tra	-10.4223
▁Maß	-10.4223
rstelle	-10.4224
▁Maßn	-10.4225
▁Prog	-10.4225
▁Verbrauch	-10.4227
erantwortun	-10.4229
rantwortung	-10.4229
▁öffentlichen	-10.4231
nel	-10.4236
▁Produkte	-10.424
ttbewerb	-10.4242
rdi	-10.4243
erforder	-10.4243
ettbewer	-10.4244
nanzie	-10.4246
▁Part	-10.4251
endun	-10.4252
hes	-10.4254
ießlich	-10.4257
haften	-10.4257
erungsanträge	-10.4257
chließl	-10.426
hließli	-10.4261
ließlic	-10.4262
gegenüber	-10.4265
▁entscheide	-10.4267
fest	-10.4269
▁wirklic	-10.4269
Kollege	-10.4269
otwend	-10.427
twendi	-10.427
▁Verhandlung	-10.427
entscheid	-10.427
▁entwick	-10.4271
elegenhe	-10.4273
esetzt	-10.4274
Gesellschaf	-10.4274
Kollegen	-10.428
▁Gesellscha	-10.428
darau	-10.4281
▁besonders	-10.4282
lien	-10.4283
enschaf	-10.4286
▁Entschließ	-10.4289
▁liegt	-10.4289
Entschließu	-10.4289
▁einf	-10.429
Ziel	-10.4294
tschaftlichen	-10.4298
▁stehen	-10.43
haff	-10.4301
▁Kol	-10.4301
▁Abstimmung	-10.4304
▁dene	-10.431
Daten	-10.4316
▁Pers	-10.4317
dnung	-10.4322
▁Institution	-10.4323
sage	-10.4331
suche	-10.4332
Inf	-10.4332
ermöglich	-10.4332
▁komme	-10.4333
orschriften	-10.4336
nterschiedlic	-10.4338
terschiedlich	-10.4338
irklic	-10.4339
lossen	-10.4341
rige	-10.4341
▁klein	-10.4342
enhe	-10.4343
aufge	-10.4344
zte	-10.4345
ienstleistunge	-10.435
fung	-10.4351
enstleistungen	-10.4352
▁Änderungsantrag	-10.4353
rdn	-10.4353
Zusammenh	-10.4354
rwa	-10.4354
ppe	-10.4354
chein	-10.4359
Ausschuss	-10.4361
▁Ausschus	-10.4363
findet	-10.4371
anke	-10.4372
chließen	-10.4372
▁verwe	-10.4374
Bürg	-10.4375
krati	-10.4376
chaffen	-10.4376
stitut	-10.4377
Finan	-10.4377
rse	-10.4378
hlosse	-10.4384
hnung	-10.4384
enomm	-10.4386
▁verfüg	-10.4388
▁öffent	-10.4389
mokra	-10.4392
rderungen	-10.4393
Ausschu	-10.4395
stleistung	-10.4399
trage	-10.4399
eisten	-10.4399
emokr	-10.4399
schuss	-10.44
▁lang	-10.4402
anisation	-10.4403
Person	-10.4403
zia	-10.4403
▁Perso	-10.4406
kli	-10.4407
chtigen	-10.4408
▁ermöglic	-10.4408
echnologie	-10.441
▁bestimmte	-10.4411
ächst	-10.4413
▁Fin	-10.4414
zusamm	-10.4415
echnolog	-10.4415
nlic	-10.4416
▁besc	-10.4418
oß	-10.4419
edeutung	-10.4421
geschlosse	-10.4424
▁beso	-10.4427
ozia	-10.4427
▁Best	-10.443
ngsan	-10.4431
rganisati	-10.4432
län	-10.4432
ganisatio	-10.4432
sundheit	-10.4438
▁schl	-10.4438
esundhei	-10.4438
eitr	-10.4439
▁welc	-10.444
ichtigen	-10.4442
▁Verbrauche	-10.4442
▁Geb	-10.4442
stit	-10.4446
Verbraucher	-10.4448
erstützen	-10.4448
ürd	-10.4448
eug	-10.4448
▁erforde	-10.445
schiedenen	-10.4454
Progr	-10.4459
▁..	-10.446
enarbe	-10.446
ögliche	-10.4467
heiten	-10.4467
▁Verantwort	-10.4468
▁Umwelt	-10.447
enstleistu	-10.447
nstleistun	-10.447
nft	-10.4471
▁Verfügun	-10.4478
Verfügung	-10.4479
▁Per	-10.448
▁Lä	-10.4481
▁Res	-10.4481
zent	-10.4484
erstatt	-10.4485
aller	-10.4493
▁Meinung	-10.4495
Projekt	-10.4497
bgeordnete	-10.4499
Ländern	-10.4499
antwo	-10.4505
ontrol	-10.4507
schlagen	-10.4509
usammenha	-10.4514
▁wür	-10.4516
rkun	-10.4517
Dienstleist	-10.4519
etzten	-10.452
rstatter	-10.452
pra	-10.4522
forderun	-10.4524
schaffe	-10.4525
nstitu	-10.4526
ibe	-10.4531
▁Projek	-10.4532
▁Regio	-10.4532
▁unterschiedl	-10.4532
unterschiedli	-10.4533
handlu	-10.4534
lick	-10.4536
Region	-10.4537
eschäfti	-10.4538
schäftig	-10.4539
▁Dienstleis	-10.4539
wiss	-10.4541
trategie	-10.4544
ution	-10.4544
leistu	-10.4544
▁bestim	-10.4544
▁woll	-10.4549
illi	-10.4552
va	-10.4554
▁nation	-10.4556
Syste	-10.4557
beiten	-10.4558
▁Ric	-10.4569
orderunge	-10.4571
rungsa	-10.4571
▁erre	-10.4573
zeichnet	-10.4574
bestim	-10.4574
trukt	-10.4575
hau	-10.4577
bens	-10.4578
chlu	-10.4578
sieru	-10.458
führun	-10.4585
egio	-10.4588
▁sag	-10.4588
rtige	-10.4588
grun	-10.4589
vert	-10.4592
ntersc	-10.4592
▁Ange	-10.4597
istu	-10.4597
lange	-10.4598
edoc	-10.4601
▁wirk	-10.4602
leiste	-10.4603
wür	-10.4604
fes	-10.4608
▁Gem	-10.4612
Hand	-10.4613
besc	-10.4616
▁schon	-10.4616
fra	-10.4617
▁Präsidenti	-10.4618
ituation	-10.4619
eichne	-10.462
Präsidentin	-10.4622
Bed	-10.4622
▁untersch	-10.4623
▁kommen	-10.4623
demokratisch	-10.4624
bewer	-10.4624
rodukte	-10.4627
erkehr	-10.4632
▁Tei	-10.4634
chaften	-10.4634
htlin	-10.4635
▁Fall	-10.4639
▁Staaten	-10.4639
tär	-10.464
aments	-10.4641
▁Beschäftigung	-10.4641
teresse	-10.4642
sagen	-10.4645
afte	-10.4649
chkeite	-10.4649
ehend	-10.4649
hkeiten	-10.4651
letzten	-10.4653
nomm	-10.4656
ichtet	-10.4658
nstr	-10.4658
sbeson	-10.4663
entspr	-10.4664
▁jetz	-10.4666
Bi	-10.4666
Dienst	-10.4668
währen	-10.4668
ufen	-10.4671
Sei	-10.4673
▁bedeut	-10.4675
▁Bü	-10.4676
nterschi	-10.4676
Sicherheits	-10.4678
utsch	-10.4679
prac	-10.468
terschie	-10.4681
▁mög	-10.4681
erhandlung	-10.4681
syste	-10.4682
ffentlichen	-10.4683
nschenrechte	-10.4684
stal	-10.4685
Gesundheit	-10.4685
ammena	-10.4686
menarb	-10.4688
▁Gesundhei	-10.4688
mmenar	-10.4689
nit	-10.469
▁Syst	-10.469
twickel	-10.4691
ntwicke	-10.4691
▁Diens	-10.4693
assun	-10.4694
nwe	-10.4702
Verantwortung	-10.4704
▁Forschung	-10.4705
ereiche	-10.4706
ießen	-10.4709
Richtli	-10.4711
rgebnis	-10.4711
▁voll	-10.4711
▁Bet	-10.4711
mente	-10.4712
▁erw	-10.4714
tsprech	-10.4714
strie	-10.4714
igene	-10.4718
bung	-10.4718
▁Bu	-10.4721
alisi	-10.4721
räsidentin	-10.4722
reg	-10.4722
stituti	-10.4722
lisierun	-10.4724
▁Richtl	-10.4725
htet	-10.4727
antwortung	-10.4731
genom	-10.4733
schließung	-10.4734
sichtlich	-10.4736
liegen	-10.4736
stra	-10.4738
rsten	-10.4743
rforder	-10.4743
stru	-10.4748
andlu	-10.4754
macht	-10.4754
issa	-10.4755
itution	-10.4755
titutio	-10.4755
ore	-10.4757
leme	-10.4758
ndlun	-10.4758
▁entsprechende	-10.476
erbess	-10.4761
rbesse	-10.4764
trateg	-10.4769
kel	-10.477
frei	-10.4772
usammenh	-10.4772
▁entspre	-10.4773
Teil	-10.4777
emokratisch	-10.478
chlic	-10.4781
▁Haush	-10.4782
rache	-10.4782
▁Strategie	-10.4784
chlus	-10.4785
hluss	-10.4786
ienstleis	-10.4789
enstleist	-10.4793
▁ihren	-10.4793
▁Mei	-10.4794
▁Kinder	-10.4795
gut	-10.4795
grei	-10.4799
könnt	-10.4799
erbrauch	-10.48
Anwendung	-10.4801
zurück	-10.4802
nschl	-10.4805
lti	-10.481
rkung	-10.4812
▁Wie	-10.4813
chenrech	-10.4814
▁Anwendun	-10.4814
▁einmal	-10.4816
Fe	-10.4817
Hausha	-10.4817
▁et	-10.4819
wicklungs	-10.4826
▁c	-10.4826
prechend	-10.4827
unterstützt	-10.4831
hk	-10.4831
affen	-10.4832
uten	-10.4833
▁do	-10.4837
▁dr	-10.4839
henrecht	-10.484
eha	-10.484
▁Gese	-10.4843
rieb	-10.4846
chnologi	-10.4847
schenrec	-10.4847
unterschiedliche	-10.4847
rategi	-10.4849
demokratische	-10.485
ualität	-10.485
Dienstleistungen	-10.4853
erat	-10.4853
tit	-10.4856
▁Br	-10.4856
arüber	-10.4859
flich	-10.4861
▁beispielsweis	-10.4863
▁weil	-10.4863
geordnete	-10.4863
beispielsweise	-10.4864
▁zurüc	-10.4865
spro	-10.4865
enschenr	-10.4865
nsic	-10.4867
nschenre	-10.4869
ingungen	-10.4869
▁gena	-10.487
▁Deutschland	-10.487
▁All	-10.4871
emokratische	-10.4871
Ergebnis	-10.4872
olog	-10.4873
egeben	-10.4873
▁Dienstleistunge	-10.4877
▁erhalt	-10.4887
Schu	-10.4888
▁Stadt	-10.4893
▁allem	-10.4894
▁Intere	-10.4895
Rich	-10.4897
Interes	-10.4897
ewi	-10.4898
nhalt	-10.4901
Wettbewer	-10.4903
icherheits	-10.4903
entscheiden	-10.4905
▁Wettbewe	-10.4905
gten	-10.4907
lgen	-10.4907
rschriften	-10.4908
Vertrag	-10.4914
soziale	-10.4915
eispielsweise	-10.4917
gru	-10.4918
mens	-10.4919
tlini	-10.4919
ossen	-10.492
anischen	-10.492
zlic	-10.4922
nelle	-10.4925
▁Energ	-10.4925
eschr	-10.4925
▁Staate	-10.4929
schn	-10.4932
▁unterschied	-10.4933
▁Aussprache	-10.4939
lter	-10.4939
por	-10.4941
endig	-10.4942
rstütze	-10.4944
Staa	-10.4946
▁dazu	-10.4947
sschus	-10.4949
logi	-10.4952
wollen	-10.4953
richter	-10.4954
Situation	-10.4955
schung	-10.4956
nnten	-10.4957
rist	-10.4958
erpflicht	-10.4959
truktu	-10.4961
liegt	-10.4961
ruktur	-10.4961
Abgeordnet	-10.4968
isiert	-10.4969
erwen	-10.497
oo	-10.4971
▁for	-10.4973
natürli	-10.4975
richtung	-10.4975
▁wolle	-10.4977
nsame	-10.4978
trat	-10.4978
nergi	-10.4979
hste	-10.4979
rwend	-10.498
sozial	-10.498
usammenhan	-10.4981
sammenhang	-10.4982
▁No	-10.4989
▁füh	-10.4989
ntier	-10.4989
gefüh	-10.4992
jedo	-10.4993
issenschaft	-10.4993
Änderungsantrag	-10.4996
▁Änderungsantra	-10.4998
sges	-10.5001
ichn	-10.5002
lisi	-10.5003
nv	-10.5003
chlos	-10.5004
swe	-10.5004
arauf	-10.5006
▁ersten	-10.5011
erwende	-10.5011
▁Geschä	-10.5013
vier	-10.5014
ntroll	-10.5018
lini	-10.5019
verwend	-10.502
sant	-10.5021
Schw	-10.5021
Län	-10.5022
eschlos	-10.5024
erbraucher	-10.5026
entw	-10.5028
ergie	-10.5029
mb	-10.5031
ekte	-10.5038
flicht	-10.5038
apo	-10.504
▁natürl	-10.5041
Energi	-10.5041
erreichen	-10.5047
▁Kri	-10.5047
elch	-10.5047
▁Angelegenheit	-10.5047
lk	-10.5047
▁hatte	-10.5049
worden	-10.5052
nwendung	-10.5053
rtun	-10.5058
rungsanträge	-10.5058
erzei	-10.5058
ös	-10.5059
▁Institutionen	-10.5059
tge	-10.5063
Geschäf	-10.5064
forderungen	-10.5068
rücksichtig	-10.5068
erücksichti	-10.5069
gar	-10.5069
rganisat	-10.507
gesellschaft	-10.5072
ntie	-10.5073
bringe	-10.5073
handelt	-10.5075
önnte	-10.5077
rstellung	-10.5077
uali	-10.5077
nien	-10.5078
▁Herausforderung	-10.5078
Sa	-10.5082
▁solch	-10.5083
ichtlich	-10.5084
richtig	-10.5084
▁ze	-10.5085
nm	-10.5086
Inst	-10.5089
befind	-10.509
enstleistunge	-10.5091
nstleistungen	-10.5092
sis	-10.5092
▁erfolg	-10.5096
entscheide	-10.5097
forderlich	-10.51
tschließun	-10.51
eschäftigung	-10.5101
ntschließu	-10.5104
▁Handel	-10.5106
schließl	-10.5108
tike	-10.5108
rad	-10.5108
gena	-10.5109
eter	-10.5115
Zimmer	-10.5117
stisc	-10.5117
heite	-10.512
▁fa	-10.5124
oche	-10.5124
sichtig	-10.5125
▁Zimme	-10.5127
heits	-10.5127
rauf	-10.5128
▁Ga	-10.5129
Verhandlung	-10.513
reib	-10.5131
sprach	-10.5132
räg	-10.5133
erschiedlich	-10.5134
istisc	-10.5134
shalt	-10.5134
▁Or	-10.5135
nterschiedli	-10.5137
chließe	-10.5137
ält	-10.5138
terschiedlic	-10.5138
hloss	-10.5138
▁Verhandlun	-10.5139
ktione	-10.5141
ard	-10.5144
örder	-10.5145
chut	-10.5146
ivi	-10.5147
Koll	-10.5147
immu	-10.5151
bef	-10.5151
pu	-10.5155
▁besser	-10.5156
ösung	-10.5157
rantwo	-10.5159
okra	-10.5159
erantw	-10.516
artner	-10.5162
▁Vere	-10.5163
bedeute	-10.5167
entsp	-10.5168
atu	-10.5169
▁zusam	-10.5172
tzten	-10.5172
▁entscheid	-10.5173
▁lan	-10.5174
▁erreiche	-10.5174
schlage	-10.518
eführ	-10.518
rantwortun	-10.5181
ister	-10.5182
▁entsc	-10.5183
▁Interne	-10.5184
notwendi	-10.5185
sorg	-10.5185
Institution	-10.5188
egenüber	-10.5191
hutz	-10.5191
▁Institutio	-10.5191
teuer	-10.5193
istungen	-10.5194
▁Demokrat	-10.5197
▁Qualität	-10.52
fern	-10.5201
ela	-10.5202
▁Demokrati	-10.5207
eistunge	-10.5208
genden	-10.5209
krat	-10.5209
▁führen	-10.5209
elege	-10.521
Wei	-10.5211
heu	-10.5212
gesamt	-10.5215
▁Vorschläge	-10.5219
tret	-10.522
kleine	-10.5221
schriften	-10.5222
bez	-10.5223
ushal	-10.5225
Gesellscha	-10.5226
bestimmte	-10.5227
bel	-10.5228
elte	-10.5232
nächs	-10.5232
▁Gesellsch	-10.5232
ützung	-10.5232
indet	-10.5235
weni	-10.5235
stre	-10.5238
▁Entschlie	-10.5239
ungsanträge	-10.5239
Entschließ	-10.5239
unterschied	-10.524
gsa	-10.524
▁Institut	-10.5241
alisierun	-10.5241
chließung	-10.5243
Geschäfts	-10.5244
ink	-10.5246
ichters	-10.525
▁fre	-10.5251
spa	-10.5253
Abstimmung	-10.5256
▁Abstimmun	-10.5257
obleme	-10.5261
▁Bild	-10.5263
etwa	-10.5263
schnell	-10.5263
here	-10.5263
ersi	-10.5265
▁Änd	-10.5268
eiti	-10.5271
▁Fortschritt	-10.5275
orschung	-10.5277
Verbrauch	-10.5278
▁te	-10.5278
▁Zukunft	-10.5282
ausha	-10.5283
Internet	-10.5286
▁notwend	-10.5286
tützun	-10.5287
orschrifte	-10.5287
ieten	-10.5288
reu	-10.529
▁innerhal	-10.529
tleistung	-10.5295
ult	-10.5295
▁Kl	-10.5297
ngung	-10.5299
nc	-10.5299
roduktion	-10.5304
▁sozia	-10.5304
tigkei	-10.5304
The	-10.5308
itig	-10.5311
rauen	-10.5312
zentr	-10.5314
eno	-10.5315
▁Lage	-10.5316
erhalb	-10.5316
geordnet	-10.5317
▁Deutsch	-10.5317
spoliti	-10.5317
besonders	-10.5318
ndustr	-10.532
terstat	-10.5321
rende	-10.5321
esonders	-10.5323
rstatte	-10.5325
frage	-10.5327
ietet	-10.533
tlin	-10.533
unterschiedl	-10.5332
two	-10.5335
chterst	-10.534
leistungen	-10.5344
Ans	-10.5346
untersch	-10.5347
nterschiedliche	-10.5348
▁sagen	-10.5348
kunft	-10.535
▁Man	-10.535
chafte	-10.5351
besteht	-10.5352
tsächlich	-10.5354
tiven	-10.5354
▁gu	-10.5354
nderungsantrag	-10.5355
rmöglich	-10.5358
ndige	-10.5365
Mögli	-10.5367
▁Mögl	-10.5368
ollege	-10.537
▁Min	-10.537
eld	-10.5375
etri	-10.5376
Beschäftigung	-10.5382
pflicht	-10.5383
lc	-10.5383
htersta	-10.5384
▁wü	-10.5385
sätzlich	-10.5386
co	-10.5388
▁berücksichtig	-10.5388
punk	-10.5389
▁abge	-10.5391
▁verwen	-10.5391
endi	-10.5391
itutione	-10.5392
Verbrauche	-10.5393
rmi	-10.5394
Produkte	-10.5394
▁gewährleiste	-10.5394
aut	-10.5395
zah	-10.5396
unkti	-10.5398
geri	-10.5402
ollegen	-10.5404
Entsche	-10.5408
stützu	-10.5408
nigen	-10.5413
nseren	-10.5413
ushalts	-10.5415
nisation	-10.5416
entsprechende	-10.5417
▁Verantwor	-10.5419
nanzi	-10.5419
anzie	-10.542
Verantwort	-10.5421
Verei	-10.5421
ube	-10.5421
dustri	-10.5422
egenhei	-10.5423
rbr	-10.5425
erbes	-10.5426
ordnu	-10.5429
tle	-10.5429
gkeiten	-10.5431
▁vorgeschlagen	-10.5435
▁Rahm	-10.5436
igkeite	-10.5438
Abs	-10.5441
egend	-10.5443
jetzt	-10.5443
cheidu	-10.5446
entschei	-10.5446
▁darüber	-10.5448
stleistun	-10.5451
efinde	-10.5452
▁Verbesserung	-10.5455
jekt	-10.5455
▁Dienstlei	-10.5458
▁schnel	-10.546
rodukti	-10.5461
rtu	-10.5461
legenhe	-10.5462
tersc	-10.5462
chnologie	-10.5462
dingung	-10.5465
Rahme	-10.5465
geschloss	-10.5465
ismus	-10.5466
▁Verfa	-10.5467
▁befin	-10.5467
Dienstleis	-10.5469
edingun	-10.5469
zeig	-10.5469
▁Verfüg	-10.5475
rozess	-10.5476
kten	-10.5477
za	-10.5478
▁etw	-10.5479
Dat	-10.548
▁wisse	-10.548
tbewerb	-10.5482
ntscheiden	-10.5485
tadt	-10.5488
mte	-10.549
wendu	-10.5491
ungsantrag	-10.5491
leichzeitig	-10.5493
Dienstleistunge	-10.5497
ustrie	-10.5498
edene	-10.5498
rgani	-10.5498
ruppe	-10.5501
uel	-10.5504
raf	-10.5506
chiedenen	-10.5507
▁Bereiche	-10.5508
bstimmung	-10.551
ermöglic	-10.551
▁Mitglieder	-10.551
gische	-10.551
efü	-10.5511
efin	-10.5513
ateg	-10.5521
ssenschaft	-10.5522
nstleistu	-10.5523
santr	-10.5523
▁Organisation	-10.5524
insbes	-10.5525
rüber	-10.5526
▁lassen	-10.553
eibe	-10.5535
▁insbe	-10.5537
Ausschus	-10.5538
örd	-10.554
eutsc	-10.5542
ldung	-10.5543
gangen	-10.5544
▁bek	-10.5547
bgeordnet	-10.5548
verwe	-10.5549
▁Was	-10.555
gegebe	-10.555
schenrechte	-10.5554
olo	-10.5556
vors	-10.5557
▁wirts	-10.5564
▁Verbr	-10.5566
wü	-10.5567
rderunge	-10.5569
Präsidenti	-10.557
nver	-10.5572
▁Eine	-10.5575
enscha	-10.5575
erforde	-10.5576
ttbewer	-10.5576
fg	-10.5577
ettbewe	-10.5577
anisatio	-10.5578
▁ermögli	-10.5585
Wen	-10.5586
scheide	-10.5586
iven	-10.559
pla	-10.5592
lige	-10.5593
Lösung	-10.5594
▁demokratisch	-10.5595
solche	-10.5595
erfügung	-10.5597
nbe	-10.5598
▁entwic	-10.5599
orschrift	-10.5601
aube	-10.5601
ora	-10.5602
Frakti	-10.5603
räsidentschaft	-10.5603
treten	-10.5603
beispielsweis	-10.5603
hunge	-10.5603
▁Frakt	-10.5606
ltig	-10.5606
ganisati	-10.5607
scheiden	-10.5609
ilitä	-10.5609
▁stehe	-10.5611
▁Lösun	-10.5614
anken	-10.5622
▁Stan	-10.5623
zer	-10.5625
okratische	-10.5625
rstützen	-10.5626
▁Institutione	-10.5627
▁Pl	-10.5627
schrei	-10.563
▁stellen	-10.5631
isation	-10.5633
nau	-10.5633
fentlichen	-10.5634
rso	-10.5635
ebiet	-10.5635
stungen	-10.5635
nterstützt	-10.5635
▁Fragen	-10.5638
frag	-10.5641
enrecht	-10.5643
okratisch	-10.5647
efüh	-10.5649
▁gle	-10.5651
ositi	-10.5652
▁Verfügu	-10.5655
Verfügun	-10.5656
▁Them	-10.5659
entspre	-10.5662
rreichen	-10.5663
llsch	-10.5665
enutz	-10.5666
▁entfernt	-10.5666
ürlic	-10.5666
missa	-10.5668
wickel	-10.5672
ersten	-10.5673
räge	-10.5675
ergi	-10.5676
entwickelt	-10.5677
wenige	-10.5677
shalb	-10.5678
nsichtlich	-10.5679
affe	-10.568
häf	-10.5681
▁währe	-10.5681
eshal	-10.5684
Änderungsantra	-10.5685
infa	-10.5687
osse	-10.5687
ruck	-10.5687
▁fes	-10.5689
deutung	-10.569
orschläge	-10.569
▁Pre	-10.569
sammenha	-10.5691
wesen	-10.5692
▁entwickelt	-10.5692
nzie	-10.5692
andelt	-10.5692
bge	-10.5693
hatte	-10.5694
öff	-10.5699
▁mic	-10.5701
▁Strategi	-10.5702
▁vorges	-10.5703
entwi	-10.5703
▁besti	-10.5704
llgemein	-10.5706
hließen	-10.5707
nstrument	-10.5708
ganis	-10.571
eding	-10.5711
ntscheide	-10.5711
▁Funktion	-10.5712
Geme	-10.5714
eispielsweis	-10.5716
Aussc	-10.5717
ispielsweise	-10.5718
digkei	-10.572
▁Kunden	-10.5721
▁verbesser	-10.5722
zeu	-10.5722
▁verfü	-10.5722
Herausforderung	-10.5723
ngeb	-10.5725
reise	-10.5727
kehr	-10.573
erie	-10.5731
rhandlung	-10.5733
▁err	-10.5733
sver	-10.5733
mokratisch	-10.5733
erhandlun	-10.5734
oss	-10.5735
dn	-10.5735
Deutschland	-10.5738
▁Deutschlan	-10.5738
Gesundhei	-10.5739
nstitutionen	-10.574
mokratische	-10.5741
eßlich	-10.5747
echnolo	-10.5748
chnolog	-10.5749
Forschung	-10.575
mich	-10.5753
beh	-10.5756
▁Forschun	-10.5757
räsidenti	-10.5759
Polit	-10.5761
▁Scha	-10.5765
geht	-10.5766
itglieder	-10.577
undheit	-10.5771
sundhei	-10.5773
äsidentin	-10.5774
▁Möglichkeiten	-10.5776
estimmte	-10.578
▁Beschäftig	-10.578
▁Demokratie	-10.5783
antwortun	-10.5784
llerdings	-10.5784
gsant	-10.5784
▁erford	-10.5785
ntwortung	-10.5785
Angelegenheit	-10.5785
schließun	-10.5787
spolitik	-10.579
▁Bedeut	-10.5793
tzlic	-10.5793
Institutionen	-10.5794
Herrn	-10.5794
arau	-10.5796
▁Rei	-10.5797
ießlic	-10.5798
schlo	-10.5799
▁unterschie	-10.58
▁untersc	-10.58
hließl	-10.5801
eih	-10.5802
ließli	-10.5803
chlagen	-10.5804
ndigkeit	-10.5805
esam	-10.5806
issar	-10.5808
endu	-10.5808
fti	-10.5809
verfüg	-10.581
Kont	-10.5813
nutze	-10.5814
andwirtschaft	-10.5817
esell	-10.5818
▁Nat	-10.5818
rojek	-10.5819
▁scho	-10.5821
▁Dr	-10.5821
Strategie	-10.5821
bkommen	-10.5824
ojekt	-10.5827
seren	-10.5827
gefü	-10.5828
▁Meinun	-10.583
Meinung	-10.583
enthalt	-10.5832
idung	-10.5832
stleistungen	-10.5832
eidun	-10.5834
statter	-10.5835
eie	-10.5836
ud	-10.5836
länd	-10.5836
ürg	-10.584
▁Sit	-10.5841
eziehung	-10.5843
erstat	-10.5847
▁wesentlich	-10.5849
rstatt	-10.5856
fä	-10.5858
forderu	-10.5858
nr	-10.5858
nete	-10.586
▁Industrie	-10.5861
▁größ	-10.5866
genhe	-10.5867
Sic	-10.5868
▁Restaurant	-10.587
▁Kinde	-10.5871
schäfti	-10.5873
chäftig	-10.5873
chaffe	-10.5874
rachte	-10.5875
berücksichtig	-10.5875
dlichen	-10.5877
rategie	-10.5879
erant	-10.5882
henden	-10.5883
erbrauche	-10.5883
▁Proje	-10.5884
under	-10.5885
gelegt	-10.5887
▁Millionen	-10.5887
finanzie	-10.5888
stütze	-10.589
▁Aussprach	-10.589
nstleistunge	-10.5891
Aussprache	-10.5891
dungen	-10.5892
▁persönlich	-10.5893
bene	-10.5895
wendi	-10.5896
▁Hin	-10.5901
Fre	-10.5902
▁geht	-10.5903
gisch	-10.5903
eichnet	-10.5904
▁ob	-10.5905
▁nationalen	-10.5906
Stand	-10.5907
teile	-10.5907
tuation	-10.5908
ev	-10.5908
hni	-10.5909
▁Produktion	-10.5909
ziehung	-10.591
trieb	-10.5916
haffen	-10.5916
ient	-10.5917
zierung	-10.5917
Mein	-10.5919
lscha	-10.5921
programm	-10.5922
chende	-10.5923
ünd	-10.5923
▁öffen	-10.5924
▁eigenen	-10.5928
rson	-10.5928
ienstlei	-10.5929
▁entfern	-10.5929
roze	-10.5929
▁richtig	-10.5932
▁demokratische	-10.5932
rklic	-10.5932
issenschaf	-10.5938
rzeu	-10.5938
gesellschaf	-10.5941
bedeut	-10.5942
▁dafü	-10.5943
dafür	-10.5943
▁Verh	-10.5948
▁To	-10.5949
htigen	-10.5949
cherheits	-10.5955
▁sage	-10.5956
Bür	-10.5957
rsche	-10.5958
trum	-10.5958
rschrifte	-10.5959
losse	-10.5961
Ihn	-10.5962
klein	-10.5963
emokratis	-10.5963
Staaten	-10.5964
▁lei	-10.5966
enge	-10.5967
enstleis	-10.5967
terschi	-10.5968
stitu	-10.5969
nstleist	-10.5969
eschäftigun	-10.5971
rschrift	-10.5971
schäftigung	-10.5971
nfac	-10.5973
▁Spiel	-10.5974
▁ohn	-10.5974
ellsc	-10.5975
itun	-10.5977
Anwendun	-10.5978
atürl	-10.598
türli	-10.598
▁Bevölkerung	-10.598
rechend	-10.5982
twend	-10.5983
eilig	-10.5986
▁Anwendu	-10.599
fassung	-10.599
fli	-10.5991
schläg	-10.5993
ontro	-10.5995
Vi	-10.5996
stl	-10.5996
ntschließ	-10.6
icklungs	-10.6
rschiedlich	-10.6003
cho	-10.6003
pfe	-10.6003
erschiedlic	-10.6004
nterschiedl	-10.6005
erücksicht	-10.6005
terschiedli	-10.6007
chnell	-10.6008
sells	-10.601
Umwelt	-10.601
▁Umwel	-10.601
narbe	-10.601
bsch	-10.6019
erreiche	-10.6019
rift	-10.6019
▁bestehen	-10.6019
ersönlich	-10.602
forderunge	-10.6021
sr	-10.6021
rücksichti	-10.6021
ücksichtig	-10.6021
aften	-10.6024
Ang	-10.6029
stärk	-10.6031
kungen	-10.6033
sammenhan	-10.6034
ezieh	-10.6035
ammenhang	-10.6035
Projek	-10.6036
▁Partner	-10.6036
achs	-10.6037
terschiedliche	-10.6038
ließen	-10.6039
chrei	-10.6039
eordnete	-10.604
▁Technologie	-10.6044
▁Bil	-10.6044
chriften	-10.6045
ähre	-10.6046
esentlich	-10.6048
leine	-10.6049
itet	-10.605
scho	-10.6053
ssun	-10.6055
▁Anwend	-10.6055
lisieru	-10.6059
besti	-10.606
gst	-10.606
ingung	-10.6061
samt	-10.6062
ersu	-10.6063
otwen	-10.6076
techn	-10.6077
Wettbewe	-10.6079
fac	-10.608
rbraucher	-10.608
Verhandlun	-10.6081
aupt	-10.6083
suchen	-10.6084
reten	-10.6085
eschäfts	-10.6086
▁Ki	-10.6089
eisp	-10.609
▁Lebens	-10.6091
chwer	-10.6091
▁etwas	-10.6092
bereich	-10.6092
▁Form	-10.6094
derungsantrag	-10.6095
nderungsantra	-10.6095
▁deutlich	-10.6095
▁natio	-10.6096
ehende	-10.6098
ntsprechende	-10.6098
▁Verfahren	-10.6099
igte	-10.61
rpflicht	-10.6101
direkt	-10.6102
gere	-10.6105
itten	-10.6106
lbs	-10.6107
sammenh	-10.6107
uft	-10.6108
hrif	-10.611
tärk	-10.6113
andl	-10.6113
trate	-10.6113
antr	-10.6113
undl	-10.6115
ngelegenheit	-10.6116
▁Kunde	-10.6117
brin	-10.6117
▁Markt	-10.6117
chuss	-10.6118
Wirt	-10.6119
gin	-10.6119
irekt	-10.6119
▁stelle	-10.6122
schon	-10.6123
▁Leb	-10.6123
erstä	-10.6124
▁nächste	-10.6124
▁berücksichti	-10.6129
timme	-10.613
▁klei	-10.613
ochen	-10.6131
kannt	-10.6133
erpflich	-10.6134
itione	-10.6134
rbrauch	-10.6135
rzei	-10.6136
▁Eins	-10.6136
▁Situati	-10.6136
Institutio	-10.6139
nderungen	-10.614
urück	-10.614
sprache	-10.6144
Fortschritt	-10.6144
▁Fortschrit	-10.6144
ewährleist	-10.6146
hein	-10.6146
eitu	-10.6147
chenrec	-10.6149
henrech	-10.6149
hnologi	-10.615
ehö	-10.615
orderlich	-10.6153
tschließu	-10.6153
erau	-10.6154
schre	-10.6155
&#9	-10.6159
gelegen	-10.6161
irkli	-10.6162
handl	-10.6162
▁Stad	-10.6163
schenre	-10.6163
▁Punkt	-10.6165
▁3	-10.6166
ntspr	-10.6167
tigu	-10.6168
odukte	-10.6169
Vorschläge	-10.617
sisc	-10.6171
▁Vorschläg	-10.6172
▁Preis	-10.6173
▁Vera	-10.6175
▁Veran	-10.6175
vorgeschlagen	-10.6175
▁vorgeschlage	-10.6175
eresse	-10.6176
enu	-10.6178
oziale	-10.6179
rkehr	-10.6182
▁eben	-10.6187
hkeite	-10.6189
unterschie	-10.619
ngsanträge	-10.6191
ieße	-10.6194
▁gewährleist	-10.6194
gewährleiste	-10.6195
titut	-10.6197
inu	-10.6199
eihe	-10.62
gent	-10.62
schus	-10.62
nschenr	-10.6201
▁Ergebn	-10.621
legt	-10.6211
▁bedeu	-10.6213
hrit	-10.6214
▁direkt	-10.6214
kla	-10.6214
tn	-10.622
Perso	-10.6221
Mark	-10.6221
denn	-10.6224
▁entschei	-10.6226
welc	-10.6228
▁finanzie	-10.6229
▁let	-10.623
twicke	-10.623
ildung	-10.623
Lebe	-10.6232
▁Ant	-10.6233
reffen	-10.6233
zusam	-10.6234
▁Schutz	-10.6236
▁seit	-10.6238
ächs	-10.624
gehör	-10.6241
anzi	-10.6246
▁befindet	-10.6246
gebnis	-10.625
▁the	-10.6251
Richtl	-10.6252
woll	-10.6252
Verbesserung	-10.6252
rschu	-10.6253
kenn	-10.6253
rstellun	-10.6254
▁Pla	-10.6257
dlun	-10.6259
Demokrati	-10.6259
ebi	-10.6259
▁Artikel	-10.626
gio	-10.6263
tituti	-10.6263
handlungen	-10.6263
▁worden	-10.6264
rö	-10.6266
▁Ü	-10.6266
ispi	-10.6268
▁gesamte	-10.6268
ärk	-10.6271
nternet	-10.6271
inier	-10.6274
sent	-10.6277
erweis	-10.6277
Gesellsch	-10.6278
Poli	-10.6281
enarb	-10.6281
ana	-10.6282
rforde	-10.6282
chtungen	-10.6284
Ku	-10.6285
▁Mil	-10.6287
zes	-10.6288
stützen	-10.6288
eim	-10.6289
matisch	-10.6289
ntsp	-10.6289
Entschlie	-10.629
liege	-10.629
ozi	-10.629
nsbes	-10.6291
▁mo	-10.6291
erbind	-10.6291
▁Entschli	-10.6291
ngel	-10.6292
rsuc	-10.6294
tution	-10.6294
öffe	-10.6294
itutio	-10.6295
mwelt	-10.6295
änge	-10.6296
piele	-10.6296
▁Entschl	-10.6297
erweise	-10.6301
Ch	-10.6301
rgeb	-10.6304
Besc	-10.6304
orschläg	-10.6306
eff	-10.6307
EU	-10.6308
ktur	-10.6308
richtun	-10.6308
Üb	-10.6308
Abstimmun	-10.6309
Organisation	-10.6312
gewi	-10.6313
ahe	-10.6319
▁Organisatio	-10.6323
erausforderung	-10.6323
▁einma	-10.6323
ntrol	-10.6324
abhängig	-10.6325
▁entw	-10.6328
Wo	-10.6328
ühru	-10.6328
▁Produkti	-10.633
Kinder	-10.6333
eze	-10.6336
einmal	-10.6337
bhängig	-10.6341
Regio	-10.6342
äsidentschaft	-10.6343
itr	-10.6343
räsidentschaf	-10.6343
halts	-10.6344
▁richt	-10.6346
nstit	-10.6346
▁seinen	-10.6346
▁Bo	-10.6353
schrifte	-10.6354
▁außer	-10.6355
chwierig	-10.636
ionelle	-10.6365
hlic	-10.6367
aum	-10.6367
inb	-10.6367
Fina	-10.637
andlungen	-10.637
Qualität	-10.637
Demokrat	-10.6374
▁Demokra	-10.6375
ortschritt	-10.6375
▁Qualitä	-10.6376
ichtungen	-10.6377
nkti	-10.6378
▁Kun	-10.6378
äte	-10.6379
eutschland	-10.6379
rän	-10.6379
demokratis	-10.638
▁zahlreiche	-10.6383
emo	-10.6385
inrichtung	-10.6386
nwendun	-10.6388
ualitä	-10.639
▁eins	-10.6394
▁Institu	-10.6395
▁Durch	-10.6396
leistunge	-10.6396
Prog	-10.6397
▁Betr	-10.6397
amp	-10.6397
sächlich	-10.6399
gste	-10.6402
gesam	-10.6402
ganisat	-10.6403
rganisa	-10.6404
führu	-10.6407
wolle	-10.6408
▁Erf	-10.641
Institut	-10.641
zeitig	-10.6411
▁Fal	-10.6413
alisieru	-10.6418
fri	-10.6419
▁erhal	-10.6421
chließun	-10.6421
Institutione	-10.6421
hließung	-10.6421
rün	-10.6421
▁Dien	-10.6424
edeute	-10.6426
pri	-10.6427
einung	-10.6428
egende	-10.6432
▁Mitgliede	-10.6433
▁Gebiet	-10.6434
Intere	-10.6435
richtet	-10.6436
ichne	-10.6439
eiben	-10.6442
evölkerung	-10.6442
sv	-10.6443
leichzeiti	-10.6444
eichzeitig	-10.6446
Part	-10.6449
Maßn	-10.645
deutlich	-10.6451
▁recht	-10.6451
erkeh	-10.6452
Mitglieder	-10.6454
▁Verbrau	-10.6456
ette	-10.6457
enom	-10.6458
▁bekannt	-10.6458
▁Gemeinschafts	-10.6458
ungsp	-10.6459
bare	-10.646
Staate	-10.6461
rschr	-10.6463
lfe	-10.6464
oren	-10.6466
innerhal	-10.6466
▁innerha	-10.6467
ufge	-10.647
mmena	-10.647
▁Verantwo	-10.6471
tleistun	-10.6471
persönlich	-10.6471
Verantwor	-10.6472
rschung	-10.6475
▁per	-10.6476
roduktio	-10.648
ift	-10.6481
oduktion	-10.6481
treffen	-10.6481
▁ausges	-10.6481
währe	-10.6482
obe	-10.6483
▁Kind	-10.6483
sbeso	-10.6484
Diens	-10.6485
Dienstlei	-10.6488
bewerb	-10.649
menar	-10.6491
schwe	-10.6491
Art	-10.6493
itäten	-10.6499
chenrechte	-10.65
rekt	-10.6502
verbesser	-10.6502
▁Namen	-10.6502
tau	-10.6505
sozia	-10.6506
genüber	-10.6509
Interne	-10.651
▁Dienstle	-10.651
eschlo	-10.6512
ante	-10.6514
▁Möglichkeite	-10.6514
Möglichkeiten	-10.6514
▁Milli	-10.6514
natürl	-10.6515
▁großen	-10.6515
rhand	-10.6516
schläge	-10.6519
notwend	-10.6519
vertr	-10.6524
tf	-10.6525
▁tra	-10.6526
istunge	-10.6527
hnun	-10.6528
rgie	-10.6531
eutung	-10.6535
tscheiden	-10.6538
ultur	-10.6539
Pers	-10.6539
rwende	-10.6543
ungsantra	-10.6544
ngsantrag	-10.6544
rstellen	-10.6546
chlage	-10.6546
nrecht	-10.6548
Geschä	-10.6549
rdnu	-10.655
ire	-10.6551
▁Investition	-10.6558
edo	-10.6559
verwen	-10.656
get	-10.6563
▁Bedingungen	-10.6564
ilit	-10.6565
wan	-10.6566
ssenschaf	-10.6567
äf	-10.6568
▁Kontroll	-10.657
▁Proze	-10.6574
senschaft	-10.6575
stehende	-10.6575
▁Ca	-10.6576
▁Verw	-10.6576
spielsweise	-10.658
▁natür	-10.6582
gsan	-10.6582
rbess	-10.6584
ispielsweis	-10.6586
ustri	-10.6587
izier	-10.6589
ucher	-10.6589
▁besondere	-10.659
rateg	-10.6591
ervice	-10.6592
ieben	-10.6597
▁Industri	-10.6598
alls	-10.6598
▁notwen	-10.66
Haush	-10.6601
anc	-10.6603
chters	-10.6604
stitutionen	-10.6605
effe	-10.6609
dt	-10.6609
orschun	-10.6611
geno	-10.6612
andwirtschaf	-10.6613
erech	-10.6615
ndwirtschaft	-10.6616
ihren	-10.6616
▁Zukunf	-10.6616
ewerb	-10.6617
Zukunft	-10.6617
ualit	-10.6619
richti	-10.6619
mokr	-10.6622
hnologie	-10.6623
▁vol	-10.6623
tleistungen	-10.6624
zurüc	-10.6624
bilität	-10.6625
ual	-10.6627
stleistu	-10.6628
ugen	-10.6628
emok	-10.6628
atsächlich	-10.6631
ützen	-10.6631
eller	-10.6632
▁führe	-10.6635
▁erfol	-10.6636
▁Hande	-10.6639
eif	-10.6639
Handel	-10.6641
geschlos	-10.6642
ture	-10.6642
egebe	-10.6644
rku	-10.6644
estaurant	-10.6645
wesentlich	-10.6647
Do	-10.6647
Deutsch	-10.6649
▁Deutsc	-10.665
sonders	-10.665
Han	-10.665
eordnet	-10.6651
geordne	-10.6651
aussch	-10.6652
▁allgemein	-10.6652
Best	-10.6652
stimmte	-10.6654
▁gute	-10.6657
ogi	-10.6658
sichti	-10.6661
anden	-10.6663
ells	-10.6665
▁Instrument	-10.6665
troll	-10.6667
ervi	-10.6667
Energ	-10.6668
ermi	-10.6668
▁Frauen	-10.6669
ategi	-10.6671
bili	-10.6672
auer	-10.6673
kratische	-10.6673
ntwickelt	-10.6674
our	-10.6674
agt	-10.6675
berücksichti	-10.6675
hließe	-10.6678
rundlage	-10.6679
untersc	-10.668
arübe	-10.6681
Bereiche	-10.6683
hiedenen	-10.6684
▁schne	-10.6684
bstimmun	-10.6685
allem	-10.6686
▁zurü	-10.6687
terstützt	-10.6688
Deutschlan	-10.6688
raucher	-10.669
▁Deutschla	-10.669
rmöglic	-10.6693
▁besse	-10.6698
stleistunge	-10.6701
gleiche	-10.6703
▁weltweit	-10.6707
Wer	-10.6707
erbesserung	-10.6708
zten	-10.6709
Stadt	-10.6711
gis	-10.6715
▁sozi	-10.6716
lsc	-10.6716
ätzlich	-10.6717
ogen	-10.6718
rmen	-10.6719
sätzlic	-10.6721
dre	-10.6722
nerg	-10.6724
esel	-10.6725
tutione	-10.6725
schun	-10.6728
antw	-10.6729
tend	-10.6732
▁deut	-10.6732
Beschäftig	-10.6734
Demokratie	-10.6734
▁Ener	-10.6738
tersta	-10.6739
▁gewäh	-10.6743
ega	-10.6745
esteht	-10.6745
ziert	-10.6747
efe	-10.6747
bekannt	-10.6748
nisatio	-10.675
▁Sy	-10.675
▁unterschi	-10.6751
größ	-10.6752
reicht	-10.6752
▁wol	-10.6755
▁Abgeordneten	-10.6757
ip	-10.6757
chre	-10.6757
▁erfolgreich	-10.6758
rreiche	-10.6761
▁verbunden	-10.6762
nhal	-10.6764
rschläge	-10.6767
Co	-10.6767
ettbewerbs	-10.6767
utio	-10.6771
ständige	-10.6773
entsche	-10.6773
▁verbesse	-10.6774
erschiedliche	-10.6775
▁Initiative	-10.6775
sation	-10.6776
önnt	-10.6776
uktur	-10.6778
orschrif	-10.6778
▁Strateg	-10.6778
Syst	-10.6779
▁Lei	-10.6781
darüber	-10.6782
▁darübe	-10.6783
ruktu	-10.6784
▁Schr	-10.6784
gelegenheit	-10.6784
truk	-10.6786
eo	-10.6788
▁Akt	-10.6789
verstä	-10.6793
▁zusätzlich	-10.6797
▁geben	-10.68
rukt	-10.68
bek	-10.6801
enar	-10.6803
schnel	-10.6804
▁Verpflichtung	-10.6805
indu	-10.6807
ebnis	-10.6807
iegt	-10.681
ntspre	-10.681
Ri	-10.6811
eraus	-10.6812
Restaurant	-10.6813
gern	-10.6814
▁Restauran	-10.6814
teu	-10.6817
Ange	-10.6817
kratisch	-10.6819
spo	-10.6821
länder	-10.6824
enb	-10.6825
efind	-10.6827
Tag	-10.6828
Funktion	-10.6828
Technologie	-10.6829
hält	-10.6833
eigenen	-10.6836
▁Grundlage	-10.6836
efi	-10.6837
▁wäre	-10.6838
entfernt	-10.6838
▁Technologi	-10.684
▁gegenü	-10.6842
ktive	-10.6843
ermögli	-10.6844
assu	-10.6846
Bevölkerung	-10.6848
Produktion	-10.6849
▁Bevölkerun	-10.685
rika	-10.685
falls	-10.685
spolit	-10.6851
pflich	-10.6851
ontrolle	-10.6852
ologie	-10.6853
rücksicht	-10.6854
schne	-10.6856
▁Erfahrung	-10.6858
▁Jahrhundert	-10.6859
rikanische	-10.6859
Zie	-10.686
▁Produktio	-10.6861
nä	-10.6861
Strategi	-10.6864
▁hatt	-10.6865
Fall	-10.6865
ign	-10.6869
tete	-10.6873
erungsantrag	-10.6873
worde	-10.6874
ekti	-10.6874
bild	-10.6874
präsident	-10.6876
solch	-10.6876
rgi	-10.6878
jetz	-10.6881
nliche	-10.6881
hterst	-10.6882
strument	-10.6882
ktor	-10.6882
ierungen	-10.6883
▁Sys	-10.6884
enke	-10.6884
nstrumen	-10.6885
▁Frei	-10.6885
▁jet	-10.6886
tscheide	-10.6886
▁Funktio	-10.6889
rtner	-10.689
▁Initiativ	-10.6892
nar	-10.6893
schritt	-10.6893
gesellscha	-10.6893
▁zusa	-10.6893
tbewer	-10.6894
nsbe	-10.6894
derungsantra	-10.6895
ussprache	-10.6897
Pol	-10.6897
syst	-10.6898
demokrat	-10.6898
mie	-10.6899
▁solc	-10.6906
Industrie	-10.6907
wär	-10.6907
utsc	-10.6907
befin	-10.6908
rhandlun	-10.6909
▁Des	-10.691
▁bew	-10.691
▁beide	-10.691
gewäh	-10.691
anisati	-10.6911
llgemeine	-10.6912
sprechende	-10.6913
▁einzig	-10.6915
ngl	-10.6915
▁Verfü	-10.6915
itgliede	-10.6915
artne	-10.6917
▁ermögl	-10.6917
Tra	-10.6918
indung	-10.692
olche	-10.6922
schäftigun	-10.6923
chäftigung	-10.6924
▁berücksicht	-10.6926
Forschun	-10.6927
▁Erweiterung	-10.6929
cheiden	-10.6929
echni	-10.6929
llegen	-10.693
erfügun	-10.6931
rfügung	-10.6932
ionell	-10.6932
▁lasse	-10.6932
Zimme	-10.6936
erbindung	-10.6936
äsidenti	-10.6936
eßen	-10.6938
Millionen	-10.6939
orgeschlagen	-10.6939
▁Millione	-10.694
▁meiner	-10.6941
amt	-10.6942
▁Verbindung	-10.6943
Aussprach	-10.6943
bestehen	-10.6944
tglieder	-10.6945
▁Zimm	-10.6946
sidentin	-10.6948
schiedlich	-10.6949
ewäh	-10.695
▁vert	-10.695
istis	-10.6953
sprac	-10.6955
erschiedli	-10.6955
rschiedlic	-10.6955
shalts	-10.6956
az	-10.6956
▁Name	-10.6957
llerding	-10.6957
usschusses	-10.6957
chlo	-10.6958
terschiedl	-10.6958
egenhe	-10.6961
lerdings	-10.6962
ntwortun	-10.6962
twortung	-10.6962
tsprechende	-10.6963
▁hervor	-10.6965
schließu	-10.6965
nda	-10.6968
inzi	-10.6968
gkeite	-10.6972
onn	-10.6973
▁waren	-10.6974
▁erfor	-10.6975
▁vorgeschlag	-10.6975
vorgeschlage	-10.6975
▁bede	-10.6976
rklär	-10.6979
misch	-10.698
rantw	-10.6981
ndlu	-10.6981
rschei	-10.6982
stig	-10.6984
▁Beitr	-10.6985
teilung	-10.6986
ahrung	-10.699
ergang	-10.699
sweise	-10.699
issenscha	-10.699
Verfügu	-10.699
loss	-10.6994
▁Schritt	-10.6995
odukti	-10.7001
dingun	-10.7002
ßna	-10.7003
legenh	-10.7003
bau	-10.7004
▁ebenfalls	-10.7007
edingu	-10.7009
lgemein	-10.7011
weg	-10.7012
cheide	-10.7013
▁Familie	-10.7014
hlus	-10.7016
Verfüg	-10.7016
raue	-10.7017
arke	-10.7018
technisch	-10.7018
usätzlich	-10.7018
ßlich	-10.7018
▁möchten	-10.7018
mar	-10.702
aßn	-10.7025
inzu	-10.7025
ammenha	-10.7026
ikanische	-10.7027
▁Beisp	-10.7027
▁brauch	-10.7028
aler	-10.7029
pen	-10.703
sig	-10.7034
flic	-10.7039
llgemei	-10.7041
ausges	-10.7043
fiz	-10.7043
▁auße	-10.7044
▁glaub	-10.7046
Ne	-10.7046
ontr	-10.7046
ntrag	-10.7047
uktion	-10.705
▁entwi	-10.705
erständ	-10.7052
gewährleist	-10.7052
ützun	-10.7055
ewährleiste	-10.7055
bleme	-10.7058
cksichtig	-10.7058
erücksich	-10.7058
Gese	-10.706
▁gewährleis	-10.7061
rbrauche	-10.7061
▁Personen	-10.7062
rausforderung	-10.7063
▁gleichzeitig	-10.7068
enfalls	-10.7069
▁bestehe	-10.7069
uck	-10.707
▁wichtigste	-10.7071
ndheit	-10.7071
▁th	-10.7074
ücksichti	-10.7075
▁Schwe	-10.7077
ustr	-10.7077
inzel	-10.7078
erford	-10.7085
rlei	-10.7087
▁Herausforder	-10.709
rderlich	-10.709
program	-10.7092
erantwortlich	-10.7092
Maß	-10.7093
eli	-10.7094
ras	-10.7095
smus	-10.7096
▁Fortschri	-10.7096
Fortschrit	-10.7097
usch	-10.7098
Verfahren	-10.7098
▁Unser	-10.7102
ütze	-10.7102
enrech	-10.7105
nschli	-10.7107
▁glaube	-10.7107
rweiter	-10.7109
anze	-10.7109
tützu	-10.711
▁Vereinigte	-10.7111
eife	-10.7113
sbes	-10.7113
▁daz	-10.7115
ttbewe	-10.7116
hina	-10.7117
ettbew	-10.7119
ielleicht	-10.7122
▁zahlreich	-10.7123
▁Lag	-10.7124
▁Verbesseru	-10.7125
ider	-10.7125
tigke	-10.7127
strukt	-10.7129
▁Verhandl	-10.7129
▁bez	-10.713
herheits	-10.7132
glieder	-10.7136
sentlich	-10.7137
ndust	-10.7138
sidentschaft	-10.7139
▁Spi	-10.7139
rhalb	-10.714
dustr	-10.7141
mokratis	-10.7141
äsidentschaf	-10.7143
eginn	-10.7143
stehend	-10.7144
▁wirkl	-10.7145
▁Verfahre	-10.7151
tionelle	-10.7153
werb	-10.7153
ließe	-10.7153
spekt	-10.7154
▁Spie	-10.7155
chul	-10.7159
ensi	-10.7159
tati	-10.7162
▁Akti	-10.7162
enze	-10.7162
ntschlie	-10.7162
zunehmen	-10.7162
tschließ	-10.7169
erhin	-10.7169
nist	-10.717
gebracht	-10.7172
isatio	-10.7172
stunge	-10.7174
▁Mon	-10.7174
Kol	-10.7176
llege	-10.7176
dazu	-10.7177
Fragen	-10.7177
eziehun	-10.7178
Organisatio	-10.718
geschlagen	-10.7181
entfern	-10.7181
nnerhal	-10.7185
▁weiterhin	-10.7186
usha	-10.7188
Th	-10.7189
rwen	-10.7192
▁Organisati	-10.7192
▁gebe	-10.7193
rundl	-10.7193
demokrati	-10.7193
▁demokratis	-10.7194
ewährleis	-10.7197
▁Abgeord	-10.7197
erecht	-10.7197
Gemeinschafts	-10.7197
währleist	-10.7198
rsönlich	-10.7198
annte	-10.7199
verständlich	-10.7199
sischen	-10.7204
ertrete	-10.7205
finanzi	-10.7206
▁Technolog	-10.7206
▁Auswirkung	-10.7209
▁Software	-10.721
ammenhan	-10.7211
weiten	-10.7212
mmenhang	-10.7213
elegt	-10.7213
▁Trans	-10.7214
griff	-10.7217
tb	-10.7221
Vorschläg	-10.7223
stimme	-10.7225
ntschl	-10.7226
tation	-10.7229
hlos	-10.7233
vorges	-10.7237
stleist	-10.7237
elten	-10.724
erstelle	-10.7241
unterschi	-10.7241
▁Million	-10.7243
braucher	-10.7244
gsanträge	-10.7244
▁befi	-10.7246
uppe	-10.7246
duktion	-10.7247
sichtli	-10.7248
nthalt	-10.7251
rik	-10.7251
▁Vie	-10.7252
hnolog	-10.7252
gange	-10.7253
sagt	-10.7253
wirkl	-10.7253
nitiative	-10.7256
▁entfer	-10.7256
Kunden	-10.7257
Fin	-10.7257
▁Verordnung	-10.7257
Verfa	-10.7259
ienstle	-10.7259
esp	-10.7263
osi	-10.7264
enstlei	-10.7264
▁richti	-10.7265
▁wiss	-10.7266
rupp	-10.7267
heidu	-10.7269
▁beispielsw	-10.727
abge	-10.7271
▁Qualit	-10.7271
afür	-10.7271
laube	-10.7274
Im	-10.7275
walt	-10.7276
häng	-10.7277
▁Du	-10.7277
enthal	-10.7279
echnol	-10.7281
nwend	-10.7281
uation	-10.7283
ordnete	-10.7285
ickel	-10.7286
euts	-10.7287
chnolo	-10.7289
▁nächst	-10.729
nre	-10.7291
▁handel	-10.7294
kle	-10.7294
insbe	-10.7295
rozes	-10.7297
druck	-10.7297
ozess	-10.7298
nologi	-10.7299
undhei	-10.7301
nstleis	-10.7301
▁bring	-10.7302
rschrif	-10.7306
Geb	-10.731
Möglichkeite	-10.7311
Anwendu	-10.7311
ekannt	-10.7312
aush	-10.7313
stis	-10.7313
inger	-10.7315
nderunge	-10.7316
handlunge	-10.7316
19	-10.7321
▁Schluss	-10.7321
ngsp	-10.7322
▁Präsidentschaft	-10.7322
cklungs	-10.7324
verg	-10.7324
gens	-10.7326
Res	-10.7327
enth	-10.7327
ndelt	-10.7333
chrifte	-10.7333
▁Bedeu	-10.7333
zahlreiche	-10.7334
Bedeut	-10.7334
Per	-10.7334
bers	-10.7335
gesprochen	-10.7337
ähigkeit	-10.734
okratis	-10.734
rbes	-10.734
technische	-10.7341
tne	-10.7343
▁rech	-10.7344
hlagen	-10.7344
Partner	-10.7345
ersonen	-10.7347
unft	-10.7348
nstru	-10.7351
nvestition	-10.7352
▁insb	-10.7353
▁gesamt	-10.7358
llig	-10.7358
sell	-10.7358
näch	-10.7359
tad	-10.7359
klei	-10.736
▁sowohl	-10.736
▁Wettbewerbs	-10.7363
bkomme	-10.7365
gegeb	-10.7367
▁Informations	-10.7369
etrieb	-10.7369
ertret	-10.737
▁Seiten	-10.7371
Meinun	-10.7371
▁wäh	-10.7373
arbeitet	-10.7375
tatter	-10.7376
▁inner	-10.7376
enste	-10.7379
▁Umsetzung	-10.7379
entier	-10.738
hriften	-10.7381
▁wirt	-10.7381
sä	-10.7383
Vere	-10.7385
ösun	-10.7385
gesehen	-10.7386
Verbr	-10.7386
leiche	-10.7387
▁Bez	-10.7389
▁währ	-10.739
enf	-10.7395
äftig	-10.7397
erfor	-10.74
Ro	-10.7401
estehen	-10.7401
kto	-10.7401
▁finanzi	-10.7401
bindung	-10.7402
▁ak	-10.7402
nrichtung	-10.7404
▁Wettbe	-10.7408
zustellen	-10.7408
osit	-10.7409
Frakt	-10.7411
chäfti	-10.7413
häftig	-10.7415
nächste	-10.7415
inister	-10.7416
Lösun	-10.7416
schäfts	-10.7417
▁Situat	-10.7417
enüber	-10.7418
iehung	-10.7419
befindet	-10.742
ategie	-10.742
teue	-10.7423
verfü	-10.7423
pas	-10.7423
▁tatsächlich	-10.7425
▁Frak	-10.7426
Investition	-10.7427
kanische	-10.7427
ortschrit	-10.7428
rtschritt	-10.7429
Bedingungen	-10.743
eutschlan	-10.7431
utschland	-10.7433
▁vielleicht	-10.7433
Ric	-10.7434
rpflich	-10.7434
▁Lösu	-10.7437
tha	-10.7437
▁arbeite	-10.7438
inrichtun	-10.7438
▁International	-10.7438
völkerung	-10.7439
▁Alle	-10.7439
echend	-10.744
ngebot	-10.744
mische	-10.7441
ngun	-10.7443
▁Abstimm	-10.7443
▁Gel	-10.7445
ichnet	-10.7445
ziehun	-10.7451
▁abg	-10.7453
dwirtschaft	-10.7453
ffizie	-10.7456
ilf	-10.7457
etet	-10.7458
zierun	-10.7458
erti	-10.7462
▁Gesells	-10.7463
stle	-10.7463
▁statt	-10.7463
ief	-10.7466
▁Gl	-10.7466
ssprache	-10.7466
Entschli	-10.7467
Situati	-10.7467
inanzier	-10.7469
rstat	-10.7469
▁technisch	-10.747
rschläg	-10.7474
efo	-10.7474
andels	-10.7474
ater	-10.7475
eröffentlich	-10.7476
▁Stell	-10.7476
orgen	-10.7476
Mitgliede	-10.7478
andwirtscha	-10.7479
rogramme	-10.748
leichzeit	-10.7481
ndwirtschaf	-10.7481
Bild	-10.7481
digen	-10.7482
Gem	-10.7484
ituati	-10.7488
wicke	-10.7488
ächlich	-10.749
▁Forsch	-10.7491
ücksicht	-10.7491
▁anges	-10.7493
evölkerun	-10.7495
Produkti	-10.7497
eichzeiti	-10.7497
erzeug	-10.7498
aru	-10.7499
ichzeitig	-10.7499
rschaft	-10.75
rschein	-10.7502
Tei	-10.7504
▁einzelne	-10.7504
eilen	-10.7505
prä	-10.7505
mark	-10.7505
ätze	-10.7516
enta	-10.7519
▁verg	-10.752
▁Beziehung	-10.752
rea	-10.7524
▁Mög	-10.7526
▁Bedingung	-10.7526
pezi	-10.7528
greich	-10.753
fassun	-10.7531
spielsweis	-10.7531
pielsweise	-10.7532
ca	-10.7533
mlich	-10.7534
erbi	-10.7534
&#	-10.7535
tehende	-10.7535
nstle	-10.7536
rigen	-10.7536
Lage	-10.7538
chreib	-10.7539
amerikanische	-10.7539
Verpflichtung	-10.7541
pti	-10.7541
berücksicht	-10.7542
digke	-10.7543
▁Ser	-10.7545
leben	-10.7546
andlunge	-10.7547
ndlungen	-10.7548
ilfe	-10.755
ichtunge	-10.7551
Artikel	-10.7553
henrechte	-10.7553
eutlich	-10.7554
erpflichtung	-10.7556
Abgeordneten	-10.7557
titutionen	-10.7557
▁Abkommen	-10.7558
▁Mill	-10.7565
emokratie	-10.7567
eßlic	-10.757
vorsch	-10.7571
hut	-10.7573
eili	-10.7573
nschaftlich	-10.7574
▁finanziell	-10.7574
rschiedliche	-10.7574
kunf	-10.7576
tleistunge	-10.7576
Bet	-10.7576
Anwend	-10.758
allgemein	-10.7582
roll	-10.7584
▁zweite	-10.7585
▁grö	-10.7585
stalt	-10.7587
rstellu	-10.7588
zust	-10.7591
▁doch	-10.7591
▁Landwirtschaft	-10.7593
▁Anwen	-10.7594
rübe	-10.7594
ima	-10.7595
▁Artike	-10.7595
gesamte	-10.7596
Mögl	-10.7598
siti	-10.7598
echnisch	-10.7599
erzeit	-10.7599
Jahrhundert	-10.76
▁technische	-10.76
▁begr	-10.7602
derzeit	-10.7603
▁Service	-10.7603
chenre	-10.7606
Instrument	-10.7607
schenr	-10.7607
▁Kin	-10.7608
ukunft	-10.761
ntfern	-10.7611
▁Thema	-10.7611
tech	-10.7614
chtunge	-10.7616
▁Instrumen	-10.7618
htungen	-10.7618
esund	-10.7619
illionen	-10.7619
ießli	-10.7619
tütze	-10.7619
hatt	-10.7621
erfolgreich	-10.7622
wach	-10.7623
ließl	-10.7624
tionell	-10.7624
nstal	-10.7627
Lebens	-10.7629
Entschl	-10.763
genh	-10.763
tag	-10.763
ereinbar	-10.7632
bereic	-10.7633
aran	-10.7637
ikation	-10.7639
orschlä	-10.764
schreib	-10.764
enha	-10.7641
onelle	-10.7642
etw	-10.7642
▁Rah	-10.7643
nabhängig	-10.7644
▁finanzielle	-10.7645
deute	-10.7646
ammenh	-10.7647
▁verwendet	-10.7648
▁Verantw	-10.7648
Verantwo	-10.7649
chsten	-10.7649
chon	-10.765
unternehme	-10.7651
erbrau	-10.7652
abhängi	-10.7652
zli	-10.7654
chnung	-10.7655
chnet	-10.7655
▁steht	-10.7657
tuell	-10.7657
▁Industr	-10.7659
chläg	-10.766
rbesserung	-10.7661
merika	-10.7661
sätz	-10.7662
rschaf	-10.7663
▁Pri	-10.7663
Rahm	-10.7664
nitiativ	-10.7664
schlä	-10.7664
Dienstle	-10.7664
Proje	-10.7665
eziehungen	-10.7665
Mei	-10.7666
klär	-10.7669
gani	-10.767
bracht	-10.7672
verbesse	-10.7678
nologie	-10.7679
Wie	-10.7679
aher	-10.768
▁schriftlich	-10.768
rweise	-10.7681
▁Stu	-10.7684
vollständig	-10.7685
▁Dienstl	-10.7686
▁Aufgabe	-10.7688
All	-10.769
henrec	-10.769
ismu	-10.769
Kinde	-10.769
haffe	-10.7693
wes	-10.7693
chwieri	-10.7694
hwierig	-10.7695
rgeschlagen	-10.7695
usst	-10.7697
gelege	-10.7697
dunge	-10.7701
▁Proj	-10.7702
sar	-10.7703
Qualitä	-10.7704
▁allgemei	-10.7705
▁ihn	-10.7707
Initiative	-10.7708
Technologi	-10.7708
Demokra	-10.7709
ezei	-10.7709
▁stat	-10.7709
▁Demokr	-10.7709
uts	-10.7711
denk	-10.7711
▁Restaura	-10.7711
matis	-10.7712
elc	-10.7713
ierend	-10.7713
gesta	-10.7715
ki	-10.7716
▁Gen	-10.7716
Fl	-10.7717
▁Bede	-10.7718
esha	-10.7719
▁Jahrhunder	-10.7719
ngsantra	-10.7721
gsantrag	-10.7722
Institu	-10.7722
aucher	-10.7723
▁Notwendigkeit	-10.7723
emeinschafts	-10.7723
nehmer	-10.7726
rank	-10.7726
▁Verha	-10.7727
▁Instit	-10.7729
▁Quali	-10.773
smittel	-10.773
ov	-10.773
fan	-10.7731
ahlreiche	-10.7731
▁Kund	-10.7731
▁Schut	-10.7731
▁entscheidend	-10.7733
utione	-10.7734
gelegenhei	-10.7734
▁Ergeb	-10.7736
ierende	-10.7737
▁Kontrol	-10.7738
inis	-10.7739
nfalls	-10.7739
▁Deutschl	-10.7739
edin	-10.7739
Deutschla	-10.7741
ssenscha	-10.7741
sla	-10.7742
Kontroll	-10.7742
ziale	-10.7742
vera	-10.7743
erungsantra	-10.7743
rungsantrag	-10.7743
senschaf	-10.7744
Ergebn	-10.7748
zusätzlich	-10.7749
schicht	-10.775
techni	-10.775
ldun	-10.7751
isp	-10.7754
▁direk	-10.7755
eschicht	-10.7755
chließu	-10.7756
▁Umwe	-10.7756
hließun	-10.7756
ließung	-10.7756
ilität	-10.7758
▁ind	-10.7759
etwas	-10.776
bedeu	-10.7761
nschaftliche	-10.7763
verbunden	-10.7764
hängig	-10.7768
Industri	-10.7768
▁dabei	-10.7769
ternet	-10.777
lände	-10.777
echnische	-10.7771
Schutz	-10.7774
sozi	-10.7774
ratische	-10.7775
▁Ni	-10.7776
sieren	-10.7777
Spiel	-10.7779
nla	-10.778
Erweiterung	-10.7783
▁Ausw	-10.7783
tützen	-10.7784
roje	-10.7785
sitz	-10.7786
erken	-10.7787
rikanisch	-10.7787
▁Verbra	-10.7787
▁bekann	-10.7789
Verbrau	-10.7789
Eine	-10.779
▁Geschichte	-10.779
▁Anwe	-10.7793
▁Gegen	-10.7793
▁gleiche	-10.7793
inanzielle	-10.7795
▁Regel	-10.7796
ssar	-10.7797
innerha	-10.7799
Bevölkerun	-10.78
▁spezi	-10.7801
▁innerh	-10.7802
▁worde	-10.7804
tleistu	-10.7805
bre	-10.7806
reffe	-10.7806
gri	-10.7806
orgeschlage	-10.7809
denti	-10.781
Pe	-10.7814
fort	-10.7814
estauran	-10.7815
▁verbunde	-10.7815
oduktio	-10.7815
▁nati	-10.7815
esun	-10.7815
feren	-10.7816
ttbewerbs	-10.7821
▁Gew	-10.7821
staurant	-10.7821
ntin	-10.7822
▁Schri	-10.7823
eschichte	-10.7826
chnel	-10.7828
hnell	-10.7828
Stan	-10.783
matisc	-10.783
meiner	-10.7831
erend	-10.7831
Umwel	-10.7832
trei	-10.7832
asch	-10.7834
▁Haupt	-10.7835
leb	-10.7836
rfe	-10.7837
lbstverständlich	-10.7838
▁einm	-10.784
ebie	-10.7841
▁Organisat	-10.7844
uni	-10.7844
vorgeschlag	-10.7844
▁vorgeschla	-10.7844
chwi	-10.7845
richtu	-10.7848
zusa	-10.785
derlich	-10.785
▁schaffen	-10.7851
ingun	-10.7851
enut	-10.7851
twickelt	-10.7851
kunge	-10.7854
▁wesentli	-10.7855
wichtigste	-10.7856
▁inne	-10.7857
chritte	-10.7858
ifizier	-10.7859
Restauran	-10.7859
▁Fü	-10.786
gleichzeitig	-10.7861
üns	-10.7861
ausforderung	-10.7862
erstützt	-10.7864
ntro	-10.7864
▁gleichzeiti	-10.7866
tsächli	-10.7866
eilung	-10.7867
inmal	-10.7868
ünde	-10.7869
schränk	-10.787
fassen	-10.7871
hig	-10.7872
bhängi	-10.7875
ründ	-10.7875
irkung	-10.7876
rschri	-10.7881
Verbindung	-10.7883
weltweit	-10.7883
▁weltwei	-10.7884
▁Verbesser	-10.7884
Them	-10.7884
glaub	-10.7885
chläge	-10.7887
seinen	-10.7887
▁Herausforde	-10.7889
llem	-10.7889
Grundlage	-10.7889
Herausforder	-10.789
fang	-10.7891
llsc	-10.7892
rantwortlich	-10.7893
upt	-10.7893
▁gehör	-10.7893
orschu	-10.7894
▁Verbindun	-10.7894
atten	-10.7894
ürli	-10.7897
▁Tage	-10.7898
▁persönli	-10.7899
Produktio	-10.7902
mic	-10.7902
▁Punk	-10.7906
Erfahrung	-10.7909
▁Erfahrun	-10.7911
▁vera	-10.7911
ferenz	-10.7911
ennen	-10.7911
alts	-10.7912
tändige	-10.7913
pan	-10.7913
Kri	-10.7914
struktur	-10.7914
anisat	-10.7914
okr	-10.7915
achstum	-10.7916
wese	-10.7917
fordert	-10.7919
▁arbeit	-10.7919
▁Initiati	-10.7921
▁weniger	-10.7922
schic	-10.7923
ukti	-10.7923
▁Vereinig	-10.7923
direk	-10.7925
nwendu	-10.7926
Initiativ	-10.7926
großen	-10.7928
Markt	-10.7932
tzli	-10.7934
Kunde	-10.7934
▁bringen	-10.7934
unternehmen	-10.7937
iedenen	-10.7937
efer	-10.7942
▁Su	-10.7943
ewä	-10.7943
ganisa	-10.7943
igten	-10.7944
prechende	-10.7945
rweis	-10.7946
tspre	-10.7946
erständlich	-10.7947
rgang	-10.795
wand	-10.795
▁verbess	-10.795
ane	-10.7951
einander	-10.7952
gericht	-10.7953
ollständig	-10.7953
tec	-10.7956
treffe	-10.7957
av	-10.7958
eral	-10.796
▁Än	-10.796
ordnet	-10.7961
onders	-10.7963
Präsidentschaft	-10.7965
ilen	-10.7966
▁Präsidentschaf	-10.7967
geschlo	-10.797
Gebiet	-10.797
▁genau	-10.7971
▁Beziehungen	-10.7972
▁Gebie	-10.7973
Punkt	-10.7977
chäftigun	-10.7977
hema	-10.7977
häftigung	-10.7977
Preis	-10.7978
dukte	-10.7979
Scha	-10.798
▁Nu	-10.798
denke	-10.7982
lts	-10.7983
errn	-10.7984
▁nämlich	-10.7986
entral	-10.7986
▁Prei	-10.7987
ext	-10.7989
asser	-10.799
▁einzu	-10.7991
effen	-10.7992
dank	-10.7992
▁drei	-10.7994
Veran	-10.7995
usschusse	-10.7998
▁pa	-10.7999
gewährleis	-10.8002
schiedlic	-10.8003
chiedlich	-10.8003
rot	-10.8003
tende	-10.8004
esprochen	-10.8004
währleiste	-10.8006
erschiedl	-10.8008
rschiedli	-10.8008
pun	-10.8008
nma	-10.8008
sidentschaf	-10.8009
identschaft	-10.8009
▁gewährlei	-10.801
bgeordneten	-10.801
positi	-10.801
sschusses	-10.801
trau	-10.8012
undlage	-10.8013
▁bieten	-10.8014
rschun	-10.8015
▁deren	-10.8016
▁beh	-10.8016
eitra	-10.8017
rzeit	-10.8017
atur	-10.8019
nba	-10.8019
merikanische	-10.802
▁wichtigst	-10.8022
erhand	-10.8024
ussprach	-10.8026
endet	-10.8026
rra	-10.8029
rücksich	-10.803
roz	-10.803
einma	-10.8034
inanziell	-10.8035
utung	-10.8035
ildun	-10.8037
▁Europas	-10.8038
notwen	-10.804
einun	-10.8042
enne	-10.8044
rkli	-10.8045
ebenfalls	-10.8047
ojek	-10.8049
gebot	-10.805
volle	-10.805
präsiden	-10.8053
rter	-10.8053
▁ebenfall	-10.8057
▁Fortschr	-10.8057
mena	-10.8058
▁Mu	-10.8058
ings	-10.8058
schluss	-10.8059
idun	-10.8061
▁Vereinigt	-10.8061
möglichen	-10.8061
iale	-10.8061
▁vollständig	-10.8062
titu	-10.8062
Vereinigte	-10.8063
eidu	-10.8064
cks	-10.8066
ratisch	-10.8066
tandard	-10.8068
▁stellt	-10.8069
▁demokrati	-10.8072
rford	-10.8074
ikanisch	-10.8074
rgebn	-10.8074
Verbesseru	-10.8075
▁gesam	-10.8079
orschri	-10.808
ezeichn	-10.8082
markt	-10.8084
ituti	-10.8084
entra	-10.8086
lgemeine	-10.8086
▁sehen	-10.8089
erichtet	-10.8093
tzliche	-10.8093
▁Qu	-10.8097
Strateg	-10.8097
erbin	-10.8098
bind	-10.8101
rbindung	-10.8104
rbind	-10.8105
▁rich	-10.8108
▁Kontrolle	-10.8111
▁Strate	-10.8111
ertre	-10.8111
▁inn	-10.8112
erbindun	-10.8112
tlichkeit	-10.8116
tutio	-10.8116
Millione	-10.8116
ligen	-10.8119
ansp	-10.812
ektor	-10.8121
identi	-10.8122
erwaltung	-10.8124
▁Wachstum	-10.8124
▁bleib	-10.8125
etroffen	-10.8125
ntfernt	-10.8127
ktivität	-10.8127
▁Komp	-10.813
ändlich	-10.8131
ezeichne	-10.8131
Organisati	-10.8133
gisc	-10.8133
eschi	-10.8136
tab	-10.8137
tbe	-10.8138
sprochen	-10.8141
Änd	-10.8142
ilig	-10.8143
▁allgemeine	-10.8144
▁Gesund	-10.8144
▁daf	-10.8145
sidenti	-10.8146
ahrhundert	-10.8147
▁scha	-10.8147
har	-10.8148
▁Ind	-10.8148
Fortschri	-10.8149
part	-10.8153
▁Mitarbeiter	-10.8154
bestehe	-10.8154
issenschaftl	-10.8155
▁Internationa	-10.8156
▁Zukun	-10.8157
chere	-10.8157
Zukunf	-10.8158
▁bitte	-10.8158
▁erha	-10.8161
▁offen	-10.8161
Auswirkung	-10.8161
Funktio	-10.8163
Informations	-10.8163
Man	-10.8164
dis	-10.8166
issensch	-10.8167
spezi	-10.8168
▁Gesetz	-10.8169
twen	-10.817
▁gewähr	-10.817
International	-10.817
rweiterung	-10.8171
Verh	-10.8171
ngt	-10.8172
dafü	-10.8173
zahlreich	-10.8174
▁Deshalb	-10.8175
außer	-10.8175
nsatz	-10.8177
Technolog	-10.8178
uto	-10.8179
rtikel	-10.818
erhi	-10.8181
igenen	-10.8181
ntrolle	-10.8184
Verordnung	-10.8185
atür	-10.8187
wortung	-10.8187
Deutsc	-10.8189
eien	-10.8189
eordne	-10.8189
geordn	-10.819
▁Deuts	-10.8191
▁akt	-10.8191
▁brauchen	-10.8191
timmte	-10.8194
usätzlic	-10.8195
▁erl	-10.8199
atter	-10.8199
erliche	-10.82
amerikanisch	-10.8201
zeiti	-10.8202
eschlagen	-10.8202
▁bin	-10.8204
osition	-10.8205
Frauen	-10.8206
Durch	-10.8209
enrechte	-10.8209
▁Fraue	-10.8209
hrei	-10.821
türl	-10.821
Min	-10.821
ism	-10.8211
ergangen	-10.8211
▁kle	-10.8211
täten	-10.8213
trument	-10.8214
erdings	-10.8215
idu	-10.8216
ierunge	-10.8216
▁beispiels	-10.8216
strumen	-10.8216
▁Nation	-10.8216
ewähr	-10.8218
▁Durc	-10.8218
nrech	-10.8219
▁weiterhi	-10.8219
erhandl	-10.822
▁Diskussion	-10.8221
▁Techn	-10.8221
▁Funkti	-10.8222
beispielsw	-10.8222
trol	-10.8223
▁klar	-10.8225
chus	-10.8226
ilie	-10.8228
adt	-10.8228
oge	-10.8228
utzen	-10.8229
▁Persone	-10.823
▁einzeln	-10.823
narb	-10.823
Wettbewerbs	-10.8232
demokra	-10.8232
ezeichnet	-10.8233
rmögli	-10.8233
Personen	-10.8234
geschlage	-10.8234
inung	-10.8235
▁persönliche	-10.8235
cksichti	-10.8236
ksichtig	-10.8236
otwe	-10.8236
erinne	-10.8239
weiterhin	-10.8239
▁vielen	-10.824
ssu	-10.8244
weisen	-10.8244
▁Arbeitsplätze	-10.8244
tgliede	-10.8247
waren	-10.825
▁bri	-10.825
▁Fu	-10.8252
▁Serv	-10.8253
utlich	-10.8253
▁hinsichtlich	-10.8254
▁Famili	-10.8255
ätzlic	-10.8258
▁Technolo	-10.8258
begr	-10.826
▁versuch	-10.8261
stär	-10.8261
sätzli	-10.8263
▁Ju	-10.8263
rstä	-10.8263
vat	-10.8264
zliche	-10.8264
▁Viel	-10.8267
gaben	-10.8267
röß	-10.8267
▁Verhand	-10.8267
genannt	-10.8268
sens	-10.8268
ehl	-10.827
Form	-10.827
kosten	-10.8272
jek	-10.8272
hwer	-10.8272
Verfahre	-10.8274
▁folg	-10.8276
▁Abe	-10.8276
rdert	-10.8277
efor	-10.8278
▁Landwirtschaf	-10.828
Landwirtschaft	-10.8281
identin	-10.8282
▁Ak	-10.8283
▁amerikanische	-10.8283
▁Prozess	-10.8284
▁schn	-10.8284
▁Pu	-10.8284
bekann	-10.8285
rscha	-10.8286
tori	-10.8288
nisati	-10.8289
▁beispiel	-10.8291
llerdin	-10.8292
lerding	-10.8293
tatsächlich	-10.8293
▁Ger	-10.8295
ehung	-10.8295
▁Ansicht	-10.8295
Verhandl	-10.8296
twortun	-10.8297
ielleich	-10.8297
ecke	-10.8298
elleicht	-10.83
ermög	-10.83
nfall	-10.8302
▁Einrichtung	-10.8302
tritt	-10.8303
bstimm	-10.8303
itäte	-10.8304
▁umfass	-10.8306
▁hinaus	-10.8306
▁betrifft	-10.8307
merk	-10.8307
oten	-10.8308
omi	-10.8309
erordnung	-10.8309
inanzierung	-10.8311
gerichtet	-10.8311
Software	-10.8311
rkungen	-10.8312
Pre	-10.8316
▁Interessen	-10.8317
▁Verfahr	-10.8317
gegenü	-10.8318
ktions	-10.8318
▁davon	-10.8321
danke	-10.8321
tste	-10.8322
darübe	-10.8323
▁darüb	-10.8324
Namen	-10.8324
abhäng	-10.8325
gute	-10.8325
▁Web	-10.8326
▁Schrit	-10.8328
Schritt	-10.8328
finanz	-10.8329
Milli	-10.833
eint	-10.8332
tehend	-10.8335
natür	-10.8337
Familie	-10.8339
huss	-10.834
irek	-10.834
dukti	-10.8342
röffentlich	-10.8345
ltige	-10.8348
▁Weise	-10.8349
▁Rolle	-10.8349
möchten	-10.8351
santräge	-10.8351
chse	-10.8354
Eins	-10.8356
richten	-10.8356
iefe	-10.8356
ervic	-10.8356
fügung	-10.8356
organis	-10.8359
▁Geschicht	-10.8365
ächste	-10.8365
erheits	-10.8366
▁nä	-10.8367
hlage	-10.8367
rfahrung	-10.8368
erga	-10.8369
ewährlei	-10.8369
urüc	-10.8371
währleis	-10.8373
sweis	-10.8373
schutz	-10.8373
ährleist	-10.8375
▁Investiti	-10.8377
Proze	-10.8378
ologisch	-10.8379
ermögl	-10.8383
vielleicht	-10.8384
▁vielleich	-10.8385
▁Proz	-10.8386
▁Softwar	-10.8386
enfall	-10.8386
Stad	-10.8387
ichtigste	-10.8388
iefer	-10.8388
irkl	-10.8388
hres	-10.8389
▁ben	-10.8389
gesproche	-10.839
rdin	-10.8391
erausforder	-10.8392
schlu	-10.8392
thalt	-10.8392
▁einzi	-10.8394
▁schaff	-10.8394
etre	-10.8398
Vera	-10.8401
dwirtschaf	-10.8401
ründe	-10.8401
usw	-10.8402
vestition	-10.8403
▁natü	-10.8403
anda	-10.8403
ssel	-10.8405
rkeh	-10.8407
▁Angelegen	-10.8409
higkeit	-10.8409
gehö	-10.841
▁ermöglicht	-10.8412
Was	-10.8413
hters	-10.8413
rvice	-10.8414
gungs	-10.8414
erbra	-10.8415
enzen	-10.8415
▁ebe	-10.8417
egin	-10.8417
hof	-10.8418
ologische	-10.8418
itionen	-10.8419
stimmen	-10.842
atischen	-10.8421
itut	-10.8421
hlung	-10.8424
dlungen	-10.8425
rpflichtung	-10.8426
▁einzel	-10.8426
▁zweit	-10.8428
ätig	-10.8429
ndwirtscha	-10.843
Umsetzung	-10.843
andwirtsch	-10.8431
rsp	-10.8431
itiative	-10.8431
une	-10.8432
schrit	-10.8432
▁gemacht	-10.8436
anges	-10.8437
▁pe	-10.8439
nsb	-10.8439
schiedliche	-10.8439
▁Ru	-10.844
▁Schlu	-10.8441
rfolgreich	-10.8443
▁Auto	-10.8443
unehmen	-10.8448
lles	-10.8448
rlichen	-10.8449
insicht	-10.845
▁öff	-10.8451
erende	-10.8452
sz	-10.8454
▁Gruppe	-10.8454
finanzielle	-10.8454
Hande	-10.8455
ifi	-10.8455
▁bedeutet	-10.8456
einzig	-10.8456
entie	-10.8456
onell	-10.8456
▁ermög	-10.8458
aup	-10.8459
estimmung	-10.8459
▁gegenwärtig	-10.8459
onferenz	-10.846
chtliche	-10.8463
lieder	-10.8463
Notwendigkeit	-10.8464
▁Arbeitnehmer	-10.8464
▁Schlusselwort	-10.8466
rinne	-10.8467
rek	-10.8467
heiden	-10.8468
finanziell	-10.8471
erfügu	-10.8471
uellen	-10.8472
rieden	-10.8472
rfügun	-10.8473
rol	-10.8474
aussc	-10.8475
▁Absch	-10.8475
ehand	-10.8477
schriftlich	-10.8478
oze	-10.848
bstverständlich	-10.8481
▁Verwaltung	-10.8481
rdern	-10.8482
anti	-10.8482
ustellen	-10.8483
eicher	-10.8485
▁Fisch	-10.8485
tschlie	-10.8487
zess	-10.8488
timmen	-10.8488
entscheidend	-10.8491
hervor	-10.8491
eiterhin	-10.8492
ziehen	-10.8495
ntschli	-10.8495
zunehme	-10.8496
ommunikation	-10.8501
verständ	-10.8501
dessen	-10.8502
ebracht	-10.8504
▁finanz	-10.8505
gebrach	-10.8506
▁hervo	-10.8506
hnische	-10.8507
fel	-10.8509
geordneten	-10.851
mwel	-10.8512
▁daher	-10.8513
besserung	-10.8513
▁Rege	-10.8515
iedlich	-10.8516
förder	-10.8516
▁bess	-10.8519
▁modern	-10.852
azu	-10.8521
oftware	-10.8522
logie	-10.8524
nschaftlic	-10.8526
teilun	-10.8526
▁finanziel	-10.8527
Lä	-10.8527
ernen	-10.8528
sve	-10.8528
keh	-10.8528
verfahren	-10.8528
sönlich	-10.853
ersönli	-10.8531
Abgeord	-10.8531
▁Abgeor	-10.8532
tuelle	-10.8533
rständ	-10.8534
tivität	-10.8538
▁erreicht	-10.8539
olch	-10.8541
▁umfassen	-10.8541
upp	-10.8542
Jahrhunder	-10.8543
mini	-10.8544
▁unserem	-10.8544
▁gewä	-10.8545
rsu	-10.8545
tbewe	-10.8545
menhang	-10.8546
mmenhan	-10.8547
rof	-10.8548
usges	-10.855
nschaftl	-10.8551
lgemei	-10.8552
rhan	-10.8552
▁Cha	-10.8555
reiheit	-10.8556
esentli	-10.856
rfor	-10.8561
glaube	-10.8562
sste	-10.8563
mmenha	-10.8565
rganisationen	-10.8567
wickelt	-10.8568
▁Gelegenheit	-10.8568
Million	-10.8569
▁Arbeitsp	-10.8569
Beziehung	-10.857
aktiv	-10.8571
enau	-10.8573
▁Beziehun	-10.8573
Bedingung	-10.8574
▁Millio	-10.8575
▁Bedingun	-10.8576
tür	-10.8577
ußerdem	-10.8577
nrichtun	-10.858
spoli	-10.8582
▁zei	-10.8582
terung	-10.8583
pielsweis	-10.8584
tschritt	-10.8584
zustelle	-10.8584
ielsweise	-10.8585
eispielsw	-10.8586
ush	-10.859
inist	-10.8591
erstän	-10.8592
meinschafts	-10.8592
tleist	-10.8594
verwendet	-10.8596
satio	-10.8596
funktion	-10.8597
egeb	-10.8598
verk	-10.8598
▁Beis	-10.86
nformations	-10.8601
ersone	-10.8601
bleib	-10.8602
ortschri	-10.8605
▁Auße	-10.8605
rks	-10.8605
rtschrit	-10.8606
eutschla	-10.8607
▁deutli	-10.8608
utschlan	-10.8608
itutionen	-10.861
▁soz	-10.861
tschland	-10.8611
inrichtu	-10.8614
iben	-10.8615
ölkerung	-10.8615
wal	-10.8616
völkerun	-10.8616
fizier	-10.8617
▁allerding	-10.8617
▁kla	-10.8618
rweite	-10.8618
ängig	-10.8619
Betr	-10.8619
eginnen	-10.862
▁Website	-10.862
nolog	-10.8621
kanisch	-10.8623
ernet	-10.8624
Dien	-10.8624
bnis	-10.8624
schichte	-10.8624
progra	-10.8626
logisch	-10.8629
vollständi	-10.8633
▁Arbeitspl	-10.8633
stet	-10.8635
▁Landwirt	-10.8636
tlicher	-10.8637
erarbeit	-10.8643
▁jeder	-10.8644
gliede	-10.8647
orges	-10.8648
rgeschlage	-10.8648
eration	-10.865
unternehm	-10.8651
nschließ	-10.8653
Präsidentschaf	-10.8654
benfalls	-10.8656
leichzei	-10.8656
Schluss	-10.8656
erbunden	-10.8656
orderli	-10.8658
eichzeit	-10.8658
▁lass	-10.8659
ziehungen	-10.8659
Instrumen	-10.866
chicht	-10.866
▁Gleich	-10.866
Rei	-10.8662
brauchen	-10.8662
▁beid	-10.8663
▁Ergebnisse	-10.8665
ltur	-10.8666
▁sehe	-10.8668
zeigt	-10.8669
iehe	-10.8669
▁Jahrhunde	-10.867
chzeitig	-10.8671
antrag	-10.8672
bg	-10.8672
evölkeru	-10.8672
ntiert	-10.8675
ichzeiti	-10.8675
▁Restaur	-10.8677
gestimmt	-10.8678
fasse	-10.8678
ndigke	-10.8681
einzelne	-10.8681
tner	-10.8681
lla	-10.8682
abs	-10.8682
▁Leistung	-10.8682
rbeitet	-10.8684
ife	-10.8684
Sit	-10.8685
etra	-10.8686
▁Steuer	-10.8686
beha	-10.8687
Bu	-10.8688
Nat	-10.8689
santrag	-10.8689
arti	-10.869
ahlreich	-10.8692
▁Wett	-10.8692
pekt	-10.8693
wünsch	-10.8693
rungsantra	-10.8696
▁also	-10.8696
persönli	-10.8701
nerhal	-10.8701
Abkommen	-10.8703
▁off	-10.8705
▁einschließlich	-10.8705
rtrete	-10.8706
amilie	-10.8706
efindet	-10.871
ssprach	-10.8711
Kind	-10.8711
entfer	-10.8712
▁Finanzierung	-10.8712
ekommen	-10.8712
nnerha	-10.8713
Bü	-10.8714
erbesseru	-10.8714
ionel	-10.8714
ähl	-10.8718
ogramme	-10.8719
esentliche	-10.8721
rarbeit	-10.8722
▁Beit	-10.8722
▁gleichzeit	-10.8722
bede	-10.8723
spra	-10.8724
swei	-10.8726
ienstl	-10.8726
aufe	-10.8728
erec	-10.8728
ept	-10.8728
koste	-10.8728
gleichzeiti	-10.8728
beide	-10.8731
usforderung	-10.8732
▁angenommen	-10.8732
ultu	-10.8735
erschaf	-10.8735
Erweiterun	-10.8735
▁Abkomme	-10.8735
▁Gesell	-10.8736
hinder	-10.8737
worte	-10.8737
Verfü	-10.8738
▁entfe	-10.8738
Geschichte	-10.8739
indun	-10.8739
chriftlich	-10.8741
ria	-10.8741
▁Am	-10.8742
▁Kolleginne	-10.8743
egenh	-10.8743
wirkung	-10.8744
mokratie	-10.8745
merikanisch	-10.8745
▁Rechte	-10.8747
▁umfassend	-10.8747
word	-10.8748
uli	-10.8753
chnische	-10.8753
inze	-10.8753
arin	-10.8754
▁hoffe	-10.8754
inh	-10.8755
fge	-10.8755
verh	-10.8755
Herausforde	-10.8758
▁Herausford	-10.8758
allgemei	-10.8759
orgeschlag	-10.8761
antwortlich	-10.8762
bern	-10.8762
etrie	-10.8762
chnisch	-10.8763
nüber	-10.8763
ereinigte	-10.8766
andwirt	-10.8771
▁ware	-10.8771
greifen	-10.8772
Hin	-10.8775
stleis	-10.8776
Abstimm	-10.8777
▁Abstim	-10.8778
teren	-10.878
sichtl	-10.8781
enstle	-10.8782
okratie	-10.8784
tels	-10.8785
gelegenhe	-10.8787
duktio	-10.8788
ilde	-10.879
estehe	-10.8791
Gesells	-10.8791
ergan	-10.8794
versuch	-10.8795
▁vorgeschl	-10.8796
vorgeschla	-10.8797
Verw	-10.8798
erä	-10.8799
ahrun	-10.88
▁rec	-10.88
Beitr	-10.8801
▁Kollegin	-10.8802
nanzier	-10.8803
▁zusätzli	-10.8803
nstlei	-10.8803
zurü	-10.8804
Qualit	-10.8804
logische	-10.8805
cksicht	-10.8806
einges	-10.8807
rup	-10.8807
▁Mitarbeite	-10.8807
▁Richtung	-10.8809
gewä	-10.8809
ungss	-10.8809
heide	-10.8811
nth	-10.8812
ndlage	-10.8813
hän	-10.8815
nabhängi	-10.8816
hrungs	-10.8817
bal	-10.8819
▁Erklärung	-10.882
hnisch	-10.882
▁oh	-10.882
ünsch	-10.8821
▁zug	-10.8822
▁hande	-10.8822
ereinig	-10.8824
dingu	-10.8824
ücksich	-10.8824
esamte	-10.8826
rdnete	-10.8827
Service	-10.8828
▁nächs	-10.8829
gebo	-10.8835
ktivi	-10.8836
▁Kontro	-10.8836
Beziehungen	-10.8839
▁Wah	-10.8841
uste	-10.8841
rar	-10.8843
ndhei	-10.8843
onst	-10.8845
echno	-10.8845
chlä	-10.8845
ertei	-10.8846
Beisp	-10.8848
nanzielle	-10.8848
bot	-10.885
bsc	-10.8853
abei	-10.8853
▁Bevölker	-10.8856
▁aufgrund	-10.8857
▁deu	-10.8857
esuch	-10.8858
star	-10.886
lst	-10.8862
atsächli	-10.8862
jet	-10.8862
Br	-10.8863
klungs	-10.8863
chic	-10.8867
▁glau	-10.8868
tsa	-10.8871
kation	-10.8872
dheit	-10.8872
uktio	-10.8872
riften	-10.8872
insichtlich	-10.8874
hrifte	-10.8875
kratis	-10.8876
▁wär	-10.8877
rechende	-10.8878
wesentli	-10.8878
▁Organ	-10.8879
▁Tran	-10.888
arbeitung	-10.888
Restaura	-10.888
ndlunge	-10.8882
Schwe	-10.8884
iniste	-10.8884
Organisat	-10.8885
tegi	-10.8886
rsonen	-10.8888
rität	-10.8888
erikanische	-10.8889
Ener	-10.8889
ntscheidend	-10.8893
Unser	-10.8894
▁Organisa	-10.8896
nister	-10.8897
esehen	-10.8898
delt	-10.8898
bhäng	-10.8899
gegenwärtig	-10.8899
Seiten	-10.89
hrlich	-10.89
rständlich	-10.89
sowohl	-10.8901
▁sowoh	-10.8901
Bil	-10.8904
wierig	-10.8904
rhin	-10.8906
▁vorgesch	-10.8908
hlreiche	-10.8908
wichtigst	-10.8908
eltweit	-10.8909
verantwort	-10.8909
ettbe	-10.891
▁amerikanisch	-10.891
▁Partn	-10.8911
arüb	-10.8912
▁enth	-10.8912
verbunde	-10.8913
Deutschl	-10.8914
artn	-10.8916
▁Servic	-10.8916
▁Unse	-10.8917
ysteme	-10.892
enrec	-10.8922
struk	-10.8924
gerichte	-10.8926
igste	-10.8926
gesehe	-10.8927
▁vollständi	-10.8927
▁ausgezeichnet	-10.893
uswirkung	-10.893
▁derzeit	-10.8931
▁dere	-10.8933
hon	-10.8933
Verbesser	-10.8934
blick	-10.8935
Verbindun	-10.8935
orme	-10.8935
▁aktuell	-10.8935
zept	-10.8935
▁Verbesse	-10.8936
▁umfa	-10.8937
enannt	-10.8937
▁Wettb	-10.8938
ttbew	-10.8939
Internationa	-10.894
bindun	-10.8942
sungen	-10.8942
ebung	-10.8943
▁Ene	-10.8943
uktu	-10.8944
llionen	-10.8944
▁Situa	-10.8945
allgemeine	-10.8945
Wettbe	-10.8946
▁Verbindu	-10.8946
▁Internation	-10.8946
erichts	-10.895
gemacht	-10.895
illione	-10.8954
Situat	-10.8954
▁Initiat	-10.8954
chäfts	-10.8957
ereinba	-10.8959
dentschaft	-10.8962
identschaf	-10.8962
No	-10.8962
▁Beschäf	-10.8965
nthal	-10.8966
reinbar	-10.8967
estaura	-10.8968
ssenschaftl	-10.8969
▁Dokument	-10.897
Trans	-10.8975
auße	-10.8975
nitiati	-10.8975
issens	-10.8975
▁Verant	-10.8977
zuge	-10.8979
licherweise	-10.898
wol	-10.898
ands	-10.8983
entha	-10.8983
ckel	-10.8983
Verantw	-10.8983
▁Arbeitsplätz	-10.8984
Arbeitsplätze	-10.8985
Industr	-10.8985
ünftig	-10.8985
gig	-10.8986
▁verbund	-10.8989
isati	-10.8989
▁schaffe	-10.899
inzelne	-10.899
▁Indust	-10.899
rgebnisse	-10.8991
▁gewährleisten	-10.8995
nträge	-10.8995
chm	-10.8996
tbewerbs	-10.8996
Leb	-10.8996
Dienstl	-10.8997
itiativ	-10.8997
ollständi	-10.9001
üge	-10.9001
rschlä	-10.9001
llständig	-10.9003
lati	-10.9004
Schr	-10.9007
verbess	-10.9011
teilig	-10.9012
ause	-10.9013
äftigung	-10.9017
▁brauche	-10.9017
Pla	-10.9017
ebni	-10.9017
▁schwierig	-10.9018
Landwirtschaf	-10.9019
▁Landwirtscha	-10.9019
▁Nam	-10.902
Aufgabe	-10.9021
Mitarbeiter	-10.9021
rtne	-10.9021
ssensch	-10.9021
verständli	-10.9022
▁Aufgab	-10.9022
▁Anf	-10.9022
▁nun	-10.9023
rbi	-10.9024
Forsch	-10.9024
ilt	-10.9026
▁zusätzliche	-10.9027
▁Artik	-10.9028
▁Qua	-10.9029
▁Organis	-10.903
rochen	-10.903
egenwärtig	-10.9031
sses	-10.9031
▁Entscheidungen	-10.9032
stau	-10.9033
ettbewerbsfähig	-10.9034
riebe	-10.9034
grü	-10.9035
nzel	-10.9036
ihe	-10.9038
äten	-10.904
staatlich	-10.904
▁beim	-10.9043
persönliche	-10.9043
derl	-10.9044
oto	-10.9046
iver	-10.9046
tatio	-10.9048
gewährlei	-10.9051
▁Grundla	-10.9053
hinsichtlich	-10.9054
his	-10.9054
gsantra	-10.9056
mili	-10.9057
▁spe	-10.9059
ährleiste	-10.906
eße	-10.9061
onf	-10.9061
onze	-10.9062
wäre	-10.9062
berg	-10.9063
senscha	-10.9066
Kontrol	-10.9067
undhe	-10.9068
erschaft	-10.9068
hnolo	-10.9072
▁star	-10.9072
kat	-10.9073
kre	-10.9073
beispiel	-10.9073
befi	-10.9074
▁persönl	-10.9075
grö	-10.9075
▁wichtigs	-10.9075
▁bringe	-10.9077
ngebo	-10.9079
Initiati	-10.9079
ituat	-10.9081
▁Struktur	-10.9084
eschich	-10.9085
Erfahrun	-10.9086
▁Dis	-10.9088
nspr	-10.9088
▁Erfahru	-10.9088
derzei	-10.9088
schusses	-10.9092
ried	-10.9093
Artike	-10.9094
▁Fortschritte	-10.9096
Ant	-10.9096
asi	-10.9096
Vereinig	-10.9098
▁entf	-10.91
▁Vereini	-10.91
eschic	-10.9101
mier	-10.9101
▁Konf	-10.9103
chnol	-10.9103
eränder	-10.9103
spek	-10.9104
solc	-10.9106
▁Gebi	-10.9106
▁ans	-10.9106
▁einges	-10.9107
eta	-10.9109
▁Zim	-10.9109
Frei	-10.9111
▁brin	-10.9111
zweite	-10.9112
Mil	-10.9113
dit	-10.9113
Vereinigt	-10.9114
Ga	-10.9114
▁Binnenmarkt	-10.9114
▁Verk	-10.9114
dlu	-10.9116
reifen	-10.9116
roßen	-10.9117
ekann	-10.9119
▁speziell	-10.9121
ehre	-10.9122
▁dire	-10.9123
▁mehrere	-10.9124
gesellsc	-10.9124
niert	-10.9125
nstl	-10.9126
brach	-10.9126
smitte	-10.9128
weniger	-10.9128
ember	-10.9131
▁ausgestattet	-10.9134
lär	-10.9134
▁Mö	-10.9134
▁enthalten	-10.9135
▁historische	-10.9137
▁dank	-10.9139
öglichen	-10.9143
oba	-10.9145
stauran	-10.9148
▁meisten	-10.9149
▁begrü	-10.9149
▁begrüß	-10.9151
tivi	-10.9151
stimmungen	-10.9152
taurant	-10.9153
inricht	-10.9154
rklärung	-10.9154
häftigun	-10.9155
unf	-10.9156
Bedeu	-10.9156
htunge	-10.9156
rtret	-10.9157
tionel	-10.9157
Kontrolle	-10.916
▁Gege	-10.9162
Einrichtung	-10.9162
bilit	-10.9162
Zimm	-10.9163
blich	-10.9164
fs	-10.9165
Or	-10.9165
Rechtsvorschrift	-10.9165
▁Wasser	-10.9167
Diskussion	-10.917
ativen	-10.917
▁Einrichtun	-10.9171
stverständlich	-10.9171
elbstverständl	-10.9172
Name	-10.9173
▁Uns	-10.9174
sschusse	-10.9175
bkomm	-10.9176
gerung	-10.9177
ändige	-10.9177
ikatio	-10.9178
schiedli	-10.9179
rksam	-10.918
öf	-10.918
chiedlic	-10.918
esproche	-10.9181
hiedlich	-10.9181
▁mir	-10.9182
rschiedl	-10.9184
▁Wor	-10.9185
enre	-10.9187
iehen	-10.9189
ahrhunder	-10.919
▁Invest	-10.9191
▁Verpflicht	-10.9191
lation	-10.9191
ngu	-10.9194
ufgrund	-10.9194
▁Debatte	-10.9196
hnu	-10.9196
ahlen	-10.9198
erkenn	-10.9199
hrhundert	-10.9199
rstützt	-10.9199
▁Insti	-10.92
misc	-10.92
▁frei	-10.9201
rklä	-10.9201
ome	-10.9204
ndels	-10.9204
Schlusselwort	-10.9207
sach	-10.9207
genau	-10.9208
ordne	-10.9211
inanziel	-10.9212
nanziell	-10.9212
radition	-10.9212
▁alles	-10.9215
▁folgen	-10.9215
trifft	-10.9217
weltwei	-10.9218
▁weltwe	-10.9218
▁Mitarbeit	-10.9219
weiterung	-10.9219
▁Tatsache	-10.9219
ebenfall	-10.922
schwer	-10.9222
ndus	-10.9222
tätig	-10.9222
otwendigkeit	-10.9223
▁nächsten	-10.9223
rweiterun	-10.9224
▁Lös	-10.9227
▁beiden	-10.9228
spar	-10.9229
troffen	-10.9231
▁erwarte	-10.9231
▁Fortsch	-10.9232
angene	-10.9233
tegie	-10.9233
▁ebenfal	-10.9233
enübe	-10.9234
chwier	-10.9234
Fortschr	-10.9235
▁historisch	-10.9235
hwieri	-10.9236
häfti	-10.9236
▁Und	-10.9239
dische	-10.9239
iehun	-10.924
erka	-10.9242
wah	-10.9243
nsichtl	-10.9244
ffizi	-10.9246
▁Demok	-10.9247
▁Webs	-10.9247
Kun	-10.9248
struktu	-10.9249
ßlic	-10.9249
Demokr	-10.9249
lebe	-10.925
mä	-10.9251
sierte	-10.9251
ngenommen	-10.9258
haltung	-10.9258
▁Arbeitnehme	-10.9261
sichts	-10.9261
Instit	-10.9262
▁Stel	-10.9263
beispiels	-10.9263
wissenschaftlich	-10.9263
inanzierun	-10.9263
nanzierung	-10.9263
tuati	-10.9263
gez	-10.9264
örderung	-10.9264
Arbeitnehmer	-10.9264
ergr	-10.9267
Interessen	-10.9269
▁Nutz	-10.9269
▁auß	-10.9272
ießung	-10.9272
sächli	-10.9275
wart	-10.9278
wertung	-10.928
zieru	-10.9281
inander	-10.9282
Erf	-10.9282
ums	-10.9282
siere	-10.9282
schich	-10.9283
issenschaftlich	-10.9284
Fal	-10.9284
▁verbes	-10.9284
rheits	-10.9285
tut	-10.9286
▁Zw	-10.9286
ützu	-10.9286
einande	-10.9286
▁weiterh	-10.9288
▁Regierungen	-10.929
tlichkei	-10.9292
rkenn	-10.9294
Stell	-10.9294
chtigste	-10.9295
oris	-10.9296
ph	-10.9296
chenr	-10.9296
meinen	-10.9296
hließu	-10.9297
ließun	-10.9297
Wachstum	-10.9298
▁Wachstu	-10.93
rwaltung	-10.9302
▁Aufmerksamkeit	-10.9302
ngig	-10.9303
▁Demo	-10.9304
freu	-10.9306
talt	-10.9308
Kl	-10.9309
▁Jahres	-10.9314
▁gesagt	-10.9315
immen	-10.9318
agement	-10.9319
nämlich	-10.932
spiele	-10.932
ngli	-10.9321
aufen	-10.9321
erzeu	-10.9321
rzu	-10.9322
▁bekan	-10.9323
rvi	-10.9323
Verbra	-10.9326
ransp	-10.9327
deutli	-10.9327
▁aktuelle	-10.9328
ersetz	-10.9328
▁offe	-10.9329
ude	-10.933
lm	-10.933
meiste	-10.933
nteressen	-10.933
▁hand	-10.933
betrifft	-10.9331
entrum	-10.9333
chränk	-10.9334
▁Fischer	-10.9334
stige	-10.9338
innerh	-10.9339
riert	-10.934
ginn	-10.934
▁Sozial	-10.9342
erausforde	-10.9342
rausforder	-10.9344
ünf	-10.9345
fere	-10.9348
dnu	-10.9349
▁konnte	-10.9351
▁mögliche	-10.9351
▁vertr	-10.9351
dust	-10.9352
ezeich	-10.9352
orschr	-10.9352
erika	-10.9353
▁Anw	-10.9353
▁zahlrei	-10.9353
Technolo	-10.9354
mmenh	-10.9354
tigk	-10.9356
lbe	-10.9358
folgend	-10.9361
▁halte	-10.9362
hreib	-10.9362
ermöglicht	-10.9362
zel	-10.9363
rganisatione	-10.9363
ereinigt	-10.9364
gemeine	-10.9365
betri	-10.9366
ganisationen	-10.9366
mmunikation	-10.9367
ölker	-10.9367
ebs	-10.9367
Spie	-10.9368
ommunikatio	-10.937
▁Weg	-10.9371
10	-10.9372
Europas	-10.9373
niger	-10.9373
▁erm	-10.9374
ereinigten	-10.9374
▁einigen	-10.9374
▁sozialen	-10.9376
pflichtung	-10.9378
enken	-10.9378
eschlage	-10.9378
ordert	-10.938
Akti	-10.9383
stützt	-10.9383
formations	-10.9384
▁Ausspr	-10.9384
mok	-10.9385
breit	-10.9391
ifizie	-10.9392
chiedliche	-10.9392
öchten	-10.9392
erdi	-10.9393
einschließlich	-10.9394
weiterhi	-10.9397
hritte	-10.9399
Anwen	-10.94
▁las	-10.9402
undert	-10.9403
nderer	-10.9404
▁Zug	-10.9404
▁wesentliche	-10.9405
tsächl	-10.9407
posit	-10.9408
schrän	-10.941
▁Investit	-10.941
geschlag	-10.941
▁schwe	-10.9411
gsp	-10.9413
nsat	-10.9413
Geschicht	-10.9414
renze	-10.9415
tfern	-10.9415
▁Geschich	-10.9416
hzeitig	-10.9417
bera	-10.9418
henre	-10.9419
nzielle	-10.9419
▁Qual	-10.942
okument	-10.942
ntfer	-10.9422
onferen	-10.9423
verkehr	-10.9425
einb	-10.9426
Verwaltung	-10.9428
▁Technol	-10.9429
▁Ausschusse	-10.943
Investiti	-10.943
▁wis	-10.9431
▁Gesundheits	-10.9431
Thema	-10.9431
▁Kultur	-10.9431
ukunf	-10.9432
achstu	-10.9435
Gelegenheit	-10.9436
vielleich	-10.9436
nglich	-10.9438
▁vielleic	-10.9438
rbindun	-10.9438
rbrau	-10.9439
isches	-10.944
grif	-10.9441
▁Antwort	-10.9441
▁davo	-10.9443
erbindu	-10.9446
bunden	-10.9447
verantwortlich	-10.9448
ßt	-10.9449
eschränk	-10.9451
▁Dem	-10.9451
dwirtscha	-10.9451
▁Zentr	-10.9452
insb	-10.9453
▁Kosten	-10.9455
umente	-10.9455
erreicht	-10.9456
▁handelt	-10.9456
chstum	-10.9457
rachten	-10.9457
▁schli	-10.9458
▁arbei	-10.9459
Angelegen	-10.9459
ntscheidungen	-10.946
▁Angelege	-10.946
ktivitä	-10.9461
erkehrs	-10.9461
anträge	-10.9462
hsten	-10.9464
hrl	-10.9467
▁ar	-10.9468
risti	-10.9468
▁beispie	-10.9469
illion	-10.9469
interess	-10.9469
▁Ratspräsident	-10.947
merik	-10.9473
leisten	-10.9474
▁Ä	-10.9474
eteilig	-10.9474
prochen	-10.9474
sproche	-10.9476
ährl	-10.9476
chnun	-10.9477
tandar	-10.9477
edenen	-10.9479
▁betriff	-10.9479
sition	-10.948
wissenschaft	-10.948
ingu	-10.948
ähig	-10.948
▁Flu	-10.948
trolle	-10.9481
ital	-10.9482
ndwirtsch	-10.9482
▁word	-10.9483
itra	-10.9483
reinig	-10.9483
rordnung	-10.9483
andwirtsc	-10.9484
gerich	-10.9485
▁Investitionen	-10.9487
▁Ti	-10.9488
klar	-10.9491
untern	-10.9496
folgreich	-10.9496
issensc	-10.9499
nwen	-10.9502
▁Bestimmung	-10.9502
fäh	-10.9503
msetzung	-10.9506
technis	-10.9506
dition	-10.9506
Deshalb	-10.9507
Finanzierung	-10.9508
iedliche	-10.9509
▁funktionier	-10.9509
▁Zwe	-10.951
▁Finanzierun	-10.9512
iellen	-10.9512
▁Eben	-10.9513
nvest	-10.9514
▁spreche	-10.9514
stärke	-10.9517
pers	-10.9518
elung	-10.9518
ref	-10.9518
ufgabe	-10.9518
nrechte	-10.952
treff	-10.952
druc	-10.9521
chle	-10.9522
▁10	-10.9522
ergange	-10.9522
odern	-10.9523
dri	-10.9524
finanziel	-10.9524
ertig	-10.9524
ror	-10.9524
▁Kollegi	-10.9525
ozes	-10.9525
usätzli	-10.953
räsidenten	-10.9531
ehmer	-10.9532
chtigt	-10.9533
eitrag	-10.9534
▁Strat	-10.9534
Pl	-10.9536
▁gele	-10.9537
itarbeiter	-10.9538
rundla	-10.954
Verha	-10.9541
nschlie	-10.9543
▁gese	-10.9543
Quali	-10.9544
einschafts	-10.9545
▁Öffentlichkeit	-10.9546
chhaltig	-10.9546
umfassen	-10.9546
rgangen	-10.9546
usc	-10.9546
hundert	-10.9546
▁ermöglichen	-10.9547
▁Erge	-10.9549
reff	-10.9549
spräsident	-10.9551
Schut	-10.9551
esserung	-10.9554
meist	-10.9555
Ergeb	-10.9555
chichte	-10.9556
▁Erweiter	-10.9557
Persone	-10.9559
einzu	-10.9559
zig	-10.9559
auchen	-10.9561
ichtigst	-10.9561
staltung	-10.9561
einzeln	-10.9563
eordneten	-10.9564
gesproch	-10.9567
▁Ihrer	-10.9567
▁Roll	-10.9567
nutzen	-10.9569
sforderung	-10.957
nisat	-10.957
ksichti	-10.9571
▁wor	-10.9571
unktionier	-10.9573
warte	-10.9574
ortschr	-10.9576
häl	-10.9577
vorschriften	-10.9578
nvestiti	-10.9578
nschaftli	-10.9579
Regel	-10.9579
▁ganze	-10.958
estition	-10.958
orr	-10.9581
hängi	-10.9583
sicherheit	-10.9583
▁Bl	-10.9583
rieben	-10.9585
klärung	-10.9586
▁Ergebniss	-10.9587
esicht	-10.9588
rüh	-10.959
dabei	-10.9591
▁dabe	-10.9591
abg	-10.9591
win	-10.9591
Verhand	-10.9592
Jahrhunde	-10.9593
▁hinau	-10.9593
amer	-10.9594
Prozess	-10.9595
▁Weis	-10.9595
stischen	-10.9596
▁Aber	-10.9597
Verfahr	-10.9599
schlus	-10.9599
bgeord	-10.9599
Sys	-10.9601
▁Verhan	-10.9602
▁Hilf	-10.9602
▁Grupp	-10.9603
umfassend	-10.9605
▁grundlegend	-10.9605
▁dre	-10.9607
estimmungen	-10.9608
▁Famil	-10.9608
andard	-10.9609
hlo	-10.9609
amili	-10.9611
▁Flug	-10.9611
eiteren	-10.9612
erscha	-10.9613
Gegen	-10.9613
▁Standard	-10.9613
Ergebnisse	-10.9614
ates	-10.9615
ussi	-10.9615
ruk	-10.9616
▁Prozes	-10.9618
▁spez	-10.9618
lisch	-10.962
ratis	-10.962
will	-10.9621
▁Vol	-10.9621
▁Haup	-10.9623
▁Sprach	-10.9624
reif	-10.9624
Ansicht	-10.9624
äfti	-10.9627
▁Ansich	-10.9629
nisier	-10.9629
tiger	-10.963
ehalten	-10.963
ziehe	-10.9631
reibe	-10.9632
elleich	-10.9632
ielleic	-10.9632
eal	-10.9632
llei	-10.9632
bedeutet	-10.9632
lleicht	-10.9635
▁erfolgre	-10.9635
estimmun	-10.9636
▁Umw	-10.9636
Strate	-10.9637
▁Hilfe	-10.9637
▁Integration	-10.9638
eigt	-10.9639
▁Schul	-10.9639
Frak	-10.9639
istischen	-10.9639
Schri	-10.9641
sys	-10.9641
▁Vereinbarung	-10.9641
ersönliche	-10.9643
gewähr	-10.9644
Softwar	-10.9645
organ	-10.9645
Alle	-10.9646
egung	-10.9646
modern	-10.9647
Lösu	-10.9647
Lei	-10.9648
▁199	-10.9649
ustelle	-10.9649
rivat	-10.9651
▁genannt	-10.9651
▁Verfah	-10.9652
inzig	-10.9653
▁Verkehr	-10.9653
beding	-10.9654
Haupt	-10.9654
erhält	-10.9655
▁doc	-10.9655
hrleist	-10.9655
Akt	-10.9655
stande	-10.9656
anzielle	-10.9656
▁Kontr	-10.9657
derer	-10.9658
tfer	-10.9659
etrifft	-10.966
gsten	-10.9662
erve	-10.9665
prü	-10.9666
gleichzeit	-10.9666
ereinbarung	-10.9666
ausgezeichnet	-10.9667
dürf	-10.9667
tfernt	-10.9668
allerding	-10.9669
▁ausgezeichne	-10.9669
▁allerdin	-10.967
▁gleichzei	-10.9671
Des	-10.9672
nziell	-10.9673
eispiels	-10.9674
tran	-10.9674
äm	-10.9674
nricht	-10.9676
▁Verbind	-10.9677
aden	-10.9678
angenommen	-10.968
fahrung	-10.968
rbeitsplätze	-10.968
▁Gesun	-10.968
Gesund	-10.9683
chaffung	-10.9683
historische	-10.9683
▁Lo	-10.9683
ortung	-10.9685
▁angenomme	-10.9685
vollständ	-10.9686
Arbeitspl	-10.9686
eilun	-10.9687
▁durchgeführt	-10.9687
ilung	-10.9689
▁technis	-10.9689
Gesetz	-10.969
besserun	-10.969
▁größte	-10.9692
Kolleginne	-10.9695
ahrscheinlich	-10.9697
erikanisch	-10.9698
irkun	-10.9698
vent	-10.9699
▁erk	-10.97
rgeschlag	-10.97
sund	-10.9702
rfahrun	-10.9702
Funkti	-10.9702
währlei	-10.9702
▁positiv	-10.9703
achst	-10.9703
verfahre	-10.9704
hinaus	-10.9704
▁Ke	-10.9704
achhaltig	-10.9705
nungs	-10.9706
erding	-10.9706
twas	-10.9706
▁Bew	-10.9707
ährleis	-10.9708
hläge	-10.9709
▁Herausfor	-10.9709
esich	-10.971
▁Geset	-10.971
erenz	-10.971
Herausford	-10.9711
▁Deut	-10.9711
▁gehö	-10.9712
▁umfasse	-10.9712
umfass	-10.9713
atie	-10.9713
erantwortl	-10.9715
ntwortlich	-10.9715
Entscheidungen	-10.9717
▁Tech	-10.9718
▁Softwa	-10.9721
dire	-10.9721
leit	-10.9721
nvesti	-10.9722
▁Jahrhund	-10.9723
echtsvorschrift	-10.9723
ttbewerbsfähig	-10.9724
▁Funkt	-10.9724
ufmerksam	-10.9724
wortun	-10.9725
▁meist	-10.9725
rauchen	-10.9726
rdings	-10.9726
erwendet	-10.9727
ständlich	-10.973
ice	-10.973
ervor	-10.973
ormen	-10.973
nvestitionen	-10.9732
sätzliche	-10.9732
Mill	-10.9732
anisa	-10.9732
organi	-10.9733
ehörde	-10.9733
▁umfassende	-10.9734
▁reg	-10.9735
gewährleisten	-10.9736
nstrum	-10.9738
▁moder	-10.9739
elbstverständ	-10.974
enthalten	-10.9743
▁veröffentlich	-10.9743
ositio	-10.9744
greife	-10.9745
Arbeitsp	-10.9747
Beziehun	-10.9747
Bedingun	-10.9748
entin	-10.9749
▁Fischerei	-10.975
danken	-10.975
rument	-10.9754
trumen	-10.9755
▁Natio	-10.9756
niste	-10.9757
Mitarbeite	-10.9757
Nation	-10.9757
rhandl	-10.9758
ekomm	-10.9758
▁meiste	-10.976
ielsweis	-10.9761
rbeitnehmer	-10.9761
mlic	-10.9761
ielt	-10.9762
sy	-10.9762
elsweise	-10.9763
schwi	-10.9763
ispielsw	-10.9764
dentin	-10.9764
tiative	-10.9765
samen	-10.9765
ssens	-10.9765
▁wichtigsten	-10.9766
▁gemach	-10.9767
sentliche	-10.9768
grenz	-10.9769
vielen	-10.9769
▁begrüße	-10.9772
arstell	-10.9773
digk	-10.9773
drei	-10.9773
rnen	-10.9773
enhan	-10.9774
gelung	-10.9775
erhan	-10.9775
hnel	-10.9777
isk	-10.9777
bitte	-10.9779
stens	-10.9779
rdnet	-10.9783
ngesichts	-10.9784
Arbeitsplätz	-10.9784
Famili	-10.9786
tutionen	-10.9787
ebun	-10.979
▁schr	-10.979
komp	-10.979
Gebie	-10.9791
enutze	-10.9791
neten	-10.9791
esh	-10.9791
ssystem	-10.9792
htliche	-10.9793
nferenz	-10.9793
hriftlich	-10.9794
▁Handels	-10.9795
ivität	-10.9796
tionier	-10.9798
indern	-10.9798
ngene	-10.9799
eßli	-10.9799
ogische	-10.9799
Internation	-10.98
einzel	-10.98
ntral	-10.98
greif	-10.9802
▁komp	-10.9803
Dr	-10.9806
genann	-10.9807
eiterhi	-10.9808
▁Landwir	-10.9809
fähig	-10.981
▁interess	-10.9811
Landwirt	-10.9812
▁Internatio	-10.9813
orgeschla	-10.9814
oma	-10.9814
alien	-10.9816
einm	-10.9816
▁teil	-10.9817
Landwirtscha	-10.9818
nannt	-10.9818
▁Rechtsvorschri	-10.9818
ffizien	-10.9819
meri	-10.982
issenschaftliche	-10.9821
schwierig	-10.9821
rlau	-10.9823
▁sprechen	-10.9824
ars	-10.9826
rolle	-10.9826
▁Finanzi	-10.9826
iterhin	-10.9827
unterneh	-10.9827
gesagt	-10.9829
iehungen	-10.9831
ogisch	-10.9832
To	-10.9832
llerdi	-10.9833
lerdin	-10.9833
verstän	-10.9835
werk	-10.9836
nforderungen	-10.9837
▁enthalt	-10.9839
imi	-10.9841
evölker	-10.9842
▁umfas	-10.9843
list	-10.9844
▁Förderung	-10.9845
▁hohe	-10.9845
tscheidend	-10.9846
ießl	-10.9846
ebot	-10.9848
Leistung	-10.9849
vorgeschl	-10.9849
▁verantwort	-10.985
▁Kommunikation	-10.985
rlaub	-10.9852
rkunge	-10.9854
usi	-10.9858
▁Leistun	-10.9858
▁ausgestatte	-10.9858
einbar	-10.9859
▁Pun	-10.986
estaur	-10.9861
▁Reform	-10.9863
zustell	-10.9864
ehalt	-10.9865
historisch	-10.9865
olgend	-10.9865
anzier	-10.9866
▁übern	-10.9866
hrte	-10.9866
▁Spa	-10.9866
inma	-10.9867
stei	-10.9867
Schrit	-10.9868
einigen	-10.9868
▁Zugang	-10.9873
Erklärung	-10.9873
▁Hinblick	-10.9873
genüb	-10.9873
hnet	-10.9874
ausgestattet	-10.9874
tuel	-10.9875
raum	-10.9875
▁ri	-10.9876
unserem	-10.9879
▁vollständ	-10.988
▁Fische	-10.988
▁schaf	-10.9888
egrü	-10.9889
▁Ums	-10.9889
egenü	-10.989
▁Lebensmittel	-10.989
Proj	-10.989
hläg	-10.9891
rbesseru	-10.9892
▁Programme	-10.9892
glau	-10.9892
folgt	-10.9894
zungen	-10.9895
zusätzliche	-10.9895
Fortschritte	-10.9896
ssenschaftlich	-10.9896
ersp	-10.9897
iffe	-10.9899
tral	-10.9899
▁blei	-10.99
reinigte	-10.9902
smu	-10.9902
iskussion	-10.9903
tverständlich	-10.9903
esundheits	-10.9904
bezieh	-10.9904
wissenschaftlic	-10.9907
schland	-10.9911
nrichtu	-10.9913
lbstverständl	-10.9913
tschrit	-10.9918
ftige	-10.9918
ngeh	-10.992
rtschri	-10.9921
senschaftl	-10.9921
schle	-10.9922
tärke	-10.9923
lkerung	-10.9923
▁nachhaltig	-10.9924
▁zeig	-10.9924
icherweise	-10.9925
schlecht	-10.9927
▁größer	-10.9929
owohl	-10.993
hmer	-10.993
▁Dieses	-10.993
licherweis	-10.993
▁finan	-10.993
funktio	-10.9931
▁eigentlich	-10.9934
erbunde	-10.9934
edlich	-10.9935
dungs	-10.9936
amerikanis	-10.9937
tschlan	-10.9938
ziellen	-10.9938
eutschl	-10.9938
nmal	-10.9938
hul	-10.9939
oßen	-10.9941
utschla	-10.9941
ndigen	-10.9942
wendet	-10.9942
Website	-10.9944
taatlich	-10.9945
eiß	-10.9945
tzungen	-10.9946
▁str	-10.9948
Bede	-10.9949
ölkerun	-10.995
torische	-10.995
völkeru	-10.9951
▁stä	-10.9951
ransparen	-10.9952
erständli	-10.9953
rderli	-10.9954
▁Websit	-10.9954
tition	-10.9955
▁einze	-10.9956
verantwor	-10.9956
Kund	-10.9957
daz	-10.9959
chtsvorschriften	-10.996
stellungen	-10.9961
öh	-10.9963
eichzei	-10.9963
pass	-10.9964
▁notw	-10.9965
dlunge	-10.9966
tschli	-10.9966
serv	-10.9966
Gruppe	-10.9966
usf	-10.9968
▁zusätzl	-10.9971
issenschaftlic	-10.9973
schließend	-10.9973
Techn	-10.9974
ügung	-10.9974
ekto	-10.9974
▁gerade	-10.9974
▁schließ	-10.9974
entschaft	-10.9974
▁bitt	-10.9974
sione	-10.9975
erarbei	-10.9977
▁Zuku	-10.9978
▁Binnenmark	-10.9979
Kollegin	-10.9979
zusätzli	-10.9979
Zukun	-10.998
züglich	-10.9981
▁hä	-10.9981
Spi	-10.9981
terh	-10.9982
Richtung	-10.9983
Anwe	-10.9983
Binnenmarkt	-10.9984
ichzeit	-10.9984
Umwe	-10.9986
▁Richtun	-10.9986
benfall	-10.9986
insich	-10.9987
unehme	-10.9987
eordn	-10.999
Aufmerksamkeit	-10.999
Lag	-10.9991
rbunden	-10.9991
geord	-10.9992
sordnung	-10.9993
Mon	-10.9997
richterstatterin	-10.9998
reund	-10.9998
▁Beschä	-10.9998
tikel	-10.9999
rtike	-11.0001
icherung	-11.0002
gezei	-11.0003
▁Schlussel	-11.0003
Restaur	-11.0003
▁Erfahr	-11.0004
swirkung	-11.0004
erwalt	-11.0005
chzeiti	-11.0005
lemen	-11.0005
▁Restau	-11.0006
chlusselwort	-11.0006
immte	-11.0007
▁Für	-11.0009
▁techn	-11.001
adi	-11.0011
Deuts	-11.0011
ützt	-11.0012
Ausw	-11.0012
▁get	-11.0012
uri	-11.0012
gestimm	-11.0012
▁hoff	-11.0014
sentli	-11.0014
dentschaf	-11.0015
liert	-11.0016
räsidents	-11.002
präs	-11.0022
enthalte	-11.0023
efa	-11.0024
eranstaltung	-11.0024
hlreich	-11.0026
kri	-11.0028
Fraue	-11.0029
Bevölker	-11.0031
eginne	-11.0031
thal	-11.0032
erinn	-11.0032
▁aufgrun	-11.0033
aufgrund	-11.0033
persönl	-11.0034
ebrach	-11.0035
▁nie	-11.0035
▁Standpunkt	-11.0036
zunehm	-11.0037
Abkomme	-11.0038
▁Unsere	-11.0039
rtre	-11.004
▁hätte	-11.0041
▁moderne	-11.0041
finan	-11.0041
▁einzelnen	-11.0041
gebrac	-11.0047
rise	-11.0048
ekomme	-11.0048
oft	-11.0049
arbeitun	-11.005
ustell	-11.0051
Vie	-11.0052
eform	-11.0052
rmögl	-11.0053
nü	-11.0056
rbeitung	-11.0056
iedlic	-11.0057
wenden	-11.0057
gramme	-11.0058
enan	-11.0058
ihn	-11.0059
▁Grün	-11.0059
Organisa	-11.0061
ose	-11.0061
ftware	-11.0062
oftwar	-11.0062
richts	-11.0062
▁Dur	-11.0063
▁Beh	-11.0064
önlich	-11.0064
mes	-11.0067
▁Abkomm	-11.0069
▁deshalb	-11.0069
näc	-11.007
ersönl	-11.0071
▁schwieri	-11.0071
genannte	-11.0072
Abgeor	-11.0072
rsönli	-11.0072
verbund	-11.0073
menhan	-11.0073
▁Abgeo	-11.0073
▁Version	-11.0073
enr	-11.0073
Ki	-11.0074
verständl	-11.0075
utlic	-11.0076
ewa	-11.0077
tivitä	-11.0077
enhang	-11.0078
▁Wert	-11.0079
sätzl	-11.008
ätzli	-11.0081
inzeln	-11.0082
vorgesch	-11.0082
tschri	-11.0082
erien	-11.0083
erwarte	-11.0083
ickelt	-11.0084
genwärtig	-11.0084
mten	-11.0084
ereichen	-11.0085
inschließlich	-11.0085
hil	-11.0086
wichtigs	-11.0086
▁enthalte	-11.0088
▁arbeiten	-11.0089
inun	-11.0089
▁wissenschaftlic	-11.009
gestatte	-11.0092
twendigkeit	-11.0092
aktuell	-11.0094
eiheit	-11.0094
bekan	-11.0095
reihei	-11.0097
daf	-11.0098
produ	-11.0098
▁grundlegende	-11.0099
desse	-11.0099
esentl	-11.01
riede	-11.01
eifen	-11.0102
erar	-11.0103
ewertung	-11.0103
menta	-11.0104
stehenden	-11.0106
Millio	-11.0107
täte	-11.0107
progr	-11.0109
itarbeite	-11.0109
Verbindu	-11.011
▁Verbess	-11.011
ukte	-11.0111
Verbesse	-11.0111
ero	-11.0113
Einrichtun	-11.0113
wesentliche	-11.0114
ommunikati	-11.0117
ußerde	-11.0117
Tage	-11.0118
timmungen	-11.0118
ßerdem	-11.0118
echende	-11.0119
ginnen	-11.0119
▁bl	-11.0121
▁Einrichtu	-11.0122
rbin	-11.0123
Punk	-11.0125
bstim	-11.0125
nsamen	-11.0126
▁Ebene	-11.0126
▁ern	-11.0128
sches	-11.0129
rri	-11.0129
Arbeitnehme	-11.0131
zeuge	-11.0131
erzi	-11.0131
Dokument	-11.0133
▁Notwendigk	-11.0134
▁einschließli	-11.0134
anziell	-11.0137
▁Initia	-11.0137
Verpflicht	-11.0139
einzi	-11.0139
rgebniss	-11.014
afü	-11.0141
abhän	-11.0143
davon	-11.0143
rweit	-11.0143
▁Verpflich	-11.0143
▁Dokumen	-11.0145
darüb	-11.0146
ngelegen	-11.0146
▁darü	-11.0147
▁Ende	-11.0147
▁Organi	-11.0148
erfass	-11.0149
▁deutl	-11.0149
rfen	-11.015
nabhäng	-11.0151
▁End	-11.0152
kommt	-11.0152
tischer	-11.0152
bedingungen	-11.0153
ährung	-11.0156
rüb	-11.0157
Regierungen	-11.0158
▁Regierunge	-11.0159
lständig	-11.0159
rsa	-11.016
ommuni	-11.0161
▁ku	-11.0162
tschla	-11.0162
lreiche	-11.0162
kanisc	-11.0163
ortu	-11.0164
utun	-11.0164
ahle	-11.0167
reife	-11.0167
gebnisse	-11.0168
▁Aut	-11.0169
Rolle	-11.0169
raft	-11.0169
Weise	-11.0171
nlage	-11.0171
▁Ausg	-11.0172
▁Einf	-11.0172
Ca	-11.0174
veröffentlich	-11.0174
asc	-11.0174
▁lange	-11.0175
llständi	-11.0175
schut	-11.0175
ollständ	-11.0178
indest	-11.0178
fügun	-11.0179
▁Wahl	-11.018
▁gestellt	-11.018
torisch	-11.0181
▁Unternehmens	-11.0183
naus	-11.0186
ecken	-11.0186
orderl	-11.0187
▁Veranstaltung	-11.0189
enfal	-11.019
▁Absti	-11.0192
terun	-11.0193
▁Frankreich	-11.0193
svorschriften	-11.0195
rarbei	-11.0195
atsächl	-11.0196
▁Transp	-11.0196
eda	-11.0198
Gleich	-11.0199
Prei	-11.0201
kämpf	-11.0203
hrleiste	-11.0204
plan	-11.0204
ungsv	-11.0206
Steuer	-11.0206
rikanis	-11.0206
▁betri	-11.0207
▁Geschic	-11.0209
Ratspräsident	-11.021
genü	-11.021
anzierung	-11.0211
▁brau	-11.0211
pez	-11.0212
▁Grundl	-11.0213
#9	-11.0213
▁nehmen	-11.0215
▁allgem	-11.0216
lieren	-11.0218
sache	-11.0218
zweit	-11.0219
beitet	-11.0221
▁fol	-11.0225
▁Steue	-11.0226
▁verh	-11.0226
▁geste	-11.0227
anisationen	-11.0227
Investitionen	-11.0227
santra	-11.023
▁As	-11.0231
fehl	-11.0231
ganisatione	-11.0232
nhan	-11.0232
▁dir	-11.0233
erig	-11.0233
Öffentlichkeit	-11.0234
▁Öffentlichkei	-11.0234
gebra	-11.0238
Bo	-11.0239
▁gewährl	-11.024
ling	-11.024
que	-11.024
künftig	-11.0241
liede	-11.0244
rel	-11.0248
▁Fran	-11.0248
▁Erw	-11.0249
tum	-11.025
tabilität	-11.0251
▁Russland	-11.0251
▁ex	-11.0251
orts	-11.0254
▁Bar	-11.0255
Struktur	-11.0256
ule	-11.0257
rbeiter	-11.0257
ersuche	-11.0258
einu	-11.0258
tscheidungen	-11.026
▁Struktu	-11.026
ösu	-11.0261
Bez	-11.0261
▁Regionen	-11.0262
ildu	-11.0263
lü	-11.0264
Schlu	-11.0264
Ser	-11.0265
ngi	-11.0265
cherweise	-11.0267
▁Gesel	-11.0267
Mitarbeit	-11.0269
▁aktuel	-11.0269
Gesell	-11.0269
▁Mitarbei	-11.027
Initiat	-11.027
usgezeichnet	-11.0273
funktionier	-11.0276
▁ric	-11.0279
▁Sti	-11.0279
wande	-11.0279
▁ermö	-11.0279
▁dahe	-11.028
etracht	-11.0281
ebo	-11.0281
▁Zahl	-11.0282
kost	-11.0282
wirkun	-11.0284
Absch	-11.0286
Rechte	-11.0286
▁speziel	-11.0288
▁Fisc	-11.0289
rieren	-11.0289
uropas	-11.029
▁Woche	-11.029
lgeme	-11.0292
tver	-11.0293
klä	-11.0293
▁Tat	-11.0294
rfügu	-11.0295
inges	-11.0295
speziell	-11.0296
Gesundheits	-11.0297
erem	-11.0297
▁Absc	-11.0298
▁US	-11.0298
eranstalt	-11.0299
erbun	-11.0299
Beschäf	-11.03
▁tatsächl	-11.0301
ilien	-11.0301
munikation	-11.0302
▁demokra	-11.0302
gebn	-11.0302
nschafts	-11.0304
tuti	-11.0305
Fisch	-11.0305
andwir	-11.0306
utionen	-11.0309
itarbeit	-11.0309
rände	-11.0309
▁Abst	-11.0309
▁Fors	-11.0309
hervo	-11.031
ndwirt	-11.031
mil	-11.0311
Serv	-11.0314
breite	-11.0316
nanzierun	-11.0316
▁unabhängig	-11.0317
Gel	-11.0317
Abstim	-11.0318
▁Finanzie	-11.0319
mmunikatio	-11.0319
reiten	-11.0321
ücks	-11.0323
▁verbun	-11.0324
kratie	-11.0324
rhundert	-11.0325
nstitutionelle	-11.0325
umfa	-11.0325
▁herv	-11.0327
bewerbs	-11.0328
iften	-11.0328
rmöglicht	-11.0329
antra	-11.033
chnis	-11.033
förde	-11.0333
toren	-11.0333
menha	-11.0335
vice	-11.0335
daher	-11.0336
ehn	-11.0336
ftigung	-11.0337
ntegr	-11.0339
eteil	-11.0339
cksich	-11.034
wissenschaf	-11.0341
▁größere	-11.0341
soz	-11.0343
roj	-11.0344
Komp	-11.0346
ksicht	-11.0346
ron	-11.0346
teilu	-11.0347
Servic	-11.0347
erges	-11.0349
▁festge	-11.035
eröffentl	-11.035
äftigun	-11.0352
▁verantwortlich	-11.0352
▁Servi	-11.0353
Organis	-11.0353
eiterung	-11.0354
rstän	-11.0355
▁geschlossen	-11.0358
ktuell	-11.0361
ereini	-11.0363
▁bra	-11.0363
ahrhunde	-11.0364
hrhunder	-11.0366
▁wesent	-11.0366
nächsten	-11.037
▁Bestimmungen	-11.0371
aktuelle	-11.0372
Kontro	-11.0372
nitiat	-11.0373
▁einzige	-11.0373
Ausschusse	-11.0377
Finanzierun	-11.0377
sät	-11.0381
istorische	-11.0381
ngss	-11.0381
rechts	-11.0382
ssenschaftliche	-11.0382
fordern	-11.0384
▁Aufg	-11.0386
Grundla	-11.0387
sre	-11.0389
uren	-11.039
eschlag	-11.0391
chtsvorschrift	-11.0392
▁Auswirk	-11.0392
▁Lin	-11.0393
folgende	-11.0394
Tatsache	-11.0395
spez	-11.0395
rausforde	-11.0395
erausford	-11.0395
ausforder	-11.0396
weiterun	-11.0396
▁Tatsach	-11.0396
▁dessen	-11.0397
iches	-11.0397
▁ermögliche	-11.0399
Mög	-11.04
läs	-11.0402
gestattet	-11.0402
llgem	-11.0403
bildung	-11.0403
gesp	-11.0403
rmög	-11.0406
▁persön	-11.0407
beispie	-11.0408
Kin	-11.0409
schusse	-11.0409
hinde	-11.041
ungsm	-11.0411
▁4	-11.0411
reinigten	-11.0412
tleis	-11.0413
eutsche	-11.0414
▁zahl	-11.0415
ermöglichen	-11.0415
tzl	-11.0417
▁anzu	-11.0417
▁mehrer	-11.0418
größer	-11.0418
ünft	-11.0419
▁stärk	-11.0419
sland	-11.042
obal	-11.0421
Erfahru	-11.0421
ldu	-11.0422
rsone	-11.0424
ormations	-11.0424
chusses	-11.0425
Vereinbarung	-11.0425
▁Angebot	-11.0426
eniger	-11.0426
nieren	-11.0427
blei	-11.043
pflichtun	-11.0431
flichtung	-11.0432
ierig	-11.0432
Vereini	-11.0432
ektiv	-11.0432
hoffe	-11.0433
gement	-11.0434
disch	-11.0434
milie	-11.0434
tbew	-11.0434
ngenomme	-11.0435
ehenden	-11.0436
wac	-11.0436
▁benötig	-11.0437
▁Ter	-11.0438
sensch	-11.0439
Durc	-11.0439
ereinb	-11.044
olgende	-11.044
▁Verordn	-11.0441
amerika	-11.0443
nrec	-11.0443
▁erwart	-11.0444
ktuelle	-11.0444
Bestimmung	-11.0445
hiedliche	-11.0445
meisten	-11.0446
▁Fer	-11.0447
leib	-11.0447
echnis	-11.0447
▁positi	-11.0447
eltwei	-11.0448
ltweit	-11.0449
▁Wort	-11.0449
trit	-11.0449
erpfl	-11.0452
rgestellt	-11.0453
▁Verfassung	-11.0453
ehalte	-11.0454
▁Bestimmun	-11.0454
nktionier	-11.0456
▁Folge	-11.0457
ekämpfung	-11.0457
mehrere	-11.0458
ermö	-11.0458
▁entscheidende	-11.0458
gesells	-11.0459
ckt	-11.0459
emacht	-11.0461
▁Investi	-11.0461
tbewerbsfähig	-11.0462
entfe	-11.0463
ionier	-11.0463
orie	-11.0463
chich	-11.0465
ausgezeichne	-11.0465
jeder	-11.0466
chzeit	-11.0467
inrich	-11.0467
▁ausgezeichn	-11.0469
▁grundlegen	-11.0469
tarbeiter	-11.0471
▁Geg	-11.0473
grundlegend	-11.0474
kont	-11.0476
größte	-11.0476
▁Techno	-11.0477
gemach	-11.0477
Pri	-11.0479
enschaftl	-11.0479
eistungs	-11.0482
lionen	-11.0482
hicht	-11.0483
▁Menschenrechts	-11.0483
llione	-11.0484
▁verm	-11.0485
nerha	-11.0485
▁nichts	-11.0486
durchgeführt	-11.0486
inrichtungen	-11.0486
niti	-11.0486
▁Verwaltu	-11.0487
sozialen	-11.0488
Viel	-11.0489
umfassende	-11.049
▁not	-11.0492
▁stark	-11.0492
versi	-11.0493
erati	-11.0495
hrscheinlich	-11.0497
rhi	-11.0499
▁auss	-11.0499
tein	-11.0499
Rechtsvorschri	-11.0499
nfal	-11.0501
reinba	-11.0501
usätzliche	-11.0501
Integration	-11.0501
ehun	-11.0501
teressen	-11.0501
▁Vorschriften	-11.0501
nierung	-11.0501
ndigk	-11.0503
staura	-11.0505
▁verbe	-11.0505
erausforderungen	-11.0505
▁Versi	-11.0506
lobal	-11.0507
stlei	-11.0507
▁Regierungs	-11.0507
getr	-11.0507
▁Debatt	-11.051
ngst	-11.0511
▁Konferenz	-11.0513
schiedl	-11.0513
itiati	-11.0513
chiedli	-11.0514
zuf	-11.0515
▁Arti	-11.0516
erpr	-11.0516
esproch	-11.0516
hiedlic	-11.0516
wünsc	-11.0516
Rah	-11.0516
Verant	-11.0518
seite	-11.0519
estatte	-11.052
nnerh	-11.0521
ebr	-11.0522
mber	-11.0522
tsvorschriften	-11.0522
▁Wäh	-11.0522
mpl	-11.0522
Stu	-11.0523
verbes	-11.0523
Indust	-11.0524
wissenschaftl	-11.0524
▁Indus	-11.0525
Debatte	-11.0525
▁näch	-11.0525
▁Benutzer	-11.0526
ewährleisten	-11.0528
sserung	-11.0528
enstl	-11.0529
nzelne	-11.0531
geschla	-11.0532
edeutet	-11.0533
gnis	-11.0536
tiativ	-11.0537
innenmarkt	-11.0537
elbstverstän	-11.054
lbstverständ	-11.054
nungen	-11.0541
chliche	-11.0541
oje	-11.0542
▁nachhaltige	-11.0543
▁weiteren	-11.0544
▁Ausdruck	-11.0545
adition	-11.0546
▁mitt	-11.0547
nanziel	-11.0547
raditio	-11.0547
nzier	-11.0548
▁Aufga	-11.0548
rbeitsplätz	-11.0549
ebu	-11.0549
beitsplätze	-11.055
anderer	-11.0551
vorschrift	-11.0551
▁folge	-11.0552
▁schriftl	-11.0553
nhalte	-11.0553
ebenfal	-11.0553
ui	-11.0554
ünsche	-11.0554
▁größt	-11.0555
ermitt	-11.0557
wichtigsten	-11.0557
ssensc	-11.0558
zimmer	-11.056
▁funktion	-11.056
Aufgab	-11.0561
isat	-11.0561
▁Verwendung	-11.0561
▁Sprache	-11.0564
natü	-11.0564
▁Spe	-11.0564
Gen	-11.0565
ton	-11.0565
▁amerikanis	-11.0566
Fortsch	-11.0567
rbra	-11.0567
hlt	-11.0569
▁5	-11.0571
go	-11.0571
rreicht	-11.0572
tm	-11.0574
onel	-11.0578
samte	-11.0578
Kommunikation	-11.058
rvic	-11.0581
arbeiter	-11.0581
ndhe	-11.0583
reinigt	-11.0583
äsidenten	-11.0584
interes	-11.0585
nforderung	-11.0586
Investit	-11.0587
erklär	-11.0587
istorisch	-11.0588
ränder	-11.0588
Geschich	-11.0589
eutu	-11.0589
▁Kommunikatio	-11.059
rojekte	-11.0591
euge	-11.0592
liches	-11.0593
▁Erg	-11.0595
örderun	-11.0595
wissenschaftli	-11.0595
▁beka	-11.0595
usgestattet	-11.0596
Proz	-11.0598
ntwicklungslände	-11.0598
vestitionen	-11.0599
inschafts	-11.0599
nötig	-11.0599
twicklungsländer	-11.0599
ebra	-11.06
▁kurz	-11.0602
spräsiden	-11.0604
ail	-11.0604
htsvorschriften	-11.0605
veran	-11.0605
dlage	-11.0606
arantie	-11.061
freundlich	-11.061
liere	-11.0611
vielleic	-11.0613
▁Auch	-11.0613
tstell	-11.0615
hlun	-11.0616
lärung	-11.0616
ritä	-11.0616
▁Hotels	-11.0616
reinbarung	-11.0619
▁berü	-11.0621
▁gla	-11.0621
egierungen	-11.0623
weiterh	-11.0623
verm	-11.0623
chtigst	-11.0624
▁Dieser	-11.0625
tlichke	-11.0627
eitige	-11.0627
ffentlichkeit	-11.0627
dwirtsch	-11.0627
ehan	-11.0629
zl	-11.063
htigste	-11.063
merikanis	-11.063
▁Angeleg	-11.063
svors	-11.0631
Wachstu	-11.0631
▁Wachst	-11.0631
kur	-11.0631
läss	-11.0633
roche	-11.0633
rifte	-11.0633
waltung	-11.0633
rka	-11.0634
andwirts	-11.0634
ndlag	-11.0635
▁Dritt	-11.0635
erwaltu	-11.0635
Angelege	-11.0635
atspräsident	-11.0636
sicherhei	-11.0636
esichts	-11.0636
mf	-11.0636
Ergebniss	-11.0637
rinn	-11.0637
senschaftlich	-11.0637
ssenschaftlic	-11.0637
▁stärke	-11.0638
latz	-11.0638
▁Orga	-11.064
▁Arbeitsplä	-11.0642
erände	-11.0642
ichterstatterin	-11.0643
begrü	-11.0645
Sy	-11.0647
▁Frieden	-11.0649
dnete	-11.0649
egelung	-11.0651
ogie	-11.0651
dess	-11.0655
mfassend	-11.0655
utzung	-11.0656
ndwirtsc	-11.0659
Auto	-11.066
▁koste	-11.066
staatliche	-11.0661
betriff	-11.0662
▁verbessern	-11.0662
ausgestatte	-11.0664
hus	-11.0664
hwi	-11.0664
Fischer	-11.0668
▁Standar	-11.0668
▁darstell	-11.0668
urs	-11.0668
wegen	-11.0669
lische	-11.067
olgreich	-11.0673
rfolgrei	-11.0674
teili	-11.0674
▁einschließ	-11.0676
▁danke	-11.0678
▁Gericht	-11.0681
Technol	-11.0682
▁dürfen	-11.0682
haus	-11.0682
rspr	-11.0684
sonen	-11.0684
fähigkeit	-11.0684
essi	-11.0684
Organ	-11.0684
Gew	-11.0685
ndungen	-11.0685
tauran	-11.0685
zahlrei	-11.0686
Lebensmittel	-11.0688
ortschritte	-11.0688
aurant	-11.0688
▁Lebensmitte	-11.0689
▁Landwirtsc	-11.0689
▁Sol	-11.0689
▁Wasse	-11.069
vere	-11.0691
begrüß	-11.0691
katio	-11.0693
tzer	-11.0695
orga	-11.0695
ufmerksamkeit	-11.0696
rsönliche	-11.0697
ordneten	-11.0698
▁Notwendig	-11.0698
gla	-11.0698
ulier	-11.07
▁Gäste	-11.0702
▁Situ	-11.0702
Wasser	-11.0703
industrie	-11.0704
tigste	-11.0707
Partn	-11.0708
Rege	-11.0709
rbeitnehme	-11.071
also	-11.071
bstverständl	-11.0711
scheidend	-11.0711
issenschaftli	-11.0712
enü	-11.0712
beitnehmer	-11.0714
rbeitspl	-11.0714
▁weltw	-11.0715
ertung	-11.0715
gleichzei	-11.0716
terr	-11.0717
sati	-11.0718
Invest	-11.0718
Erweiter	-11.0718
esehe	-11.0719
▁daran	-11.0719
hrem	-11.0721
hrlic	-11.0722
sowoh	-11.0723
steme	-11.0724
▁sowo	-11.0724
abilität	-11.0724
▁ausgestatt	-11.0724
mod	-11.0726
rmitt	-11.0726
wieri	-11.0727
roffen	-11.073
▁Inves	-11.073
olleginne	-11.0731
angenomme	-11.0733
ufgrun	-11.0733
▁wissenschaftli	-11.0733
fgrund	-11.0734
▁Monat	-11.0734
ervo	-11.0734
teilen	-11.0734
iziert	-11.0735
nga	-11.0736
ikat	-11.0737
rwart	-11.0737
▁angenomm	-11.0738
geseh	-11.0738
▁Chi	-11.0739
einh	-11.0739
unabhängig	-11.0743
nzig	-11.0745
▁interes	-11.0745
nftig	-11.0745
spol	-11.0746
▁Verg	-11.0747
alles	-11.0748
▁will	-11.0749
Internatio	-11.0749
enann	-11.075
weltwe	-11.075
▁ausgezeichnete	-11.075
rnet	-11.0751
▁könnten	-11.0751
nträg	-11.0752
enschaftlich	-11.0753
hic	-11.0753
Standard	-11.0756
ndlichen	-11.0756
Wettb	-11.0758
sunge	-11.0759
ngesicht	-11.076
▁Herausfo	-11.0761
bindu	-11.0761
Herausfor	-11.0762
assend	-11.0763
▁Internati	-11.0763
Situa	-11.0763
esagt	-11.0763
mfassen	-11.0766
▁Projekte	-11.0766
dels	-11.0767
rdne	-11.0768
rantwortl	-11.0768
twortlich	-11.0768
beiden	-11.0769
ürl	-11.0769
Jahrhund	-11.077
lder	-11.0771
Antwort	-11.0773
hol	-11.0776
bend	-11.0776
mode	-11.0776
ehandlung	-11.0776
▁notwendige	-11.0779
▁Währ	-11.0779
häfts	-11.078
edliche	-11.078
▁Kommissarin	-11.0784
eschrän	-11.0784
äss	-11.0787
bezüglich	-11.0788
▁verantwor	-11.0796
itze	-11.0797
haltun	-11.0797
rpfli	-11.0797
▁Schwierigkeiten	-11.0797
erfassung	-11.0797
▁Erfolg	-11.0797
gerun	-11.0798
ikati	-11.0798
▁Mehr	-11.0799
Fischerei	-11.0801
▁Fischere	-11.0801
▁Nicht	-11.0802
kau	-11.0804
erfolgre	-11.0806
ämlich	-11.0806
ünfti	-11.0808
nolo	-11.0809
Artik	-11.0809
▁erfolgr	-11.0812
▁Schwierigkeit	-11.0812
igent	-11.0814
▁betrif	-11.0814
▁forder	-11.0816
▁Dan	-11.0816
wertun	-11.0818
nander	-11.0819
inande	-11.082
verein	-11.082
▁Aussp	-11.0822
artige	-11.0824
▁erklär	-11.0826
einand	-11.0827
▁Text	-11.0829
Beis	-11.0829
dor	-11.0829
▁Wä	-11.0829
Auße	-11.0829
▁sollen	-11.083
▁sprech	-11.0831
▁Auß	-11.0832
nzierung	-11.0833
chnitt	-11.0833
chwie	-11.0835
rkte	-11.0835
▁pers	-11.0837
▁folgende	-11.0837
arum	-11.0837
ängi	-11.0839
▁Rates	-11.084
nvestit	-11.0843
sionen	-11.0843
igsten	-11.0844
llier	-11.0844
ortsch	-11.0844
▁Betrieb	-11.0844
anagement	-11.0844
▁Mus	-11.0845
▁kosten	-11.0846
allerdin	-11.0846
ächli	-11.0847
▁allerdi	-11.0847
derze	-11.085
chlecht	-11.0851
Jahres	-11.0852
präsid	-11.0853
▁Freiheit	-11.0853
leite	-11.0853
rrn	-11.0854
slan	-11.0855
dne	-11.0855
kauf	-11.0856
▁Ihren	-11.0857
nachhaltig	-11.0858
agemen	-11.0858
Kollegi	-11.0858
vollstän	-11.0859
darf	-11.0859
ikanis	-11.086
erbund	-11.086
ommun	-11.0861
onie	-11.0862
regi	-11.0865
▁techni	-11.0866
▁Weiter	-11.0866
konnte	-11.0867
gesichts	-11.0869
▁Umsetz	-11.0871
umfasse	-11.0874
▁nehme	-11.0874
▁hinsichtl	-11.0876
▁nachhalti	-11.0876
hlusselwort	-11.0877
rleist	-11.0877
kerung	-11.0877
▁Wet	-11.0877
ruppen	-11.0877
▁Sozia	-11.0877
rgeschla	-11.0878
eigentlich	-11.0878
beid	-11.0878
enfa	-11.0878
nstitutionell	-11.0878
▁Tagesordnung	-11.0878
▁Lis	-11.0879
chhalti	-11.088
hhaltig	-11.088
riere	-11.0881
achhalti	-11.0882
usspr	-11.0882
rege	-11.0882
Sozial	-11.0883
herun	-11.0883
▁hal	-11.0884
ersion	-11.0885
esserun	-11.0886
ünftige	-11.0886
▁halt	-11.0886
nschließlich	-11.0886
▁ihne	-11.0887
chlüsse	-11.0887
nthalten	-11.0889
▁rei	-11.0889
orische	-11.089
▁konnt	-11.089
rale	-11.089
nkte	-11.0891
Programme	-11.0892
eranstaltun	-11.0893
ranstaltung	-11.0893
Förderung	-11.0894
lständi	-11.0894
taltung	-11.0894
▁Förderun	-11.0894
pfli	-11.0894
▁schlie	-11.0895
staltun	-11.0895
ichtigs	-11.0896
emeine	-11.0896
▁Jahrhun	-11.0896
grundlegende	-11.0898
usspra	-11.09
fmerksam	-11.0902
▁gesamten	-11.0902
ortun	-11.0902
rücksi	-11.0905
gegenwärt	-11.0906
ätzliche	-11.0906
bleiben	-11.0907
tändlich	-11.0907
erbre	-11.0907
stition	-11.0908
eutli	-11.0908
vestiti	-11.0908
renzen	-11.0912
moderne	-11.0914
rbeitsp	-11.0914
▁gegeben	-11.0914
svo	-11.0915
Wett	-11.0916
tellungen	-11.0918
Veranstaltung	-11.0918
▁würden	-11.0919
teme	-11.0919
ktivit	-11.092
unkte	-11.092
▁Kultu	-11.092
▁richtige	-11.0922
indes	-11.0923
xt	-11.0924
000	-11.0924
Ausspr	-11.0925
▁Instru	-11.0925
pek	-11.0926
▁Schlusse	-11.0927
isierte	-11.0928
ktivitäten	-11.0928
tabil	-11.0928
standen	-11.0929
▁Veranstaltun	-11.0929
eiz	-11.0929
proche	-11.0929
▁vollstän	-11.0929
▁tun	-11.093
ille	-11.093
chno	-11.0931
hunder	-11.0931
Binnenmark	-11.0932
positiv	-11.0933
einschließli	-11.0933
▁einschließl	-11.0933
angs	-11.0934
nce	-11.0939
▁berücksichtigt	-11.094
smitt	-11.0941
egional	-11.0942
gleichen	-11.0943
ntegration	-11.0944
Beit	-11.0946
▁Einricht	-11.0948
egu	-11.0949
▁Funk	-11.0949
rsetz	-11.0951
lauf	-11.0951
ack	-11.0952
▁Konze	-11.0954
▁Einführung	-11.0955
okumen	-11.0956
hzeiti	-11.0957
sundheits	-11.0957
inm	-11.0958
utsche	-11.096
kument	-11.096
toff	-11.096
ngele	-11.0961
onfere	-11.0961
Kultur	-11.0962
nferen	-11.0962
rve	-11.0965
verkeh	-11.0965
rom	-11.0967
pfl	-11.0968
estimmu	-11.0969
eitsp	-11.0971
▁Koste	-11.0971
riftlich	-11.0972
Öffentlichkei	-11.0973
▁Öffentlichke	-11.0974
icherweis	-11.0976
rlan	-11.0976
rbindu	-11.0976
reie	-11.0976
kü	-11.0977
nbar	-11.0978
elf	-11.0978
hse	-11.0979
Unternehmens	-11.0979
schlan	-11.098
▁Fort	-11.098
licherwei	-11.0982
entf	-11.0982
nübe	-11.0982
▁Hier	-11.0983
▁Verkeh	-11.0984
▁genann	-11.0984
anzu	-11.0985
wahrscheinlich	-11.0986
▁Standpunk	-11.0987
▁verhinder	-11.0987
Verkehr	-11.0988
Standpunkt	-11.0988
merikan	-11.0989
amerikani	-11.0989
andar	-11.0989
äti	-11.0989
Kosten	-11.099
tent	-11.099
orgeschl	-11.099
igst	-11.0992
▁verpflichte	-11.0992
▁Dam	-11.0993
bunde	-11.0993
emi	-11.0993
itua	-11.0993
▁veran	-11.0994
chge	-11.0994
schwieri	-11.0998
tua	-11.0998
Verbind	-11.0999
etroff	-11.1001
lement	-11.1001
Ind	-11.1002
anträg	-11.1002
rkehrs	-11.1003
zep	-11.1004
▁Verbin	-11.1005
rgange	-11.1006
▁verste	-11.1008
▁keinen	-11.1008
ispiels	-11.1009
rifft	-11.1009
latio	-11.101
stellunge	-11.1011
gezeichnet	-11.1013
triff	-11.1014
▁Beding	-11.1014
eteili	-11.1015
Insti	-11.1015
sproch	-11.1016
▁Abge	-11.1018
eind	-11.1018
haffung	-11.1019
▁Forts	-11.1019
eer	-11.1021
ßn	-11.1022
lug	-11.1022
ahru	-11.1023
▁Zwei	-11.1023
anst	-11.1023
völker	-11.1023
▁Kli	-11.1025
besseru	-11.1025
röße	-11.1025
ebnisse	-11.1026
chließend	-11.1027
▁Bezieh	-11.1028
mwe	-11.1028
ura	-11.1028
ntha	-11.1029
verfahr	-11.1031
▁Voraussetzung	-11.1032
produkt	-11.1033
brei	-11.1033
nblick	-11.1035
ngeleg	-11.1036
▁Kons	-11.1037
artnerschaft	-11.1039
▁versu	-11.1039
espr	-11.1039
enannte	-11.104
wendigkeit	-11.1041
dhei	-11.1041
ntschaft	-11.1042
▁Desha	-11.1043
einigte	-11.1044
scheidungen	-11.1047
Tran	-11.1047
▁angemessen	-11.1047
▁Schaffung	-11.1049
svorschrift	-11.1049
eun	-11.1049
hnis	-11.105
▁Hinblic	-11.105
▁Benutz	-11.105
Hinblick	-11.1051
▁Rest	-11.1052
ünsc	-11.1052
red	-11.1052
stoff	-11.1055
▁eb	-11.1056
berzeug	-11.1056
▁betreffen	-11.1056
dus	-11.1056
Schlussel	-11.1057
atü	-11.1057
hwier	-11.1057
rechtlich	-11.1058
schritte	-11.1058
reihe	-11.106
gebun	-11.1061
peziell	-11.1062
rwendet	-11.1062
erwart	-11.1062
hnlich	-11.1063
usätzl	-11.1064
nternehmens	-11.1064
stitutionelle	-11.1064
▁umf	-11.1066
▁Präsidents	-11.1068
Demok	-11.1068
▁Bewe	-11.107
ehungen	-11.107
mpfe	-11.107
▁Forderung	-11.1071
senschaftliche	-11.1071
dort	-11.1073
isa	-11.1074
ettb	-11.1075
▁schwer	-11.1075
erver	-11.1076
lne	-11.1077
skussion	-11.1077
onz	-11.1078
▁seinem	-11.1079
ungsb	-11.1079
lsweise	-11.1081
otw	-11.1082
möglichkeit	-11.1082
▁Klima	-11.1083
▁hina	-11.1083
onta	-11.1085
Notwendigk	-11.1087
entru	-11.1087
derli	-11.1087
uh	-11.1088
tspräsident	-11.1088
esuc	-11.1089
nnovati	-11.1089
lichtung	-11.1089
reundlich	-11.109
spielsw	-11.1092
einzelnen	-11.1094
eßung	-11.1094
ießun	-11.1095
elsweis	-11.1096
iges	-11.1096
rtschr	-11.1097
hichte	-11.1097
sächl	-11.1098
fn	-11.1101
eor	-11.1101
▁Volk	-11.1103
▁traditionell	-11.1104
▁öf	-11.1105
erücks	-11.1106
erset	-11.1106
▁akzeptier	-11.1106
igungs	-11.1107
begrüße	-11.1107
▁Stabilität	-11.1108
Regierunge	-11.1111
ekämpf	-11.1112
täti	-11.1113
schön	-11.1113
ttbe	-11.1114
gne	-11.1114
geru	-11.1114
thalten	-11.1116
▁Inhalt	-11.1117
fragen	-11.1117
Unse	-11.1118
ließu	-11.112
amte	-11.1123
▁dah	-11.1124
Handels	-11.1124
schrä	-11.1124
ansparen	-11.1125
bhän	-11.1126
egionen	-11.1126
erständl	-11.1127
tarbeite	-11.1128
orisch	-11.1128
ranspare	-11.1129
rständli	-11.1131
angemessen	-11.1131
▁Geschi	-11.1131
Web	-11.1131
renden	-11.1132
verantwo	-11.1132
hische	-11.1132
htsvorschrift	-11.1132
Verhan	-11.1132
▁zwar	-11.1133
ehle	-11.1133
dir	-11.1134
moder	-11.1134
ket	-11.1135
Prozes	-11.1135
artig	-11.1136
ommunikat	-11.1137
einba	-11.1139
äußer	-11.1139
Verfah	-11.114
ologis	-11.114
trags	-11.114
ehörden	-11.114
ächsten	-11.114
usgezeichne	-11.1141
iellei	-11.1141
Landwir	-11.1142
▁Landwi	-11.1142
sgezeichnet	-11.1143
▁Zent	-11.1144
▁europäischer	-11.1145
Abe	-11.1146
Frankreich	-11.1147
iteren	-11.1148
ntrum	-11.115
rausforderungen	-11.115
deutl	-11.115
rikanischen	-11.115
entschaf	-11.1151
endlich	-11.1151
▁hervorragend	-11.1151
Ger	-11.1152
▁Terr	-11.1153
echtsvorschri	-11.1153
rfassung	-11.1153
▁Währung	-11.1154
ompl	-11.1155
chrän	-11.1155
▁kommt	-11.1157
hränk	-11.1157
Finanzi	-11.1158
Sprach	-11.1158
Bestimmungen	-11.1159
nhang	-11.116
orgesch	-11.1161
entscheidende	-11.1161
iehunge	-11.1161
unterne	-11.1162
▁Sprac	-11.1164
Ansich	-11.1164
Menschenrechts	-11.1164
▁Ziele	-11.1164
▁China	-11.1165
Einrichtu	-11.1166
mmunikati	-11.1166
riti	-11.1168
äll	-11.1169
▁behandel	-11.117
ohe	-11.1171
nisationen	-11.1171
digung	-11.1172
▁Benutze	-11.1173
elleic	-11.1173
lleich	-11.1173
▁enthal	-11.1173
▁Finanzier	-11.1175
anisatione	-11.1176
chstu	-11.1176
richtungen	-11.1178
richtige	-11.1182
Leistun	-11.1182
urü	-11.1182
▁indem	-11.1183
Softwa	-11.1186
▁betrachte	-11.1186
ären	-11.1186
▁bestehende	-11.119
Verpflich	-11.1191
▁Leistu	-11.1192
▁Hil	-11.1193
hrleis	-11.1194
ungsver	-11.1194
embe	-11.1196
egierungs	-11.1196
äsidents	-11.1197
etriff	-11.1197
tsvorschrift	-11.1198
rding	-11.1199
llion	-11.1199
herzustellen	-11.12
tützt	-11.12
möglichkeiten	-11.12
eiterh	-11.1202
ifizi	-11.1203
regel	-11.1203
gnisse	-11.1204
undh	-11.1204
▁Verfass	-11.1205
▁mode	-11.1208
prüf	-11.1209
berücksichtigt	-11.121
erü	-11.1211
chland	-11.1214
▁Verpflichtungen	-11.1214
fahrun	-11.1216
onne	-11.1216
einigt	-11.1219
inzelnen	-11.1219
▁historis	-11.1219
utig	-11.1221
ikanischen	-11.1222
inw	-11.1222
dari	-11.1223
▁beha	-11.1223
nrich	-11.1224
▁geschlosse	-11.1227
▁Aktivitäten	-11.1227
ebsite	-11.1228
tanda	-11.1228
tsäch	-11.1228
erschei	-11.1231
isieren	-11.1233
tande	-11.1234
gebung	-11.1234
▁Behörde	-11.1235
iative	-11.1238
ekan	-11.124
erns	-11.1241
wicklungsländer	-11.1242
größe	-11.1243
rfahru	-11.1243
twicklungslände	-11.1243
▁Fun	-11.1244
reichend	-11.1244
ährlei	-11.1244
ewährl	-11.1245
▁Rechtsvorsch	-11.1245
beim	-11.1246
enigen	-11.1247
▁schwier	-11.1247
ersuchen	-11.1249
▁Softw	-11.125
tuat	-11.1252
dat	-11.1254
tnis	-11.1254
üch	-11.1254
▁Anforderung	-11.1254
tschr	-11.1254
olc	-11.1255
unächst	-11.1256
tarbeit	-11.1257
nglic	-11.1258
schlech	-11.1259
Zentr	-11.126
bewerbsfähig	-11.1261
▁Mod	-11.1261
egenwärt	-11.1261
anzen	-11.1261
▁angen	-11.1262
enwärtig	-11.1262
▁ersch	-11.1262
stark	-11.1262
lisiert	-11.1263
ettbewerbsfä	-11.1264
▁unabhängi	-11.1266
▁Ban	-11.1266
rzustellen	-11.1266
▁Position	-11.1267
ollegin	-11.1267
ahres	-11.1269
beschr	-11.1269
rstellt	-11.1269
artei	-11.1271
sitio	-11.1271
amil	-11.1272
uati	-11.1274
hinau	-11.1274
nziel	-11.1275
tehenden	-11.1276
lieb	-11.1276
rundlegend	-11.1279
cherung	-11.128
hstum	-11.128
▁arbe	-11.128
aatlich	-11.128
organisation	-11.1281
▁gewi	-11.1282
übern	-11.1283
illio	-11.1285
wichtigen	-11.1285
wahr	-11.1285
▁Verwalt	-11.1285
mäß	-11.1287
▁vergangene	-11.1288
esent	-11.1288
sucht	-11.129
Vorschriften	-11.1292
wissenscha	-11.1292
hnol	-11.1293
nkre	-11.1294
ehrer	-11.1294
itrag	-11.1294
institutionelle	-11.1295
immungen	-11.1295
▁Ers	-11.1297
ntersuch	-11.1297
▁Vorschrifte	-11.1297
reini	-11.1299
ditio	-11.1301
▁Vertrags	-11.1302
▁zusätz	-11.1302
▁einschlie	-11.1302
▁Richtu	-11.1305
▁global	-11.1305
geric	-11.1305
zusätzl	-11.1305
▁bestehend	-11.1305
▁gemac	-11.1308
effizien	-11.1311
enschaftliche	-11.1311
nheiten	-11.1311
▁Vereinbaru	-11.1311
Du	-11.1312
erdem	-11.1312
brac	-11.1313
Konf	-11.1315
mir	-11.1316
inigen	-11.1317
svor	-11.1317
Richtun	-11.1317
▁Präsidenten	-11.1318
dings	-11.1319
▁Schi	-11.1319
▁Ex	-11.132
▁Familien	-11.1321
▁globale	-11.1321
ufgab	-11.1322
▁Disk	-11.1323
▁Bekämpfung	-11.1324
ain	-11.1324
▁lä	-11.1325
▁Förder	-11.1327
▁ausschließlich	-11.1327
▁Lö	-11.1328
▁Änderungen	-11.1328
nthalte	-11.1328
reiben	-11.1328
▁ausgezeich	-11.1329
schnitt	-11.1329
undla	-11.133
ischerei	-11.133
▁funktioni	-11.133
▁Rück	-11.1331
Gebi	-11.1331
ebatte	-11.1331
ssyste	-11.1331
insti	-11.1332
lso	-11.1332
posi	-11.1333
chterstatterin	-11.1333
▁konkret	-11.1333
▁besten	-11.1333
ausgezeichn	-11.1335
nrichtungen	-11.1336
Verk	-11.1336
icherun	-11.1336
utzer	-11.1337
ätte	-11.1337
urchgeführt	-11.1338
tionie	-11.1338
▁dort	-11.134
Strat	-11.1341
rmöglichen	-11.1341
ärt	-11.1341
fgabe	-11.1341
▁Fahr	-11.1342
chine	-11.1343
mmuni	-11.1343
igentlich	-11.1344
ksam	-11.1344
▁spr	-11.1346
ätigkeit	-11.1346
estau	-11.1346
gerin	-11.1347
svorsch	-11.1347
iterhi	-11.1349
leichz	-11.1349
▁Wissen	-11.135
inrichtunge	-11.135
ermögliche	-11.135
schü	-11.1351
lker	-11.1351
fizien	-11.1352
ämpf	-11.1352
ktionier	-11.1353
abi	-11.1353
rscheinlich	-11.1353
ezüglich	-11.1354
iegend	-11.1354
▁gestell	-11.1355
munikatio	-11.1355
unikation	-11.1355
htigt	-11.1356
strat	-11.1357
bkom	-11.1359
alie	-11.136
▁Beitritt	-11.1362
terhin	-11.1362
ungsbe	-11.1362
▁Grup	-11.1363
nnung	-11.1364
ml	-11.1364
▁denke	-11.1365
itteln	-11.1366
rksa	-11.1366
ehrere	-11.1366
aufgrun	-11.1367
▁Kra	-11.1368
ahlung	-11.137
Cha	-11.137
▁sogar	-11.1371
bni	-11.1371
eko	-11.1374
Version	-11.1374
▁Gef	-11.1376
▁Mai	-11.1376
▁einsch	-11.1376
nserem	-11.1379
▁bleiben	-11.1379
rüf	-11.1379
Kommunikatio	-11.138
riva	-11.138
▁macht	-11.1382
rbeitun	-11.1382
▁Kommunikati	-11.1383
▁mod	-11.1383
beitung	-11.1383
arbeitu	-11.1383
hät	-11.1385
ros	-11.1386
senden	-11.1387
mäßig	-11.1388
anzierun	-11.1388
rfass	-11.1389
ganze	-11.1389
erziel	-11.1389
Gege	-11.139
änger	-11.139
rhält	-11.139
chnu	-11.139
Ihrer	-11.139
stellte	-11.1392
▁welt	-11.1394
dauer	-11.1394
tren	-11.1395
elbstverstä	-11.1395
währleisten	-11.1395
ehandel	-11.1396
mfa	-11.1396
▁versteh	-11.1396
mfassende	-11.1397
test	-11.1398
hliche	-11.1398
deshalb	-11.1398
ingt	-11.1399
Grupp	-11.1399
egenden	-11.1401
Reform	-11.1402
ehörd	-11.1402
iva	-11.1403
taatliche	-11.1404
▁Diskuss	-11.1404
▁Refor	-11.1404
zustel	-11.1404
Verfassung	-11.1405
nachhaltige	-11.1405
chön	-11.1406
nfr	-11.1406
▁Q	-11.1406
andeln	-11.1407
▁Versio	-11.1407
gerade	-11.1408
bstverständ	-11.1408
lreich	-11.1408
▁Grenz	-11.1408
▁Zugan	-11.1408
bedingung	-11.1409
lbstverstän	-11.141
Zugang	-11.1412
▁wes	-11.1412
▁Fami	-11.1412
▁größe	-11.1413
ndem	-11.1418
▁wissenschaftl	-11.1418
Famil	-11.1419
Fische	-11.1419
künft	-11.142
grundlegen	-11.1422
bgeor	-11.1422
darstell	-11.1422
▁Gesu	-11.1423
gestatt	-11.1423
gebr	-11.1425
erdin	-11.1425
mfass	-11.1425
ffentlichkei	-11.1426
ichtigsten	-11.1426
fentlichkeit	-11.1427
gration	-11.1427
alisiert	-11.1428
▁Russlan	-11.1428
ndard	-11.1429
xi	-11.1429
Regionen	-11.1429
Russland	-11.1429
nkommen	-11.1429
entwickeln	-11.1429
storische	-11.1431
▁Herstell	-11.1431
▁Nut	-11.1431
orbe	-11.1432
▁han	-11.1433
ock	-11.1434
▁Regione	-11.1435
ssenschaftli	-11.1435
senschaftlic	-11.1436
▁stimm	-11.1436
wachs	-11.1436
smit	-11.1437
▁Gründ	-11.1437
ausgezeichnete	-11.1437
schö	-11.1438
enüb	-11.1439
Schwierigkeiten	-11.1442
▁Geld	-11.1442
▁Integrati	-11.1442
cherweis	-11.1442
Verbess	-11.1443
▁Besuch	-11.1443
ügen	-11.1443
▁Verl	-11.1444
▁Verbes	-11.1444
Mitarbei	-11.1444
herweise	-11.1444
ermit	-11.1445
fernt	-11.1445
logis	-11.1445
kennen	-11.1445
ranstalt	-11.1446
▁Mitarbe	-11.1446
ebn	-11.1447
Dieses	-11.1448
nisie	-11.1449
eranstal	-11.1449
onier	-11.1449
sidenten	-11.145
erhäl	-11.145
erord	-11.1453
Schul	-11.1454
Hilfe	-11.1454
tore	-11.1455
Regierungs	-11.1458
einigten	-11.1459
rlie	-11.1459
äche	-11.146
üglich	-11.146
assende	-11.146
lkerun	-11.1464
Dokumen	-11.1465
ppen	-11.1465
iehu	-11.1465
▁automatisch	-11.1467
bedin	-11.1467
Webs	-11.1467
kanischen	-11.1468
schrieben	-11.1468
ebensmittel	-11.1468
usgestatte	-11.1469
erik	-11.1469
▁gerad	-11.1469
inaus	-11.147
funkti	-11.147
fekt	-11.1471
strategi	-11.1471
weiteren	-11.1472
inblick	-11.1472
rsuche	-11.1473
▁Op	-11.1473
Kontr	-11.1474
ffiz	-11.1474
ranzösisch	-11.1474
rtigen	-11.1474
rbunde	-11.1475
gebniss	-11.1475
uswirk	-11.1476
tatsächl	-11.1477
utschl	-11.1477
▁tatsäch	-11.1478
▁Einsatz	-11.1479
genan	-11.1479
ngelege	-11.1479
▁Dokume	-11.1479
ritten	-11.148
möglicht	-11.1482
llständ	-11.1482
hrungen	-11.1483
▁vorgeschlagene	-11.1483
tzunge	-11.1484
Websit	-11.1484
iegende	-11.1485
▁muß	-11.1486
Funkt	-11.1487
vesti	-11.1487
deutet	-11.1487
änderung	-11.1487
▁gestimmt	-11.1487
henr	-11.1488
▁Partei	-11.1488
Stel	-11.1489
menh	-11.1489
einze	-11.149
ölkeru	-11.1491
ändli	-11.1492
Finanzie	-11.1492
▁Websi	-11.1492
ichzei	-11.1493
▁Bezug	-11.1493
Nutz	-11.1494
▁Aktion	-11.1495
fmerksamkeit	-11.1496
strum	-11.1497
▁Nati	-11.1497
Bestimmun	-11.1498
ivat	-11.1498
wünsche	-11.1499
erlei	-11.1499
rleiste	-11.15
Gesun	-11.15
ikan	-11.1501
beitsplätz	-11.1502
eitsplätze	-11.1504
inhalt	-11.1504
eichze	-11.1504
▁französische	-11.1506
▁Bestimmu	-11.1507
Gl	-11.1508
ollstän	-11.1509
rteile	-11.1513
Geset	-11.1513
▁Aktivität	-11.1513
Verwendung	-11.1514
vention	-11.1517
▁amerikani	-11.1518
erarbe	-11.1518
▁Öffentlich	-11.152
not	-11.1521
vest	-11.1522
▁vergangen	-11.1522
fäl	-11.1523
Demo	-11.1523
kulturelle	-11.1524
▁Go	-11.1525
benfal	-11.1525
assi	-11.1525
eröffent	-11.1525
seitig	-11.1525
▁Resta	-11.1525
fassend	-11.1527
eichte	-11.1527
röffentl	-11.1527
tali	-11.1528
rikan	-11.1528
ekom	-11.1529
umfas	-11.1531
▁entwickeln	-11.1532
▁Untersuchung	-11.1532
orten	-11.1532
gerecht	-11.1534
▁Außerdem	-11.1535
eba	-11.1535
chau	-11.1536
Beschä	-11.1539
Restau	-11.1539
▁fina	-11.1539
sgestattet	-11.1539
Geschic	-11.154
rtik	-11.154
▁meis	-11.1541
▁bessere	-11.1542
▁Erfah	-11.1542
Erfahr	-11.1543
Konferenz	-11.1543
gentlich	-11.1544
ukun	-11.1545
▁Behörden	-11.1545
rwarte	-11.1545
▁0	-11.1546
urz	-11.1546
industri	-11.1546
▁kompl	-11.1546
estattet	-11.1548
▁anderer	-11.1548
▁regionale	-11.1549
tabili	-11.1549
elun	-11.1549
gestim	-11.155
▁dürf	-11.155
▁Konferen	-11.1551
Schwierigkeit	-11.1551
ittl	-11.1552
estitionen	-11.1552
ergleich	-11.1553
ndest	-11.1554
Unsere	-11.1554
▁Vereinbar	-11.1556
hörde	-11.1556
Lebensmitte	-11.1556
▁Lebensmitt	-11.1557
ahlrei	-11.1558
versu	-11.156
▁Vorschrift	-11.1561
nann	-11.1561
rgestell	-11.1561
tivit	-11.1562
chhaltige	-11.1563
erhältnis	-11.1563
gewährl	-11.1563
▁Partnerschaft	-11.1563
sfähig	-11.1564
ntfe	-11.1565
oraussetzung	-11.1565
▁Rol	-11.1565
rumen	-11.1565
einfache	-11.1567
rsit	-11.1569
annten	-11.1569
läge	-11.157
erausfor	-11.1571
ausforde	-11.1571
mbe	-11.1571
rausford	-11.1572
▁einfache	-11.1572
persön	-11.1573
tracht	-11.1573
lik	-11.1574
usforder	-11.1574
▁Priorität	-11.1574
ption	-11.1574
nor	-11.1575
erzeichn	-11.1575
öß	-11.1576
▁auszu	-11.1576
trume	-11.1576
Abkomm	-11.1577
gelun	-11.1578
Natio	-11.1578
dest	-11.1578
▁Angele	-11.1579
eitlich	-11.158
▁Stelle	-11.158
betracht	-11.1581
stverständl	-11.1581
eichend	-11.1583
vorh	-11.1583
eschla	-11.1585
ressen	-11.1585
innenmark	-11.1586
einschließ	-11.1587
▁gera	-11.1587
▁allge	-11.1589
Struktu	-11.159
nnenmarkt	-11.159
▁bedeuten	-11.159
dürfen	-11.159
▁Entwicklungsl	-11.1591
gesich	-11.1591
▁Strukt	-11.1593
Arbeitsplä	-11.1595
verbessern	-11.1595
▁hoch	-11.1595
ölke	-11.1597
gemessen	-11.1599
rmations	-11.1599
rtn	-11.16
erwal	-11.1602
vität	-11.1604
▁Landwirts	-11.1604
vorschrif	-11.1604
tref	-11.1605
flichtun	-11.1607
ndh	-11.1608
hang	-11.161
notwendige	-11.1611
nträ	-11.1611
▁Vertreter	-11.1611
ssend	-11.1613
herstell	-11.1613
verbun	-11.1613
ausgestatt	-11.1613
▁Ref	-11.1614
eschrieben	-11.1617
ivitä	-11.1617
▁spezie	-11.1619
speziel	-11.162
hine	-11.1622
enschaftlic	-11.1622
europäischer	-11.1622
sions	-11.1623
▁Folg	-11.1624
echnung	-11.1625
rundlegende	-11.1625
lim	-11.1626
mple	-11.1626
▁Initi	-11.1627
ime	-11.1627
▁sti	-11.1631
aktuel	-11.1634
allgem	-11.1634
kämpfung	-11.1635
ian	-11.1635
▁Transparenz	-11.1638
nforderun	-11.1638
lerdi	-11.1638
▁Kommissari	-11.1639
iels	-11.164
Landwirtsc	-11.164
llerd	-11.164
itarbei	-11.1641
rtschritte	-11.1641
ban	-11.1642
▁desse	-11.1642
emp	-11.1643
Qual	-11.1643
▁aktu	-11.1645
▁dav	-11.1645
▁spiel	-11.1646
irku	-11.1648
zunge	-11.1648
rhunder	-11.1648
ruch	-11.1651
▁Veranstalt	-11.1652
▁Kos	-11.1653
▁veröffentlicht	-11.1653
Kommissarin	-11.1654
erra	-11.1656
Initia	-11.1657
schriftl	-11.1659
Verwaltu	-11.1659
▁verbu	-11.1661
freundlic	-11.1662
▁Entschließungs	-11.1662
▁ausgestat	-11.1663
▁gleichz	-11.1664
größere	-11.1666
earbeit	-11.1667
tert	-11.1667
größt	-11.1668
anziel	-11.1669
ags	-11.167
Organi	-11.167
Tech	-11.1671
▁Nor	-11.1671
einbarung	-11.1672
davo	-11.1672
ereinbaru	-11.1672
inbar	-11.1673
gierungen	-11.1674
ance	-11.1675
egierunge	-11.1676
Tagesordnung	-11.1677
stitutionell	-11.1677
▁Ebe	-11.1678
staur	-11.1678
▁Bildung	-11.1678
enw	-11.1679
eiterun	-11.168
ugang	-11.168
lgend	-11.1682
ürf	-11.1684
oderne	-11.1686
nabhän	-11.1687
Benutzer	-11.1687
hoff	-11.1688
▁Internat	-11.1688
iterung	-11.1688
kos	-11.169
matische	-11.1692
rtlich	-11.1693
▁erg	-11.1694
sac	-11.1694
chwierigkeiten	-11.1695
mel	-11.1695
hrhunde	-11.1696
ahrhund	-11.1699
meis	-11.1699
erfolgt	-11.1702
omple	-11.1702
▁Glei	-11.1702
▁darin	-11.1702
▁anz	-11.1706
einzige	-11.1708
llst	-11.1708
▁kulturelle	-11.1709
▁schrift	-11.171
atsache	-11.1711
Wah	-11.1712
hlä	-11.1714
emb	-11.1715
altig	-11.1716
arm	-11.1717
beka	-11.1717
Veranstaltun	-11.1718
llgemeinen	-11.1719
Ausdruck	-11.1719
eutig	-11.172
▁Veranstaltu	-11.1721
ozialen	-11.1721
bezie	-11.1721
hzeit	-11.1721
▁gehört	-11.1721
▁Grunds	-11.1722
▁Ausdruc	-11.1723
nso	-11.1724
ufs	-11.1725
Transp	-11.1726
Auswirk	-11.1726
▁folgend	-11.1727
▁Auswir	-11.1727
▁traditionelle	-11.1728
▁verstehe	-11.1729
Tatsach	-11.1729
sverfahren	-11.173
▁Tatsac	-11.1731
▁französisch	-11.1731
scht	-11.1731
▁heraus	-11.1732
nisa	-11.1732
intere	-11.1733
institutione	-11.1734
▁ö	-11.1734
rderl	-11.1734
▁gehe	-11.1734
erpflichtungen	-11.1735
Eben	-11.1736
▁funktio	-11.1736
ves	-11.1736
atsäch	-11.1737
Ene	-11.1738
rgr	-11.1738
nves	-11.1739
gesell	-11.174
Angebot	-11.1745
kontroll	-11.1747
rikani	-11.1747
wege	-11.1748
ffi	-11.175
▁Notwendi	-11.175
Verordn	-11.1751
Notwendig	-11.1752
wesent	-11.1752
ewert	-11.1753
inschließli	-11.1753
Grundl	-11.1754
▁Angebo	-11.1757
edlic	-11.1758
eina	-11.1758
ntscheidende	-11.1758
eitnehmer	-11.1762
storisch	-11.1762
▁Friede	-11.1763
▁tech	-11.1763
beitnehme	-11.1763
niere	-11.1763
auszu	-11.1765
benötig	-11.1768
▁Internationale	-11.1769
ngenomm	-11.177
hilf	-11.1771
ermittel	-11.1772
▁benöti	-11.1772
Öffentlichke	-11.1772
Voraussetzung	-11.1773
▁Wachs	-11.1773
▁Verord	-11.1774
titio	-11.1776
Erge	-11.1776
ischere	-11.1777
tfe	-11.1777
verpflicht	-11.1778
erfügbar	-11.1779
erzie	-11.178
Roll	-11.1781
ordern	-11.1781
künfti	-11.1782
sentl	-11.1786
arü	-11.1788
stie	-11.1788
ramme	-11.1788
tware	-11.1788
thalte	-11.1788
▁einschl	-11.179
unabhängi	-11.1791
auß	-11.1792
ichs	-11.1792
beiter	-11.1792
ränk	-11.1793
Investi	-11.1796
institutionell	-11.1797
▁Zah	-11.1799
Internati	-11.18
erlä	-11.1801
langen	-11.1801
unktioni	-11.1801
ages	-11.1801
insic	-11.1802
einschließl	-11.1802
Ni	-11.1803
▁konzentrier	-11.1804
rgesch	-11.1804
technologi	-11.1806
merikani	-11.1807
erade	-11.1807
erikanis	-11.1807
▁erwar	-11.1808
ebene	-11.1808
rzeuge	-11.1809
▁kost	-11.1809
ginne	-11.181
unehm	-11.181
dabe	-11.181
▁berücksichtigen	-11.1811
istungs	-11.1811
▁Als	-11.1811
gesti	-11.1812
ernt	-11.1813
sicherhe	-11.1813
etzungen	-11.1815
etrach	-11.1815
▁dab	-11.1816
nannte	-11.1816
ase	-11.1817
egun	-11.1818
gischen	-11.1819
▁aufgenommen	-11.1819
zige	-11.182
▁Angel	-11.1822
Dis	-11.1823
Aber	-11.1825
uropäischer	-11.1825
Weis	-11.1826
ckelt	-11.1827
Hilf	-11.1828
rwalt	-11.1828
lusselwort	-11.183
tioni	-11.183
iati	-11.1833
eressen	-11.1833
hrs	-11.1834
▁schnelle	-11.1834
ssione	-11.1835
nkr	-11.1838
Flug	-11.1838
ausforderungen	-11.1838
eranstaltu	-11.1838
lisc	-11.1838
verpflichte	-11.184
rarbe	-11.184
▁Tec	-11.184
rade	-11.1842
entiert	-11.1843
ewerbs	-11.1845
stlich	-11.1845
anstaltung	-11.1845
ranstaltun	-11.1845
nik	-11.1846
▁solle	-11.1846
iedli	-11.1847
▁verantwo	-11.1847
eilu	-11.1847
rkei	-11.1848
Wor	-11.1848
erücksichtigt	-11.1849
Verpflichtungen	-11.1851
sfähigkeit	-11.1851
Haup	-11.1851
▁jeden	-11.1852
▁mehre	-11.1852
ebrac	-11.1854
aschine	-11.1854
ustel	-11.1855
zuneh	-11.1855
▁bit	-11.1856
▁verpflicht	-11.1856
isationen	-11.1857
ifte	-11.1858
verantwortl	-11.1858
hätte	-11.186
▁Krise	-11.1862
▁tu	-11.1862
kanis	-11.1862
chhalt	-11.1864
▁betre	-11.1864
enschenrechts	-11.1865
titutionelle	-11.1865
▁zwa	-11.1865
inform	-11.1866
▁Deu	-11.1867
avon	-11.1868
automatisch	-11.1869
onis	-11.1869
Nam	-11.1869
erstellen	-11.187
erstellung	-11.1871
nzeln	-11.1871
Qua	-11.1871
sönliche	-11.1871
wil	-11.1872
▁Aufenthalt	-11.1873
traditionell	-11.1876
▁Fried	-11.1877
ftigun	-11.1878
rvor	-11.1882
▁Rats	-11.1882
ftwar	-11.1883
abil	-11.1884
oftwa	-11.1884
ilun	-11.1885
nch	-11.1886
plätze	-11.1887
cheidend	-11.1888
ändl	-11.1888
festge	-11.1888
▁wesen	-11.1889
institution	-11.189
Sprache	-11.189
ersön	-11.189
▁festg	-11.1891
sönli	-11.1893
▁El	-11.1893
gehört	-11.1894
rsönl	-11.1894
Anf	-11.1895
Abgeo	-11.1895
dschaft	-11.1895
▁Herren	-11.1896
inheit	-11.1896
▁organisier	-11.1897
▁traditionel	-11.1897
estalt	-11.1898
oraus	-11.1899
radi	-11.19
Fü	-11.1901
Einführung	-11.1902
gelt	-11.1903
nfl	-11.1904
tlei	-11.1904
eihei	-11.1905
mmte	-11.1905
nitia	-11.1906
zentra	-11.1907
lleginne	-11.1908
rtnerschaft	-11.1909
lke	-11.1909
ettbewerbsf	-11.191
angenomm	-11.191
esic	-11.191
nachhalti	-11.191
▁deutsch	-11.1911
▁ba	-11.1912
bitt	-11.1913
▁Lissabon	-11.1913
ategorie	-11.1913
dru	-11.1913
ertreter	-11.1914
ieri	-11.1914
tschließungsantr	-11.1915
gren	-11.1916
iheit	-11.1917
ositiv	-11.1917
Projekte	-11.1918
▁Herausf	-11.1918
runds	-11.1919
berü	-11.192
denten	-11.192
sparen	-11.1922
haltig	-11.1923
Su	-11.1923
ußerd	-11.1924
▁Standa	-11.1925
▁hinsicht	-11.1927
stungs	-11.1927
▁nachhalt	-11.1927
gesicht	-11.1928
arf	-11.1929
hinsichtl	-11.1929
denken	-11.1931
wicklungslände	-11.1931
icklungsländer	-11.1932
chtsvorschri	-11.1932
rücks	-11.1933
erwendung	-11.1934
▁individuell	-11.1935
▁verein	-11.1935
chlusse	-11.1936
inkommen	-11.1936
Herausfo	-11.1938
Techno	-11.1938
Deut	-11.1939
▁hervorragen	-11.1939
fina	-11.194
ßerde	-11.194
▁persö	-11.1941
wortlich	-11.1941
chusse	-11.1941
erfas	-11.1941
Ebene	-11.1943
hler	-11.1943
bildun	-11.1943
▁vielle	-11.1945
antwortl	-11.1945
nstell	-11.1945
ntwortli	-11.1945
ngemessen	-11.1946
mli	-11.1948
rmit	-11.1948
enutzer	-11.195
hervorragend	-11.195
chwierigkeit	-11.1951
erbu	-11.1953
gründ	-11.1953
ehandlun	-11.1953
tivitäten	-11.1954
mehrer	-11.1955
rzi	-11.1955
hohe	-11.1956
estatt	-11.1958
echtlich	-11.196
freie	-11.196
▁Natur	-11.196
mmungen	-11.1962
▁Chin	-11.1962
dwirtsc	-11.1962
Angeleg	-11.1963
Zim	-11.1963
cheidungen	-11.1963
herung	-11.1963
dnet	-11.1964
▁überzeug	-11.1965
husses	-11.1966
▁Gro	-11.1967
ndwirts	-11.1967
endigkeit	-11.1967
sik	-11.1967
Standar	-11.1968
isku	-11.1968
▁unver	-11.1968
region	-11.1972
eka	-11.1973
ktivitäte	-11.1973
zeige	-11.1974
ährun	-11.1974
erfassun	-11.1975
lgende	-11.1975
▁Entschließungsa	-11.1976
geor	-11.1977
Fischere	-11.1977
elegenheite	-11.1977
▁Dar	-11.1978
▁to	-11.1978
Entschließungsan	-11.1979
▁posit	-11.1979
amerik	-11.1982
hich	-11.1982
Frieden	-11.1983
ikel	-11.1983
▁Verkehrs	-11.1983
▁Binnenma	-11.1985
tandpunkt	-11.1986
messen	-11.1989
andwi	-11.199
ense	-11.199
▁Zeitpunkt	-11.1991
▁denk	-11.1991
unds	-11.1991
▁ru	-11.1993
▁abs	-11.1993
▁diskutier	-11.1995
▁vorh	-11.1995
tegration	-11.1998
liefer	-11.1998
prog	-11.1998
▁angemesse	-11.1999
svorschrif	-11.2001
ehal	-11.2003
▁äußer	-11.2005
▁Vertret	-11.2006
usses	-11.2006
lgreich	-11.2007
nichts	-11.2008
rfolgre	-11.2008
vertrete	-11.2009
▁sicherzustellen	-11.2009
folgrei	-11.2009
verhinder	-11.2009
▁Aspekt	-11.201
▁Solidarität	-11.201
nagement	-11.201
▁Gene	-11.2011
▁Behandlung	-11.2012
Gericht	-11.2012
▁Gästebewertung	-11.2012
Än	-11.2013
verbe	-11.2013
ausschließlich	-11.2013
ausf	-11.2014
Absti	-11.2014
▁setz	-11.2015
ternehmens	-11.2015
leichen	-11.2015
▁Gerich	-11.2015
Präsidents	-11.2018
bericht	-11.2018
▁histori	-11.2018
Nu	-11.2018
anagemen	-11.2019
regionale	-11.202
▁vorgesehen	-11.2021
▁ble	-11.2022
▁führt	-11.2022
tue	-11.2023
▁hoh	-11.2023
▁Vergangenheit	-11.2023
Uns	-11.2025
▁intere	-11.2026
usgezeichnete	-11.2027
ertrau	-11.2027
▁schließlich	-11.2027
Steue	-11.2027
erzustellen	-11.2028
Freiheit	-11.2028
reih	-11.2028
enl	-11.2029
▁Freihei	-11.203
rankreich	-11.2031
ärkt	-11.2032
jekte	-11.2032
Mu	-11.2032
rdneten	-11.2033
ortlich	-11.2034
▁tei	-11.2034
scheint	-11.2036
Rechtsvorsch	-11.2037
grün	-11.2038
nierun	-11.2039
ngesich	-11.2039
▁verhinde	-11.2039
▁vere	-11.2039
▁Debat	-11.2039
ellungen	-11.2039
Standpunk	-11.204
▁Steu	-11.204
sts	-11.204
fähi	-11.204
llge	-11.204
abili	-11.2042
▁Organisationen	-11.2042
rpr	-11.2042
hisch	-11.2043
bsti	-11.2044
sserun	-11.2044
Debatt	-11.2045
rksamkeit	-11.2045
amerikan	-11.2046
derte	-11.2048
serung	-11.2048
demo	-11.205
beitspl	-11.205
ört	-11.205
line	-11.205
kün	-11.2051
▁ausgest	-11.2052
heru	-11.2053
chiedl	-11.2054
hiedli	-11.2056
insichtl	-11.2057
bestehende	-11.2059
haupt	-11.2059
Stabilität	-11.2061
▁Mona	-11.2062
zeichnete	-11.2062
▁Erweit	-11.2063
drück	-11.2063
▁durchge	-11.2064
gezeichne	-11.2064
bedi	-11.2065
ebenfa	-11.2065
Servi	-11.2066
Förderun	-11.2066
omatisch	-11.2066
spl	-11.2066
▁Staats	-11.2067
tsvorschrif	-11.2067
erordn	-11.2068
sspra	-11.2069
spezifische	-11.2069
▁Förderu	-11.207
gni	-11.2072
historis	-11.2072
gesamten	-11.2073
ratie	-11.2074
hterstatterin	-11.2074
ährlich	-11.2074
raditi	-11.2075
lichte	-11.2076
gerech	-11.2076
nstall	-11.2079
Qu	-11.2079
▁automatis	-11.2079
ewei	-11.2079
äst	-11.208
▁erziel	-11.208
▁positive	-11.2081
achhaltige	-11.2082
▁wissenschaft	-11.2083
Gesel	-11.2083
Lös	-11.2083
▁dürfe	-11.2084
emach	-11.2084
könnten	-11.2086
aditio	-11.2087
zentral	-11.2087
▁nutzen	-11.2087
Aktivitäten	-11.2088
▁Abg	-11.2088
ttl	-11.2089
chlüss	-11.209
▁betreffe	-11.2091
nstrumente	-11.2091
▁gehen	-11.2091
orb	-11.2091
anten	-11.2092
▁Aktivitäte	-11.2092
usgezeichn	-11.2092
tellunge	-11.2093
gehend	-11.2093
notw	-11.2093
[...]
